{"vocab": {"\n": 0, " ": 1, "\"": 2, "$": 3, "%": 4, "&": 5, "'": 6, "(": 7, ")": 8, "+": 9, ",": 10, "-": 11, ".": 12, "/": 13, "0": 14, "1": 15, "2": 16, "3": 17, "4": 18, "5": 19, "6": 20, "7": 21, "8": 22, "9": 23, ":": 24, ";": 25, "=": 26, "A": 27, "B": 28, "C": 29, "D": 30, "E": 31, "F": 32, "G": 33, "H": 34, "I": 35, "J": 36, "K": 37, "L": 38, "M": 39, "N": 40, "O": 41, "P": 42, "Q": 43, "R": 44, "S": 45, "T": 46, "U": 47, "V": 48, "W": 49, "Y": 50, "Z": 51, "[": 52, "]": 53, "^": 54, "a": 55, "b": 56, "c": 57, "d": 58, "e": 59, "f": 60, "g": 61, "h": 62, "i": 63, "j": 64, "k": 65, "l": 66, "m": 67, "n": 68, "o": 69, "p": 70, "q": 71, "r": 72, "s": 73, "t": 74, "u": 75, "v": 76, "w": 77, "x": 78, "y": 79, "z": 80, "°": 81, "Ö": 82, "á": 83, "â": 84, "í": 85, "ā": 86, "ī": 87, "Ś": 88, "ū": 89, "ə": 90, "ɦ": 91, "ɪ": 92, "ɾ": 93, "ʊ": 94, "ˈ": 95, "ː": 96, "ί": 97, "α": 98, "δ": 99, "ν": 100, "ς": 101, "ό": 102, "ऀ": 103, "ँ": 104, "ं": 105, "ः": 106, "ऄ": 107, "अ": 108, "आ": 109, "इ": 110, "ई": 111, "उ": 112, "ऊ": 113, "ऋ": 114, "ऌ": 115, "ऍ": 116, "ऎ": 117, "ए": 118, "ऐ": 119, "ऑ": 120, "ऒ": 121, "ओ": 122, "औ": 123, "क": 124, "ख": 125, "ग": 126, "घ": 127, "ङ": 128, "च": 129, "छ": 130, "ज": 131, "झ": 132, "ञ": 133, "ट": 134, "ठ": 135, "ड": 136, "ढ": 137, "ण": 138, "त": 139, "थ": 140, "द": 141, "ध": 142, "न": 143, "ऩ": 144, "प": 145, "फ": 146, "ब": 147, "भ": 148, "म": 149, "य": 150, "र": 151, "ऱ": 152, "ल": 153, "ळ": 154, "ऴ": 155, "व": 156, "श": 157, "ष": 158, "स": 159, "ह": 160, "ऺ": 161, "ऻ": 162, "़": 163, "ऽ": 164, "ा": 165, "ि": 166, "ी": 167, "ु": 168, "ू": 169, "ृ": 170, "ॄ": 171, "ॅ": 172, "ॆ": 173, "े": 174, "ै": 175, "ॉ": 176, "ॊ": 177, "ो": 178, "ौ": 179, "्": 180, "ॎ": 181, "ॏ": 182, "ॐ": 183, "॑": 184, "॒": 185, "॓": 186, "॔": 187, "ॕ": 188, "ॖ": 189, "ॗ": 190, "क़": 191, "ख़": 192, "ग़": 193, "ज़": 194, "ड़": 195, "ढ़": 196, "फ़": 197, "य़": 198, "ॠ": 199, "ॡ": 200, "ॢ": 201, "ॣ": 202, "।": 203, "॥": 204, "०": 205, "१": 206, "२": 207, "३": 208, "४": 209, "५": 210, "६": 211, "७": 212, "८": 213, "९": 214, "॰": 215, "ॱ": 216, "ॲ": 217, "ॳ": 218, "ॴ": 219, "ॵ": 220, "ॶ": 221, "ॷ": 222, "ॸ": 223, "ॹ": 224, "ॺ": 225, "ॻ": 226, "ॼ": 227, "ॽ": 228, "ॾ": 229, "ॿ": 230, "ఀ": 231, "ఁ": 232, "ం": 233, "ః": 234, "ఄ": 235, "అ": 236, "ఆ": 237, "ఇ": 238, "ఈ": 239, "ఉ": 240, "ఊ": 241, "ఋ": 242, "ఌ": 243, "఍": 244, "ఎ": 245, "ఏ": 246, "ఐ": 247, "఑": 248, "ఒ": 249, "ఓ": 250, "ఔ": 251, "క": 252, "ఖ": 253, "గ": 254, "ఘ": 255, "ఙ": 256, "చ": 257, "ఛ": 258, "జ": 259, "ఝ": 260, "ఞ": 261, "ట": 262, "ఠ": 263, "డ": 264, "ఢ": 265, "ణ": 266, "త": 267, "థ": 268, "ద": 269, "ధ": 270, "న": 271, "఩": 272, "ప": 273, "ఫ": 274, "బ": 275, "భ": 276, "మ": 277, "య": 278, "ర": 279, "ఱ": 280, "ల": 281, "ళ": 282, "ఴ": 283, "వ": 284, "శ": 285, "ష": 286, "స": 287, "హ": 288, "఺": 289, "఻": 290, "఼": 291, "ఽ": 292, "ా": 293, "ి": 294, "ీ": 295, "ు": 296, "ూ": 297, "ృ": 298, "ౄ": 299, "౅": 300, "ె": 301, "ే": 302, "ై": 303, "౉": 304, "ొ": 305, "ో": 306, "ౌ": 307, "్": 308, "౎": 309, "౏": 310, "౐": 311, "౑": 312, "౒": 313, "౓": 314, "౔": 315, "ౕ": 316, "ౖ": 317, "౗": 318, "ౘ": 319, "ౙ": 320, "ౚ": 321, "౛": 322, "౜": 323, "ౝ": 324, "౞": 325, "౟": 326, "ౠ": 327, "ౡ": 328, "ౢ": 329, "ౣ": 330, "౤": 331, "౥": 332, "౦": 333, "౧": 334, "౨": 335, "౩": 336, "౪": 337, "౫": 338, "౬": 339, "౭": 340, "౮": 341, "౯": 342, "౰": 343, "౱": 344, "౲": 345, "౳": 346, "౴": 347, "౵": 348, "౶": 349, "౷": 350, "౸": 351, "౹": 352, "౺": 353, "౻": 354, "౼": 355, "౽": 356, "౾": 357, "౿": 358, "ṅ": 359, "ṇ": 360, "ṣ": 361, "ṭ": 362, "Ἰ": 363, "–": 364, "—": 365, "†": 366, "′": 367, "₹": 368, "﻿": 369, " t": 370, "an": 371, "he": 372, "in": 373, " the": 374, "on": 375, "er": 376, "re": 377, "al": 378, " o": 379, "st": 380, "at": 381, "en": 382, "ar": 383, "di": 384, "and": 385, " c": 386, "ed": 387, " I": 388, " a": 389, " in": 390, " of": 391, " w": 392, "it": 393, " s": 394, " In": 395, " and": 396, "or": 397, " ,": 398, " p": 399, " b": 400, "ion": 401, "es": 402, " m": 403, " f": 404, "ic": 405, " Indi": 406, "is": 407, "ing": 408, "as": 409, "om": 410, "ent": 411, " l": 412, "्र": 413, "्य": 414, "ou": 415, " e": 416, " India": 417, " to": 418, " स": 419, " 1": 420, "ार": 421, " d": 422, "ur": 423, "ly": 424, " h": 425, "ec": 426, "न्": 427, " T": 428, " क": 429, " re": 430, "il": 431, " n": 432, " g": 433, " प": 434, "ra": 435, "th": 436, "ri": 437, " अ": 438, "ul": 439, "ol": 440, "్ర": 441, "ver": 442, "am": 443, " ప": 444, " C": 445, " A": 446, " .": 447, "र्": 448, "ation": 449, " B": 450, " S": 451, "ార": 452, "ve": 453, " 2": 454, "le": 455, "ro": 456, "ut": 457, "स्": 458, "ce": 459, " The": 460, " भ": 461, " is": 462, "ad": 463, "ist": 464, "ारत": 465, "ति": 466, "ాల": 467, "ge": 468, "im": 469, " व": 470, " Indian": 471, " by": 472, "म्": 473, "us": 474, "ast": 475, " be": 476, " 19": 477, " म": 478, "ig": 479, "रा": 480, "un": 481, "'s": 482, " th": 483, " స": 484, " P": 485, "ith": 486, "ir": 487, "id": 488, "ow": 489, "त्": 490, " r": 491, " M": 492, " క": 493, "uc": 494, "स्य": 495, "rom": 496, " with": 497, "et": 498, " for": 499, "00": 500, "ate": 501, " con": 502, "ment": 503, "లో": 504, " was": 505, "em": 506, "ang": 507, "ter": 508, "op": 509, "ies": 510, " wh": 511, "tion": 512, " द": 513, "్య": 514, "ान": 515, " mo": 516, " as": 517, "ain": 518, "res": 519, " from": 520, "ong": 521, " st": 522, "ac": 523, " (": 524, " भारत": 525, "िक": 526, " వ": 527, "est": 528, " మ": 529, " प्र": 530, " त": 531, " N": 532, "ts": 533, "ेश": 534, "her": 535, "ay": 536, "ical": 537, " ex": 538, "న్": 539, " H": 540, " D": 541, " E": 542, " it": 543, "se": 544, " G": 545, "ld": 546, " ह": 547, " on": 548, "या": 549, "ab": 550, "ది": 551, "um": 552, "దే": 553, "ak": 554, " di": 555, " an": 556, "gh": 557, "ill": 558, "art": 559, " च": 560, " न": 561, "దేశ": 562, "ich": 563, "त्र": 564, " or": 565, " ज": 566, " has": 567, " आ": 568, "స్": 569, "ర్": 570, "ial": 571, " 20": 572, "ిం": 573, "्व": 574, " रा": 575, "up": 576, "ud": 577, "ని": 578, "భార": 579, "der": 580, " which": 581, "భారత": 582, " ర": 583, "లు": 584, "ity": 585, " ब": 586, " are": 587, "ive": 588, " ప్ర": 589, "ित": 590, " वि": 591, " ग": 592, "oc": 593, " un": 594, "ult": 595, "ort": 596, "con": 597, "du": 598, "ure": 599, "el": 600, "oun": 601, " అ": 602, "ub": 603, "rit": 604, "ीय": 605, "li": 606, " के": 607, "ers": 608, "ना": 609, "ot": 610, " K": 611, " v": 612, "ाल": 613, "iv": 614, " इ": 615, "ary": 616, " inc": 617, " al": 618, "ष्": 619, " its": 620, "ere": 621, " com": 622, " cent": 623, "over": 624, "గా": 625, "ిక": 626, "ans": 627, "న్న": 628, " ए": 629, " W": 630, "ता": 631, " wor": 632, "end": 633, " de": 634, "ch": 635, "ag": 636, "ङ्": 637, "arge": 638, "ear": 639, " were": 640, "od": 641, "वि": 642, "मा": 643, "mp": 644, "our": 645, "ated": 646, " ఉ": 647, " श": 648, "In": 649, " Hin": 650, "os": 651, "The": 652, "नि": 653, "ें": 654, "क्": 655, " As": 656, "ant": 657, "age": 658, "ism": 659, "ish": 660, " ch": 661, "ap": 662, " sp": 663, " cont": 664, "र्व": 665, "भारत": 666, " at": 667, " pro": 668, "ance": 669, "ry": 670, "క్": 671, "og": 672, "ాయ": 673, " उ": 674, "outh": 675, "ous": 676, " int": 677, "ions": 678, "uring": 679, "ect": 680, " pl": 681, "fter": 682, "aj": 683, "overn": 684, "ough": 685, "ष्ट": 686, " R": 687, "िन्": 688, "ame": 689, "conom": 690, "eral": 691, "ass": 692, "av": 693, " భారత": 694, "देश": 695, " Ch": 696, " co": 697, "low": 698, " U": 699, " 201": 700, " में": 701, "దేశం": 702, "angu": 703, " देश": 704, "हा": 705, "ాత": 706, " सं": 707, " ar": 708, "if": 709, "ern": 710, " J": 711, " bec": 712, " le": 713, " part": 714, "ore": 715, "overnment": 716, "ను": 717, " है": 718, "श्": 719, "్ట": 720, "ृत": 721, " reg": 722, "mer": 723, " into": 724, "hi": 725, " centur": 726, " econom": 727, "any": 728, " large": 729, "illion": 730, " का": 731, "्या": 732, "కు": 733, "ాలు": 734, " చ": 735, "द्": 736, " mar": 737, " rel": 738, "ates": 739, "ress": 740, "था": 741, " జ": 742, "Indi": 743, "ia": 744, " world": 745, " form": 746, " langu": 747, " per": 748, " cl": 749, " ad": 750, "ces": 751, "ct": 752, "్వ": 753, "ेन": 754, "ज्य": 755, "न्ति": 756, "ండ": 757, " se": 758, " pop": 759, " sub": 760, " ag": 761, "ally": 762, " Hindu": 763, " k": 764, "stit": 765, "me": 766, "inist": 767, "ీయ": 768, "ine": 769, "ेण": 770, "ीत": 771, "ence": 772, " y": 773, "ution": 774, "ational": 775, "irst": 776, "qu": 777, "har": 778, " el": 779, " ఇ": 780, " 7": 781, "द्र": 782, " V": 783, "so": 784, "తి": 785, "ास": 786, "ిన": 787, "ian": 788, " Ind": 789, "India": 790, " popul": 791, "red": 792, "ave": 793, "ik": 794, "duc": 795, " first": 796, "all": 797, " during": 798, " government": 799, " \"": 800, "ष्ट्र": 801, " 5": 802, "ించ": 803, " -": 804, "क्ष": 805, "ంది": 806, "वा": 807, "ते": 808, "ाग": 809, " र": 810, " sh": 811, " ri": 812, " dec": 813, "ire": 814, " pri": 815, " sy": 816, "reas": 817, " tra": 818, "pp": 819, "lud": 820, "प्र": 821, "ok": 822, " वर्": 823, "స్త": 824, " स्": 825, "धान": 826, " य": 827, "ric": 828, " year": 829, "cc": 830, "reat": 831, " exp": 832, "ther": 833, " comp": 834, "ome": 835, "we": 836, " gen": 837, "dition": 838, "ber": 839, "ల్": 840, " F": 841, "धर्": 842, "ages": 843, " 3": 844, " 4": 845, "ound": 846, "dern": 847, "ved": 848, "ff": 849, "dh": 850, " art": 851, "gan": 852, " over": 853, "ign": 854, "row": 855, "ide": 856, " end": 857, "ew": 858, "oth": 859, "uch": 860, " includ": 861, "ection": 862, "न्त": 863, " ఆ": 864, "ద్": 865, "ral": 866, "igh": 867, "estern": 868, "used": 869, "upp": 870, " cons": 871, " became": 872, " res": 873, "stitution": 874, " inf": 875, "ajor": 876, " syst": 877, " system": 878, " century": 879, " also": 880, "రి": 881, " ल": 882, "ము": 883, "धर्म": 884, "రు": 885, " राष्ट्र": 886, "ों": 887, "षा": 888, " अस्": 889, "ep": 890, " సం": 891, " had": 892, " relig": 893, "mpire": 894, " pe": 895, " rul": 896, " but": 897, " been": 898, "atic": 899, "imal": 900, " have": 901, "ted": 902, " more": 903, " 202": 904, " న": 905, " త": 906, " L": 907, "ంత": 908, " 200": 909, " రా": 910, " )": 911, "सी": 912, " ద": 913, " अस्ति": 914, "ాన": 915, " South": 916, "eng": 917, "ord": 918, " me": 919, " tw": 920, "ural": 921, " after": 922, " million": 923, " class": 924, "mong": 925, "vers": 926, " im": 927, " num": 928, "ongress": 929, " भारतीय": 930, " औ": 931, "सं": 932, " బ": 933, "ంట": 934, "వి": 935, "భా": 936, " rep": 937, " और": 938, "तः": 939, "पि": 940, "स्त": 941, " गीत": 942, " most": 943, " O": 944, " lat": 945, " years": 946, " region": 947, " he": 948, " pol": 949, "ose": 950, "ulture": 951, " two": 952, " modern": 953, " increas": 954, " that": 955, "hm": 956, "vel": 957, "ens": 958, "ond": 959, " such": 960, "lo": 961, "ower": 962, " their": 963, " minist": 964, "िका": 965, "कृत": 966, "ount": 967, " 195": 968, " 196": 969, "तम": 970, "न्त्र": 971, "ాయి": 972, "CE": 973, " గ": 974, " अन": 975, "ారు": 976, "ङ्क": 977, "ust": 978, "षु": 979, "orth": 980, "tin": 981, " long": 982, " BCE": 983, " Bud": 984, " Buddh": 985, " soc": 986, "ef": 987, " sc": 988, "ures": 989, "anges": 990, " par": 991, " major": 992, " dis": 993, " tradition": 994, "ree": 995, " ;": 996, " both": 997, "sh": 998, "ren": 999, "ween": 1000, "ban": 1001, "rib": 1002, " ca": 1003, " Congress": 1004, " prime": 1005, " dance": 1006, " की": 1007, "ుత": 1008, "ైన": 1009, "िण": 1010, "ూడ": 1011, "ింది": 1012, "द्ध": 1013, "ार्": 1014, "दा": 1015, "ासन": 1016, "ङ्ग": 1017, "lic": 1018, " Asia": 1019, "istan": 1020, " cast": 1021, "ations": 1022, "hed": 1023, " population": 1024, " ter": 1025, "urban": 1026, "les": 1027, "ph": 1028, " not": 1029, "amil": 1030, " grow": 1031, " under": 1032, "ard": 1033, " ser": 1034, "ाम": 1035, "न्द्र": 1036, "मु": 1037, " ఎ": 1038, " 199": 1039, " पर": 1040, "కి": 1041, "ంగా": 1042, "थान": 1043, "ीप": 1044, " 18": 1045, "ach": 1046, "ाषा": 1047, "olog": 1048, "धिक": 1049, "ल्": 1050, " వి": 1051, "క్ష": 1052, "ంగ": 1053, " इति": 1054, "ధిక": 1055, "द्व": 1056, " से": 1057, " off": 1058, "ially": 1059, "ince": 1060, " east": 1061, "isation": 1062, "ni": 1063, " language": 1064, "aw": 1065, " supp": 1066, " nort": 1067, " caste": 1068, "ty": 1069, " this": 1070, " Empire": 1071, " Brit": 1072, " British": 1073, " began": 1074, "rough": 1075, "ament": 1076, "ucle": 1077, "uclear": 1078, " mil": 1079, "ari": 1080, " many": 1081, " app": 1082, "ory": 1083, " bet": 1084, " between": 1085, " urban": 1086, "ics": 1087, " te": 1088, " ra": 1089, " election": 1090, " minister": 1091, " j": 1092, " mus": 1093, " శ": 1094, "१९": 1095, "यो": 1096, " ఉన్న": 1097, "ाद": 1098, " राज्य": 1099, "టి": 1100, "000": 1101, "िम": 1102, "ण्": 1103, "िः": 1104, " It": 1105, " south": 1106, "out": 1107, " land": 1108, "akistan": 1109, " north": 1110, "sl": 1111, "contin": 1112, "continent": 1113, " rec": 1114, " ear": 1115, "vi": 1116, " norther": 1117, " northern": 1118, "ta": 1119, " economy": 1120, "lu": 1121, "versity": 1122, "ell": 1123, "ically": 1124, " Con": 1125, " sec": 1126, " ab": 1127, "als": 1128, "pt": 1129, "lowing": 1130, " fore": 1131, "velop": 1132, "ket": 1133, " fol": 1134, "ीन": 1135, "स्कृत": 1136, "कार": 1137, "),": 1138, "ిత": 1139, " ने": 1140, " CE": 1141, "పు": 1142, " సా": 1143, "ूर्व": 1144, "్చ": 1145, "िया": 1146, " '": 1147, "जन": 1148, "तन्त्र": 1149, " 6": 1150, "्च": 1151, "mon": 1152, " 194": 1153, "यः": 1154, "ली": 1155, "००": 1156, "ార్": 1157, "सीत्": 1158, "cy": 1159, " Beng": 1160, " Bengal": 1161, " Pakistan": 1162, " Chin": 1163, "esh": 1164, " An": 1165, " later": 1166, "omin": 1167, "ade": 1168, "merg": 1169, " western": 1170, "ins": 1171, " languages": 1172, "ya": 1173, "ite": 1174, "ugh": 1175, "ace": 1176, " rule": 1177, " Com": 1178, " influ": 1179, "ition": 1180, "ani": 1181, " tim": 1182, " rate": 1183, "odi": 1184, "ately": 1185, "ci": 1186, " peop": 1187, " en": 1188, " imp": 1189, " classical": 1190, "arn": 1191, " Un": 1192, "ai": 1193, "ular": 1194, " develop": 1195, "ited": 1196, " Sh": 1197, " among": 1198, " general": 1199, " largest": 1200, " music": 1201, " विश": 1202, "पु": 1203, "తో": 1204, "दि": 1205, "ుల": 1206, "త్": 1207, "ష్ట": 1208, " प्रा": 1209, "भू": 1210, " 8": 1211, "वर्": 1212, "రా": 1213, "ublic": 1214, " Pl": 1215, "वर": 1216, " హ": 1217, " देशः": 1218, "धर्मः": 1219, " इत्": 1220, " count": 1221, " since": 1222, " Th": 1223, " hum": 1224, " subcontinent": 1225, " lif": 1226, " life": 1227, "ise": 1228, " there": 1229, "ised": 1230, "ains": 1231, "unj": 1232, "unjab": 1233, " Mugh": 1234, " economic": 1235, "ative": 1236, "ech": 1237, " non": 1238, "ced": 1239, " increased": 1240, " lit": 1241, "orm": 1242, " mid": 1243, "itary": 1244, "ild": 1245, " hist": 1246, " spec": 1247, " ext": 1248, " people": 1249, "own": 1250, " peri": 1251, " period": 1252, "ting": 1253, " emp": 1254, "raph": 1255, "able": 1256, "esp": 1257, "arat": 1258, "ered": 1259, "ib": 1260, "imalay": 1261, "ice": 1262, " 2011": 1263, " स्व": 1264, "ध्य": 1265, " కూడ": 1266, " भाषा": 1267, "ట్ట": 1268, "त्व": 1269, "का": 1270, "भा": 1271, "ంలో": 1272, "స్థ": 1273, "गो": 1274, "ack": 1275, "महा": 1276, " को": 1277, " दि": 1278, " सा": 1279, "क्षिण": 1280, "राज्य": 1281, "णि": 1282, " दक्षिण": 1283, " विश्व": 1284, "ంద": 1285, " 12": 1286, " जन": 1287, "सिन्": 1288, "చ్చ": 1289, "ण्ड": 1290, "vent": 1291, " Isl": 1292, " than": 1293, " occ": 1294, " emerg": 1295, " Indus": 1296, "ird": 1297, "illen": 1298, "illenni": 1299, "illennium": 1300, " Sans": 1301, " Sansk": 1302, " Sanskrit": 1303, " social": 1304, " Ma": 1305, "lim": 1306, "ultan": 1307, " Punjab": 1308, " Sik": 1309, " Mughal": 1310, "ft": 1311, " East": 1312, "vement": 1313, " parli": 1314, " parliament": 1315, " liter": 1316, " nuclear": 1317, " state": 1318, "ected": 1319, " ref": 1320, "cient": 1321, "ron": 1322, "ood": 1323, "ever": 1324, "ities": 1325, "hen": 1326, " new": 1327, " set": 1328, "athe": 1329, " main": 1330, "ange": 1331, " power": 1332, "rol": 1333, "roc": 1334, "dic": 1335, " lead": 1336, " Al": 1337, " war": 1338, " Eur": 1339, " number": 1340, "tern": 1341, " Himalay": 1342, " one": 1343, " cour": 1344, " species": 1345, "पाल": 1346, "्त": 1347, " ఈ": 1348, "द्वीप": 1349, "యా": 1350, "ला": 1351, "ागर": 1352, " शासन": 1353, " 9": 1354, " 15": 1355, " ప్రా": 1356, " రాజ": 1357, " దేశ": 1358, " 197": 1359, "सा": 1360, " దేశం": 1361, "रु": 1362, " భారతదేశం": 1363, "तर": 1364, "नी": 1365, "विधान": 1366, " 198": 1367, "िय": 1368, "ంచ": 1369, " భా": 1370, " ఒ": 1371, " राज": 1372, " Indo": 1373, " Plate": 1374, "्यः": 1375, " वर्ष": 1376, " वर्त": 1377, " country": 1378, "large": 1379, "largest": 1380, " China": 1381, "ank": 1382, "aman": 1383, "ands": 1384, " river": 1385, " bas": 1386, " gra": 1387, "ivil": 1388, "ope": 1389, "la": 1390, " est": 1391, " Cent": 1392, " Del": 1393, " Comp": 1394, " col": 1395, " righ": 1396, " other": 1397, " 1950": 1398, " through": 1399, " billion": 1400, " US": 1401, " though": 1402, " military": 1403, "fe": 1404, " En": 1405, "rig": 1406, "dust": 1407, "ten": 1408, " including": 1409, " Ganges": 1410, " agric": 1411, " out": 1412, " them": 1413, "emp": 1414, "ograph": 1415, " caused": 1416, " Tamil": 1417, "iz": 1418, "gen": 1419, " up": 1420, " who": 1421, "til": 1422, "hes": 1423, " sur": 1424, " constitution": 1425, "ribut": 1426, "orts": 1427, "athem": 1428, "मे": 1429, "ने": 1430, " सर्व": 1431, " ల": 1432, "ట్": 1433, " ని": 1434, "్రీ": 1435, " మొ": 1436, "ష్ట్ర": 1437, "गा": 1438, "ాతీయ": 1439, " రై": 1440, " पु": 1441, " 17": 1442, "दन": 1443, "द्य": 1444, "ोक": 1445, " Wor": 1446, " World": 1447, " ते": 1448, "ब्": 1449, "शि": 1450, " స్": 1451, "ద్ధ": 1452, "్రి": 1453, "ులు": 1454, "ర్వ": 1455, "ఖ్య": 1456, "खा": 1457, " उत्": 1458, " వ్య": 1459, "ణా": 1460, " పే": 1461, "ాన్": 1462, "తర": 1463, " हैं": 1464, "ञ्च": 1465, "ालय": 1466, "धि": 1467, "णा": 1468, " पूर्व": 1469, " तस्": 1470, "heast": 1471, " no": 1472, " third": 1473, " millennium": 1474, " By": 1475, " pre": 1476, " polit": 1477, " wom": 1478, " religi": 1479, "uslim": 1480, " Central": 1481, " Delhi": 1482, "rew": 1483, " Sikh": 1484, " centuries": 1485, " Company": 1486, " gr": 1487, "duced": 1488, "put": 1489, " ne": 1490, "ording": 1491, " Eng": 1492, "lish": 1493, "ians": 1494, " wide": 1495, "ata": 1496, " second": 1497, "owever": 1498, " we": 1499, " sty": 1500, " found": 1501, "ments": 1502, " some": 1503, "ould": 1504, "ruc": 1505, " forest": 1506, " tr": 1507, " all": 1508, " led": 1509, " sign": 1510, "amp": 1511, "ocal": 1512, "ident": 1513, " far": 1514, " After": 1515, " dire": 1516, " National": 1517, " served": 1518, " rural": 1519, "ana": 1520, "read": 1521, "uj": 1522, " influen": 1523, " play": 1524, "rad": 1525, " St": 1526, "ru": 1527, " contribut": 1528, " mathem": 1529, "वी": 1530, "कि": 1531, "ల్ల": 1532, "్రా": 1533, "వా": 1534, "నే": 1535, "మైన": 1536, "ద్ద": 1537, "20": 1538, "दी": 1539, " 26": 1540, "भाग": 1541, "19": 1542, " 10": 1543, " सि": 1544, "%.": 1545, "क्त": 1546, "स्थान": 1547, "లి": 1548, " पा": 1549, "డి": 1550, "టు": 1551, "धु": 1552, "ండి": 1553, " जा": 1554, "ింద": 1555, "सागर": 1556, " प्रथ": 1557, " प्रथम": 1558, "भूम": 1559, " महा": 1560, "ूप": 1561, "ost": 1562, "सः": 1563, "देशः": 1564, " राग": 1565, "ादय": 1566, "वान्": 1567, " 1947": 1568, "west": 1569, "daman": 1570, "are": 1571, " made": 1572, " high": 1573, "verse": 1574, "led": 1575, " emerged": 1576, "alle": 1577, " Hinduism": 1578, " regions": 1579, " Jain": 1580, " political": 1581, " women": 1582, "dle": 1583, " religious": 1584, " coast": 1585, " Muslim": 1586, "mit": 1587, "ultanate": 1588, "ork": 1589, " culture": 1590, " us": 1591, " left": 1592, "acy": 1593, " Indians": 1594, " tech": 1595, " movement": 1596, " time": 1597, " cap": 1598, "ology": 1599, "ats": 1600, "ccording": 1601, " English": 1602, "ives": 1603, " histor": 1604, " eastern": 1605, " used": 1606, "day": 1607, " ent": 1608, " coal": 1609, " human": 1610, "eh": 1611, "ants": 1612, " fe": 1613, " —": 1614, " ass": 1615, " ac": 1616, " emplo": 1617, " employ": 1618, "ied": 1619, "rahm": 1620, " central": 1621, " control": 1622, "cri": 1623, " great": 1624, " trans": 1625, " they": 1626, "very": 1627, "ars": 1628, "omet": 1629, " Buddhist": 1630, "eration": 1631, "ors": 1632, " esp": 1633, " espec": 1634, " especially": 1635, " pain": 1636, " painting": 1637, " following": 1638, " indust": 1639, " Gand": 1640, " Gandhi": 1641, " territ": 1642, "au": 1643, " include": 1644, "und": 1645, " majority": 1646, " Prad": 1647, " Pradesh": 1648, " her": 1649, " areas": 1650, "ati": 1651, " Jan": 1652, " mem": 1653, "han": 1654, " growth": 1655, "ances": 1656, " cook": 1657, "ool": 1658, "ensus": 1659, " Hindi": 1660, " २": 1661, "పా": 1662, " స్థ": 1663, "డ్": 1664, "%,": 1665, "తా": 1666, "पर": 1667, "प्त": 1668, "నా": 1669, " ము": 1670, "నికి": 1671, " सम्": 1672, " అధిక": 1673, "ధ్య": 1674, " లో": 1675, " नाम": 1676, " ఉంది": 1677, " ఉన్నాయి": 1678, " सम": 1679, "से": 1680, "ड़": 1681, "श्च": 1682, "दु": 1683, "ived": 1684, " भू": 1685, " ఏ": 1686, " భ": 1687, "ue": 1688, " కా": 1689, "चार": 1690, " कर": 1691, "మా": 1692, ").": 1693, "दे": 1694, "्री": 1695, " कार": 1696, " तथा": 1697, " మార్": 1698, "వస్థ": 1699, " ఒక": 1700, "स्था": 1701, " రాష్ట్ర": 1702, " लोक": 1703, "భారతదేశం": 1704, "ह्": 1705, "विध": 1706, " 21": 1707, " मा": 1708, "िता": 1709, "ार्थ": 1710, " दिन": 1711, "ाणि": 1712, "संस्कृत": 1713, "नाथ": 1714, "तिः": 1715, "तत्": 1716, "డు": 1717, " एष": 1718, "भूमिः": 1719, "emoc": 1720, " Bang": 1721, "yan": 1722, "mar": 1723, " Its": 1724, " Andaman": 1725, "bar": 1726, " ago": 1727, " occup": 1728, "vol": 1729, "ving": 1730, "alley": 1731, " arch": 1732, "opean": 1733, " diff": 1734, " early": 1735, "ning": 1736, "ked": 1737, "lief": 1738, "oms": 1739, " cult": 1740, " arm": 1741, "work": 1742, " cre": 1743, " leg": 1744, "urn": 1745, " prom": 1746, " national": 1747, "ale": 1748, " fed": 1749, " parliamentary": 1750, "istic": 1751, " grew": 1752, "ually": 1753, " literacy": 1754, " Kas": 1755, " Kashm": 1756, " bi": 1757, " support": 1758, " Pers": 1759, " prov": 1760, " Constitution": 1761, " orig": 1762, "ained": 1763, " widely": 1764, " diversity": 1765, " animal": 1766, " These": 1767, " feat": 1768, " fig": 1769, " vill": 1770, "oin": 1771, " def": 1772, "ared": 1773, " religions": 1774, " Brahm": 1775, " bir": 1776, "ix": 1777, "rop": 1778, "amm": 1779, " roc": 1780, "minist": 1781, " dev": 1782, " man": 1783, "ert": 1784, "ering": 1785, " pen": 1786, " penins": 1787, " whose": 1788, " sm": 1789, "ific": 1790, "bers": 1791, "ines": 1792, "ites": 1793, " local": 1794, "ven": 1795, "cess": 1796, "ess": 1797, "leg": 1798, " direct": 1799, "ories": 1800, " states": 1801, " Himalayas": 1802, " ancient": 1803, " rem": 1804, "pur": 1805, " Guj": 1806, " dra": 1807, "ons": 1808, "ali": 1809, "JP": 1810, " Neh": 1811, " Nehru": 1812, " party": 1813, " last": 1814, "ody": 1815, " United": 1816, "ecut": 1817, "DP": 1818, " rates": 1819, " gar": 1820, " census": 1821, "icial": 1822, " marri": 1823, " scul": 1824, " sculpt": 1825, "సి": 1826, "్ల": 1827, "ారం": 1828, "..": 1829, " स्थान": 1830, "ెండ": 1831, "act": 1832, " పా": 1833, " మార్గ": 1834, " హింద": 1835, " వచ్చ": 1836, "धिकार": 1837, "षे": 1838, " हिन्": 1839, "यु": 1840, " संस्कृत": 1841, " केन्द्र": 1842, "ेद": 1843, "शत": 1844, "्ञ": 1845, " స్వ": 1846, "్రమ": 1847, "श्चिम": 1848, "र्वत": 1849, " ऐ": 1850, "्याय": 1851, "ిన్న": 1852, "తం": 1853, " శా": 1854, "బ్": 1855, "ానికి": 1856, "र्थ": 1857, "ధాన": 1858, "भ्य": 1859, "च्": 1860, "జాతీయ": 1861, " కూడా": 1862, "मुख": 1863, "रे": 1864, "ख्या": 1865, " नि": 1866, "ाला": 1867, " तत्": 1868, "हु": 1869, "र्ण": 1870, " मु": 1871, " विद्य": 1872, " पाकि": 1873, " उत्तर": 1874, "్మ": 1875, " 13": 1876, " 193": 1877, "ర్య": 1878, " क्र": 1879, "స్క": 1880, "व्य": 1881, " కో": 1882, " చె": 1883, "గు": 1884, "ప్ర": 1885, " एक": 1886, "ంత్ర": 1887, " कृत": 1888, "ाङ्क": 1889, " ind": 1890, "outheast": 1891, "ders": 1892, " Bh": 1893, " near": 1894, "ico": 1895, "ex": 1896, " within": 1897, " Buddhism": 1898, " rise": 1899, " During": 1900, " stat": 1901, "ined": 1902, " king": 1903, "ished": 1904, " sou": 1905, " souther": 1906, " southern": 1907, " inter": 1908, "ently": 1909, " created": 1910, " compos": 1911, " techn": 1912, " ed": 1913, " educ": 1914, " education": 1915, "ration": 1916, " federal": 1917, " republic": 1918, "ual": 1919, "iet": 1920, " become": 1921, "ality": 1922, "ising": 1923, " air": 1924, "urther": 1925, " Persian": 1926, " well": 1927, "ks": 1928, " Bhar": 1929, " origin": 1930, " cur": 1931, " popular": 1932, " Y": 1933, " earli": 1934, " forms": 1935, "ped": 1936, " z": 1937, "att": 1938, " cities": 1939, " Mo": 1940, " styles": 1941, "wn": 1942, " old": 1943, "eak": 1944, "ating": 1945, "ss": 1946, " agriculture": 1947, "ight": 1948, "alled": 1949, " based": 1950, "tions": 1951, "sequ": 1952, " rock": 1953, "mb": 1954, " administ": 1955, " along": 1956, "ively": 1957, " regional": 1958, "ake": 1959, " development": 1960, "ificant": 1961, " sch": 1962, " sultanate": 1963, "though": 1964, " men": 1965, "ists": 1966, " peninsular": 1967, "ract": 1968, "ung": 1969, " market": 1970, "oup": 1971, " commer": 1972, " bl": 1973, " pres": 1974, " longer": 1975, " sever": 1976, " There": 1977, " produc": 1978, "ternal": 1979, "cent": 1980, " industry": 1981, " won": 1982, " elections": 1983, " cr": 1984, " contin": 1985, " lower": 1986, " Gujarat": 1987, " Western": 1988, "ash": 1989, " low": 1990, "aksh": 1991, " cor": 1992, " union": 1993, "round": 1994, " right": 1995, " win": 1996, " mon": 1997, " often": 1998, " employed": 1999, " endem": 2000, "bal": 2001, " car": 2002, "ah": 2003, " Act": 2004, "tt": 2005, " BJP": 2006, "old": 2007, " 1991": 2008, " member": 2009, "tal": 2010, " execut": 2011, " GDP": 2012, "de": 2013, " 2001": 2014, "fore": 2015, "ath": 2016, " common": 2017, " mathematic": 2018, " Wik": 2019, " దక్ష": 2020, "పంచ": 2021, " ప్రాంత": 2022, " మత": 2023, " ఎన్న": 2024, " పార": 2025, " వ్యవస్థ": 2026, " పేరు": 2027, "ook": 2028, "ेक": 2029, " దేశాల": 2030, "गर": 2031, "िमालय": 2032, " ब्र": 2033, "सि": 2034, "गत": 2035, " बहु": 2036, "सभा": 2037, "के": 2038, " क्": 2039, "ासित": 2040, " अन्य": 2041, "కో": 2042, "త్వ": 2043, "ప్": 2044, "మి": 2045, "र्य": 2046, "న్ని": 2047, " చే": 2048, " Ar": 2049, "चीन": 2050, "ంబ": 2051, "త్య": 2052, " 14": 2053, "रूप": 2054, "ये": 2055, "క్కు": 2056, "్రం": 2057, " రాజ్య": 2058, "సు": 2059, "దాయ": 2060, " కే": 2061, " దక్షి": 2062, " ప్రపంచ": 2063, " పార్ట": 2064, " పార్టీ": 2065, "गीत": 2066, "शासन": 2067, "िख": 2068, " మధ్య": 2069, " ప్రధాన": 2070, " 50": 2071, " श्री": 2072, " पर्वत": 2073, " భారతీయ": 2074, " రైలు": 2075, "गोल": 2076, "ले": 2077, "मान": 2078, " १": 2079, " अनेक": 2080, "ात्": 2081, "डा": 2082, " स्थ": 2083, "चित": 2084, " मध्य": 2085, "माण": 2086, "रत": 2087, " सिन्": 2088, "ह्म": 2089, " पश्चिम": 2090, " नेपाल": 2091, "वस्था": 2092, "नाम": 2093, "सिद्ध": 2094, " 55": 2095, "కొ": 2096, "ున్న": 2097, " కు": 2098, " పు": 2099, "कर": 2100, "हर": 2101, "नः": 2102, "िखित": 2103, " పరి": 2104, "పాల": 2105, "వర": 2106, "కాల": 2107, " సి": 2108, " 11": 2109, " మొద": 2110, " కాల": 2111, "ిస్త": 2112, " అయ": 2113, " ప్రజ": 2114, "క్కువ": 2115, "భుత": 2116, "భుత్వ": 2117, " క్రీ": 2118, "ध्व": 2119, " భాష": 2120, "तमे": 2121, "सम": 2122, "నాభా": 2123, "భారతీయ": 2124, " హిందూ": 2125, " स्थाने": 2126, "दश": 2127, "सर्व": 2128, " रवी": 2129, "नै": 2130, " indep": 2131, " independ": 2132, " Ara": 2133, "ea": 2134, " bor": 2135, " west": 2136, "lad": 2137, "div": 2138, " Nico": 2139, " Nicobar": 2140, " Islands": 2141, "ail": 2142, " Af": 2143, "ather": 2144, "ett": 2145, " gradu": 2146, " Valley": 2147, " Civil": 2148, " record": 2149, "dian": 2150, "anted": 2151, " Jainism": 2152, " here": 2153, "upta": 2154, " fl": 2155, "abil": 2156, " kingd": 2157, " kingdoms": 2158, " Southeast": 2159, " Islam": 2160, "astri": 2161, " estab": 2162, "val": 2163, "ara": 2164, " changes": 2165, "mary": 2166, " domin": 2167, "sc": 2168, "oss": 2169, " mult": 2170, " 2023": 2171, " ann": 2172, " fast": 2173, " technology": 2174, " middle": 2175, " increasing": 2176, " Kashmir": 2177, " Among": 2178, " four": 2179, " wild": 2180, " vi": 2181, " prot": 2182, " term": 2183, " Bharat": 2184, " vari": 2185, " ren": 2186, "An": 2187, " thought": 2188, " earliest": 2189, " kn": 2190, "inc": 2191, " around": 2192, "akh": 2193, " char": 2194, " figures": 2195, " oldest": 2196, " trib": 2197, "ross": 2198, " plain": 2199, " when": 2200, " times": 2201, " Mah": 2202, " however": 2203, " differ": 2204, " eth": 2205, "ices": 2206, " conduc": 2207, " birth": 2208, "eograph": 2209, " empire": 2210, " tex": 2211, " his": 2212, " subsequ": 2213, " polic": 2214, "iss": 2215, " comple": 2216, " ta": 2217, " flow": 2218, "ature": 2219, " resp": 2220, "ti": 2221, "ded": 2222, " West": 2223, " growing": 2224, " small": 2225, " temp": 2226, " significant": 2227, " numbers": 2228, " every": 2229, "here": 2230, " so": 2231, " Asian": 2232, " vast": 2233, " leading": 2234, "tic": 2235, "ards": 2236, " again": 2237, " sup": 2238, " group": 2239, " Raj": 2240, " aff": 2241, " further": 2242, " consid": 2243, " Dal": 2244, " sum": 2245, "alth": 2246, " sa": 2247, "gu": 2248, "ided": 2249, " legis": 2250, " legisl": 2251, " plate": 2252, " appro": 2253, " approx": 2254, " approxim": 2255, " approximately": 2256, " spread": 2257, " ob": 2258, " upp": 2259, " upper": 2260, " This": 2261, " caus": 2262, " Plateau": 2263, " now": 2264, " remain": 2265, " surv": 2266, "can": 2267, "aput": 2268, "aputra": 2269, "ortant": 2270, "na": 2271, "line": 2272, " dist": 2273, " According": 2274, " territories": 2275, " pan": 2276, " De": 2277, " hig": 2278, "ock": 2279, " influenced": 2280, "atak": 2281, "pl": 2282, "ey": 2283, " endang": 2284, " endangered": 2285, " five": 2286, "erala": 2287, " Par": 2288, " held": 2289, " until": 2290, " Janu": 2291, " January": 2292, " leader": 2293, " 1965": 2294, " civil": 2295, " coalition": 2296, " sing": 2297, " formed": 2298, "ee": 2299, "dra": 2300, " Ass": 2301, " States": 2302, " village": 2303, " executive": 2304, "ouse": 2305, " port": 2306, " three": 2307, " court": 2308, " courts": 2309, "min": 2310, " Nad": 2311, " Nadu": 2312, "ese": 2313, " glo": 2314, " total": 2315, " estim": 2316, "orce": 2317, "ales": 2318, " ve": 2319, " famil": 2320, " families": 2321, " official": 2322, " developed": 2323, " school": 2324, " traditional": 2325, " sculpture": 2326, " traditions": 2327, " dances": 2328, " worn": 2329, "get": 2330, "ricket": 2331, " भी": 2332, " अव": 2333, " गण": 2334, " हु": 2335, " हो": 2336, "तु": 2337, "परा": 2338, " जि": 2339, " भाग": 2340, " ई": 2341, " య": 2342, "దు": 2343, "ప్ప": 2344, " 16": 2345, "ती": 2346, " क्षे": 2347, " क्षेत्र": 2348, "కా": 2349, "దా": 2350, "స్కృ": 2351, "क्र": 2352, " సాం": 2353, " సభ": 2354, "ాబ": 2355, "ोध": 2356, " ప్రభుత్వ": 2357, " द्व": 2358, "ెద్ద": 2359, " :": 2360, " चीन": 2361, "व्यवस्था": 2362, "शासित": 2363, " వచ్చింది": 2364, " భారతదేశ": 2365, "భారతదేశ": 2366, " దేశంలో": 2367, " ఇతర": 2368, "कृ": 2369, "back": 2370, "वं": 2371, " न्याय": 2372, "मि": 2373, "्ञान": 2374, "०००": 2375, "वार": 2376, "17": 2377, "पूर्व": 2378, "माज": 2379, "काश": 2380, " अधि": 2381, " हिन्दु": 2382, "सन्": 2383, "भारतीय": 2384, "१९४": 2385, "ग्र": 2386, " बा": 2387, " था": 2388, " प्राचीन": 2389, " परि": 2390, "राष्ट्र": 2391, "प्रा": 2392, "जय": 2393, "गण": 2394, "ుంది": 2395, " धर्म": 2396, "ाना": 2397, " सिन्धु": 2398, " ब्रह्म": 2399, "గి": 2400, "లం": 2401, " ద్వ": 2402, " స్థాన": 2403, "ణం": 2404, " ఉత్": 2405, "త్ర": 2406, "లా": 2407, " పట్ట": 2408, "ిల్ల": 2409, "ధించ": 2410, " జరి": 2411, " అధికార": 2412, " కేంద": 2413, "గర": 2414, " ను": 2415, " ఉంట": 2416, " రెండ": 2417, "లీ": 2418, "ौगोल": 2419, "ौगोलिक": 2420, " स्था": 2421, "न्य": 2422, "च्च": 2423, "परि": 2424, "ाखा": 2425, "मुद्र": 2426, " అతి": 2427, " ఆర్": 2428, "రువ": 2429, "రువాత": 2430, "వాణా": 2431, "जा": 2432, "ल्ल": 2433, " विधान": 2434, " हे": 2435, " पत्र": 2436, " जय": 2437, " మార్గాలు": 2438, " 28": 2439, "तत्त्व": 2440, "दः": 2441, "वः": 2442, "नम्": 2443, "वर्ण": 2444, "ेण्": 2445, " पञ्च": 2446, "मस्": 2447, "हो": 2448, "ड्": 2449, "विः": 2450, " 40": 2451, " मह": 2452, " सप्त": 2453, "लङ्क": 2454, "लङ्का": 2455, " स्त": 2456, "वत्": 2457, "हासः": 2458, " रचित": 2459, " पत्रिका": 2460, "सस्य": 2461, "कृत्य": 2462, " area": 2463, " democ": 2464, "bian": 2465, " Sea": 2466, " Nep": 2467, " Banglad": 2468, " Bangladesh": 2469, " Sri": 2470, " Mal": 2471, "ones": 2472, " Afric": 2473, " Africa": 2474, " Their": 2475, " pred": 2476, " diverse": 2477, " 1200": 2478, " recorded": 2479, " Dra": 2480, " Dravi": 2481, " Dravidian": 2482, " consol": 2483, " consolid": 2484, " lo": 2485, " Maur": 2486, " er": 2487, " era": 2488, " creat": 2489, " archit": 2490, " architect": 2491, " writ": 2492, "tou": 2493, "touch": 2494, "ability": 2495, " scri": 2496, " establ": 2497, " established": 2498, "mitt": 2499, " result": 2500, " resulting": 2501, "etwork": 2502, " religion": 2503, "anding": 2504, " turn": 2505, " rights": 2506, "ological": 2507, " intro": 2508, " public": 2509, " took": 2510, " influence": 2511, "viol": 2512, " partition": 2513, " acc": 2514, "ratic": 2515, " societ": 2516, " 1951": 2517, " capit": 2518, " reduced": 2519, "equ": 2520, "dit": 2521, " disput": 2522, " poll": 2523, "ga": 2524, "odiversity": 2525, "ots": 2526, "life": 2527, " traditionally": 2528, " der": 2529, "medi": 2530, "mediately": 2531, " Gree": 2532, " extens": 2533, "the": 2534, " name": 2535, "sha": 2536, "lied": 2537, " curren": 2538, " Hindust": 2539, "ring": 2540, "rial": 2541, " extant": 2542, "etic": 2543, " However": 2544, " known": 2545, " about": 2546, "arh": 2547, "aro": 2548, "avi": 2549, " features": 2550, "dis": 2551, " ste": 2552, "oci": 2553, " composed": 2554, " place": 2555, "sted": 2556, " invol": 2557, "aving": 2558, " fam": 2559, " being": 2560, "atical": 2561, " range": 2562, " called": 2563, "ified": 2564, " different": 2565, "ings": 2566, "ured": 2567, " conducted": 2568, "iving": 2569, " lay": 2570, " these": 2571, " history": 2572, " bri": 2573, "ining": 2574, " speak": 2575, "miss": 2576, "elf": 2577, " tax": 2578, " greater": 2579, " renew": 2580, "otion": 2581, " Va": 2582, " six": 2583, "ously": 2584, "erv": 2585, " agricult": 2586, " agricultural": 2587, " show": 2588, " Temp": 2589, " appear": 2590, "nam": 2591, "ays": 2592, "aries": 2593, " Although": 2594, " elites": 2595, " indi": 2596, " indigen": 2597, " indigenous": 2598, " str": 2599, " bu": 2600, "ortion": 2601, " pract": 2602, "ues": 2603, "itions": 2604, " commerc": 2605, " commercial": 2606, "erial": 2607, " process": 2608, " European": 2609, "ably": 2610, "ources": 2611, "van": 2612, "ely": 2613, " reform": 2614, "ie": 2615, " can": 2616, " pr": 2617, " directly": 2618, " lim": 2619, " decad": 2620, " decades": 2621, "struc": 2622, " gener": 2623, " consum": 2624, " relief": 2625, " War": 2626, "operation": 2627, " enac": 2628, " enacted": 2629, "ip": 2630, " All": 2631, " secular": 2632, " 70": 2633, " Gond": 2634, " crust": 2635, " Euras": 2636, " pil": 2637, "one": 2638, " continu": 2639, " continued": 2640, " Tib": 2641, " Tibet": 2642, "akes": 2643, " Thar": 2644, " Des": 2645, " che": 2646, "kh": 2647, " Dec": 2648, " Gh": 2649, " Ghats": 2650, " Constit": 2651, " equ": 2652, " Brahmaputra": 2653, "reme": 2654, "rish": 2655, "rishna": 2656, "ada": 2657, "ann": 2658, " others": 2659, " highe": 2660, " highest": 2661, "its": 2662, "abh": 2663, " summer": 2664, " sim": 2665, "ole": 2666, "ropical": 2667, " 2018": 2668, " ret": 2669, "arnatak": 2670, "arnataka": 2671, "ries": 2672, " fish": 2673, " nat": 2674, " exch": 2675, "vention": 2676, "oor": 2677, " Kerala": 2678, " 2022": 2679, "ched": 2680, "ttar": 2681, "Government": 2682, " centre": 2683, " Sing": 2684, " Singh": 2685, " body": 2686, "liance": 2687, " just": 2688, " single": 2689, " external": 2690, " 2026": 2691, " exc": 2692, "erc": 2693, " foreign": 2694, " head": 2695, " fund": 2696, " fundament": 2697, " fundamental": 2698, " Union": 2699, " serv": 2700, " div": 2701, " qu": 2702, " relations": 2703, " test": 2704, " addition": 2705, " Nuclear": 2706, "ternational": 2707, "tom": 2708, "erg": 2709, "ergy": 2710, " 2010": 2711, " nation": 2712, " global": 2713, " sect": 2714, " sector": 2715, " work": 2716, "orter": 2717, "ineering": 2718, " exports": 2719, " before": 2720, " estimated": 2721, " fem": 2722, " producer": 2723, " milk": 2724, " phar": 2725, " pharm": 2726, " pharmace": 2727, " pharmaceut": 2728, " pharmaceutical": 2729, "reasing": 2730, " cooking": 2731, "iqu": 2732, "umb": 2733, "umbai": 2734, " tea": 2735, " important": 2736, "abad": 2737, "ival": 2738, " below": 2739, "cast": 2740, " fest": 2741, " influences": 2742, " mathematics": 2743, "arnatic": 2744, "dram": 2745, "dramas": 2746, " sari": 2747, " wa": 2748, " waist": 2749, " commonly": 2750, "alw": 2751, "amee": 2752, "ameez": 2753, " wear": 2754, " cooked": 2755, " veget": 2756, " meat": 2757, "त्य": 2758, "42": 2759, " Pro": 2760, "ीव": 2761, " 185": 2762, " कार्य": 2763, " इस": 2764, "ंत्र": 2765, " जै": 2766, "ोप": 2767, "सू": 2768, " स्थित": 2769, "सार": 2770, "గ్": 2771, "ష్": 2772, " ऋ": 2773, " ५": 2774, "ీర్": 2775, "ాల్": 2776, "క్క": 2777, "धिकारिक": 2778, " मन": 2779, "ूल": 2780, " వా": 2781, " మహ": 2782, " కొ": 2783, "రో": 2784, " ఏర్": 2785, " किया": 2786, " బహ": 2787, "ీన": 2788, "టిక": 2789, " పాల": 2790, "గిన": 2791, "ౌక": 2792, "तन": 2793, " కలి": 2794, "జ్య": 2795, " దక్షిణా": 2796, "స్తాన్": 2797, " వంట": 2798, "బడ": 2799, "ందిన": 2800, "కీయ": 2801, " కాంగ": 2802, " కాంగ్ర": 2803, " కాంగ్రె": 2804, "గీ": 2805, " క్రీడ": 2806, "ुर": 2807, "ृद्ध": 2808, " కేంద్ర": 2809, " ఎక్కువ": 2810, " ముఖ్య": 2811, " అనే": 2812, " పాకి": 2813, "స్తుత": 2814, " అయిన": 2815, "ప్రదాయ": 2816, "200": 2817, " हिमालय": 2818, " आधिकारिक": 2819, " छ": 2820, "भाषा": 2821, " జనాభా": 2822, " పెద్ద": 2823, " ఎన్నో": 2824, " రవాణా": 2825, "ष्ण": 2826, "र्ष": 2827, "री": 2828, "वरी": 2829, " यु": 2830, " सु": 2831, " 30": 2832, "201": 2833, "भिन्": 2834, "भिन्न": 2835, " आन्": 2836, " तक": 2837, "ल्ली": 2838, "काल": 2839, "हि": 2840, " 25": 2841, " 0": 2842, "yp": 2843, " बौ": 2844, " बौद्ध": 2845, "वर्ष": 2846, "हित": 2847, " मूल": 2848, "यत": 2849, "ष्ठ": 2850, "ज्ञान": 2851, " ),": 2852, "की": 2853, " तु": 2854, " कारण": 2855, " नव": 2856, "पालिका": 2857, "थि": 2858, "ोत्": 2859, "राज": 2860, "ेस": 2861, " दश": 2862, " ति": 2863, "ధి": 2864, " ట": 2865, " ध": 2866, " मत": 2867, "धानी": 2868, " जात": 2869, "్యం": 2870, "ిత్ర": 2871, "ారి": 2872, "నాలు": 2873, " साथ": 2874, "ंध": 2875, "కుంట": 2876, "టం": 2877, " ఏర్ప": 2878, "క్రమ": 2879, " పర": 2880, " ప్రతి": 2881, "మీ": 2882, "సియా": 2883, " వే": 2884, "ంగ్ల": 2885, "ండు": 2886, "మే": 2887, "चि": 2888, "ిమ": 2889, "దం": 2890, "ద్ధి": 2891, "పించ": 2892, " మాత": 2893, " కార": 2894, "పతి": 2895, " సాధించ": 2896, "्रि": 2897, "लाल": 2898, "११": 2899, "దారు": 2900, " సరి": 2901, " సరిహ": 2902, " సరిహద్ద": 2903, "ండియా": 2904, "ావర": 2905, "లోని": 2906, " శాస్త": 2907, " రాజకీయ": 2908, "త్యధిక": 2909, " సిని": 2910, " సంగీ": 2911, " भरत": 2912, " स्वतन्त्र": 2913, " प्रधान": 2914, "पुत्र": 2915, "ाधिक": 2916, " सदन": 2917, " రాష్ట్రాల": 2918, " గల": 2919, " ఇది": 2920, " కాలంలో": 2921, " ప్రస్తుత": 2922, " చిన్న": 2923, "ిస్తారు": 2924, " తరువాత": 2925, " భారత్": 2926, " జాతీయ": 2927, " 36": 2928, "64": 2929, "21": 2930, "टि": 2931, "पुरा": 2932, "निक": 2933, "ृह": 2934, "मार्": 2935, "ब्र": 2936, " उल्": 2937, " वेद": 2938, "पद": 2939, "ट्": 2940, "ितम्": 2941, "मिन्": 2942, " विध": 2943, " विधा": 2944, "विधा": 2945, "मित": 2946, " आर्य": 2947, " Rep": 2948, " 300": 2949, " 42": 2950, " सर": 2951, "न्थ": 2952, "मी": 2953, "ोष": 2954, " बृह": 2955, "भागः": 2956, " अष्ट": 2957, "ब्ध": 2958, "ेऽ": 2959, "्यम्": 2960, "ध्वज": 2961, " पुण": 2962, "चार्य": 2963, "योजन": 2964, "र्ग": 2965, "दं": 2966, "सङ्": 2967, "सङ्ख्या": 2968, "नाना": 2969, " उद्": 2970, "द्वार": 2971, "वन्": 2972, " तम": 2973, " तेन": 2974, "दम्": 2975, " लिखित": 2976, "ानु": 2977, "शाला": 2978, "पङ्क": 2979, "नु": 2980, "कारः": 2981, " सङ्": 2982, " सङ्घ": 2983, "िणी": 2984, "पतिः": 2985, " आपरा": 2986, " आपराधिक": 2987, " नद": 2988, "गस्": 2989, "महो": 2990, "महोद": 2991, "महोदयः": 2992, "गीतम्": 2993, " अद्": 2994, " सम्प्र": 2995, " populous": 2996, " independence": 2997, "racy": 2998, "cean": 2999, " Arabian": 3000, " Bay": 3001, " borders": 3002, " Myan": 3003, " Myanmar": 3004, " Lank": 3005, " share": 3006, "ime": 3007, " Indones": 3008, " Indonesia": 3009, " predomin": 3010, " isol": 3011, " marg": 3012, " margins": 3013, " basin": 3014, " gradually": 3015, " Civilisation": 3016, "aic": 3017, "Eur": 3018, "European": 3019, " northwest": 3020, " hy": 3021, "nings": 3022, " suppl": 3023, " 400": 3024, "isen": 3025, "arly": 3026, " gave": 3027, " loose": 3028, "kn": 3029, " Maurya": 3030, " Gupta": 3031, "ivity": 3032, " architecture": 3033, " status": 3034, "touchability": 3035, " organ": 3036, " belief": 3037, " Mid": 3038, " Middle": 3039, " export": 3040, "pts": 3041, " cultures": 3042, "rist": 3043, "Zor": 3044, "Zoro": 3045, "Zoroastri": 3046, "Zoroastrian": 3047, "nd": 3048, " armies": 3049, "ran": 3050, " plains": 3051, " cos": 3052, "olit": 3053, "die": 3054, "dieval": 3055, " Sikhism": 3056, "ject": 3057, " institution": 3058, " expans": 3059, " relative": 3060, " rich": 3061, "onial": 3062, " sover": 3063, " sovere": 3064, " sovereign": 3065, " sovereignty": 3066, " slow": 3067, " introduced": 3068, "oted": 3069, " primary": 3070, " fact": 3071, " loss": 3072, " mig": 3073, " society": 3074, " nomin": 3075, " capita": 3076, " hub": 3077, " inform": 3078, " information": 3079, " pover": 3080, " poverty": 3081, " inequ": 3082, " inequality": 3083, " disputes": 3084, "ours": 3085, "onom": 3086, " child": 3087, " level": 3088, " wildlife": 3089, " supported": 3090, " protected": 3091, " hab": 3092, " habit": 3093, " prop": 3094, " immediately": 3095, " refer": 3096, " historical": 3097, " Greek": 3098, "rat": 3099, "pic": 3100, " originally": 3101, " North": 3102, " currency": 3103, "com": 3104, "pass": 3105, "passing": 3106, "resent": 3107, "esc": 3108, " reac": 3109, " reached": 3110, " lik": 3111, " init": 3112, "garh": 3113, "omest": 3114, "omestic": 3115, " animals": 3116, "eb": 3117, " catt": 3118, " cattle": 3119, "urred": 3120, " Mohen": 3121, " Mohenj": 3122, " Mohenjo": 3123, "daro": 3124, "hol": 3125, "eri": 3126, "ala": 3127, " charac": 3128, " character": 3129, " seals": 3130, " written": 3131, " script": 3132, " arts": 3133, "rac": 3134, " town": 3135, " past": 3136, " today": 3137, " associ": 3138, "Ary": 3139, "Aryan": 3140, " across": 3141, " sett": 3142, "ling": 3143, " setting": 3144, " ir": 3145, "lement": 3146, " dri": 3147, " bro": 3148, " broad": 3149, " parts": 3150, " would": 3151, " urbanisation": 3152, " varn": 3153, " those": 3154, " Buddha": 3155, "ressed": 3156, " could": 3157, " back": 3158, " Ash": 3159, " Ashok": 3160, " Ashoka": 3161, " texts": 3162, " Kal": 3163, "ense": 3164, " adop": 3165, " dh": 3166, " forests": 3167, "By": 3168, " administration": 3169, " devotion": 3170, " rather": 3171, " assert": 3172, " Pall": 3173, " Pallav": 3174, "aced": 3175, " god": 3176, " partic": 3177, "Me": 3178, " age": 3179, " cultural": 3180, " much": 3181, " cle": 3182, " classes": 3183, "itated": 3184, " pat": 3185, " Temple": 3186, " siz": 3187, " anot": 3188, " another": 3189, " eff": 3190, "une": 3191, " mer": 3192, " merch": 3193, " somet": 3194, " sometim": 3195, " sometimes": 3196, "After": 3197, " law": 3198, " laws": 3199, " sav": 3200, " vis": 3201, "ening": 3202, " strong": 3203, " came": 3204, "wards": 3205, " then": 3206, " practices": 3207, " tribal": 3208, "onds": 3209, " Ak": 3210, "lung": 3211, "ms": 3212, " policies": 3213, " reven": 3214, " revenues": 3215, " pa": 3216, "reg": 3217, " sil": 3218, " enter": 3219, "ger": 3220, " maint": 3221, " Marat": 3222, "has": 3223, " coll": 3224, " recog": 3225, " recogn": 3226, " fra": 3227, " increasingly": 3228, " compan": 3229, " companies": 3230, "oli": 3231, " stren": 3232, " streng": 3233, " strength": 3234, " att": 3235, " cruc": 3236, " crucial": 3237, " subsequent": 3238, " good": 3239, " goods": 3240, " inst": 3241, " Many": 3242, " consider": 3243, " having": 3244, " rail": 3245, " railw": 3246, " Europe": 3247, "ellion": 3248, " safe": 3249, "guard": 3250, " against": 3251, "ush": 3252, " marked": 3253, " dep": 3254, "ture": 3255, "pay": 3256, "ption": 3257, " provided": 3258, " crit": 3259, "rid": 3260, "alls": 3261, "ma": 3262, " vic": 3263, " vict": 3264, " decade": 3265, "ises": 3266, " fin": 3267, " lib": 3268, " liberal": 3269, "form": 3270, " pers": 3271, " viol": 3272, " sep": 3273, "ammu": 3274, "Geograph": 3275, "ulk": 3276, "af": 3277, "idly": 3278, "illed": 3279, "orn": 3280, "utes": 3281, " makes": 3282, " abo": 3283, " above": 3284, " lies": 3285, " Desert": 3286, " remaining": 3287, "pura": 3288, "harkh": 3289, "harkhand": 3290, " Deccan": 3291, " contains": 3292, "itud": 3293, " Himalayan": 3294, " rivers": 3295, " drain": 3296, "dient": 3297, " Krishna": 3298, " kil": 3299, " kilomet": 3300, " kilometres": 3301, " mi": 3302, "400": 3303, " bel": 3304, " belong": 3305, "akshad": 3306, "akshadwe": 3307, "akshadweep": 3308, "land": 3309, " consists": 3310, " 43": 3311, "arb": 3312, " latter": 3313, " coral": 3314, "oram": 3315, " surround": 3316, "anda": 3317, "ind": 3318, " do": 3319, "yth": 3320, " tree": 3321, " clim": 3322, "ds": 3323, " simil": 3324, " similar": 3325, " moist": 3326, " tropical": 3327, " cause": 3328, "ections": 3329, "Indian": 3330, " Karnataka": 3331, "achal": 3332, "Bi": 3333, " contain": 3334, " endemic": 3335, " mamm": 3336, " mammals": 3337, " displ": 3338, "uous": 3339, " exchange": 3340, " extin": 3341, " threat": 3342, "ened": 3343, "tre": 3344, " op": 3345, " black": 3346, " blackb": 3347, " recent": 3348, " 1935": 3349, " 1980": 3350, "mend": 3351, " added": 3352, " eight": 3353, " Bi": 3354, " Ram": 3355, "sar": 3356, " pur": 3357, " Park": 3358, " Mad": 3359, "arty": 3360, " Janata": 3361, "ahar": 3362, " office": 3363, " 1962": 3364, " chos": 3365, " chosen": 3366, " Indira": 3367, " She": 3368, " defe": 3369, "iber": 3370, " decla": 3371, "ency": 3372, " opp": 3373, " oppos": 3374, " ministers": 3375, " return": 3376, " 31": 3377, " Fron": 3378, " Front": 3379, " Chand": 3380, " min": 3381, " governments": 3382, " follow": 3383, " due": 3384, " Democ": 3385, "DA": 3386, "PA": 3387, "resident": 3388, " abs": 3389, "ute": 3390, " 2019": 3391, " 2024": 3392, "Dem": 3393, " Constitu": 3394, " Constituent": 3395, " Assem": 3396, " Assemb": 3397, " Assembly": 3398, " constitutional": 3399, " elected": 3400, "ees": 3401, "Ar": 3402, " Common": 3403, " coun": 3404, " jur": 3405, "uduc": 3406, "uducher": 3407, "uducherry": 3408, "ital": 3409, " Ter": 3410, "anipur": 3411, "kim": 3412, " becom": 3413, " becoming": 3414, " Non": 3415, "Al": 3416, " went": 3417, " 1960": 3418, " weap": 3419, " weapons": 3420, " signed": 3421, "ither": 3422, " Treat": 3423, " Treaty": 3424, "crimin": 3425, " use": 3426, "ble": 3427, "eter": 3428, " 2008": 3429, " energy": 3430, " aver": 3431, " average": 3432, "ographics": 3433, " trade": 3434, " eng": 3435, " engineering": 3436, " 2013": 3437, " cal": 3438, "force": 3439, " garlic": 3440, " top": 3441, "reen": 3442, " gas": 3443, " Bangal": 3444, " Bangalore": 3445, " colleg": 3446, " colleges": 3447, " resident": 3448, " residents": 3449, "edic": 3450, "91": 3451, " Mumbai": 3452, " speakers": 3453, " comprom": 3454, " compromise": 3455, "ii": 3456, " formal": 3457, "hedul": 3458, "heduled": 3459, " Ur": 3460, " Urdu": 3461, "riya": 3462, " Punjabi": 3463, " Tel": 3464, " promin": 3465, " bot": 3466, " bottom": 3467, "after": 3468, " (\"": 3469, " express": 3470, "hip": 3471, " impro": 3472, " schools": 3473, "HO": 3474, "reath": 3475, "ables": 3476, " very": 3477, " marriages": 3478, "anged": 3479, "rents": 3480, " natal": 3481, " band": 3482, " festival": 3483, "irt": 3484, " style": 3485, " Shiv": 3486, " Shiva": 3487, " sites": 3488, "anta": 3489, " bron": 3490, " bronz": 3491, " manus": 3492, " manuscri": 3493, "ov": 3494, " folk": 3495, " Yaksh": 3496, "angra": 3497, " mathematical": 3498, " transmit": 3499, " transmitted": 3500, " contributions": 3501, " conce": 3502, " examp": 3503, " example": 3504, " Hindustani": 3505, " Carnatic": 3506, " player": 3507, " Shank": 3508, " Shankar": 3509, "uk": 3510, "asi": 3511, " For": 3512, "oulder": 3513, "body": 3514, " garment": 3515, " shalw": 3516, " kameez": 3517, " cu": 3518, " chur": 3519, " churid": 3520, " churidars": 3521, " dishes": 3522, " eat": 3523, " eaten": 3524, "hess": 3525, " cricket": 3526, " Oly": 3527, " Olymp": 3528, " portal": 3529, " 78": 3530, " ﻿": 3531, " सरकार": 3532, "30": 3533, " काल": 3534, "धार": 3535, "book": 3536, " गा": 3537, " अनु": 3538, " यह": 3539, "ओं": 3540, " एवं": 3541, "स्ल": 3542, " सेना": 3543, " दे": 3544, "चल": 3545, " వర్": 3546, " నె": 3547, " सब": 3548, " सबसे": 3549, " १९": 3550, "కోవ": 3551, " ఆధ": 3552, "యో": 3553, " సమా": 3554, "ిక్": 3555, "ాతి": 3556, "గం": 3557, " బ్రి": 3558, "ంధ": 3559, "రణ": 3560, " సంస్కృ": 3561, " జన": 3562, " ఉప": 3563, " నే": 3564, " సిం": 3565, " బహు": 3566, "తంత్ర": 3567, "పూ": 3568, "ప్పటిక": 3569, "డ్డ": 3570, "తిక": 3571, " మొదల": 3572, "ాత్ర": 3573, "మంత": 3574, "ెలు": 3575, " మూడ": 3576, " సౌక": 3577, " సౌకర్య": 3578, " వె": 3579, "मत": 3580, " సామ": 3581, "ైనా": 3582, " పట్టణ": 3583, "ఢిల్ల": 3584, "ఢిల్లీ": 3585, "ాన్ని": 3586, " నడి": 3587, " ప్రాంతాలు": 3588, " రహ": 3589, " రహదారు": 3590, " రహదారుల": 3591, " వివి": 3592, " వివిధ": 3593, " ఇండియా": 3594, " రెండు": 3595, " ప్రము": 3596, " ప్రముఖ": 3597, " అత్యధిక": 3598, "చే": 3599, " 22": 3600, "शी": 3601, "स्त्र": 3602, "म्ब": 3603, " उप": 3604, "दान": 3605, "टी": 3606, "ंग्र": 3607, " Arch": 3608, " Archived": 3609, " वा": 3610, "35": 3611, " कु": 3612, "मो": 3613, "गम": 3614, "पाद": 3615, "फल": 3616, " थ": 3617, " बाद": 3618, " Way": 3619, " Wayback": 3620, " Mach": 3621, " Machine": 3622, " पार": 3623, "ंश": 3624, "ाधिकार": 3625, "श्र": 3626, "01": 3627, "80": 3628, " report": 3629, "anguages": 3630, "तिक": 3631, " उच्च": 3632, "ची": 3633, " १५": 3634, "रप": 3635, "लु": 3636, " );": 3637, " साम": 3638, " गया": 3639, "ीं": 3640, " कि": 3641, "बंध": 3642, " पुरा": 3643, "वे": 3644, "न्तर": 3645, " इस्ल": 3646, " इस्लाम": 3647, "ोल": 3648, "जित": 3649, " या": 3650, " अधिक": 3651, "िर": 3652, " नागर": 3653, " फ": 3654, " दो": 3655, "ించి": 3656, "వర్": 3657, " యు": 3658, " పో": 3659, "వే": 3660, "యం": 3661, "ూప": 3662, "పో": 3663, "డం": 3664, " అను": 3665, "సర": 3666, " పేర్": 3667, " పూ": 3668, "వల": 3669, "వు": 3670, "వత్": 3671, " సమ": 3672, " ఖ": 3673, "చు": 3674, " ఐ": 3675, "బా": 3676, "ంగం": 3677, " పద్ధ": 3678, "మించ": 3679, "ల్ప": 3680, " మన": 3681, "స్వా": 3682, "ముద": 3683, "ణి": 3684, " భూ": 3685, " పుట్ట": 3686, " దా": 3687, " గా": 3688, "షు": 3689, "రిత్ర": 3690, " సార": 3691, "హించ": 3692, "రాష్ట్ర": 3693, " ఎన్ను": 3694, " చేయ": 3695, "దేశాల": 3696, " తమి": 3697, " తమిళ": 3698, "१९४७": 3699, " ७": 3700, " మొదటి": 3701, " ప్రజా": 3702, " సింధ": 3703, "నీ": 3704, " అభ": 3705, " అభి": 3706, " చెంద": 3707, "ళ్ల": 3708, " పండు": 3709, "నుక": 3710, "చీన": 3711, " సర్వ": 3712, "మంత్రి": 3713, " నిర్వ": 3714, "కారం": 3715, " కోర్": 3716, " పరిశ": 3717, " బె": 3718, " जैन": 3719, " जन्": 3720, " जन्म": 3721, "ाली": 3722, "हिं": 3723, " प्रति": 3724, "गति": 3725, "त्त": 3726, " प्रकाश": 3727, " प्रचल": 3728, " विक": 3729, " विज्ञान": 3730, " ये": 3731, "निरप": 3732, "यन": 3733, "जि": 3734, " सौ": 3735, "हार्": 3736, "हार्द": 3737, " ఒకటి": 3738, " అనేక": 3739, " చైనా": 3740, " సరిహద్దు": 3741, " శతా": 3742, " శతాబ్": 3743, " శతాబ్దం": 3744, " నుండి": 3745, " స్వాత": 3746, " స్వాతంత్ర": 3747, " స్వాతంత్ర్య": 3748, " జరిగిన": 3749, " మొత్": 3750, " మొత్తం": 3751, " ఉంటాయి": 3752, " కూడిన": 3753, " తన": 3754, " ఆర్ధిక": 3755, " రాష్ట్రపతి": 3756, " ప్రభుత్వం": 3757, " కాంగ్రెసు": 3758, " వాత": 3759, " వాతావర": 3760, " వాతావరణం": 3761, " జాబ": 3762, " జాబిత": 3763, " జాబితా": 3764, " పట్టణాల": 3765, " నగర": 3766, " నగరాల": 3767, " రైల": 3768, " రైల్వ": 3769, " రైల్వే": 3770, " నడిపించ": 3771, " సంగీతం": 3772, "soon": 3773, "नगर": 3774, " ग्र": 3775, " अध": 3776, "खण्ड": 3777, " गो": 3778, "स्तु": 3779, "ग्": 3780, " गु": 3781, "स्कृ": 3782, "क्ति": 3783, "जीव": 3784, " नदी": 3785, " प्रमाण": 3786, "हिंसा": 3787, "बोध": 3788, " जल": 3789, "ात्म": 3790, "ात्मक": 3791, " वर्षा": 3792, "नव": 3793, "योग": 3794, "क्षे": 3795, "सूची": 3796, " दिव": 3797, " दिवस": 3798, " अप": 3799, " जो": 3800, " ज्ञ": 3801, " ज्ञा": 3802, "रम्": 3803, "म्प": 3804, " निक": 3805, "मन्त्र": 3806, "पुर": 3807, "ाव": 3808, "िष्ठ": 3809, " भौगोलिक": 3810, " विस्त": 3811, "ितीय": 3812, "ाचार": 3813, " जग": 3814, "पुराण": 3815, " चि": 3816, "इति": 3817, "रण": 3818, " अश": 3819, " अशोक": 3820, " पार्थ": 3821, " रो": 3822, "भेद": 3823, "तृ": 3824, "खर": 3825, "ार्म": 3826, "ार्मिक": 3827, " आर्थ": 3828, " आर्थिक": 3829, "हिमालय": 3830, " पत्": 3831, "ध्र": 3832, "लिखित": 3833, "हरु": 3834, " २८": 3835, "शक्त": 3836, " विद्यमान": 3837, " शाखा": 3838, "फे": 3839, "मुद्रा": 3840, " धर्": 3841, " धर्मा": 3842, " पथ": 3843, " छा": 3844, " डा": 3845, "नं": 3846, " राम": 3847, "प्रकाश": 3848, " Republic": 3849, " 74": 3850, "mers": 3851, "ustral": 3852, " Am": 3853, " 24": 3854, "24": 3855, " 500": 3856, "ढ़": 3857, " रूप": 3858, " घ": 3859, "राज्यम्": 3860, "्याम": 3861, "दृ": 3862, "िमा": 3863, "ोब": 3864, "ोबार": 3865, "ङ्गा": 3866, " ष": 3867, "थः": 3868, "तमेन": 3869, "शोध": 3870, "मन्": 3871, "विंश": 3872, "विंशति": 3873, "कर्ण": 3874, "ारः": 3875, "व्या": 3876, " ग्रन्थ": 3877, "ेसेण्": 3878, "ेसेण्ट": 3879, "ेसेण्टथि": 3880, "ेसेण्टथियो": 3881, "ेसेण्टथियोस": 3882, "ेसेण्टथियोसफ": 3883, "ेसेण्टथियोसफिक": 3884, "ेसेण्टथियोसफिकल": 3885, "१९४८": 3886, " वन्": 3887, "रच": 3888, " 100": 3889, "र्माण": 3890, " बृहत्": 3891, "सीमा": 3892, " समीप": 3893, " समुद्र": 3894, "कुर": 3895, "युत": 3896, "मुखा": 3897, "स्थानम्": 3898, "दस्": 3899, "शासनम्": 3900, " अष्टा": 3901, "पर्य": 3902, "मान्": 3903, " तृत": 3904, " तृतीय": 3905, "नमस्": 3906, "विष": 3907, "िनः": 3908, "्ना": 3909, "भरत": 3910, "यन्": 3911, "रब्ध": 3912, " तन्": 3913, " ५०००": 3914, " ५०००वर्": 3915, " ५०००वर्षे": 3916, " ५०००वर्षेभ": 3917, " ५०००वर्षेभ्यः": 3918, "ख्रि": 3919, "धौ": 3920, "तद्": 3921, "भौगोलिक": 3922, " माला": 3923, "द्वीपः": 3924, "भूता": 3925, " बर": 3926, "्मा": 3927, "भृत": 3928, "समृद्ध": 3929, "ेऽपि": 3930, "क्षेत्र": 3931, "शाखा": 3932, "न्याय": 3933, "संह": 3934, "संहिता": 3935, "बद्ध": 3936, "दधि": 3937, " स्वा": 3938, "हरलाल": 3939, "हरलालने": 3940, "हरलालनेहरु": 3941, "ीत्या": 3942, "क्षः": 3943, " प्रजा": 3944, "मेव": 3945, " शासनम्": 3946, " श्व": 3947, " श्वे": 3948, " श्वेत": 3949, "तस्": 3950, "िरः": 3951, "काः": 3952, "भव": 3953, "षय": 3954, "ख्यात": 3955, " पुण्य": 3956, "१९११": 3957, "१९११तमे": 3958, "समाज": 3959, "थम्": 3960, "तिप": 3961, "१९१९": 3962, "१९१९तमे": 3963, " कविः": 3964, "विद्य": 3965, "विद्यालय": 3966, " आह": 3967, " आह्व": 3968, " आह्वान": 3969, " चित्त": 3970, " मदन": 3971, "पल्ली": 3972, " सः": 3973, "ाचार्यः": 3974, "कविः": 3975, " जे": 3976, "नामा": 3977, " पत्नी": 3978, "चन": 3979, " छात्र": 3980, "र्तु": 3981, "शय": 3982, " अन्ति": 3983, " अन्तिम": 3984, " गी": 3985, " गीता": 3986, " रोमा": 3987, " ऐक": 3988, "कण्": 3989, "कण्ठ": 3990, "गायन": 3991, "मदन": 3992, "षित": 3993, "ग्ल": 3994, "ग्लान": 3995, "वादः": 3996, "रवी": 3997, " द्वितीय": 3998, "पुस्त": 3999, "पुस्तक": 4000, " रक्त": 4001, "दुर्ग": 4002, "डाय": 4003, "मेण्": 4004, " गीतम्": 4005, " रागः": 4006, "योजित": 4007, " जननी": 4008, "मय": 4009, "निः": 4010, " अनन्य": 4011, "चरण": 4012, "भावः": 4013, " धार्मिक": 4014, " यव": 4015, " democracy": 4016, " Ocean": 4017, " southwest": 4018, " Nepal": 4019, " Thail": 4020, " Thailand": 4021, "Mo": 4022, "Modern": 4023, " humans": 4024, " occupation": 4025, " isolation": 4026, " hun": 4027, " hunter": 4028, "gather": 4029, "gatherers": 4030, " highly": 4031, "ettled": 4032, " evol": 4033, " archaic": 4034, " diffused": 4035, " hym": 4036, " hymn": 4037, " hymns": 4038, "isting": 4039, " supplanted": 4040, " arisen": 4041, "laim": 4042, "laiming": 4043, " Early": 4044, "knit": 4045, "ires": 4046, " flour": 4047, "ishing": 4048, " creativity": 4049, " decl": 4050, " untouchability": 4051, " exported": 4052, " Christ": 4053, " Christian": 4054, " Christianity": 4055, " Jud": 4056, "aism": 4057, " Zoroastrian": 4058, " Zoroastrianism": 4059, " coasts": 4060, " overran": 4061, " Sultanate": 4062, " drew": 4063, " network": 4064, " medieval": 4065, " Vi": 4066, " Vij": 4067, " Vijay": 4068, " Vijayan": 4069, " Vijayanag": 4070, " Vijayanagara": 4071, "hered": 4072, " expansion": 4073, " peace": 4074, " expanding": 4075, " turned": 4076, " colonial": 4077, " 1858": 4078, " ide": 4079, " ro": 4080, " nationalist": 4081, " nonviol": 4082, " nonviolent": 4083, " factor": 4084, " ending": 4085, " independent": 4086, "major": 4087, "majority": 4088, " dominion": 4089, "scale": 4090, " migration": 4091, " accom": 4092, " govern": 4093, " democratic": 4094, " multi": 4095, "eth": 4096, "nic": 4097, " 361": 4098, " nominal": 4099, " income": 4100, " annually": 4101, "grow": 4102, "growing": 4103, " cost": 4104, " neigh": 4105, " neighb": 4106, " unres": 4107, " unresol": 4108, " unresolved": 4109, "econom": 4110, "economic": 4111, " fac": 4112, " gender": 4113, " rising": 4114, " levels": 4115, " pollution": 4116, " mega": 4117, " megadi": 4118, " megadiverse": 4119, " biodiversity": 4120, " hots": 4121, " hotsp": 4122, " hotspots": 4123, " view": 4124, "Ety": 4125, "Etym": 4126, "Etymology": 4127, "tionary": 4128, " Cl": 4129, " Class": 4130, " Classical": 4131, " Lat": 4132, "ret": 4133, " Ἰ": 4134, " Ἰν": 4135, " Ἰνδ": 4136, " Ancient": 4137, " Ri": 4138, " River": 4139, " Ach": 4140, " Acha": 4141, " Achaem": 4142, " Achaemen": 4143, " Old": 4144, "indh": 4145, ",\"": 4146, " Asians": 4147, " [": 4148, "aː": 4149, " ]": 4150, " applied": 4151, " gained": 4152, " mean": 4153, " meaning": 4154, " entire": 4155, "Hist": 4156, "History": 4157, "Ancient": 4158, "ased": 4159, "och": 4160, " data": 4161, " anat": 4162, " anatom": 4163, " 80": 4164, "ih": 4165, " vary": 4166, " only": 4167, "ils": 4168, "vid": 4169, "vidence": 4170, " Bal": 4171, "pro": 4172, "includ": 4173, "including": 4174, " bar": 4175, " occurred": 4176, "app": 4177, "avira": 4178, " characteristic": 4179, " included": 4180, " stand": 4181, " standar": 4182, " standardis": 4183, " standardised": 4184, " works": 4185, " pot": 4186, " terrac": 4187, " terracot": 4188, " terracotta": 4189, " Network": 4190, " towns": 4191, " villages": 4192, " pastor": 4193, " pastoral": 4194, "etween": 4195, " associated": 4196, " what": 4197, "sp": 4198, " nex": 4199, " next": 4200, " sw": 4201, "lements": 4202, " settlement": 4203, " may": 4204, " involved": 4205, " creating": 4206, " fami": 4207, " family": 4208, " mainly": 4209, "dif": 4210, "dified": 4211, " chap": 4212, "tell": 4213, " regist": 4214, " tak": 4215, " fort": 4216, " fortified": 4217, " varna": 4218, "millennium": 4219, " ethical": 4220, " systems": 4221, "violence": 4222, "ixed": 4223, " heredit": 4224, " hereditary": 4225, " living": 4226, "ronic": 4227, " beg": 4228, " begin": 4229, " beginnings": 4230, " geograph": 4231, " brief": 4232, " briefly": 4233, " hubs": 4234, " exce": 4235, " notable": 4236, " ins": 4237, "ptions": 4238, " produced": 4239, "ream": 4240, " Fol": 4241, " Following": 4242, " adopted": 4243, " subsequently": 4244, " policy": 4245, "mission": 4246, "erous": 4247, " edic": 4248, " edicts": 4249, "ote": 4250, " welf": 4251, " welfare": 4252, "illing": 4253, " dest": 4254, "mental": 4255, " historians": 4256, " emb": 4257, " complex": 4258, " Plain": 4259, " mod": 4260, " model": 4261, "upt": 4262, "sel": 4263, " refl": 4264, " flowering": 4265, " literature": 4266, " sci": 4267, " science": 4268, " Sang": 4269, " ruled": 4270, " Chol": 4271, " respect": 4272, " Ka": 4273, " Kaver": 4274, " Kaveri": 4275, " valley": 4276, "andy": 4277, " Pallavas": 4278, " Sim": 4279, " Simultan": 4280, " Simultane": 4281, " Simultaneously": 4282, " fav": 4283, " gods": 4284, " particular": 4285, " extensively": 4286, " able": 4287, " lands": 4288, " cleared": 4289, " make": 4290, " way": 4291, "tra": 4292, " ruling": 4293, "ences": 4294, " They": 4295, "yal": 4296, "yalty": 4297, " temples": 4298, " patron": 4299, " cit": 4300, " citiz": 4301, " citizens": 4302, " various": 4303, "where": 4304, "ili": 4305, " merchants": 4306, " initi": 4307, "orse": 4308, "aval": 4309, " united": 4310, " repe": 4311, " repeated": 4312, " repeatedly": 4313, "western": 4314, " event": 4315, " eventually": 4316, " Islamic": 4317, " largely": 4318, " own": 4319, " cust": 4320, "uls": 4321, " raid": 4322, " devast": 4323, " scen": 4324, " artists": 4325, " artis": 4326, " artisans": 4327, " syn": 4328, " build": 4329, " building": 4330, " portion": 4331, " rulers": 4332, " warri": 4333, " warriors": 4334, " did": 4335, "ead": 4336, " bal": 4337, "rative": 4338, "lus": 4339, "wing": 4340, " bonds": 4341, " Akbar": 4342, " emper": 4343, " emperor": 4344, " mand": 4345, " taxes": 4346, " lar": 4347, " larger": 4348, " markets": 4349, " literary": 4350, " textil": 4351, " New": 4352, "rent": 4353, " groups": 4354, " Rajput": 4355, " Rajputs": 4356, " Sikhs": 4357, "oration": 4358, " Ex": 4359, " commerce": 4360, " imperial": 4361, "ority": 4362, " late": 4363, " enab": 4364, " aut": 4365, " affa": 4366, " affair": 4367, " affairs": 4368, " presence": 4369, " coastal": 4370, "osts": 4371, " resources": 4372, " advan": 4373, " advanced": 4374, " attract": 4375, " company": 4376, "idel": 4377, " access": 4378, " size": 4379, " manu": 4380, " manuf": 4381, " manufact": 4382, " mat": 4383, " material": 4384, " materials": 4385, " ons": 4386, " onset": 4387, " severely": 4388, " effect": 4389, " appoin": 4390, " 184": 4391, "eneral": 4392, " ess": 4393, " essent": 4394, " essential": 4395, " dem": 4396, " railways": 4397, "duction": 4398, " Dis": 4399, "vas": 4400, "vasive": 4401, "sty": 4402, "style": 4403, " reforms": 4404, " har": 4405, " prin": 4406, " princes": 4407, " reb": 4408, " rebellion": 4409, "anded": 4410, " unitary": 4411, " limited": 4412, " safeguard": 4413, "uture": 4414, " 188": 4415, " hal": 4416, " half": 4417, " farmers": 4418, " depend": 4419, " dependent": 4420, "espite": 4421, " industrial": 4422, " generated": 4423, "ropp": 4424, " food": 4425, " consumption": 4426, "ressive": 4427, " self": 4428, "ule": 4429, "co": 4430, " 1930": 4431, " victories": 4432, " II": 4433, " push": 4434, " advent": 4435, " liberalisation": 4436, " transform": 4437, " transformed": 4438, " persist": 4439, " violence": 4440, " Na": 4441, " separat": 4442, " Jammu": 4443, " Nort": 4444, " Northeast": 4445, " territor": 4446, " territorial": 4447, "Geography": 4448, " bulk": 4449, "ying": 4450, "onic": 4451, " ge": 4452, " geolog": 4453, " super": 4454, " supercontinent": 4455, " Gondw": 4456, " Gondwana": 4457, "east": 4458, " spreading": 4459, " Eurasian": 4460, " obstruc": 4461, " she": 4462, " layer": 4463, "ets": 4464, "head": 4465, " zone": 4466, " mount": 4467, " stif": 4468, " stiff": 4469, "ick": 4470, " Tibetan": 4471, " rap": 4472, " rapidly": 4473, " sedi": 4474, " sediment": 4475, "stitutes": 4476, "Gange": 4477, "Gangetic": 4478, " original": 4479, " extend": 4480, " extends": 4481, " direc": 4482, " To": 4483, " survives": 4484, " Sat": 4485, " Satpura": 4486, " ranges": 4487, " chains": 4488, " run": 4489, " Nag": 4490, " Jharkhand": 4491, " flank": 4492, " Eastern": 4493, "uted": 4494, " fash": 4495, " latitud": 4496, " subst": 4497, " substant": 4498, " substantially": 4499, " Kos": 4500, " Kosi": 4501, " extreme": 4502, " extremely": 4503, " gradient": 4504, " flo": 4505, " flood": 4506, " prevent": 4507, " Nar": 4508, " coastline": 4509, " meas": 4510, " leng": 4511, " length": 4512, "94": 4513, " Lakshadweep": 4514, " rocky": 4515, " sho": 4516, " shores": 4517, " marsh": 4518, " marshy": 4519, " Sund": 4520, " Sundarb": 4521, " Sundarbans": 4522, " shared": 4523, "elag": 4524, "ls": 4525, " vol": 4526, " volcan": 4527, " panoram": 4528, " Tr": 4529, " Nanda": 4530, " Devi": 4531, " peak": 4532, " beh": 4533, " behind": 4534, "arlung": 4535, " Man": 4536, "adra": 4537, " Have": 4538, "limate": 4539, " strongly": 4540, " winds": 4541, " role": 4542, " June": 4543, " Oct": 4544, " Octo": 4545, " October": 4546, " climatic": 4547, " wet": 4548, " dry": 4549, "atures": 4550, " °": 4551, " proj": 4552, " present": 4553, "imachal": 4554, "Biodiversity": 4555, " countries": 4556, " habitat": 4557, " reptil": 4558, " amp": 4559, " amphi": 4560, " plant": 4561, "aps": 4562, " 34": 4563, " display": 4564, " endemism": 4565, " dense": 4566, " decid": 4567, " deciduous": 4568, " sal": 4569, " thorn": 4570, "ible": 4571, "string": 4572, " medic": 4573, "iant": 4574, "osa": 4575, "ought": 4576, " desc": 4577, "ision": 4578, " Eurasia": 4579, " Still": 4580, "oo": 4581, " pass": 4582, " contra": 4583, " vul": 4584, " vuln": 4585, " vulner": 4586, " vulnerable": 4587, " threatened": 4588, "edd": 4589, "des": 4590, " tig": 4591, " croc": 4592, " crocodi": 4593, " nearly": 4594, " extinct": 4595, " open": 4596, "lands": 4597, "zed": 4598, " blackbuc": 4599, " blackbuck": 4600, " cheet": 4601, " cheetah": 4602, " respon": 4603, " response": 4604, " 1972": 4605, " Fore": 4606, " amend": 4607, " amendments": 4608, "osp": 4609, "osphere": 4610, "erves": 4611, "ple": 4612, "orb": 4613, " Uttar": 4614, "akhand": 4615, " Cre": 4616, " gard": 4617, " garden": 4618, " Madh": 4619, "Polit": 4620, "Politics": 4621, " parties": 4622, "erally": 4623, "\")": 4624, " Party": 4625, " Jaw": 4626, " Jawahar": 4627, " Jawaharl": 4628, " Jawaharlal": 4629, " remained": 4630, " comf": 4631, " comfort": 4632, " comfortable": 4633, " died": 4634, " 1964": 4635, " Bah": 4636, " Shastri": 4637, " soon": 4638, " chose": 4639, " 1967": 4640, " 1971": 4641, " declared": 4642, "ending": 4643, " liber": 4644, " Emerg": 4645, " Emergency": 4646, " voted": 4647, " lasted": 4648, "aran": 4649, " returned": 4650, " Gold": 4651, " Golden": 4652, " Amrit": 4653, " Amritsar": 4654, " assass": 4655, " assassin": 4656, " assassinated": 4657, " 1984": 4658, " suc": 4659, " Rajiv": 4660, " alliance": 4661, " Lankan": 4662, " organisation": 4663, "ek": 4664, " intervention": 4665, " Ra": 4666, "year": 4667, " winning": 4668, " followed": 4669, " 1998": 4670, " Bihar": 4671, " Vaj": 4672, " Vajpay": 4673, " Vajpayee": 4674, " short": 4675, " El": 4676, " 1999": 4677, " Democratic": 4678, " Alliance": 4679, "Congress": 4680, "te": 4681, " NDA": 4682, " defeated": 4683, " President": 4684, " UPA": 4685, " 2009": 4686, " Modi": 4687, "ser": 4688, " uncom": 4689, " uncommon": 4690, " spe": 4691, " 1949": 4692, " Government": 4693, " frame": 4694, " framework": 4695, " exerc": 4696, " reser": 4697, " legislature": 4698, " hous": 4699, " houses": 4700, " Sabh": 4701, " Sabha": 4702, " deleg": 4703, " delegates": 4704, " members": 4705, " represent": 4706, "atives": 4707, " defin": 4708, " committ": 4709, "Artic": 4710, " Commonwe": 4711, " Commonwealth": 4712, " president": 4713, " seats": 4714, " house": 4715, "cil": 4716, " decis": 4717, " compr": 4718, " comprising": 4719, " supreme": 4720, " juris": 4721, " jurisdic": 4722, " jurisdiction": 4723, " involving": 4724, "ke": 4725, " down": 4726, "vene": 4727, " any": 4728, " action": 4729, " Puducherry": 4730, " Cap": 4731, " Capital": 4732, " Territ": 4733, " Territory": 4734, " Re": 4735, "organ": 4736, " ling": 4737, " bodi": 4738, " bodies": 4739, " city": 4740, "Ch": 4741, "disha": 4742, "angana": 4743, "Uttar": 4744, "Un": 4745, "Fore": 4746, "Foreign": 4747, " played": 4748, " Chinese": 4749, " Sikkim": 4750, "eas": 4751, " wars": 4752, " close": 4753, " So": 4754, " Sovi": 4755, " Soviet": 4756, " arms": 4757, " produ": 4758, " produce": 4759, " additional": 4760, "ground": 4761, "Prol": 4762, "Prolif": 4763, "Proliferation": 4764, " discrimin": 4765, "atory": 4766, " doc": 4767, "tr": 4768, " civilian": 4769, " agree": 4770, " rece": 4771, " International": 4772, " Agen": 4773, " Agency": 4774, " rest": 4775, "sia": 4776, " Can": 4777, "Econom": 4778, "Economy": 4779, " ten": 4780, " economies": 4781, " domestic": 4782, " output": 4783, "PP": 4784, " annual": 4785, " Dem": 4786, " historically": 4787, " fall": 4788, "idesp": 4789, "idespread": 4790, "side": 4791, " emphas": 4792, "lows": 4793, " Or": 4794, " Organ": 4795, " Organiz": 4796, " Organization": 4797, " lab": 4798, " 2017": 4799, " service": 4800, "100": 4801, " contributed": 4802, " 1985": 4803, " 2021": 4804, " nin": 4805, " ninth": 4806, " exporter": 4807, " pet": 4808, " calend": 4809, " several": 4810, " 2007": 4811, " Some": 4812, " workforce": 4813, " female": 4814, "fast": 4815, " At": 4816, " includes": 4817, " biot": 4818, " biotech": 4819, " ₹": 4820, " elect": 4821, "rical": 4822, " gig": 4823, " gigaw": 4824, " gigawat": 4825, " gigawatts": 4826, " renewable": 4827, " green": 4828, " greenh": 4829, " greenhouse": 4830, " emiss": 4831, " emissions": 4832, " Inc": 4833, " Increasing": 4834, " contributes": 4835, " Pal": 4836, "rin": 4837, "aus": 4838, "ause": 4839, " comm": 4840, " commun": 4841, " communities": 4842, "Demographics": 4843, " brough": 4844, " brought": 4845, " decreasing": 4846, " expect": 4847, " expectan": 4848, " expectancy": 4849, "75": 4850, " mort": 4851, " mortality": 4852, " live": 4853, " births": 4854, " whe": 4855, " whereas": 4856, " 41": 4857, " sex": 4858, " rati": 4859, " according": 4860, " females": 4861, " males": 4862, "emale": 4863, " fo": 4864, " foetic": 4865, " foeticide": 4866, " 63": 4867, " stud": 4868, " study": 4869, " dy": 4870, " 27": 4871, " 53": 4872, " Kol": 4873, " Kolk": 4874, " Kolkata": 4875, " Ahm": 4876, " Ahmed": 4877, " Ahmedabad": 4878, "Languages": 4879, " bre": 4880, " break": 4881, "down": 4882, " sole": 4883, "fficial": 4884, " international": 4885, " numeral": 4886, " numerals": 4887, " artic": 4888, "efin": 4889, "\".": 4890, " list": 4891, " scheduled": 4892, " Assam": 4893, " Assamese": 4894, " Bengali": 4895, " Gujarati": 4896, " Kann": 4897, " Kannada": 4898, " Kashmi": 4899, " Kashmiri": 4900, " Malay": 4901, " Malayal": 4902, " Malayalam": 4903, " Marathi": 4904, " Oriya": 4905, " Telu": 4906, " Telugu": 4907, " Nepali": 4908, " Manipur": 4909, " Kon": 4910, " Konk": 4911, " Konkani": 4912, " Sant": 4913, " each": 4914, " pap": 4915, " paper": 4916, "Rel": 4917, "Relig": 4918, "Religion": 4919, " Hind": 4920, " Hindus": 4921, " Muslims": 4922, "aith": 4923, " expression": 4924, " wors": 4925, " worship": 4926, "everal": 4927, " San": 4928, " Sarn": 4929, " pilg": 4930, " pilgri": 4931, " pilgrim": 4932, "teri": 4933, "terior": 4934, "athur": 4935, " percent": 4936, " percentage": 4937, " poin": 4938, " points": 4939, "ika": 4940, " affir": 4941, " affirm": 4942, " hon": 4943, " Dalit": 4944, "que": 4945, " former": 4946, " formerly": 4947, " Col": 4948, "lege": 4949, " founded": 4950, "ealth": 4951, "den": 4952, " tub": 4953, " tuberc": 4954, " tubercul": 4955, " tuberculos": 4956, " tuberculosis": 4957, " dise": 4958, " diseas": 4959, " disease": 4960, " breath": 4961, " breathing": 4962, " WHO": 4963, "ety": 4964, "Culture": 4965, " therefore": 4966, "castes": 4967, "ogam": 4968, "ogamy": 4969, " marry": 4970, " formally": 4971, " related": 4972, " parents": 4973, " divorce": 4974, " less": 4975, " bride": 4976, " married": 4977, " usually": 4978, " carved": 4979, " seal": 4980, " excav": 4981, " excavated": 4982, " best": 4983, " thereafter": 4984, " prob": 4985, " probably": 4986, "Over": 4987, " distin": 4988, " distinct": 4989, " figure": 4990, " give": 4991, "vara": 4992, " either": 4993, " cut": 4994, " reliefs": 4995, " Aj": 4996, " Ajanta": 4997, " generally": 4998, " artistic": 4999, " –": 5000, " saw": 5001, " dominance": 5002, " Cav": 5003, " Caves": 5004, " Ac": 5005, " bronze": 5006, " Nat": 5007, " Natar": 5008, " Nataraj": 5009, " Nataraja": 5010, " paintings": 5011, " ple": 5012, " inn": 5013, " innov": 5014, " everyday": 5015, "Bh": 5016, " Dance": 5017, "lit": 5018, " Vedic": 5019, " orally": 5020, " manuscript": 5021, " mathematicians": 5022, "rigon": 5023, "rigonomet": 5024, " cosine": 5025, " series": 5026, " sit": 5027, " sitar": 5028, " fil": 5029, " cin": 5030, " Sub": 5031, "athan": 5032, " sar": 5033, " playing": 5034, "Dance": 5035, "exts": 5036, "adem": 5037, "ademi": 5038, "aty": 5039, "atyam": 5040, " Chh": 5041, " Chhau": 5042, " Yakshag": 5043, " Yakshagana": 5044, "centur": 5045, "century": 5046, "cover": 5047, " Kath": 5048, " Kathak": 5049, " cloth": 5050, " shoulder": 5051, " dhot": 5052, " dhoti": 5053, " tun": 5054, " kur": 5055, " kurta": 5056, "ypically": 5057, " nar": 5058, " narrow": 5059, " pants": 5060, "ams": 5061, " occas": 5062, " occasions": 5063, " shalwar": 5064, " sports": 5065, " jac": 5066, " jacket": 5067, " jackets": 5068, " gro": 5069, " sport": 5070, "wan": 5071, " shaw": 5072, " shawl": 5073, "isine": 5074, " cere": 5075, " cereal": 5076, " savour": 5077, " savoury": 5078, " steam": 5079, " steamed": 5080, " bread": 5081, " spic": 5082, " vegetar": 5083, " vegetarian": 5084, " feature": 5085, " techni": 5086, " partially": 5087, " tand": 5088, " tandoor": 5089, " kh": 5090, " kho": 5091, " Chess": 5092, " Champ": 5093, " Cup": 5094, " Cups": 5095, " hock": 5096, " hockey": 5097, " gold": 5098, " Olympics": 5099, "dia": 5100, " web": 5101, " /": 5102, " बड़": 5103, " चु": 5104, " जिस": 5105, "ोग": 5106, "...": 5107, "46": 5108, "ile": 5109, " 29": 5110, " Fact": 5111, " Factbook": 5112, "पू": 5113, " समाज": 5114, " अन्त": 5115, " व्य": 5116, " अभ": 5117, " व्या": 5118, "ंड": 5119, "्रा": 5120, " मि": 5121, "ोड़": 5122, "ఖండ": 5123, "వుల": 5124, "ెట్": 5125, "హార": 5126, " మే": 5127, " గో": 5128, " దీ": 5129, " విశ": 5130, "ోళ": 5131, " సు": 5132, " ఫ": 5133, "మన": 5134, " ఆక్రమ": 5135, " లక్ష": 5136, "్యాయ": 5137, "తులు": 5138, " ఘ": 5139, "సా": 5140, " వై": 5141, "మె": 5142, "నిక": 5143, "ీర": 5144, "ిత్రక": 5145, "యాల": 5146, "ాస": 5147, "ాఖ": 5148, "న్మ": 5149, " ద్వీ": 5150, " ద్వీప": 5151, " సంఘ": 5152, " ఆధార": 5153, "ుతున్న": 5154, "రాస": 5155, "ంటే": 5156, "టీ": 5157, " వల": 5158, " గు": 5159, " సంవత్": 5160, "ాల్లో": 5161, "ాప": 5162, "ుకు": 5163, "త్వం": 5164, "వరి": 5165, "ద్య": 5166, " సభ్య": 5167, "లే": 5168, "ోర": 5169, " సంఖ్య": 5170, " సంక": 5171, "ూచ": 5172, " మా": 5173, "డే": 5174, "్లో": 5175, "మై": 5176, "మ్మ": 5177, "గే": 5178, "ెల": 5179, "స్వామ": 5180, "స్వామ్య": 5181, " కి": 5182, "దేశ్": 5183, " ఆఫ": 5184, " ఆఫ్": 5185, " నా": 5186, "ికత": 5187, " బ్రిటి": 5188, "ంప": 5189, "గంగా": 5190, "ట్లు": 5191, "ప్పటికీ": 5192, " లే": 5193, " పొ": 5194, " వార": 5195, " వారస": 5196, " చేస": 5197, " కార్య": 5198, " చరిత్ర": 5199, "ంచి": 5200, "దన": 5201, "వె": 5202, " కుటు": 5203, " కుటుంబ": 5204, "డ్డు": 5205, " రో": 5206, "ాలా": 5207, " పత": 5208, " క్య": 5209, "సై": 5210, " स्थाप": 5211, "दोल": 5212, "दोलन": 5213, "ेष": 5214, " २००": 5215, " పై": 5216, " పైగా": 5217, " ప్రపంచంలో": 5218, "పాలిత": 5219, " కలిగి": 5220, " పశ": 5221, " పశ్చ": 5222, " పశ్చిమ": 5223, " పాకిస్తాన్": 5224, " సామ్రా": 5225, " సామ్రాజ్య": 5226, "ుగా": 5227, " ఆర్థ": 5228, " ఆర్థిక": 5229, " అభివ": 5230, " అభివృ": 5231, " అభివృద్ధి": 5232, " వంటి": 5233, "లలో": 5234, " దక్షిణ": 5235, " ఉత్తర": 5236, " వచ్చిన": 5237, " శాస్త్రం": 5238, " ఢిల్లీ": 5239, " ప్రధానమంత్రి": 5240, " ప్రకారం": 5241, "మైనది": 5242, " అని": 5243, " కోర్టు": 5244, " మాత్రం": 5245, " సంప్రదాయ": 5246, " సంప్రదాయాల": 5247, "స్థాన్": 5248, " ప్రజల": 5249, " పాత్ర": 5250, " పరిశ్రమ": 5251, " మూడు": 5252, " ఉన్నారు": 5253, "%),": 5254, " భాషల": 5255, " అధికారిక": 5256, " రకాల": 5257, " సర్వీ": 5258, " సర్వీసు": 5259, " రైళ్ల": 5260, " పాక్": 5261, " సాంప్రదాయ": 5262, " చెందిన": 5263, " సినిమా": 5264, " బెంగా": 5265, " लि": 5266, " हुआ": 5267, "पूर्ण": 5268, " सिं": 5269, "धुनिक": 5270, " सह": 5271, "र्म": 5272, "युक्त": 5273, " हुई": 5274, "ंद्र": 5275, "न्न": 5276, "करण": 5277, " अर्थ": 5278, "प्": 5279, " युग": 5280, " शा": 5281, "ूर": 5282, "ेज": 5283, " रह": 5284, " केंद्र": 5285, "ँच": 5286, " ड": 5287, "07": 5288, "62": 5289, "04": 5290, "14": 5291, " ).": 5292, " सी": 5293, "वादी": 5294, " सू": 5295, " आधुनिक": 5296, " कृ": 5297, " नी": 5298, " प्राप्त": 5299, " शक्ति": 5300, " सर्वो": 5301, " सर्वोच्च": 5302, " थी": 5303, " समय": 5304, " दिया": 5305, " बना": 5306, " लिए": 5307, " हिन्दी": 5308, "पा": 5309, "हीं": 5310, "नाव": 5311, "23": 5312, "517": 5313, " 32": 5314, "63": 5315, "422": 5316, "40": 5317, "16": 5318, "199": 5319, " 82": 5320, "87": 5321, " 700": 5322, "\",": 5323, "Count": 5324, " BB": 5325, " BBC": 5326, "धी": 5327, " समा": 5328, " आधार": 5329, "श्मी": 5330, "श्मीर": 5331, " जीव": 5332, " उभ": 5333, " कृष": 5334, " वाल": 5335, "बा": 5336, " सार": 5337, " रू": 5338, "हिन्": 5339, "ंग्रेज": 5340, "स्तान": 5341, " बढ़": 5342, "ारा": 5343, " విస్త": 5344, "ీర్ణం": 5345, "స్థాన": 5346, " పార్": 5347, "బి": 5348, " పంచ": 5349, " శ్రీ": 5350, "టే": 5351, "టె": 5352, "మ్": 5353, " నాయ": 5354, "సం": 5355, "దర": 5356, " అవ": 5357, "ముఖ్య": 5358, " ఇవ": 5359, "రత": 5360, "మారు": 5361, "ర్ష": 5362, "లిచ": 5363, "తుల": 5364, "క్య": 5365, "గోళ": 5366, "బె": 5367, "న్నాయి": 5368, "సీ": 5369, "ద్ధం": 5370, "జి": 5371, " న్యాయ": 5372, "్యవస్థ": 5373, "ుతుంది": 5374, "క్షం": 5375, "ళ్": 5376, "ళ్ళ": 5377, " పేర్కొ": 5378, " మై": 5379, "ష్ణ": 5380, " కాశ": 5381, " కాశ్మ": 5382, "ూల": 5383, "ళి": 5384, " రంగ": 5385, " డ": 5386, "టా": 5387, " బా": 5388, " కల": 5389, "ందు": 5390, "గణ": 5391, " సంబ": 5392, "ూరు": 5393, " లా": 5394, "మతి": 5395, "కర": 5396, "స్తున్న": 5397, " నిర్": 5398, "మాన": 5399, " చి": 5400, " కథ": 5401, " టై": 5402, "ంటి": 5403, "ంక": 5404, "ట్ల": 5405, " సై": 5406, "క్తి": 5407, "టర్": 5408, "టర్ల": 5409, " సముద": 5410, "ారిత్రక": 5411, " ఉత్త": 5412, " ఉత్తరా": 5413, " హిమ": 5414, " హిమాల": 5415, "రే": 5416, " జన్మ": 5417, "ప్రా": 5418, " వైవి": 5419, " వైవిధ్య": 5420, "యింది": 5421, "కోవడం": 5422, " పరిపాల": 5423, "ాత్మ": 5424, "క్షరాస": 5425, "క్షరాస్య": 5426, "ినీ": 5427, "తరాల": 5428, "చ్చు": 5429, "భాగ": 5430, "నది": 5431, " గుర్": 5432, " గుర్త": 5433, "స్వ": 5434, " గణ": 5435, " సహ": 5436, " ఇంగ్ల": 5437, " వ్యాప": 5438, " తి": 5439, "భిన్న": 5440, " రాజ్యా": 5441, " పద": 5442, " పద్ధతి": 5443, " సంవత్సర": 5444, "ాక": 5445, "బడ్డ": 5446, " సూచ": 5447, " వహించ": 5448, "ుత్": 5449, " ఎన్ని": 5450, " ఎన్నిక": 5451, "డిన": 5452, " కుల": 5453, " పీ": 5454, " పీఠ": 5455, " ఉండ": 5456, "దాయం": 5457, " తక్కువ": 5458, "ికా": 5459, " భిన్న": 5460, " ముంబ": 5461, " పురు": 5462, " పురుష": 5463, "లిం": 5464, " జరు": 5465, " జరుపు": 5466, " కన్న": 5467, "శాఖ": 5468, " ప్రారం": 5469, " ప్రారంభ": 5470, "ోర్": 5471, " మనదేశం": 5472, "పిక్": 5473, "ెలవు": 5474, "దినాలు": 5475, " पुरु": 5476, " भूमि": 5477, " सभ्य": 5478, "वै": 5479, "शा": 5480, "दर्": 5481, "वंश": 5482, "णाली": 5483, " सां": 5484, "स्कृतिक": 5485, "सर": 5486, " कृषि": 5487, " हर": 5488, " सिंह": 5489, "५०": 5490, "ुष्": 5491, " ३": 5492, "रं": 5493, " ना": 5494, "टर": 5495, " ८": 5496, " प्रत्य": 5497, " माध्य": 5498, "ण्डल": 5499, " झ": 5500, "षी": 5501, " స్థానంలో": 5502, " ప్రజాస్వామ్య": 5503, " పాలన": 5504, " సమాఖ్య": 5505, " ముఖ్యమైన": 5506, " వాణి": 5507, " వాణిజ్య": 5508, " బంగ్ల": 5509, " బంగ్లా": 5510, " ఆఫ్ఘ": 5511, "నిస్తాన్": 5512, " సింధు": 5513, " నాగర": 5514, " నాగరికత": 5515, " బహుళ": 5516, " జాతి": 5517, " ప్రాంతాల": 5518, " ఒకే": 5519, " రాజ్యాల": 5520, " కంప": 5521, " కంపె": 5522, " కంపెనీ": 5523, " గాంధ": 5524, " గాంధీ": 5525, " స్వతంత్ర": 5526, " వేగంగా": 5527, " నాలు": 5528, " నాలుగు": 5529, " వీ": 5530, " వీటి": 5531, " జంబ": 5532, " జంబూ": 5533, "బడిన": 5534, " లేదా": 5535, " రాజు": 5536, " పొందిన": 5537, " ప్రాచీన": 5538, " మొట్ట": 5539, " మొట్టమ": 5540, " మొట్టమొ": 5541, " మొట్టమొద": 5542, " మొట్టమొదటి": 5543, " ఏర్పడ్డ": 5544, " సంస్కృతి": 5545, " సాంస్కృ": 5546, " సాంస్కృతిక": 5547, " వారసత్వ": 5548, " చేసింది": 5549, "బడింది": 5550, " మొదలైన": 5551, "పై": 5552, " భాగం": 5553, " మతాల": 5554, " దేశానికి": 5555, " కారణ": 5556, " కారణంగా": 5557, "లోను": 5558, " అధికారం": 5559, " నిర్వహ": 5560, " నిర్వహణ": 5561, " ద్వార": 5562, " ద్వారా": 5563, " ఉంటుంది": 5564, "కుంటారు": 5565, " ఇవి": 5566, " దాదా": 5567, " దాదాపు": 5568, " కలిసి": 5569, "ల్లో": 5570, " నుంచి": 5571, " కొన్ని": 5572, "రాష్ట్రాల": 5573, " శాస్త్ర": 5574, " శాస్త్రీయ": 5575, " సినిమ": 5576, " సినిమాలు": 5577, " మంది": 5578, "జనాభా": 5579, "వెనుక": 5580, "వెనుకటి": 5581, " కార్యక్రమ": 5582, " కార్యక్రమాల": 5583, " పండుగ": 5584, " హిందీ": 5585, " తెలు": 5586, " తెలుగు": 5587, " తమిళం": 5588, " ఇస్": 5589, " ఇస్లా": 5590, "ాబా": 5591, "ాబాద్": 5592, " దక్షిణాసియా": 5593, " ప్రతిపా": 5594, " ప్రతిపాదన": 5595, " శాఖ": 5596, " మార్గాల": 5597, " రోడ్డు": 5598, " కేవ": 5599, " కేవలం": 5600, " చాలా": 5601, " పరంగా": 5602, " క్రీడల": 5603, " పతకాల": 5604, " క్యాల": 5605, " క్యాలెండ": 5606, " క్యాలెండర్": 5607, " IS": 5608, " ISB": 5609, " ISBN": 5610, "సైటు": 5611, " अंग्रेज": 5612, " एश": 5613, " एशिया": 5614, "ंग": 5615, " हुए": 5616, " मै": 5617, "तंत्र": 5618, " संघ": 5619, " रहा": 5620, " कई": 5621, "ियों": 5622, " होता": 5623, " देशों": 5624, "िये": 5625, " चुनाव": 5626, "ोन": 5627, " सीमा": 5628, "तार": 5629, "भु": 5630, " वै": 5631, "देव": 5632, "ामि": 5633, "शेष": 5634, "दिक": 5635, "पश्चिम": 5636, "दर्श": 5637, "चा": 5638, " १२": 5639, " शास": 5640, " शासक": 5641, " क्रम": 5642, " विशाल": 5643, " १९४७": 5644, "टा": 5645, " निम्": 5646, " निम्न": 5647, " ठ": 5648, "डु": 5649, " क्रय": 5650, "ूह": 5651, " इसके": 5652, " साम्रा": 5653, " साम्राज्य": 5654, " करने": 5655, " प्रमुख": 5656, " बन": 5657, " करोड़": 5658, " अनुसार": 5659, "टे": 5660, "समें": 5661, " मान": 5662, " ख": 5663, " ऊ": 5664, "ड़ा": 5665, " नहीं": 5666, "क्षा": 5667, "ंत्री": 5668, " त्रि": 5669, "वर्त": 5670, " अत्य": 5671, " चर": 5672, "वैदिक": 5673, " गौ": 5674, "क्रम": 5675, " प्राय": 5676, " चे": 5677, " शास्त्र": 5678, "नो": 5679, " भो": 5680, " प्राप्": 5681, "माता": 5682, "ेल": 5683, "ब्ब": 5684, " द्र": 5685, "श्रेण": 5686, " २९": 5687, " अन्तर्": 5688, "त्तर": 5689, " नर्म": 5690, " मुम्ब": 5691, " मुम्बई": 5692, " जवा": 5693, " विधि": 5694, "पति": 5695, " न्य": 5696, "त्री": 5697, "मन": 5698, " द्वीप": 5699, "क्षि": 5700, "पक्ष": 5701, "जना": 5702, "कु": 5703, "सां": 5704, "स्व": 5705, " समान": 5706, "भाषी": 5707, " मैदान": 5708, " स्वतंत्र": 5709, " पह": 5710, " संबंध": 5711, " द्वारा": 5712, " ओ": 5713, " भाषाओं": 5714, " भा": 5715, " राष्ट्रीय": 5716, "ंग्रेस": 5717, " संविधान": 5718, " पार्": 5719, "युग": 5720, "लेख": 5721, "नौ": 5722, " वन्य": 5723, "ष्णु": 5724, " कथा": 5725, " ऋष": 5726, " ऋषभ": 5727, " आर": 5728, "प्राचीन": 5729, " ज्ञात": 5730, "वीर": 5731, " गौतम": 5732, " बु": 5733, " बुद्ध": 5734, "पदा": 5735, " उन्न": 5736, " मुक्त": 5737, " शक": 5738, "मध्य": 5739, " पुन": 5740, "लीप": 5741, " १२०": 5742, "ैव": 5743, "तं": 5744, "पिता": 5745, " संस्था": 5746, "ब्बत": 5747, "५००": 5748, "कीर्ण": 5749, "उत्तर": 5750, " स्थल": 5751, " श्र": 5752, " यमु": 5753, " यमुना": 5754, " गोदा": 5755, " सार्व": 5756, " कोल": 5757, " रूढ": 5758, "ेय": 5759, "सम्": 5760, "तान्त्र": 5761, "तान्त्रिक": 5762, " शासित": 5763, "तौ": 5764, " प्रत्यक्ष": 5765, "मन्त्री": 5766, "प्रधान": 5767, "रू": 5768, " युध": 5769, " सन्": 5770, " लक्ष": 5771, "१६": 5772, "अर्थ": 5773, "सव": 5774, "चित्र": 5775, " २००५": 5776, "रस": 5777, " ७४": 5778, "सूचित": 5779, "भूमि": 5780, "१९५०": 5781, "नागर": 5782, "वह": 5783, " पारि": 5784, " पारिवार": 5785, " पारिवारिक": 5786, "वन": 5787, " कथ": 5788, "हू": 5789, " गर": 5790, " अभि": 5791, " ध्य": 5792, " कीर्": 5793, " शत": 5794, " यत्": 5795, " वर": 5796, " वरिष्ठ": 5797, "बल": 5798, "शै": 5799, "ैक": 5800, "ters": 5801, "Austral": 5802, "Australian": 5803, " Mon": 5804, " Monsoon": 5805, "22": 5806, "500": 5807, " 72": 5808, "67": 5809, " 900": 5810, "wa": 5811, " 140": 5812, " Post": 5813, " Sum": 5814, " पाकिस्तान": 5815, " राजन": 5816, "द्योग": 5817, "ियाँ": 5818, " बहुत": 5819, " प्रदेश": 5820, "ाने": 5821, " नेतृ": 5822, " नेतृत्व": 5823, " ही": 5824, "मंत्री": 5825, " दशक": 5826, "ख्य": 5827, "ॉंग्रेस": 5828, " जनजा": 5829, " जनजाति": 5830, "उप": 5831, "श्चन": 5832, "गणराज्यम्": 5833, "तमो": 5834, " वङ्ग": 5835, "ान्त": 5836, " वङ": 5837, " वङग": 5838, " नार": 5839, " नारिक": 5840, " नारिकेल": 5841, " श्याम": 5842, "ब्रह्म": 5843, "श्या": 5844, " अङ्ग": 5845, "जम्ब": 5846, "जम्बु": 5847, "दृष्ट": 5848, "एष": 5849, "सिन्धु": 5850, "सभ्य": 5851, " मातृ": 5852, " चतु": 5853, " चतुर्": 5854, " तत्त्व": 5855, "विष्ट": 5856, " झर": 5857, "तुष्ट": 5858, "रै": 5859, "मतम्": 5860, "ष्टु": 5861, "तेन": 5862, "साम": 5863, " भव": 5864, "कम्प": 5865, " अधु": 5866, " अधुना": 5867, "वृद्ध": 5868, "पथ": 5869, "वस्त्र": 5870, " व्यय": 5871, " दशम": 5872, "द्वय": 5873, "केन्द्र": 5874, "पुरो": 5875, "गामि": 5876, "पञ्च": 5877, "यम": 5878, " वस": 5879, " वसन्त": 5880, "खण्डः": 5881, "कथा": 5882, " दुष्": 5883, "पालित": 5884, " चक्र": 5885, "वर्ती": 5886, "न्या": 5887, " विष्णु": 5888, " उक्त": 5889, " यथा": 5890, "....": 5891, "इत्": 5892, " हिमा": 5893, "चै": 5894, " तद्": 5895, " भारती": 5896, "ततिः": 5897, "मानव": 5898, " पुरातत्त्व": 5899, " ३४": 5900, " ३४०००": 5901, " इदान": 5902, " इदानी": 5903, " इदानीन्त": 5904, " इदानीन्तन": 5905, "तान": 5906, " भूता": 5907, "भूत": 5908, " अत्यन्त": 5909, " पुरातन": 5910, " २०००": 5911, "वेद": 5912, "लब्ध": 5913, " ५००": 5914, " उभय": 5915, "विस्त": 5916, "विस्ती": 5917, "विस्तीर्ण": 5918, "स्थाने": 5919, " ईश": 5920, " ईशान": 5921, "वृत": 5922, "दिशा": 5923, " बङ्ग": 5924, "लोप": 5925, " अण्ड": 5926, "निकोबार": 5927, "समु": 5928, "दायः": 5929, "यै": 5930, " प्रदेशः": 5931, " वाय": 5932, "पर्वत": 5933, "्रः": 5934, " पङ्क": 5935, "न्तरे": 5936, " काश्मीर": 5937, "र्यः": 5938, " पुष्": 5939, " पुष्प": 5940, " शो": 5941, " शोभ": 5942, " शोभन": 5943, "ोन्": 5944, " गङ्गा": 5945, "नद्": 5946, "ावली": 5947, "विन्": 5948, "विन्ध्य": 5949, "सात्": 5950, "श्रेण्यः": 5951, "नीतिः": 5952, "मानस": 5953, " षष्ठ": 5954, "च्य": 5955, "स्थाप": 5956, "स्थापित": 5957, " अस्त": 5958, "ाधि": 5959, "करणम्": 5960, "हत": 5961, " उच्": 5962, "स्थि": 5963, "स्थितिः": 5964, "दिल्ली": 5965, "स्र": 5966, "मुखः": 5967, " स्वक": 5968, " स्वकीय": 5969, "तया": 5970, " अधीन": 5971, "योजय": 5972, "सदः": 5973, "ालयः": 5974, " शी": 5975, " शीर्ष": 5976, "स्थः": 5977, "हवः": 5978, "नागरिक": 5979, "निर्माण": 5980, " स्थाप्य": 5981, "चित्": 5982, " एता": 5983, " एतादृ": 5984, " एतादृश": 5985, "जर": 5986, "दण्ड": 5987, "क्रिया": 5988, "ेऽथ": 5989, " ७३": 5990, " ७३तमेन": 5991, " ७४तमेन": 5992, "प्रणाली": 5993, "ीकृ": 5994, "सना": 5995, "सनातन": 5996, "वास्तु": 5997, "योगः": 5998, "वेदा": 5999, "वेदान्त": 6000, "हिन्दु": 6001, "मन्दि": 6002, "मन्दिरम्": 6003, "शोधनम्": 6004, "िणः": 6005, "पत": 6006, "क्री": 6007, "क्रीडा": 6008, " सूर्य": 6009, "मन्द": 6010, "िरा": 6011, " मण्डल": 6012, "स्वा": 6013, "त्वम्": 6014, "सप्त": 6015, "चत्": 6016, "वारि": 6017, "शततम": 6018, "मास": 6019, "दिन": 6020, "लभ": 6021, "जवा": 6022, " पञ्चा": 6023, " पञ्चाश": 6024, " षड्": 6025, "विंशतितम": 6026, "भौ": 6027, "भौम": 6028, "घोष": 6029, "ेन्द्र": 6030, " अध्य": 6031, " पुनर्": 6032, "विभागः": 6033, "धानम्": 6034, " बृहद्": 6035, "गात्र": 6036, "कम्": 6037, "कारा": 6038, "भूय": 6039, " कुर": 6040, "ाधिकारः": 6041, " न्यस्त": 6042, " देह": 6043, "नगरम्": 6044, "ध्वजः": 6045, "ङ्कित": 6046, "त्रो": 6047, "ध्वं": 6048, " केसर": 6049, "वर्णः": 6050, " हरित": 6051, " नील": 6052, "चक्र": 6053, "शीर्ष": 6054, "चिह्": 6055, "चिह्नम्": 6056, "सत्य": 6057, "वाक": 6058, "वाक्यम्": 6059, "प्राण": 6060, " व्याघ": 6061, " व्याघ्र": 6062, "पक्षी": 6063, " मय": 6064, " मयूर": 6065, "नद": 6066, " गङ": 6067, " गङगा": 6068, "धू": 6069, " गोदावरी": 6070, "कपि": 6071, "कपिल": 6072, " गज": 6073, "कर्णिका": 6074, " कावे": 6075, " कावेरी": 6076, "जला": 6077, "फला": 6078, " सस्य": 6079, "श्याम": 6080, "श्यामल": 6081, " दिलीप": 6082, "रथः": 6083, " पौ": 6084, " पौरा": 6085, " पौराण": 6086, " पौराणिक": 6087, "चिन्": 6088, "चिन्त": 6089, "चिन्तक": 6090, " कीर्तिः": 6091, " समु": 6092, "नय": 6093, " मन्त्र": 6094, " परम": 6095, " ज्ञान": 6096, "्मी": 6097, "व्यास": 6098, "नयः": 6099, "दीन": 6100, "कृष्ण": 6101, " अवतार": 6102, "पुरु": 6103, "पुरुष": 6104, " शङ्क": 6105, " शङ्कर": 6106, "राम": 6107, "ेश्व": 6108, "ेश्वर": 6109, "मध्व": 6110, " आचार्य": 6111, "त्रै": 6112, "तत्त्वम्": 6113, "ादि": 6114, "ात्मा": 6115, "गान्": 6116, "गान्धी": 6117, "मार्ग": 6118, "ेणैव": 6119, "पय": 6120, " काशी": 6121, " उडु": 6122, " तिरु": 6123, "बेसेण्टथियोसफिकल": 6124, "शता": 6125, "ोत्स": 6126, "ोत्सवः": 6127, " बेसेण्टथियोसफिकल": 6128, " तान": 6129, "१९४८तमे": 6130, " आचार": 6131, " वय": 6132, " वसा": 6133, "मः": 6134, "ञ्चन": 6135, " पोष": 6136, "ित्री": 6137, "वाङ्": 6138, " रम": 6139, " रम्य": 6140, "पूर्वा": 6141, " जैमि": 6142, " पाणि": 6143, "वयः": 6144, " कणा": 6145, "कः": 6146, " वरा": 6147, " वराह": 6148, "मिह": 6149, "भट": 6150, "भटः": 6151, "पुण": 6152, "पुण्य": 6153, "सम्प": 6154, "सम्पत्": 6155, " स्वर्ग": 6156, " वन्दन": 6157, " वन्दनीय": 6158, " पन्": 6159, "तन्त्रम्": 6160, " कोटि": 6161, "राजः": 6162, "सागरः": 6163, "तिब्बत": 6164, " निकोबार": 6165, " निकट": 6166, "देह": 6167, "मुख्य": 6168, " कोलक": 6169, " पुणे": 6170, "पुरातन": 6171, "रचना": 6172, "समूह": 6173, " उत्सव": 6174, " नैक": 6175, "परम्": 6176, "परम्परा": 6177, " विष": 6178, "रचय": 6179, "लेखनी": 6180, "यम्": 6181, "खात": 6182, "काले": 6183, "सिता": 6184, " उन्नत": 6185, "अवन": 6186, "अवनति": 6187, " सुवर्ण": 6188, "देशीय": 6189, " काले": 6190, " विस्तारः": 6191, " पद्": 6192, "धत": 6193, " गत": 6194, "यान": 6195, "योजनम्": 6196, " उपरि": 6197, "स्प": 6198, " गुरु": 6199, " मात": 6200, "गङ्गा": 6201, "नदी": 6202, "आधार": 6203, "ग्रन्थ": 6204, "समा": 6205, " ग्रन्थिः": 6206, "२७": 6207, "उल्": 6208, "लेखा": 6209, " offic": 6210, " officially": 6211, " sevent": 6212, " seventh": 6213, " Bound": 6214, " Bounded": 6215, " southeast": 6216, " sha": 6217, " shares": 6218, " Bhut": 6219, " Bhutan": 6220, " Lanka": 6221, " Maldiv": 6222, " Maldives": 6223, " marit": 6224, " maritime": 6225, " border": 6226, " arri": 6227, " arrived": 6228, " predominant": 6229, " predominantly": 6230, " Settled": 6231, " evolving": 6232, " daw": 6233, " dawnings": 6234, "existing": 6235, " proc": 6236, " proclaiming": 6237, " orders": 6238, " unl": 6239, " unlin": 6240, " unlinked": 6241, " heredi": 6242, " heredity": 6243, " consolidations": 6244, " Emp": 6245, " Empires": 6246, " flourishing": 6247, " writing": 6248, " declined": 6249, " organised": 6250, " scripts": 6251, " Judaism": 6252, " intermitt": 6253, " intermittently": 6254, " cosm": 6255, " cosmop": 6256, " cosmopolit": 6257, " cosmopolitan": 6258, " networks": 6259, "last": 6260, "lasting": 6261, " composite": 6262, " reject": 6263, " rejecting": 6264, " institutional": 6265, " institutionalised": 6266, " ushered": 6267, " architectural": 6268, " legacy": 6269, " Gra": 6270, " Gradu": 6271, " Gradually": 6272, " consolidated": 6273, " Crow": 6274, " Crown": 6275, " promised": 6276, " granted": 6277, " slowly": 6278, " technological": 6279, " ideas": 6280, " root": 6281, " movements": 6282, " Noted": 6283, " resist": 6284, " resistance": 6285, " 1920": 6286, " partitioned": 6287, " dominions": 6288, " unp": 6289, " unpre": 6290, " unpreced": 6291, " unprecedent": 6292, " unprecedented": 6293, " accomp": 6294, " accompani": 6295, " accompanied": 6296, " governed": 6297, " plural": 6298, " pluralistic": 6299, " multil": 6300, " multiling": 6301, " multilingual": 6302, "ethnic": 6303, "601": 6304, "weap": 6305, "weapon": 6306, " rank": 6307, " ranks": 6308, " expen": 6309, " expendit": 6310, " expenditure": 6311, " neighbours": 6312, " soci": 6313, " socio": 6314, " chall": 6315, " challeng": 6316, " challenges": 6317, " faces": 6318, " mal": 6319, " maln": 6320, " malnut": 6321, " malnutrit": 6322, " malnutrition": 6323, " viewed": 6324, " tol": 6325, " toler": 6326, " tolerance": 6327, " habitats": 6328, "According": 6329, " Ox": 6330, " Oxf": 6331, " Oxford": 6332, " Dic": 6333, " Dictionary": 6334, " proper": 6335, " noun": 6336, " derives": 6337, " Latin": 6338, " reference": 6339, " loosely": 6340, "def": 6341, "defined": 6342, " stret": 6343, " stretch": 6344, " stretching": 6345, " Further": 6346, " ety": 6347, " etymon": 6348, " etymons": 6349, " Hell": 6350, " Hellen": 6351, " Hellenistic": 6352, " Ἰνδί": 6353, " Ἰνδία": 6354, " Indos": 6355, " Ἰνδό": 6356, " Ἰνδός": 6357, " Achaemenian": 6358, " province": 6359, " Achaemenid": 6360, " Sindh": 6361, " Sindhu": 6362, "river": 6363, " specif": 6364, " specifically": 6365, " extension": 6366, "settled": 6367, " Greeks": 6368, " referred": 6369, " Indoi": 6370, "'.": 6371, " Bhā": 6372, " Bhārat": 6373, " pron": 6374, " pronoun": 6375, " pronounced": 6376, " ˈ": 6377, " ˈb": 6378, " ˈbɦ": 6379, " ˈbɦaː": 6380, " ˈbɦaːɾ": 6381, " ˈbɦaːɾə": 6382, " ˈbɦaːɾət": 6383, " ment": 6384, " mention": 6385, " mentioned": 6386, " epic": 6387, " po": 6388, " poet": 6389, " poetry": 6390, " variations": 6391, " render": 6392, " rendering": 6393, " Bharatav": 6394, " Bharatavar": 6395, " Bharatavarsha": 6396, " native": 6397, "Hin": 6398, "Hindust": 6399, "Hindustan": 6400, " ɦ": 6401, " ɦɪ": 6402, " ɦɪnd": 6403, " ɦɪndʊ": 6404, " ɦɪndʊˈ": 6405, " ɦɪndʊˈst": 6406, " ɦɪndʊˈstaː": 6407, " ɦɪndʊˈstaːn": 6408, " Hindustan": 6409, " varied": 6410, " referring": 6411, " encom": 6412, " encompassing": 6413, "present": 6414, " entirety": 6415, "Based": 6416, " coalesc": 6417, " coalescence": 6418, " Mit": 6419, " Mitoch": 6420, " Mitochond": 6421, " Mitochondrial": 6422, " DN": 6423, " DNA": 6424, " Chrom": 6425, " Chromos": 6426, " Chromosome": 6427, " line": 6428, " lineages": 6429, " anatomically": 6430, " Hom": 6431, " Homo": 6432, " sap": 6433, " sapi": 6434, " sapiens": 6435, " likel": 6436, " likelih": 6437, " likelihood": 6438, " initially": 6439, " varying": 6440, " genetic": 6441, " foss": 6442, " fossils": 6443, " date": 6444, " Evidence": 6445, " neol": 6446, " neolith": 6447, " neolithic": 6448, " Meh": 6449, " Mehr": 6450, " Mehrgarh": 6451, " Baloch": 6452, " Balochistan": 6453, " dates": 6454, " 7000": 6455, " Domestic": 6456, " Domestication": 6457, " grain": 6458, "produc": 6459, "producing": 6460, " plants": 6461, " barle": 6462, " barley": 6463, " humped": 6464, " zeb": 6465, " zebu": 6466, " evolved": 6467, " flourished": 6468, " 2500": 6469, "1900": 6470, " Centred": 6471, " Har": 6472, " Harapp": 6473, " Harappa": 6474, " Dhol": 6475, " Dholavira": 6476, " Gan": 6477, " Ganw": 6478, " Ganweri": 6479, " Ganweriw": 6480, " Ganweriwala": 6481, " Rakh": 6482, " Rakhig": 6483, " Rakhigar": 6484, " Rakhigarhi": 6485, " weigh": 6486, " weights": 6487, " steat": 6488, " steatite": 6489, " plan": 6490, " planning": 6491, " cra": 6492, " craf": 6493, " crafts": 6494, " potter": 6495, " pottery": 6496, " statu": 6497, " statuett": 6498, " statuettes": 6499, " Networks": 6500, " agro": 6501, "Between": 6502, " 1500": 6503, " evidence": 6504, " Rig": 6505, " Ved": 6506, " Veda": 6507, " scripture": 6508, "wh": 6509, "which": 6510, "speak": 6511, "speaking": 6512, " tribes": 6513, " migr": 6514, " migrating": 6515, " Afgh": 6516, " Afghan": 6517, " Afghanistan": 6518, " settling": 6519, " swathe": 6520, " swathes": 6521, " adj": 6522, " adjoin": 6523, " adjoining": 6524, " defore": 6525, " deforested": 6526, " fires": 6527, " employing": 6528, " iron": 6529, " implements": 6530, " prep": 6531, " prepared": 6532, " driving": 6533, " pree": 6534, " preex": 6535, " preexisting": 6536, " ens": 6537, " ensl": 6538, " enslaving": 6539, "divide": 6540, " spok": 6541, " spoken": 6542, " refined": 6543, " gram": 6544, " gramm": 6545, " grammatical": 6546, " emer": 6547, " emerge": 6548, " codified": 6549, " Aṣ": 6550, " Aṣṭ": 6551, " Aṣṭā": 6552, " Aṣṭādh": 6553, " Aṣṭādhy": 6554, " Aṣṭādhyā": 6555, " Aṣṭādhyāy": 6556, " Aṣṭādhyāyī": 6557, " ('": 6558, "Eight": 6559, " chapters": 6560, "')": 6561, " Pā": 6562, " Pāṇ": 6563, " Pāṇin": 6564, " Pāṇini": 6565, " ep": 6566, " epics": 6567, " Mahā": 6568, " Mahāb": 6569, " Mahābh": 6570, " Mahābhā": 6571, " Mahābhār": 6572, " Mahābhārata": 6573, " Rā": 6574, " Rām": 6575, " Rāmā": 6576, " Rāmāya": 6577, " Rāmāyaṇ": 6578, " Rāmāyaṇa": 6579, " oral": 6580, " story": 6581, " storytell": 6582, " storytelling": 6583, " registers": 6584, " Epic": 6585, " rough": 6586, " roughly": 6587, " contemp": 6588, " contempor": 6589, " contemporary": 6590, " taken": 6591, " differenti": 6592, " differentiation": 6593, " teach": 6594, " teachings": 6595, " Mahavira": 6596, " Both": 6597, " stressed": 6598, " abj": 6599, " abjured": 6600, " sac": 6601, " sacri": 6602, " sacrif": 6603, " sacrifices": 6604, " Brahman": 6605, " Brahmanism": 6606, " fixed": 6607, " ethically": 6608, " socially": 6609, " mor": 6610, " morally": 6611, " Chronic": 6612, " Chronicling": 6613, " backd": 6614, " backdrop": 6615, " emergence": 6616, " geographically": 6617, " extensive": 6618, " foun": 6619, " founder": 6620, " grands": 6621, " grandson": 6622, "ca": 6623, " 268": 6624, "232": 6625, " controlled": 6626, " arter": 6627, " arteries": 6628, " except": 6629, " deep": 6630, " inscri": 6631, " inscriptions": 6632, " declining": 6633, " mainst": 6634, " mainstream": 6635, " speaking": 6636, " conqu": 6637, " conquest": 6638, " Kaling": 6639, " Kalinga": 6640, " forces": 6641, " imm": 6642, " immense": 6643, " adopting": 6644, " dhamm": 6645, " dhamma": 6646, " commission": 6647, " commissioning": 6648, " numerous": 6649, " pill": 6650, " pillar": 6651, " throughout": 6652, " promote": 6653, " conduct": 6654, " forb": 6655, " forbade": 6656, " killing": 6657, " destruc": 6658, " destruction": 6659, " seen": 6660, " env": 6661, " envir": 6662, " environ": 6663, " environmental": 6664, " embodi": 6665, " embodiment": 6666, " ethos": 6667, " taxation": 6668, " Under": 6669, " Gupt": 6670, " Guptas": 6671, " renewed": 6672, " manage": 6673, " management": 6674, " rit": 6675, " ritual": 6676, " itsel": 6677, " itself": 6678, " renewal": 6679, " reflected": 6680, " Sangam": 6681, " reve": 6682, " reveals": 6683, " peninsul": 6684, " peninsula": 6685, " Cher": 6686, " Cheras": 6687, " Cholas": 6688, " respectively": 6689, " Pandy": 6690, " Pandyas": 6691, " fart": 6692, " farther": 6693, " Vaig": 6694, " Vaigai": 6695, " sixth": 6696, " grown": 6697, " favou": 6698, " favoured": 6699, " conserv": 6700, " conservative": 6701, " transac": 6702, " transaction": 6703, " transactional": 6704, " transactionalism": 6705, " repl": 6706, " replaced": 6707, " kingly": 6708, " plac": 6709, " places": 6710, " Bhak": 6711, " Bhakti": 6712, " traded": 6713, " Rom": 6714, " Roman": 6715, "Medieval": 6716, " 600": 6717, " defined": 6718, " No": 6719, " ruler": 6720, " create": 6721, " consist": 6722, " consistently": 6723, " bey": 6724, " beyond": 6725, " core": 6726, " peoples": 6727, " accomm": 6728, " accommod": 6729, " accommodated": 6730, "tradition": 6731, "traditional": 6732, " consequ": 6733, " consequently": 6734, " differences": 6735, " devotional": 6736, " imitated": 6737, " resur": 6738, " resurg": 6739, " resurgence": 6740, " royalty": 6741, " big": 6742, " patronised": 6743, " capital": 6744, " sizes": 6745, " everywhere": 6746, " underw": 6747, " underwent": 6748, " effec": 6749, " effects": 6750, " fel": 6751, " felt": 6752, " La": 6753, " Laos": 6754, " Br": 6755, " Brune": 6756, " Brunei": 6757, " Cam": 6758, " Camb": 6759, " Cambodi": 6760, " Cambodia": 6761, " Viet": 6762, " Vietnam": 6763, " Ph": 6764, " Phili": 6765, " Philipp": 6766, " Philippines": 6767, " Malays": 6768, " Malaysia": 6769, " schol": 6770, " scholars": 6771, " transmission": 6772, " initiative": 6773, " soj": 6774, " sojour": 6775, " sojourning": 6776, " sem": 6777, " semin": 6778, " seminaries": 6779, " transl": 6780, " translating": 6781, " nom": 6782, " noma": 6783, " nomadic": 6784, " clans": 6785, " using": 6786, " swif": 6787, " swift": 6788, "horse": 6789, " caval": 6790, " cavalry": 6791, " raising": 6792, " ethnic": 6793, " ethnicity": 6794, " establish": 6795, " establishment": 6796, " 120": 6797, " 1206": 6798, " forays": 6799, " disr": 6800, " disrupt": 6801, " disruptive": 6802, "Muslim": 6803, " subject": 6804, " customs": 6805, " repuls": 6806, " repulsing": 6807, " Mong": 6808, " Mongol": 6809, " raiders": 6810, " saved": 6811, " devastation": 6812, " visited": 6813, " scene": 6814, " fle": 6815, " flee": 6816, " fleeing": 6817, " sol": 6818, " soldi": 6819, " soldiers": 6820, " lear": 6821, " learn": 6822, " learned": 6823, " my": 6824, " myst": 6825, " mystics": 6826, " traders": 6827, " thereb": 6828, " thereby": 6829, " sync": 6830, " syncre": 6831, " syncretic": 6832, "Isl": 6833, "Islam": 6834, "Islamic": 6835, " raiding": 6836, " weak": 6837, " weakening": 6838, " pav": 6839, " paved": 6840, " Emb": 6841, " Embrac": 6842, " Embracing": 6843, " Sha": 6844, " Shaiv": 6845, " Shaivite": 6846, " upon": 6847, " afterwards": 6848, "Early": 6849, " fell": 6850, " superi": 6851, " superior": 6852, " mob": 6853, " mobil": 6854, " mobility": 6855, " fire": 6856, " firep": 6857, " firepower": 6858, " generation": 6859, " stamp": 6860, " societies": 6861, " Inst": 6862, " Instead": 6863, " balan": 6864, " balanced": 6865, " pac": 6866, " pacified": 6867, " administrative": 6868, " inclus": 6869, " inclusive": 6870, " systematic": 6871, " centralised": 6872, " unif": 6873, " uniform": 6874, " Esc": 6875, " Esche": 6876, " Eschewing": 6877, " ident": 6878, " identity": 6879, " Mughals": 6880, "flung": 6881, " real": 6882, " realms": 6883, " loyalty": 6884, "exp": 6885, "expressed": 6886, " Persianised": 6887, "to": 6888, "divine": 6889, " deriving": 6890, " mandating": 6891, " paid": 6892, "regul": 6893, "regulated": 6894, " silver": 6895, " peas": 6896, " peasants": 6897, " maintained": 6898, " patronage": 6899, " textiles": 6900, " Newly": 6901, " cohe": 6902, " coherent": 6903, " Marathas": 6904, " governing": 6905, " amb": 6906, " ambitions": 6907, " collab": 6908, " collaboration": 6909, " adversity": 6910, " recognition": 6911, " experi": 6912, " experience": 6913, " Exp": 6914, " Expanding": 6915, " incre": 6916, " incremental": 6917, " frag": 6918, " fragment": 6919, " fragmentation": 6920, " au": 6921, " auth": 6922, " authority": 6923, " facil": 6924, " facilitated": 6925, " decent": 6926, " decentral": 6927, " decentralisation": 6928, " enabling": 6929, " provinc": 6930, " provincial": 6931, " localised": 6932, " autonom": 6933, " autonomy": 6934, " consolidate": 6935, " lines": 6936, " enterp": 6937, " enterpr": 6938, " enterprise": 6939, " blurred": 6940, " charter": 6941, " chartered": 6942, "not": 6943, "notably": 6944, "soli": 6945, "solidified": 6946, " outp": 6947, " outposts": 6948, " seas": 6949, " training": 6950, " attractive": 6951, " elite": 6952, " factors": 6953, " allowing": 6954, " gain": 6955, " 176": 6956, " 1765": 6957, " sidel": 6958, " sideline": 6959, " ric": 6960, " riches": 6961, " army": 6962, " enabled": 6963, " annex": 6964, " annexe": 6965, " subdu": 6966, " subdue": 6967, " 1820": 6968, " exporting": 6969, " manufactured": 6970, " instead": 6971, " supply": 6972, " supplying": 6973, " raw": 6974, " curta": 6975, " curtail": 6976, " curtailed": 6977, " effectively": 6978, " consci": 6979, " consciously": 6980, " aren": 6981, " arenas": 6982, " appoint": 6983, " appointment": 6984, " 1848": 6985, " Lord": 6986, " Dalh": 6987, " Dalhous": 6988, " Dalhousie": 6989, " Govern": 6990, " Governor": 6991, " General": 6992, " stage": 6993, " consolidation": 6994, " demar": 6995, " demarc": 6996, " demarcation": 6997, " surve": 6998, " surveill": 6999, " surveillance": 7000, " Tech": 7001, " Techn": 7002, " Technological": 7003, "among": 7004, " canals": 7005, " teleg": 7006, " telegraph": 7007, "were": 7008, " introduction": 7009, " Disa": 7010, " Disaff": 7011, " Disaffection": 7012, " Reb": 7013, " Rebellion": 7014, " 1857": 7015, " Fed": 7016, " resent": 7017, " resentments": 7018, " perce": 7019, " perceptions": 7020, " invasive": 7021, " harsh": 7022, " summary": 7023, " treat": 7024, " treatment": 7025, " wealth": 7026, " wealthy": 7027, " landown": 7028, " landowners": 7029, " rocked": 7030, " shook": 7031, " foundations": 7032, " suppressed": 7033, " disb": 7034, " disbanded": 7035, " administer": 7036, " Proc": 7037, " Proclaiming": 7038, " gradual": 7039, " landed": 7040, " gent": 7041, " gentry": 7042, " feud": 7043, " feudal": 7044, " future": 7045, " unre": 7046, " unrest": 7047, " founding": 7048, " 1885": 7049, " rush": 7050, " commercialisation": 7051, " setback": 7052, " setbacks": 7053, " whim": 7054, " whims": 7055, " faraw": 7056, " faraway": 7057, " increase": 7058, " famines": 7059, " despite": 7060, " ris": 7061, " risks": 7062, " infra": 7063, " infrastruc": 7064, " infrastructure": 7065, " born": 7066, " borne": 7067, " taxpay": 7068, " taxpayers": 7069, " litt": 7070, " little": 7071, " employment": 7072, " cropp": 7073, " cropping": 7074, " newly": 7075, " canalled": 7076, " production": 7077, " internal": 7078, " railway": 7079, " critical": 7080, " famine": 7081, " notably": 7082, " moving": 7083, " hel": 7084, " helped": 7085, " nas": 7086, " nascent": 7087, "owned": 7088, " Gandhian": 7089, " repressive": 7090, " legislation": 7091, " strid": 7092, " strident": 7093, " calls": 7094, "rule": 7095, " Mahat": 7096, " Mahatma": 7097, " legislative": 7098, " bes": 7099, " beset": 7100, " crises": 7101, " particip": 7102, " participation": 7103, " final": 7104, " ups": 7105, " upsur": 7106, " upsurge": 7107, " nationalism": 7108, " capped": 7109, " tempered": 7110, " Econom": 7111, " Economic": 7112, " ham": 7113, " hamst": 7114, " hamstr": 7115, " hamstrung": 7116, " persistent": 7117, "rel": 7118, "related": 7119, " Mao": 7120, " Maoist": 7121, "insp": 7122, "inspi": 7123, "inspired": 7124, " Nax": 7125, " Naxal": 7126, " Naxalite": 7127, " insur": 7128, " insurgen": 7129, " insurgenc": 7130, " insurgencies": 7131, " separatism": 7132, " accoun": 7133, " accounts": 7134, " lying": 7135, " atop": 7136, " tect": 7137, " tectonic": 7138, " defining": 7139, " geologic": 7140, " processes": 7141, "eastw": 7142, "eastward": 7143, " drift": 7144, " seaf": 7145, " seaflo": 7146, " seafloor": 7147, " Teth": 7148, " Tethyan": 7149, " ocean": 7150, " oceanic": 7151, " northeast": 7152, " subduc": 7153, " subduct": 7154, " continent": 7155, " continental": 7156, " obstructed": 7157, " sheared": 7158, " hor": 7159, " horiz": 7160, " horizon": 7161, " horizont": 7162, " horizontally": 7163, " mant": 7164, " mantle": 7165, " sl": 7166, " slid": 7167, " piled": 7168, " sheets": 7169, " napp": 7170, " nappes": 7171, " ahead": 7172, " subduction": 7173, " oro": 7174, " orogen": 7175, " orogeny": 7176, " mountain": 7177, " stiffer": 7178, " causing": 7179, " crustal": 7180, " thick": 7181, " thickening": 7182, " Im": 7183, " Immediately": 7184, " emerging": 7185, " cres": 7186, " crescent": 7187, "shap": 7188, "shaped": 7189, " trough": 7190, " filled": 7191, "born": 7192, "borne": 7193, " constitutes": 7194, " appearance": 7195, " Araval": 7196, " Aravalli": 7197, " Rid": 7198, " Ridge": 7199, " southwester": 7200, " southwesterly": 7201, " direction": 7202, " chec": 7203, " checked": 7204, " Arav": 7205, " Aravall": 7206, " Aravallis": 7207, " geologically": 7208, " stable": 7209, " Vindh": 7210, " Vindhya": 7211, " paralle": 7212, " parallel": 7213, "rich": 7214, " Chot": 7215, " Chota": 7216, " Nagpur": 7217, " landm": 7218, " landmass": 7219, " flanked": 7220, " plateau": 7221, " formations": 7222, " Constituted": 7223, " fashion": 7224, " equat": 7225, " equator": 7226, " 44": 7227, " 35": 7228, " latitude": 7229, " 68": 7230, " 97": 7231, " longitud": 7232, " longitude": 7233, "Major": 7234, "orig": 7235, "origin": 7236, " Imp": 7237, " Important": 7238, " tribut": 7239, " tributaries": 7240, " Yam": 7241, " Yamun": 7242, " Yamuna": 7243, "term": 7244, " silt": 7245, " depos": 7246, " deposition": 7247, " leads": 7248, " severe": 7249, " floods": 7250, " course": 7251, " Major": 7252, " steep": 7253, " steeper": 7254, " gradients": 7255, " wat": 7256, " waters": 7257, " flooding": 7258, " God": 7259, " Godav": 7260, " Godavari": 7261, " Mahana": 7262, " Mahanadi": 7263, " Narm": 7264, " Narmada": 7265, " Tap": 7266, " Tapti": 7267, " measures": 7268, "700": 7269, " distance": 7270, "423": 7271, "094": 7272, "300": 7273, " island": 7274, " naval": 7275, " hyd": 7276, " hydro": 7277, " hydrog": 7278, " hydrograph": 7279, " hydrographic": 7280, " charts": 7281, " mainland": 7282, " sandy": 7283, " beac": 7284, " beaches": 7285, " cli": 7286, " cliff": 7287, " cliffs": 7288, " 46": 7289, " mud": 7290, " mudf": 7291, " mudfl": 7292, " mudflats": 7293, " Co": 7294, " Coast": 7295, " Coastal": 7296, " Rann": 7297, " Kut": 7298, " Kutch": 7299, " allu": 7300, " alluv": 7301, " alluvial": 7302, " del": 7303, " delta": 7304, " archip": 7305, " archipelag": 7306, " archipelagos": 7307, " atol": 7308, " atolls": 7309, " volcanic": 7310, " chain": 7311, " panoramic": 7312, " Garh": 7313, " Garhw": 7314, " Garhwal": 7315, " Kum": 7316, " Kuma": 7317, " Kumaon": 7318, " Peak": 7319, " Peaks": 7320, " surroundings": 7321, " Tris": 7322, " Trisul": 7323, " entirely": 7324, " Kot": 7325, " mountains": 7326, " does": 7327, "Yarlung": 7328, " suture": 7329, " contour": 7330, " weld": 7331, " welded": 7332, " Mount": 7333, " Kail": 7334, " Kailash": 7335, " Lake": 7336, " Manas": 7337, " Manasaro": 7338, " Manasarov": 7339, " Manasarovar": 7340, " Trans": 7341, "Himalay": 7342, "Himalaya": 7343, "sac": 7344, "sacred": 7345, " myth": 7346, " mythology": 7347, "lie": 7348, " Yarlung": 7349, " Ts": 7350, " Tsang": 7351, " Tsangp": 7352, " Tsangpo": 7353, " mark": 7354, " limits": 7355, " Himalaya": 7356, " lake": 7357, " Tung": 7358, " Tungabh": 7359, " Tungabhadra": 7360, " outc": 7361, " outcrop": 7362, " outcrops": 7363, " flows": 7364, "Brahm": 7365, "Brahmaputra": 7366, " Delta": 7367, " Sent": 7368, " Sentin": 7369, " Sentinel": 7370, " image": 7371, " mang": 7372, " mangro": 7373, " mangrove": 7374, " beach": 7375, " Havel": 7376, " Havelock": 7377, " Island": 7378, "Climate": 7379, " climate": 7380, " drive": 7381, " economically": 7382, " cultur": 7383, " culturally": 7384, " piv": 7385, " pivot": 7386, " pivotal": 7387, " winter": 7388, " monso": 7389, " monsoons": 7390, " cold": 7391, " kat": 7392, " katab": 7393, " katabatic": 7394, " blowing": 7395, " ke": 7396, " keep": 7397, " keeping": 7398, " warmer": 7399, " loc": 7400, " locations": 7401, " latitudes": 7402, " plays": 7403, " attracting": 7404, " moisture": 7405, "laden": 7406, " monsoon": 7407, " provide": 7408, " rain": 7409, " rainf": 7410, " rainfall": 7411, "Four": 7412, " groupings": 7413, " predominate": 7414, " subt": 7415, " subtropical": 7416, " humid": 7417, " mont": 7418, " montan": 7419, " montane": 7420, " Temper": 7421, " Temperatures": 7422, " risen": 7423, " 1901": 7424, " Climate": 7425, " change": 7426, " retreat": 7427, " gl": 7428, " glac": 7429, " glaci": 7430, " glaciers": 7431, " adverse": 7432, " adversely": 7433, " affected": 7434, " current": 7435, " projections": 7436, " severity": 7437, " drough": 7438, " droughts": 7439, " will": 7440, " markedly": 7441, " blo": 7442, " bloom": 7443, " mist": 7444, " Southwest": 7445, " Mall": 7446, " Mallal": 7447, " Mallalli": 7448, " Falls": 7449, " Hass": 7450, " Hassan": 7451, " drom": 7452, " dromed": 7453, " dromedary": 7454, " des": 7455, " desert": 7456, "New": 7457, " sn": 7458, " snow": 7459, " Bas": 7460, " Basp": 7461, " Baspa": 7462, " Sangla": 7463, " Himachal": 7464, " host": 7465, " biological": 7466, " bird": 7467, " reptile": 7468, " amphibian": 7469, " Ful": 7470, " Fully": 7471, " overl": 7472, " overlaps": 7473, " occupy": 7474, " Moder": 7475, " Moderately": 7476, " canop": 7477, " canopy": 7478, " dens": 7479, " density": 7480, " occupies": 7481, "39": 7482, " predominates": 7483, " temper": 7484, " temperate": 7485, " conif": 7486, " coniferous": 7487, " teak": 7488, " natural": 7489, " zones": 7490, " irrig": 7491, " irrigation": 7492, " visible": 7493, " tre": 7494, " trees": 7495, " astring": 7496, " astringent": 7497, " Az": 7498, " Aza": 7499, " Azadi": 7500, " Azadira": 7501, " Azadirach": 7502, " Azadirachta": 7503, " indic": 7504, " indica": 7505, " neem": 7506, " herbal": 7507, " medicine": 7508, " lu": 7509, " lux": 7510, " luxur": 7511, " luxuriant": 7512, " Fic": 7513, " Ficus": 7514, " religiosa": 7515, " peep": 7516, " peepul": 7517, " displayed": 7518, " Pali": 7519, " canon": 7520, " sought": 7521, " enl": 7522, " enligh": 7523, " enlighten": 7524, " enlightenment": 7525, "Many": 7526, " descend": 7527, " descended": 7528, " separ": 7529, " separated": 7530, " collision": 7531, " mass": 7532, " volcanism": 7533, " extinc": 7534, " extinction": 7535, " entered": 7536, " zoo": 7537, " zooge": 7538, " zoogeograph": 7539, " zoogeographic": 7540, " passes": 7541, " flanking": 7542, " lowered": 7543, " stands": 7544, " contrast": 7545, " contrasting": 7546, " 45": 7547, " reptiles": 7548, " amphib": 7549, " amphibians": 7550, " endemics": 7551, " hood": 7552, " hooded": 7553, " leaf": 7554, " monk": 7555, " monkey": 7556, " Bedd": 7557, " Beddome": 7558, " toad": 7559, " 172": 7560, " IU": 7561, " IUC": 7562, " IUCN": 7563, "design": 7564, "designated": 7565, " tiger": 7566, " dol": 7567, " dolph": 7568, " dolphin": 7569, " Crit": 7570, " Critically": 7571, " ghar": 7572, " gharial": 7573, " crocodili": 7574, " crocodilian": 7575, " bust": 7576, " bustard": 7577, " white": 7578, "rum": 7579, "rumped": 7580, " vulture": 7581, " inge": 7582, " ingested": 7583, " carr": 7584, " carrion": 7585, " dic": 7586, " diclo": 7587, " diclof": 7588, " diclofen": 7589, " diclofenac": 7590, "treated": 7591, " Bef": 7592, " Before": 7593, " ming": 7594, " mingled": 7595, " interv": 7596, " intervals": 7597, " grass": 7598, " grasslands": 7599, " grazed": 7600, " herds": 7601, " prey": 7602, " preyed": 7603, " Asi": 7604, " Asiatic": 7605, " pervasive": 7606, " ec": 7607, " ecolog": 7608, " ecologically": 7609, " devastating": 7610, " enc": 7611, " encro": 7612, " encroach": 7613, " encroachment": 7614, " critically": 7615, " parks": 7616, " expanded": 7617, " Wild": 7618, " Wildlife": 7619, " Prot": 7620, " Protection": 7621, " Project": 7622, " Tig": 7623, " Tiger": 7624, " wil": 7625, " wildern": 7626, " wilderness": 7627, " Forest": 7628, " Cons": 7629, " Conserv": 7630, " Conservation": 7631, " 1988": 7632, " hosts": 7633, " hund": 7634, " hundred": 7635, " san": 7636, " sanct": 7637, " sanctu": 7638, " sanctuaries": 7639, " eighte": 7640, " eighteen": 7641, " biosphere": 7642, " reserves": 7643, " Biosphere": 7644, " Res": 7645, " Reserves": 7646, " eigh": 7647, " eighty": 7648, "nine": 7649, " wetlands": 7650, " registered": 7651, " Ramsar": 7652, " Convention": 7653, " Att": 7654, " Attac": 7655, " Attacus": 7656, " tap": 7657, " tapro": 7658, " taproban": 7659, " taprobanis": 7660, " moth": 7661, " Kad": 7662, " Kadav": 7663, " Kadavoor": 7664, " tigers": 7665, "170": 7666, " purple": 7667, " sun": 7668, " sunb": 7669, " sunbird": 7670, " perched": 7671, " Jim": 7672, " Corb": 7673, " Corbett": 7674, " Uttarakhand": 7675, " Crested": 7676, " haw": 7677, " hawk": 7678, "eag": 7679, "eagle": 7680, " liz": 7681, " lizard": 7682, " Madhya": 7683, "Sal": 7684, "Salt": 7685, "Saltw": 7686, "Saltwat": 7687, "Saltwater": 7688, " crocodile": 7689, " politics": 7690, "party": 7691, " recognised": 7692, "generally": 7693, " Bharati": 7694, " Bharatiya": 7695, "BJP": 7696, ");": 7697, " considered": 7698, " ideological": 7699, "righ": 7700, "right": 7701, " Au": 7702, " Aug": 7703, " August": 7704, " Domin": 7705, " Dominion": 7706, " caret": 7707, " caretak": 7708, " caretaker": 7709, " 1957": 7710, " May": 7711, " Lal": 7712, " Bahad": 7713, " Bahadur": 7714, " unan": 7715, " unanim": 7716, " unanimously": 7717, " thus": 7718, "Pakistan": 7719, " 1966": 7720, " signing": 7721, " Tash": 7722, " Tashk": 7723, " Tashkent": 7724, " Pe": 7725, " Peace": 7726, " Decl": 7727, " Declar": 7728, " Declaration": 7729, " landsl": 7730, " landslide": 7731, " defeat": 7732, " Liber": 7733, " Liberation": 7734, " 1975": 7735, " emergency": 7736, " sus": 7737, " susp": 7738, " suspending": 7739, " libert": 7740, " liberties": 7741, " discon": 7742, " discont": 7743, " discontent": 7744, " 1977": 7745, " opposed": 7746, " Mor": 7747, " Morar": 7748, " Morarj": 7749, " Morarji": 7750, " Desai": 7751, " Charan": 7752, " operation": 7753, " milit": 7754, " militants": 7755, " occupying": 7756, " bodyguard": 7757, " succe": 7758, " succeed": 7759, " succeeded": 7760, " victory": 7761, " 1989": 7762, " Lef": 7763, " Left": 7764, " Chandra": 7765, " Shek": 7766, " Shekhar": 7767, " round": 7768, " polling": 7769, " separatist": 7770, " seek": 7771, " seeking": 7772, " aven": 7773, " avenge": 7774, " Naras": 7775, " Narasim": 7776, " Narasimh": 7777, " Narasimha": 7778, " Rao": 7779, " minority": 7780, " ful": 7781, " full": 7782, " 1996": 7783, " relied": 7784, " Deve": 7785, " Gow": 7786, " Gowd": 7787, " Gowda": 7788, " Gujral": 7789, " serving": 7790, " Atal": 7791, " Bihari": 7792, "lived": 7793, " lack": 7794, " mandate": 7795, " Elections": 7796, "NDA": 7797, " complete": 7798, " 2004": 7799, " Prog": 7800, " Progressive": 7801, "UPA": 7802, " Manm": 7803, " Manmo": 7804, " Manmohan": 7805, " propos": 7806, " proposed": 7807, " Son": 7808, " Sonia": 7809, "elected": 7810, " 2014": 7811, " Naren": 7812, " Narendra": 7813, " absol": 7814, " absolute": 7815, " los": 7816, " losing": 7817, " partn": 7818, " partners": 7819, " lon": 7820, " longe": 7821, " longest": 7822, "serving": 7823, " backsl": 7824, " backslid": 7825, " backsliding": 7826, " Democracy": 7827, " Report": 7828, " draf": 7829, " drafted": 7830, " speed": 7831, " absence": 7832, " irreg": 7833, " irregular": 7834, " irregularities": 7835, " 1946": 7836, " Long": 7837, " passages": 7838, " describ": 7839, " describes": 7840, " struc": 7841, " structure": 7842, " conspic": 7843, " conspicuous": 7844, " exclus": 7845, " exclusively": 7846, " exercised": 7847, " defence": 7848, " ports": 7849, " reserve": 7850, " pow": 7851, " powers": 7852, " taking": 7853, " Lok": 7854, " Rajya": 7855, " nominated": 7856, " representatives": 7857, " definition": 7858, " directives": 7859, " go": 7860, " goals": 7861, " ende": 7862, " endeav": 7863, " endeavor": 7864, " Ire": 7865, " Ireland": 7866, " recom": 7867, " recommend": 7868, " recommended": 7869, " panch": 7870, " panchay": 7871, " panchayat": 7872, " committees": 7873, " Untouchability": 7874, " il": 7875, " illeg": 7876, " illegal": 7877, "Article": 7878, " distinc": 7879, " distinctions": 7880, " derec": 7881, " derecog": 7882, " derecogni": 7883, " derecognized": 7884, "Articles": 7885, ")).": 7886, " promul": 7887, " promulg": 7888, " promulgation": 7889, " exercises": 7890, " App": 7891, " Appoin": 7892, " Appointed": 7893, " vice": 7894, "president": 7895, " Coun": 7896, " Council": 7897, " Minist": 7898, " Ministers": 7899, "with": 7900, " cab": 7901, " cabin": 7902, " cabinet": 7903, " committee": 7904, "headed": 7905, " Any": 7906, " hold": 7907, " holding": 7908, " portf": 7909, " portfoli": 7910, " portfolio": 7911, " must": 7912, " subord": 7913, " subordin": 7914, " subordinate": 7915, " council": 7916, " respons": 7917, " responsible": 7918, " servants": 7919, " act": 7920, " perm": 7921, " perman": 7922, " permanent": 7923, " executives": 7924, " decisions": 7925, " implement": 7926, " implemented": 7927, "tier": 7928, " ju": 7929, " judi": 7930, " judici": 7931, " judiciary": 7932, " headed": 7933, " Chi": 7934, " Chief": 7935, " Just": 7936, " Justice": 7937, " trial": 7938, " cas": 7939, " cases": 7940, " appell": 7941, " appellate": 7942, " stri": 7943, " strike": 7944, " contravene": 7945, " inval": 7946, " invalid": 7947, " invalidate": 7948, " deem": 7949, " deems": 7950, " uncon": 7951, " unconstitution": 7952, " unconstitutional": 7953, "Ad": 7954, "Administ": 7955, "Administrative": 7956, " divis": 7957, " divisions": 7958, " legislatures": 7959, " Westmin": 7960, " Westminst": 7961, " Westminster": 7962, " appointed": 7963, " administrat": 7964, " administrators": 7965, " 1956": 7966, " Reorgan": 7967, " Reorganisation": 7968, " reorgan": 7969, " reorganised": 7970, " lingu": 7971, " linguistic": 7972, " basis": 7973, " quar": 7974, " quarter": 7975, " distric": 7976, " district": 7977, " block": 7978, "St": 7979, "States": 7980, "Andh": 7981, "Andhra": 7982, "Arun": 7983, "Arunachal": 7984, "Ass": 7985, "Assam": 7986, "Bihar": 7987, "Chh": 7988, "Chhatt": 7989, "Chhattis": 7990, "Chhattisgarh": 7991, "Go": 7992, "Goa": 7993, "Guj": 7994, "Gujarat": 7995, "Hary": 7996, "Haryana": 7997, "Himachal": 7998, "Jharkhand": 7999, "Karnataka": 8000, "Kerala": 8001, "Mad": 8002, "Madh": 8003, "Madhya": 8004, "Mahar": 8005, "Maharash": 8006, "Maharashtra": 8007, "Manipur": 8008, "Megh": 8009, "Meghal": 8010, "Meghalay": 8011, "Meghalaya": 8012, "Miz": 8013, "Mizoram": 8014, "Nag": 8015, "Nagal": 8016, "Nagaland": 8017, "Odisha": 8018, "Punjab": 8019, "Raj": 8020, "Rajast": 8021, "Rajasthan": 8022, "Sik": 8023, "Sikkim": 8024, "Tamil": 8025, "Tel": 8026, "Telangana": 8027, "Tri": 8028, "Tripura": 8029, "Uttarakhand": 8030, "West": 8031, "Union": 8032, "Andaman": 8033, "Chan": 8034, "Chandi": 8035, "Chandigarh": 8036, "Dadra": 8037, " Nagar": 8038, " Haveli": 8039, " Daman": 8040, " Di": 8041, " Diu": 8042, "Jammu": 8043, "Lad": 8044, "Ladakh": 8045, "Lakshadweep": 8046, "National": 8047, "Puducherry": 8048, " Nations": 8049, " decol": 8050, " decolon": 8051, " decolonisation": 8052, "Align": 8053, "Aligned": 8054, " Movement": 8055, " cordi": 8056, " cordial": 8057, " decisively": 8058, " fend": 8059, " excur": 8060, " excurs": 8061, " excursions": 8062, " uneas": 8063, " uneasy": 8064, " neighbour": 8065, " Three": 8066, " fought": 8067, " disputed": 8068, " territory": 8069, " purs": 8070, " pursue": 8071, " ties": 8072, " suppli": 8073, " supplier": 8074, " 59": 8075, " 596": 8076, " threats": 8077, " intervene": 8078, " 1974": 8079, " carri": 8080, " carried": 8081, " underground": 8082, " testing": 8083, " neither": 8084, " Compre": 8085, " Comprehen": 8086, " Comprehens": 8087, " Comprehensive": 8088, "Test": 8089, "Ban": 8090, " nor": 8091, " considering": 8092, " flaw": 8093, " flawed": 8094, " discriminatory": 8095, " maintains": 8096, " developing": 8097, " tri": 8098, " triad": 8099, " capability": 8100, " Min": 8101, " Minim": 8102, " Minimum": 8103, " Credi": 8104, " Credible": 8105, " Deter": 8106, " Deterren": 8107, " Deterrence": 8108, " doctr": 8109, " doctrine": 8110, "Since": 8111, " Cold": 8112, " strate": 8113, " strateg": 8114, " strategic": 8115, " cooperation": 8116, " agreement": 8117, " poss": 8118, " possess": 8119, " possessed": 8120, " received": 8121, " wai": 8122, " waivers": 8123, " Atom": 8124, " Atomic": 8125, " Energy": 8126, " Supp": 8127, " Suppli": 8128, " Suppliers": 8129, " Gr": 8130, " Group": 8131, " earlier": 8132, " restric": 8133, " restrictions": 8134, " agreements": 8135, " Rus": 8136, " Russia": 8137, " Fr": 8138, " France": 8139, " King": 8140, " Kingd": 8141, " Kingdom": 8142, " Canada": 8143, " gross": 8144, "GDP": 8145, " placed": 8146, " Meas": 8147, " Measured": 8148, " purch": 8149, " purchas": 8150, " purchasing": 8151, " parity": 8152, "PPP": 8153, " fastest": 8154, " exceed": 8155, " exceeding": 8156, " 1990": 8157, " Demographics": 8158, " stra": 8159, " strain": 8160, " maintain": 8161, " maintaining": 8162, " regionally": 8163, " measured": 8164, " glob": 8165, " globally": 8166, "income": 8167, " dai": 8168, " daily": 8169, "Until": 8170, " protection": 8171, " protectionist": 8172, " socialist": 8173, " economics": 8174, " Widespread": 8175, " regul": 8176, " regulation": 8177, " walled": 8178, " outside": 8179, " acute": 8180, " balance": 8181, " pay": 8182, " payments": 8183, " cris": 8184, " crisis": 8185, " forced": 8186, " liberalise": 8187, " moved": 8188, " towards": 8189, " free": 8190, "market": 8191, " emphasising": 8192, " inve": 8193, " invest": 8194, " investment": 8195, " inflows": 8196, " Trad": 8197, " Trade": 8198, " 1995": 8199, " 522": 8200, "million": 8201, "worker": 8202, " labour": 8203, " force": 8204, " remitt": 8205, " remittances": 8206, " working": 8207, " 2006": 8208, " stood": 8209, "%;": 8210, " importer": 8211, " sixte": 8212, " sixteent": 8213, " sixteenth": 8214, " Between": 8215, " contrib": 8216, " contribution": 8217, " petroc": 8218, " petroche": 8219, " petrochem": 8220, " petrochemical": 8221, " textile": 8222, " calendar": 8223, "Aver": 8224, "Averag": 8225, "Averaging": 8226, " dou": 8227, " doub": 8228, " doubled": 8229, " hour": 8230, " hourly": 8231, " wage": 8232, " 431": 8233, " projected": 8234, " 580": 8235, " 2030": 8236, " consumer": 8237, " stea": 8238, " steadi": 8239, " steadily": 8240, "308": 8241, "380": 8242, "73": 8243, "731": 8244, " expected": 8245, "264": 8246, " woman": 8247, " radi": 8248, " radish": 8249, " foreground": 8250, " Nil": 8251, " Nilg": 8252, " Nilgir": 8253, " Nilgiris": 8254, " sour": 8255, " sourced": 8256, " farms": 8257, " herd": 8258, " harve": 8259, " harvested": 8260, " hand": 8261, " milking": 8262, "Indust": 8263, "Industries": 8264, " autom": 8265, " automot": 8266, " automotive": 8267, "fastest": 8268, " sales": 8269, "2010": 8270, "2009": 8271, " veh": 8272, " vehic": 8273, " vehicle": 8274, " surpassing": 8275, " Jap": 8276, " Japan": 8277, " IT": 8278, " prof": 8279, " profess": 8280, " profession": 8281, " professionals": 8282, " equall": 8283, " equalling": 8284, " merchan": 8285, " merchandi": 8286, " merchandise": 8287, " manufacturing": 8288, " units": 8289, " generic": 8290, " medicines": 8291, " supplies": 8292, "60": 8293, " vac": 8294, " vacc": 8295, " vaccines": 8296, " demand": 8297, " contributing": 8298, "44": 8299, " destin": 8300, " destinations": 8301, " 2012": 8302, "2013": 8303, " 204": 8304, " rup": 8305, " rupees": 8306, " 235": 8307, "US": 8308, " capac": 8309, " capacity": 8310, " generate": 8311, " electrical": 8312, " usage": 8313, " emit": 8314, " emits": 8315, " equates": 8316, " tons": 8317, " carb": 8318, " carbon": 8319, " dio": 8320, " diox": 8321, " dioxide": 8322, " person": 8323, " electric": 8324, " electricity": 8325, " clean": 8326, " liqu": 8327, " liquef": 8328, " liquefied": 8329, " petrol": 8330, " petrole": 8331, " petroleum": 8332, " prior": 8333, " priorities": 8334, "Mumbai": 8335, " terti": 8336, " tertiary": 8337, " finance": 8338, " tour": 8339, " tourism": 8340, " Shown": 8341, " Taj": 8342, " Mahal": 8343, " Palace": 8344, " Hot": 8345, " Hotel": 8346, " Gate": 8347, " Gatew": 8348, " Gateway": 8349, " drin": 8350, " drink": 8351, " drinkers": 8352, " consume": 8353, " panorama": 8354, " soft": 8355, " softw": 8356, " software": 8357, " multin": 8358, " multinational": 8359, " corp": 8360, " corpor": 8361, " corporations": 8362, " centres": 8363, " because": 8364, " pool": 8365, " sk": 8366, " skilled": 8367, " graduates": 8368, " surrounding": 8369, " fishing": 8370, " net": 8371, " raised": 8372, " Koc": 8373, " Kochi": 8374, " Fishing": 8375, " supports": 8376, "With": 8377, "428": 8378, "627": 8379, "663": 8380, "210": 8381, "193": 8382, " reported": 8383, " provision": 8384, " provisional": 8385, " median": 8386, " 2020": 8387, " Medic": 8388, " Medical": 8389, " adv": 8390, " advances": 8391, " product": 8392, " productivity": 8393, " Green": 8394, " Revol": 8395, " Revolution": 8396, " decen": 8397, " decenn": 8398, " decennial": 8399, " compared": 8400, "54": 8401, " previ": 8402, " previous": 8403, "1991": 8404, "2001": 8405, " post": 8406, "col": 8407, "colonial": 8408, " counted": 8409, " 49": 8410, " 1970": 8411, "1975": 8412, "five": 8413, " 113": 8414, " 1994": 8415, " ratio": 8416, " 940": 8417, " Female": 8418, " infant": 8419, " infantic": 8420, " infanticide": 8421, " lately": 8422, " lop": 8423, "sided": 8424, " ratios": 8425, " miss": 8426, " missing": 8427, " quad": 8428, " quadr": 8429, " quadrup": 8430, " quadrupled": 8431, "2014": 8432, " faster": 8433, " same": 8434, " gir": 8435, " girls": 8436, " unw": 8437, " unwanted": 8438, " receive": 8439, " adequ": 8440, " adequate": 8441, " care": 8442, " Despite": 8443, " ban": 8444, "select": 8445, "selective": 8446, " practice": 8447, " stop": 8448, " stopped": 8449, "Mig": 8450, "Migration": 8451, " dynam": 8452, " dynamic": 8453, " lived": 8454, "81": 8455, " slowing": 8456, " overall": 8457, " shar": 8458, " sharp": 8459, " decline": 8460, "plus": 8461, " agg": 8462, " aggl": 8463, " agglom": 8464, " agglomer": 8465, " agglomerations": 8466, " Chen": 8467, " Chenn": 8468, " Chennai": 8469, " Bengalur": 8470, " Bengaluru": 8471, " Hy": 8472, " Hyder": 8473, " Hyderabad": 8474, " order": 8475, " 1881": 8476, " Census": 8477, " gives": 8478, " breakdown": 8479, "There": 8480, " Tai": 8481, "Kad": 8482, "Kadai": 8483, " Andamanese": 8484, " minor": 8485, " isolates": 8486, " Sep": 8487, " Sept": 8488, " Septem": 8489, " September": 8490, " deb": 8491, " debate": 8492, " opposing": 8493, " camp": 8494, " camps": 8495, " protag": 8496, " protagon": 8497, " protagonists": 8498, " wanted": 8499, " Devan": 8500, " Devanag": 8501, " Devanagari": 8502, "national": 8503, " pref": 8504, " prefer": 8505, " preferred": 8506, "official": 8507, " associate": 8508, " lex": 8509, " lexic": 8510, " lexicon": 8511, "iii": 8512, "Ara": 8513, "Arab": 8514, "Arabic": 8515, " resol": 8516, " resolution": 8517, " articles": 8518, " 343": 8519, "351": 8520, " bit": 8521, " bitter": 8522, " opposition": 8523, " where": 8524, " continue": 8525, "associ": 8526, "associate": 8527, " indefin": 8528, " indefinite": 8529, " indefinitely": 8530, " Eigh": 8531, " Eighth": 8532, " Sched": 8533, " Schedule": 8534, " recognises": 8535, " obl": 8536, " oblig": 8537, " obligated": 8538, "scheduled": 8539, "such": 8540, "spec": 8541, "specific": 8542, "bec": 8543, "because": 8544, " val": 8545, " value": 8546, " herit": 8547, " heritage": 8548, " Sind": 8549, " Sindhi": 8550, "1967": 8551, " Manipuri": 8552, "1992": 8553, " Maith": 8554, " Maithili": 8555, " Dog": 8556, " Dogri": 8557, " Santali": 8558, " Bod": 8559, " Bodo": 8560, "2004": 8561, "langu": 8562, "language": 8563, " speech": 8564, "On": 8565, " reverse": 8566, " money": 8567, " notes": 8568, " den": 8569, " denomin": 8570, " denomination": 8571, " listed": 8572, " panel": 8573, " prominently": 8574, " else": 8575, " elsewhere": 8576, " characterised": 8577, " beliefs": 8578, " Through": 8579, " Throughout": 8580, " birthpl": 8581, " birthplace": 8582, " Jains": 8583, " Buddhists": 8584, " adher": 8585, " adhering": 8586, " Pars": 8587, " Parsis": 8588, " Iran": 8589, " Iranis": 8590, " Bahá": 8591, " Faith": 8592, " Pream": 8593, " Preamble": 8594, " declares": 8595, " fre": 8596, " freed": 8597, " freedom": 8598, " (\"...": 8599, " liberty": 8600, " faith": 8601, ".\")": 8602, " 79": 8603, " follows": 8604, " Several": 8605, " Don": 8606, " Dony": 8607, " Donyi": 8608, "Pol": 8609, "Polo": 8610, " Sanam": 8611, " Sanamah": 8612, " Sanamahism": 8613, " Sarnaism": 8614, " Ni": 8615, " Niam": 8616, " Niamtre": 8617, "Jain": 8618, " Shra": 8619, " Shravan": 8620, " Shravanab": 8621, " Shravanabelag": 8622, " Shravanabelagol": 8623, " Shravanabelagola": 8624, " exterior": 8625, " Judes": 8626, " Chur": 8627, " Church": 8628, " Chinn": 8629, " Chinnathur": 8630, " Chinnathurai": 8631, " agi": 8632, " agiary": 8633, "Interior": 8634, " Mag": 8635, " Magen": 8636, " Dav": 8637, " David": 8638, " Sy": 8639, " Syn": 8640, " Synag": 8641, " Synagog": 8642, " Synagogue": 8643, "Educ": 8644, "Education": 8645, "%:": 8646, " 65": 8647, " gap": 8648, " dropp": 8649, " dropped": 8650, " improvement": 8651, " twice": 8652, " 93": 8653, " lowest": 8654, "82": 8655, " 1981": 8656, " respective": 8657, " 1921": 8658, " 1891": 8659, " Latika": 8660, " Cha": 8661, " Chaud": 8662, " Chaudh": 8663, " Chaudhary": 8664, " 191": 8665, " 1911": 8666, " Stat": 8667, " Statist": 8668, " Statistically": 8669, " priv": 8670, " private": 8671, " spending": 8672, " Pri": 8673, " Primary": 8674, " taugh": 8675, " taught": 8676, " uni": 8677, " univers": 8678, " universities": 8679, " higher": 8680, " reserved": 8681, " affirmative": 8682, " disad": 8683, " disadv": 8684, " disadvant": 8685, " disadvantag": 8686, " disadvantaged": 8687, " improved": 8688, " cited": 8689, " contributors": 8690, "Child": 8691, "Children": 8692, " awa": 8693, " await": 8694, " lun": 8695, " lunch": 8696, " Ray": 8697, " Rayk": 8698, " Rayka": 8699, "also": 8700, " Raika": 8701, " salut": 8702, " salutation": 8703, " Jai": 8704, " Bhim": 8705, " blackbo": 8706, " blackboard": 8707, " honours": 8708, " jurist": 8709, " refor": 8710, " reformer": 8711, " Amb": 8712, " Ambed": 8713, " Ambedk": 8714, " Ambedkar": 8715, " Madr": 8716, " Madras": 8717, " Madrasah": 8718, " Mas": 8719, " Masj": 8720, " Masjid": 8721, "Ala": 8722, " mos": 8723, " mosque": 8724, " Srir": 8725, " Srirang": 8726, " Srirangap": 8727, " Srirangapat": 8728, " Srirangapatna": 8729, " buil": 8730, " built": 8731, " 178": 8732, " 1786": 8733, " Tip": 8734, " Tipu": 8735, " Sultan": 8736, "II": 8737, "IIT": 8738, " Ro": 8739, " Roork": 8740, " Roorkee": 8741, " Thom": 8742, " Thomas": 8743, " Thomason": 8744, " College": 8745, " Engineering": 8746, " college": 8747, " foundedin": 8748, " 1847": 8749, " train": 8750, " construc": 8751, " construction": 8752, " Canal": 8753, "Health": 8754, " bears": 8755, " disp": 8756, " disprop": 8757, " disproportion": 8758, " disproportionately": 8759, " bur": 8760, " burden": 8761, " Health": 8762, "WHO": 8763, " statist": 8764, " statistics": 8765, " estimating": 8766, " infections": 8767, " account": 8768, " accounting": 8769, " carry": 8770, " infection": 8771, " chronic": 8772, " obstruct": 8773, " obstructive": 8774, " pul": 8775, " pulmon": 8776, " pulmonary": 8777, " death": 8778, " heart": 8779, " polluted": 8780, " limit": 8781, " quality": 8782, " reports": 8783, " meets": 8784, " saf": 8785, " safety": 8786, " gu": 8787, " guidel": 8788, " guidelines": 8789, " like": 8790, " equival": 8791, " equivalent": 8792, " smok": 8793, " smoking": 8794, " cig": 8795, " cigare": 8796, " cigarett": 8797, " cigarettes": 8798, " day": 8799, " killed": 8800, "Soc": 8801, "Societ": 8802, "Society": 8803, "Although": 8804, " uniqu": 8805, " uniquely": 8806, " broadly": 8807, " castes": 8808, " varnas": 8809, " Brahmin": 8810, " priest": 8811, " priests": 8812, " Ksh": 8813, " Kshat": 8814, " Kshatriya": 8815, " Vaish": 8816, " Vaishya": 8817, " Shud": 8818, " Shudra": 8819, " Out": 8820, " Outside": 8821, " lie": 8822, "outcastes": 8823, "untouch": 8824, "untouchables": 8825, "descri": 8826, "description": 8827, " pride": 8828, "bro": 8829, "brok": 8830, "broken": 8831, "downt": 8832, "downtro": 8833, "downtrod": 8834, "downtrodden": 8835, " Each": 8836, " divided": 8837, " jat": 8838, " jatis": 8839, " tied": 8840, " occupations": 8841, " custom": 8842, " endogamy": 8843, " marrying": 8844, " subcast": 8845, " subcaste": 8846, " label": 8847, " occupational": 8848, " cho": 8849, " choice": 8850, " entren": 8851, " entrenched": 8852, " abol": 8853, " abolished": 8854, " anti": 8855, "discrimin": 8856, "discriminatory": 8857, " initiatives": 8858, "based": 8859, " discrimination": 8860, " seg": 8861, " segreg": 8862, " segregation": 8863, "Mult": 8864, "Multi": 8865, "gener": 8866, "generational": 8867, " patr": 8868, " patril": 8869, " patriline": 8870, " patrilineal": 8871, " join": 8872, " joint": 8873, " norm": 8874, " arr": 8875, " arranged": 8876, " eld": 8877, " elders": 8878, " Mar": 8879, " Marri": 8880, " Marriage": 8881, " thous": 8882, " thousand": 8883, " reach": 8884, " reaching": 8885, " legal": 8886, " marriage": 8887, " marriageable": 8888, " moreover": 8889, " exogamy": 8890, " obser": 8891, " observed": 8892, " marries": 8893, " visit": 8894, " home": 8895, " rite": 8896, " rak": 8897, " raksha": 8898, " bandhan": 8899, " hom": 8900, " homes": 8901, " offer": 8902, " recour": 8903, " recourse": 8904, " marital": 8905, " stress": 8906, " tribe": 8907, " Dand": 8908, " Dandari": 8909, " Jainoor": 8910, " Telangana": 8911, " predates": 8912, " synt": 8913, " synthes": 8914, " synthesis": 8915, "first": 8916, " Ramnam": 8917, " Ramnami": 8918, " Sam": 8919, " Samaj": 8920, " Dalits": 8921, " deity": 8922, " Rama": 8923, " tatt": 8924, " tattoo": 8925, "Vis": 8926, "Visual": 8927, " exchanged": 8928, " greatly": 8929, " Thous": 8930, " Thousands": 8931, " civilisation": 8932, " Pash": 8933, " Pashup": 8934, " Pashupati": 8935, " 192": 8936, " 1928": 8937, "29": 8938, " Virt": 8939, " Virtually": 8940, " Alm": 8941, " Almost": 8942, " surviving": 8943, " dur": 8944, " durable": 8945, " coins": 8946, " wood": 8947, " lost": 8948, " Mauryan": 8949, " distinctly": 8950, " sculpting": 8951, " interest": 8952, " articul": 8953, " articulating": 8954, " prec": 8955, " precise": 8956, " anatomy": 8957, " showing": 8958, " smo": 8959, " smooth": 8960, " smoothly": 8961, " flowing": 8962, " expressing": 8963, " prana": 8964, "breath": 8965, " complic": 8966, " complicated": 8967, " need": 8968, " multip": 8969, " multiple": 8970, " heads": 8971, " genders": 8972, " Ardh": 8973, " Ardhan": 8974, " Ardhanar": 8975, " Ardhanarish": 8976, " Ardhanarishvara": 8977, " Parv": 8978, " Parvati": 8979, "Most": 8980, " stup": 8981, " stupas": 8982, " Sanch": 8983, " Sanchi": 8984, " Sarnath": 8985, " Amar": 8986, " Amarav": 8987, " Amaravati": 8988, " Kar": 8989, " Karla": 8990, " Ell": 8991, " Ellor": 8992, " Ellora": 8993, " spite": 8994, " mix": 8995, " mixture": 8996, " prev": 8997, " prevail": 8998, " prevailing": 8999, " sculptors": 9000, " regard": 9001, " regarded": 9002, " lingered": 9003, " Ele": 9004, " Eleph": 9005, " Elephanta": 9006, " Across": 9007, " formul": 9008, " formulaic": 9009, " 800": 9010, " fine": 9011, " finely": 9012, " det": 9013, " detail": 9014, " surrounds": 9015, " statues": 9016, " But": 9017, " Pallava": 9018, " Chola": 9019, " dyn": 9020, " dynast": 9021, " dynasties": 9022, " stone": 9023, " sust": 9024, " sustained": 9025, " ach": 9026, " achie": 9027, " achievement": 9028, " bronzes": 9029, " ic": 9030, " iconic": 9031, " symb": 9032, " symbol": 9033, " survived": 9034, " few": 9035, " crow": 9036, " crowded": 9037, " scenes": 9038, " Pain": 9039, " Painted": 9040, " manuscripts": 9041, " survive": 9042, " onwards": 9043, " significantly": 9044, "derived": 9045, " start": 9046, " starting": 9047, " mini": 9048, " miniature": 9049, " emphasis": 9050, " portra": 9051, " portraits": 9052, " recording": 9053, " prince": 9054, " princely": 9055, " pleas": 9056, " pleasures": 9057, " variety": 9058, " smaller": 9059, " innovative": 9060, " Nih": 9061, " Nihâ": 9062, " Nihâl": 9063, " Nains": 9064, " Nainsu": 9065, " Nainsukh": 9066, " supplied": 9067, " considerable": 9068, " cheap": 9069, " Kaligh": 9070, " Kalighat": 9071, " done": 9072, " Cal": 9073, " Calc": 9074, " Calcut": 9075, " Calcutta": 9076, " Sch": 9077, " School": 9078, " Art": 9079, " reflect": 9080, " reflecting": 9081, "Bhutes": 9082, "Bhutesvara": 9083, " Yakshis": 9084, " Mathur": 9085, " Mathura": 9086, "Gupta": 9087, " Killing": 9088, " Horse": 9089, " Demon": 9090, " Kes": 9091, " Keshi": 9092, "Krishna": 9093, " Fl": 9094, " Flut": 9095, " Fluting": 9096, " Mil": 9097, " Milk": 9098, " Milkma": 9099, " Milkmaid": 9100, " Milkmaids": 9101, " Kangra": 9102, " 1775": 9103, "178": 9104, "1785": 9105, "Chol": 9106, "Chola": 9107, "Lord": 9108, "\"),": 9109, "Mathem": 9110, "Mathematic": 9111, "Mathematics": 9112, "Sign": 9113, "Significant": 9114, " Ś": 9115, " Śul": 9116, " Śulb": 9117, " Śulba": 9118, " Sū": 9119, " Sūtr": 9120, " Sūtras": 9121, "literally": 9122, "Aph": 9123, "Aphor": 9124, "Aphorism": 9125, "Aphorisms": 9126, " Chord": 9127, " Chords": 9128, " ver": 9129, " verbal": 9130, " Pyth": 9131, " Pythag": 9132, " Pythagore": 9133, " Pythagorean": 9134, " theore": 9135, " theorem": 9136, "although": 9137, " likely": 9138, " Bab": 9139, " Baby": 9140, " Babyl": 9141, " Babylon": 9142, " Babylonians": 9143, " .)": 9144, " docu": 9145, " document": 9146, " birch": 9147, " bark": 9148, " Bakh": 9149, " Bakhsh": 9150, " Bakhshali": 9151, " Ary": 9152, " Aryabh": 9153, " Aryabhata": 9154, " Brahmag": 9155, " Brahmagupta": 9156, " Bhas": 9157, " Bhask": 9158, " Bhaskara": 9159, " Var": 9160, " Varā": 9161, " Varāh": 9162, " Varāham": 9163, " Varāhami": 9164, " Varāhamihi": 9165, " Varāhamihira": 9166, " Madhav": 9167, " Madhava": 9168, " decimal": 9169, " concept": 9170, " zer": 9171, " zero": 9172, " neg": 9173, " negative": 9174, " arith": 9175, " arithm": 9176, " arithmetic": 9177, " alge": 9178, " algeb": 9179, " algebra": 9180, " Trigonomet": 9181, " Trigonometry": 9182, " definitions": 9183, " sine": 9184, " concepts": 9185, " landmar": 9186, " landmark": 9187, " expansions": 9188, " trigonomet": 9189, " trigonometric": 9190, " fun": 9191, " func": 9192, " functions": 9193, "sine": 9194, " arc": 9195, " tang": 9196, " tangent": 9197, " completed": 9198, " invention": 9199, " calc": 9200, " calcul": 9201, " calculus": 9202, " Srin": 9203, " Sriniv": 9204, " Srinivas": 9205, " Srinivasa": 9206, " Raman": 9207, " Ramanuj": 9208, " Ramanujan": 9209, " theory": 9210, "Mus": 9211, "Music": 9212, " arra": 9213, " array": 9214, " musical": 9215, " musics": 9216, " origins": 9217, " split": 9218, " improv": 9219, " improvis": 9220, " improvisational": 9221, " featuring": 9222, " instru": 9223, " instruments": 9224, " tab": 9225, " tabla": 9226, " foc": 9227, " focused": 9228, " compositions": 9229, " krit": 9230, " kriti": 9231, " while": 9232, " elements": 9233, " raga": 9234, " mel": 9235, " melodi": 9236, " melodic": 9237, " tala": 9238, " rh": 9239, " rhyth": 9240, " rhythm": 9241, " rhythmic": 9242, " meter": 9243, " genres": 9244, " ja": 9245, " jaz": 9246, " jazz": 9247, " musicians": 9248, " counter": 9249, " counterc": 9250, " counterculture": 9251, " film": 9252, " cinem": 9253, " cinema": 9254, " directors": 9255, " sung": 9256, " playback": 9257, " singers": 9258, " Modern": 9259, " takes": 9260, " Subb": 9261, " Subbul": 9262, " Subbulak": 9263, " Subbulaks": 9264, " Subbulakshm": 9265, " Subbulakshmi": 9266, " vocal": 9267, " vocalist": 9268, "Carnatic": 9269, " mrid": 9270, " mridang": 9271, " mridangam": 9272, " Palgh": 9273, " Palghat": 9274, " Mani": 9275, " Iy": 9276, " Iyer": 9277, "left": 9278, " violinist": 9279, " violinists": 9280, ".:": 9281, " Vaid": 9282, " Vaidyan": 9283, " Vaidyanathan": 9284, " Subra": 9285, " Subram": 9286, " Subramani": 9287, " Subramaniam": 9288, "Alla": 9289, "Allaud": 9290, "Allaudd": 9291, "Allauddin": 9292, " Khan": 9293, " sarod": 9294, " teac": 9295, " teacher": 9296, "Ravi": 9297, " Wood": 9298, " Woodst": 9299, " Woodstock": 9300, " drawn": 9301, " heavi": 9302, " heavily": 9303, " arose": 9304, " contexts": 9305, " spons": 9306, " sponsors": 9307, " sponsorship": 9308, " promotion": 9309, " Whe": 9310, " Whether": 9311, " deter": 9312, " determ": 9313, " determined": 9314, " Sange": 9315, " Sangeet": 9316, " Natak": 9317, " Academi": 9318, " perform": 9319, " performing": 9320, " perh": 9321, " perhaps": 9322, " meet": 9323, " criter": 9324, " criteria": 9325, " Akademi": 9326, "known": 9327, " Bharatn": 9328, " Bharatnatyam": 9329, " temple": 9330, " devad": 9331, " devadas": 9332, " devadasis": 9333, " Id": 9334, " Ident": 9335, " Identified": 9336, "prostitutes": 9337, " courtes": 9338, " courtesans": 9339, " dan": 9340, " danc": 9341, " dancing": 9342, " bann": 9343, " banned": 9344, " Conc": 9345, " Concur": 9346, " Concurrent": 9347, " Concurrently": 9348, " reh": 9349, " rehabil": 9350, " rehabilitated": 9351, "pure": 9352, " Ruk": 9353, " Rukmin": 9354, " Rukmini": 9355, " Arund": 9356, " Arundale": 9357, " prominent": 9358, " devd": 9359, " devdasi": 9360, " attain": 9361, " prominence": 9362, " Than": 9363, " Thanj": 9364, " Thanjav": 9365, " Thanjavur": 9366, " Balas": 9367, " Balasar": 9368, " Balasaras": 9369, " Balasarasw": 9370, " Balasaraswati": 9371, " sources": 9372, " Odisha": 9373, "Local": 9374, " Ras": 9375, " Rasl": 9376, " Raslil": 9377, " Raslila": 9378, " Teruk": 9379, " Terukk": 9380, " Terukkut": 9381, " Terukkutt": 9382, " Terukkuttu": 9383, " calendrical": 9384, " Bhangra": 9385, " Vais": 9386, " Vaisak": 9387, " Vaisakhi": 9388, " spring": 9389, " Garb": 9390, " Garba": 9391, " Nav": 9392, " Navrat": 9393, " Navratri": 9394, " Adiv": 9395, " Adivasi": 9396, " Santal": 9397, " Tod": 9398, " Toda": 9399, " honour": 9400, " Ö": 9401, " Ön": 9402, " buff": 9403, " buffal": 9404, " buffalo": 9405, " earth": 9406, "Among": 9407, " directions": 9408, " Uday": 9409, " adhered": 9410, " rig": 9411, " rigidly": 9412, " Examp": 9413, " Examples": 9414, " fables": 9415, " Pan": 9416, " Panch": 9417, " Panchat": 9418, " Panchatant": 9419, " Panchatantra": 9420, " medit": 9421, " meditation": 9422, " Discover": 9423, " Discovery": 9424, " asp": 9425, " aspect": 9426, " films": 9427, " tal": 9428, " talk": 9429, " talkies": 9430, " indiv": 9431, " individ": 9432, " individual": 9433, " Bol": 9434, " Bolly": 9435, " Bollyw": 9436, " Bollywood": 9437, " Tow": 9438, " Towards": 9439, " innovations": 9440, "Bhangra": 9441, " Kathakali": 9442, " Bharatan": 9443, " Bharatanatyam": 9444, " absorb": 9445, " absorbed": 9446, "Cl": 9447, "Cloth": 9448, "Clothing": 9449, "From": 9450, " dress": 9451, " draped": 9452, " pi": 9453, " piec": 9454, " piece": 9455, " yards": 9456, " wra": 9457, " wrapp": 9458, " wrapped": 9459, " comb": 9460, " combined": 9461, " unders": 9462, " undersk": 9463, " underskirt": 9464, " pett": 9465, " pettico": 9466, " petticoat": 9467, " tuc": 9468, " tucked": 9469, " secure": 9470, " fastening": 9471, " blouse": 9472, " choli": 9473, " serves": 9474, "covering": 9475, " midri": 9476, " midriff": 9477, " obsc": 9478, " obscuring": 9479, " contours": 9480, " shorter": 9481, " stit": 9482, " stitched": 9483, " clot": 9484, " clothes": 9485, " widespread": 9486, " 1300": 9487, " 152": 9488, " 1525": 9489, " garments": 9490, " still": 9491, " shalwars": 9492, " py": 9493, " pyj": 9494, " pyjam": 9495, " pyjamas": 9496, " trous": 9497, " trousers": 9498, " tunics": 9499, " Shalw": 9500, " Shalwars": 9501, " atypically": 9502, " cuff": 9503, " cuffed": 9504, " draw": 9505, " drawstring": 9506, " causes": 9507, " pleated": 9508, " When": 9509, " quite": 9510, " bias": 9511, " shirt": 9512, " tunic": 9513, " side": 9514, " seams": 9515, " waistline": 9516, " collar": 9517, " collarles": 9518, " collarless": 9519, " cot": 9520, " cott": 9521, " cotton": 9522, " silk": 9523, " embro": 9524, " embroid": 9525, " embroidered": 9526, " decoration": 9527, " chik": 9528, " chikank": 9529, " chikankari": 9530, " typically": 9531, " falls": 9532, " wearer": 9533, " knees": 9534, " fashions": 9535, " changed": 9536, " deal": 9537, " Increasingly": 9538, " appare": 9539, " apparel": 9540, " rare": 9541, " rarely": 9542, " youn": 9543, " younger": 9544, " favour": 9545, " je": 9546, " jeans": 9547, " settings": 9548, " ub": 9549, " ubiqu": 9550, " ubiquit": 9551, " ubiquitous": 9552, " condition": 9553, " conditioning": 9554, " allows": 9555, " wedd": 9556, " weddings": 9557, " bandh": 9558, " bandhg": 9559, " bandhgala": 9560, " groom": 9561, " grooms": 9562, " groomsm": 9563, " groomsmen": 9564, " sporting": 9565, " sher": 9566, " sherwan": 9567, " sherwanis": 9568, " wool": 9569, " wooll": 9570, " woollen": 9571, " Varan": 9572, " Varanasi": 9573, "Female": 9574, " tou": 9575, " tourist": 9576, " tourists": 9577, " phan": 9578, " phanek": 9579, "lower": 9580, " sarong": 9581, "Wom": 9582, "Women": 9583, "kameez": 9584, "Cu": 9585, "Cuisine": 9586, " foundation": 9587, " typ": 9588, " typical": 9589, " meal": 9590, " plainly": 9591, " complement": 9592, " complemented": 9593, " rice": 9594, " chapati": 9595, " thin": 9596, " unle": 9597, " unleav": 9598, " unleavened": 9599, " id": 9600, " idli": 9601, " breakfast": 9602, " cake": 9603, " dosa": 9604, " grid": 9605, " gridd": 9606, " griddled": 9607, " panc": 9608, " pancake": 9609, " might": 9610, " lent": 9611, " lentils": 9612, " puls": 9613, " pulses": 9614, " vegetables": 9615, " pou": 9616, " poul": 9617, " poult": 9618, " poultry": 9619, " spiced": 9620, " ging": 9621, " ginger": 9622, " cori": 9623, " coriand": 9624, " coriander": 9625, " cum": 9626, " cumin": 9627, " tur": 9628, " turmer": 9629, " turmeric": 9630, " cinnam": 9631, " cinnamon": 9632, " card": 9633, " cardam": 9634, " cardamom": 9635, " instances": 9636, " ing": 9637, " ingre": 9638, " ingredient": 9639, " ingredients": 9640, " mixed": 9641, " distinctive": 9642, " cuis": 9643, " cuisines": 9644, " geographical": 9645, " histories": 9646, " adhe": 9647, " adherents": 9648, " Ab": 9649, " About": 9650, " 39": 9651, " vegetari": 9652, " vegetarians": 9653, " proportion": 9654, " proportional": 9655, " import": 9656, " techniqu": 9657, " techniques": 9658, " pilaf": 9659, " On": 9660, " Onions": 9661, " alm": 9662, " almonds": 9663, " spices": 9664, " simple": 9665, " yog": 9666, " yogur": 9667, " yogurt": 9668, " marin": 9669, " marinade": 9670, " Persia": 9671, " Rice": 9672, " layered": 9673, " altern": 9674, " alternately": 9675, " saute": 9676, " sauteed": 9677, " sealed": 9678, " tight": 9679, " tightly": 9680, " technique": 9681, " biry": 9682, " biryani": 9683, " festive": 9684, " dining": 9685, " worldw": 9686, " worldwide": 9687, " conceal": 9688, " concealed": 9689, " cuisine": 9690, " popularity": 9691, " tandoori": 9692, " chick": 9693, " chicken": 9694, "cook": 9695, "cooked": 9696, " oven": 9697, " bak": 9698, " baking": 9699, "dates": 9700, " entre": 9701, " entrep": 9702, " entrepren": 9703, " entreprene": 9704, " entrepreneur": 9705, " entrepreneurial": 9706, " displaced": 9707, "South": 9708, " thali": 9709, " plat": 9710, " platter": 9711, "Mach": 9712, "Machher": 9713, " jhol": 9714, " spicy": 9715, " curry": 9716, "Mang": 9717, "Mango": 9718, " fru": 9719, " fruit": 9720, " month": 9721, " months": 9722, "Sp": 9723, "Sports": 9724, "Several": 9725, " kabad": 9726, " kabaddi": 9727, " peh": 9728, " pehl": 9729, " pehlw": 9730, " pehlwani": 9731, " gill": 9732, " gilli": 9733, "danda": 9734, " mart": 9735, " martial": 9736, " Kalari": 9737, " Kalaripp": 9738, " Kalarippay": 9739, " Kalarippayatt": 9740, " Kalarippayattu": 9741, " marma": 9742, " adi": 9743, " originated": 9744, " chat": 9745, " chatur": 9746, " chatura": 9747, " chaturaṅ": 9748, " chaturaṅga": 9749, " grand": 9750, " grandm": 9751, " grandmast": 9752, " grandmasters": 9753, " Vis": 9754, " Viswan": 9755, " Viswanathan": 9756, " Anand": 9757, " undis": 9758, " undisput": 9759, " undisputed": 9760, " Champion": 9761, " Parc": 9762, " Parche": 9763, " Parchees": 9764, " Parcheesi": 9765, " derived": 9766, " Pach": 9767, " Pachis": 9768, " Pachisi": 9769, " pastime": 9770, " giant": 9771, " marble": 9772, "Cricket": 9773, " success": 9774, " successf": 9775, " successful": 9776, " teams": 9777, " Cricket": 9778, " Champions": 9779, " Tro": 9780, " Troph": 9781, " Trophies": 9782, " fie": 9783, " field": 9784, " med": 9785, " medals": 9786, " team": 9787, " capt": 9788, " captained": 9789, " Dh": 9790, " Dhyan": 9791, "standing": 9792, ".),": 9793, " finals": 9794, " 1936": 9795, " Summer": 9796, " consecut": 9797, " consecutive": 9798, " Olympic": 9799, " golds": 9800, "Guk": 9801, "Gukesh": 9802, " Dom": 9803, " Dommar": 9804, " Dommaraj": 9805, " Dommaraju": 9806, " reign": 9807, " reigning": 9808, " chess": 9809, " champ": 9810, " champion": 9811, " Sach": 9812, " Sachin": 9813, " Tend": 9814, " Tendulk": 9815, " Tendulkar": 9816, "getter": 9817, " defens": 9818, " defensive": 9819, " stro": 9820, " stroke": 9821, " Austral": 9822, " Australia": 9823, "See": 9824, "Countries": 9825, "Asia": 9826, "Out": 9827, "Outline": 9828, "Not": 9829, "Notes": 9830, "Ref": 9831, "Refer": 9832, "References": 9833, "Bib": 9834, "Bibli": 9835, "Bibliograph": 9836, "Bibliography": 9837, "Overvi": 9838, "Overview": 9839, "Ex": 9840, "External": 9841, " lin": 9842, " links": 9843, "Defin": 9844, "Definitions": 9845, " Wiktionary": 9846, "Media": 9847, " Commons": 9848, "Qu": 9849, "Quot": 9850, "Quotations": 9851, " Wikiqu": 9852, " Wikiquote": 9853, "Texts": 9854, " Wikis": 9855, " Wikisour": 9856, " Wikisource": 9857, "Tex": 9858, "Text": 9859, "Textbook": 9860, "Textbooks": 9861, " Wikib": 9862, " Wikibook": 9863, " Wikibooks": 9864, "Res": 9865, "Resources": 9866, " Wiki": 9867, " Wikiversity": 9868, "Tra": 9869, "Travel": 9870, " Wikiv": 9871, " Wikivo": 9872, " Wikivoy": 9873, " Wikivoyage": 9874, "Official": 9875, " webs": 9876, " website": 9877, " Web": 9878, " Dire": 9879, " Direct": 9880, " Directory": 9881, "General": 9882, " Intell": 9883, " Intellig": 9884, " Intelligence": 9885, " Gov": 9886, " GovP": 9887, " GovPub": 9888, " GovPubs": 9889, " Uni": 9890, " University": 9891, " Color": 9892, " Colorad": 9893, " Colorado": 9894, " Boulder": 9895, " Lib": 9896, " Libr": 9897, " Libraries": 9898, " News": 9899, "Wik": 9900, "Wikime": 9901, "Wikimedia": 9902, " Atl": 9903, " Atlas": 9904, "Geographic": 9905, " Op": 9906, " Open": 9907, " OpenS": 9908, " OpenStre": 9909, " OpenStreet": 9910, " OpenStreetM": 9911, " OpenStreetMap": 9912, "Key": 9913, " Develop": 9914, " Development": 9915, " Forecast": 9916, " Forecasts": 9917, " Fut": 9918, " Futures": 9919, "रब": 9920, "ंगा": 9921, " उन": 9922, " परमाण": 9923, " परमाणु": 9924, " मिल": 9925, " निर्माण": 9926, " पू": 9927, " सै": 9928, " जाती": 9929, "बर": 9930, " मुख्य": 9931, " कॉंग्रेस": 9932, " పార్ల": 9933, " పార్లమె": 9934, " పార్లమెంట": 9935, " అణ": 9936, "వస్త": 9937, "ాతం": 9938, "ోంది": 9939, "లంక": 9940, " ఇండ": 9941, " ఇండో": 9942, "ముల": 9943, "భాష": 9944, "ౌర్య": 9945, "వర్తి": 9946, "పరి": 9947, "ాధ": 9948, "ింగ్": 9949, " నాయక": 9950, "సాయ": 9951, " తర్వ": 9952, "భవ": 9953, "భవించి": 9954, "కాహార": 9955, "పే": 9956, "ుకోవ": 9957, " వేద": 9958, "ార్థ": 9959, " కృ": 9960, " గోదా": 9961, "వరీ": 9962, "ండ్": 9963, " భరత": 9964, " ఇత": 9965, " విశ్వ": 9966, "ామ": 9967, " పూర్వ": 9968, "యు": 9969, " శి": 9970, "చిత్ర": 9971, " మాన": 9972, "ారాల": 9973, " క్రి": 9974, " మె": 9975, "హర్": 9976, "గర్": 9977, " విలు": 9978, "వైన": 9979, "ోక": 9980, " వం": 9981, "ణించ": 9982, " పల్ల": 9983, "జ్": 9984, " తత్వ": 9985, " మొగ": 9986, "ట్టు": 9987, "రెండ": 9988, "ర్చు": 9989, " ఇక్క": 9990, "ితి": 9991, "ుకున్న": 9992, "ంచిన": 9993, "త్తా": 9994, "ర్షణ": 9995, " చవి": 9996, "జా": 9997, " లక్షణ": 9998, " కాపా": 9999}, "merges": [[" ", "t"], ["a", "n"], ["h", "e"], ["i", "n"], [" t", "he"], ["o", "n"], ["e", "r"], ["r", "e"], ["a", "l"], [" ", "o"], ["s", "t"], ["a", "t"], ["e", "n"], ["a", "r"], ["d", "i"], ["an", "d"], [" ", "c"], ["e", "d"], [" ", "I"], [" ", "a"], [" ", "in"], [" o", "f"], [" ", "w"], ["i", "t"], [" ", "s"], [" I", "n"], [" ", "and"], ["o", "r"], [" ", ","], [" ", "p"], [" ", "b"], ["i", "on"], ["e", "s"], [" ", "m"], [" ", "f"], ["i", "c"], [" In", "di"], ["i", "s"], ["in", "g"], ["a", "s"], ["o", "m"], ["en", "t"], [" ", "l"], ["्", "र"], ["्", "य"], ["o", "u"], [" ", "e"], [" Indi", "a"], [" t", "o"], [" ", "स"], [" ", "1"], ["ा", "र"], [" ", "d"], ["u", "r"], ["l", "y"], [" ", "h"], ["e", "c"], ["न", "्"], [" ", "T"], [" ", "क"], [" ", "re"], ["i", "l"], [" ", "n"], [" ", "g"], [" ", "प"], ["r", "a"], ["t", "h"], ["r", "i"], [" ", "अ"], ["u", "l"], ["o", "l"], ["్", "ర"], ["v", "er"], ["a", "m"], [" ", "ప"], [" ", "C"], [" ", "A"], [" ", "."], ["र", "्"], ["at", "ion"], [" ", "B"], [" ", "S"], ["ా", "ర"], ["v", "e"], [" ", "2"], ["l", "e"], ["r", "o"], ["u", "t"], ["स", "्"], ["c", "e"], [" T", "he"], [" ", "भ"], [" ", "is"], ["a", "d"], ["i", "st"], ["ार", "त"], ["त", "ि"], ["ా", "ల"], ["g", "e"], ["i", "m"], [" ", "व"], [" Indi", "an"], [" b", "y"], ["म", "्"], ["u", "s"], ["a", "st"], [" b", "e"], [" 1", "9"], [" ", "म"], ["i", "g"], ["र", "ा"], ["u", "n"], ["'", "s"], [" t", "h"], [" ", "స"], [" ", "P"], ["it", "h"], ["i", "r"], ["i", "d"], ["o", "w"], ["त", "्"], [" ", "r"], [" ", "M"], [" ", "క"], ["u", "c"], ["स", "्य"], ["r", "om"], [" w", "ith"], ["e", "t"], [" f", "or"], ["0", "0"], ["at", "e"], [" c", "on"], ["m", "ent"], ["ల", "ో"], [" w", "as"], ["e", "m"], ["an", "g"], ["t", "er"], ["o", "p"], ["i", "es"], [" w", "h"], ["t", "ion"], [" ", "द"], ["్", "య"], ["ा", "न"], [" m", "o"], [" a", "s"], ["a", "in"], ["re", "s"], [" f", "rom"], ["on", "g"], [" ", "st"], ["a", "c"], [" ", "("], [" भ", "ारत"], ["ि", "क"], [" ", "వ"], ["e", "st"], [" ", "మ"], [" प", "्र"], [" ", "त"], [" ", "N"], ["t", "s"], ["े", "श"], ["he", "r"], ["a", "y"], ["ic", "al"], [" e", "x"], ["న", "్"], [" ", "H"], [" ", "D"], [" ", "E"], [" ", "it"], ["s", "e"], [" ", "G"], ["l", "d"], [" ", "ह"], [" ", "on"], ["य", "ा"], ["a", "b"], ["ద", "ి"], ["u", "m"], ["ద", "ే"], ["a", "k"], [" ", "di"], [" ", "an"], ["g", "h"], ["il", "l"], ["ar", "t"], [" ", "च"], [" ", "न"], ["దే", "శ"], ["ic", "h"], ["त", "्र"], [" o", "r"], [" ", "ज"], [" h", "as"], [" ", "आ"], ["స", "్"], ["ర", "్"], ["i", "al"], [" 2", "0"], ["ి", "ం"], ["्", "व"], [" ", "रा"], ["u", "p"], ["u", "d"], ["న", "ి"], ["భ", "ార"], ["d", "er"], [" wh", "ich"], ["భార", "త"], [" ", "ర"], ["ల", "ు"], ["it", "y"], [" ", "ब"], [" a", "re"], ["i", "ve"], [" ప", "్ర"], ["ि", "त"], [" व", "ि"], [" ", "ग"], ["o", "c"], [" ", "un"], ["ul", "t"], ["or", "t"], ["c", "on"], ["d", "u"], ["u", "re"], ["e", "l"], ["ou", "n"], [" ", "అ"], ["u", "b"], ["r", "it"], ["ी", "य"], ["l", "i"], [" क", "े"], ["er", "s"], ["न", "ा"], ["o", "t"], [" ", "K"], [" ", "v"], ["ा", "ल"], ["i", "v"], [" ", "इ"], ["ar", "y"], [" in", "c"], [" ", "al"], ["ष", "्"], [" it", "s"], ["er", "e"], [" c", "om"], [" c", "ent"], ["o", "ver"], ["గ", "ా"], ["ి", "క"], ["an", "s"], ["న్", "న"], [" ", "ए"], [" ", "W"], ["त", "ा"], [" w", "or"], ["en", "d"], [" d", "e"], ["c", "h"], ["a", "g"], ["ङ", "्"], ["ar", "ge"], ["e", "ar"], [" w", "ere"], ["o", "d"], ["व", "ि"], ["म", "ा"], ["m", "p"], ["ou", "r"], ["at", "ed"], [" ", "ఉ"], [" ", "श"], ["I", "n"], [" H", "in"], ["o", "s"], ["T", "he"], ["न", "ि"], ["े", "ं"], ["क", "्"], [" A", "s"], ["an", "t"], ["a", "ge"], ["is", "m"], ["is", "h"], [" c", "h"], ["a", "p"], [" s", "p"], [" con", "t"], ["र्", "व"], ["भ", "ारत"], [" ", "at"], [" p", "ro"], ["an", "ce"], ["r", "y"], ["క", "్"], ["o", "g"], ["ా", "య"], [" ", "उ"], ["ou", "th"], ["ou", "s"], [" in", "t"], ["ion", "s"], ["ur", "ing"], ["ec", "t"], [" p", "l"], ["f", "ter"], ["a", "j"], ["over", "n"], ["ou", "gh"], ["ष्", "ट"], [" ", "R"], ["ि", "न्"], ["am", "e"], ["con", "om"], ["er", "al"], ["as", "s"], ["a", "v"], [" ", "భారత"], ["द", "ेश"], [" C", "h"], [" c", "o"], ["l", "ow"], [" ", "U"], [" 20", "1"], [" म", "ें"], ["దేశ", "ం"], ["ang", "u"], [" द", "ेश"], ["ह", "ा"], ["ా", "త"], [" स", "ं"], [" ", "ar"], ["i", "f"], ["er", "n"], [" ", "J"], [" b", "ec"], [" l", "e"], [" p", "art"], ["o", "re"], ["overn", "ment"], ["న", "ు"], [" ह", "ै"], ["श", "्"], ["్", "ట"], ["ृ", "त"], [" re", "g"], ["m", "er"], [" int", "o"], ["h", "i"], [" cent", "ur"], [" e", "conom"], ["an", "y"], [" l", "arge"], ["ill", "ion"], [" क", "ा"], ["्य", "ा"], ["క", "ు"], ["ాల", "ు"], [" ", "చ"], ["द", "्"], [" m", "ar"], [" re", "l"], ["at", "es"], ["res", "s"], ["थ", "ा"], [" ", "జ"], ["In", "di"], ["i", "a"], [" wor", "ld"], [" for", "m"], [" l", "angu"], [" p", "er"], [" c", "l"], [" a", "d"], ["c", "es"], ["c", "t"], ["్", "వ"], ["े", "न"], ["ज", "्य"], ["न्", "ति"], ["ం", "డ"], [" s", "e"], [" p", "op"], [" s", "ub"], [" a", "g"], ["al", "ly"], [" Hin", "du"], [" ", "k"], ["st", "it"], ["m", "e"], ["in", "ist"], ["ీ", "య"], ["in", "e"], ["े", "ण"], ["ी", "त"], ["en", "ce"], [" ", "y"], ["ut", "ion"], ["ation", "al"], ["ir", "st"], ["q", "u"], ["h", "ar"], [" e", "l"], [" ", "ఇ"], [" ", "7"], ["द", "्र"], [" ", "V"], ["s", "o"], ["త", "ి"], ["ा", "स"], ["ి", "న"], ["i", "an"], [" In", "d"], ["Indi", "a"], [" pop", "ul"], ["re", "d"], ["a", "ve"], ["i", "k"], ["d", "uc"], [" f", "irst"], ["al", "l"], [" d", "uring"], [" g", "overnment"], [" ", "\""], ["ष्ट", "्र"], [" ", "5"], ["ిం", "చ"], [" ", "-"], ["क्", "ष"], ["ం", "ది"], ["व", "ा"], ["त", "े"], ["ा", "ग"], [" ", "र"], [" s", "h"], [" ", "ri"], [" d", "ec"], ["i", "re"], [" p", "ri"], [" s", "y"], ["re", "as"], [" t", "ra"], ["p", "p"], ["l", "ud"], ["प", "्र"], ["o", "k"], [" व", "र्"], ["స్", "త"], [" स", "्"], ["ध", "ान"], [" ", "य"], ["r", "ic"], [" y", "ear"], ["c", "c"], ["re", "at"], [" ex", "p"], ["t", "her"], [" com", "p"], ["om", "e"], ["w", "e"], [" g", "en"], ["di", "tion"], ["b", "er"], ["ల", "్"], [" ", "F"], ["ध", "र्"], ["ag", "es"], [" ", "3"], [" ", "4"], ["oun", "d"], ["der", "n"], ["v", "ed"], ["f", "f"], ["d", "h"], [" ", "art"], ["g", "an"], [" o", "ver"], ["ig", "n"], ["ro", "w"], ["id", "e"], [" ", "end"], ["e", "w"], ["o", "th"], ["uc", "h"], [" inc", "lud"], ["ec", "tion"], ["न्", "त"], [" ", "ఆ"], ["ద", "్"], ["r", "al"], ["ig", "h"], ["est", "ern"], ["us", "ed"], ["up", "p"], [" con", "s"], [" bec", "ame"], [" re", "s"], ["stit", "ution"], [" in", "f"], ["aj", "or"], [" sy", "st"], [" syst", "em"], [" centur", "y"], [" al", "so"], ["ర", "ి"], [" ", "ल"], ["మ", "ు"], ["धर्", "म"], ["ర", "ు"], [" रा", "ष्ट्र"], ["ो", "ं"], ["ष", "ा"], [" अ", "स्"], ["e", "p"], [" స", "ం"], [" h", "ad"], [" rel", "ig"], ["mp", "ire"], [" p", "e"], [" r", "ul"], [" b", "ut"], [" be", "en"], ["at", "ic"], ["im", "al"], [" h", "ave"], ["t", "ed"], [" mo", "re"], [" 20", "2"], [" ", "న"], [" ", "త"], [" ", "L"], ["ం", "త"], [" 2", "00"], [" ర", "ా"], [" ", ")"], ["स", "ी"], [" ", "ద"], [" अस्", "ति"], ["ా", "న"], [" S", "outh"], ["en", "g"], ["or", "d"], [" m", "e"], [" t", "w"], ["ur", "al"], [" a", "fter"], [" m", "illion"], [" cl", "ass"], ["m", "ong"], ["ver", "s"], [" ", "im"], [" n", "um"], ["ong", "ress"], [" भारत", "ीय"], [" ", "औ"], ["स", "ं"], [" ", "బ"], ["ం", "ట"], ["వ", "ి"], ["భ", "ా"], [" re", "p"], [" औ", "र"], ["त", "ः"], ["प", "ि"], ["स्", "त"], [" ग", "ीत"], [" mo", "st"], [" ", "O"], [" l", "at"], [" year", "s"], [" reg", "ion"], [" ", "he"], [" p", "ol"], ["o", "se"], ["ult", "ure"], [" tw", "o"], [" mo", "dern"], [" inc", "reas"], [" th", "at"], ["h", "m"], ["ve", "l"], ["en", "s"], ["on", "d"], [" s", "uch"], ["l", "o"], ["ow", "er"], [" the", "ir"], [" m", "inist"], ["िक", "ा"], ["क", "ृत"], ["oun", "t"], [" 19", "5"], [" 19", "6"], ["त", "म"], ["न्", "त्र"], ["ాయ", "ి"], ["C", "E"], [" ", "గ"], [" अ", "न"], ["ార", "ు"], ["ङ्", "क"], ["u", "st"], ["ष", "ु"], ["or", "th"], ["t", "in"], [" l", "ong"], [" B", "CE"], [" B", "ud"], [" Bud", "dh"], [" s", "oc"], ["e", "f"], [" s", "c"], ["u", "res"], ["ang", "es"], [" p", "ar"], [" m", "ajor"], [" di", "s"], [" tra", "dition"], ["re", "e"], [" ", ";"], [" b", "oth"], ["s", "h"], ["re", "n"], ["we", "en"], ["b", "an"], ["ri", "b"], [" c", "a"], [" C", "ongress"], [" pri", "me"], [" d", "ance"], [" क", "ी"], ["ు", "త"], ["ై", "న"], ["ि", "ण"], ["ూ", "డ"], ["ిం", "ది"], ["द्", "ध"], ["ार", "्"], ["द", "ा"], ["ास", "न"], ["ङ्", "ग"], ["l", "ic"], [" As", "ia"], ["ist", "an"], [" c", "ast"], ["ation", "s"], ["he", "d"], [" popul", "ation"], [" t", "er"], ["ur", "ban"], ["l", "es"], ["p", "h"], [" n", "ot"], ["am", "il"], [" g", "row"], [" un", "der"], ["ar", "d"], [" s", "er"], ["ा", "म"], ["न्", "द्र"], ["म", "ु"], [" ", "ఎ"], [" 19", "9"], [" प", "र"], ["క", "ి"], ["ం", "గా"], ["थ", "ान"], ["ी", "प"], [" 1", "8"], ["ac", "h"], ["ा", "षा"], ["ol", "og"], ["ध", "िक"], ["ल", "्"], [" వ", "ి"], ["క్", "ష"], ["ం", "గ"], [" इ", "ति"], ["ధ", "ిక"], ["द", "्व"], [" स", "े"], [" of", "f"], ["ial", "ly"], ["in", "ce"], [" e", "ast"], ["is", "ation"], ["n", "i"], [" langu", "age"], ["a", "w"], [" s", "upp"], [" n", "ort"], [" cast", "e"], ["t", "y"], [" th", "is"], [" E", "mpire"], [" B", "rit"], [" Brit", "ish"], [" be", "gan"], ["r", "ough"], ["am", "ent"], ["uc", "le"], ["ucle", "ar"], [" m", "il"], ["ar", "i"], [" m", "any"], [" a", "pp"], ["or", "y"], [" be", "t"], [" bet", "ween"], [" ", "urban"], ["ic", "s"], [" t", "e"], [" ", "ra"], [" el", "ection"], [" minist", "er"], [" ", "j"], [" m", "us"], [" ", "శ"], ["१", "९"], ["य", "ो"], [" ఉ", "న్న"], ["ा", "द"], [" रा", "ज्य"], ["ట", "ి"], ["00", "0"], ["ि", "म"], ["ण", "्"], ["ि", "ः"], [" I", "t"], [" s", "outh"], ["ou", "t"], [" l", "and"], ["ak", "istan"], [" n", "orth"], ["s", "l"], ["con", "tin"], ["contin", "ent"], [" re", "c"], [" e", "ar"], ["v", "i"], [" nort", "her"], [" norther", "n"], ["t", "a"], [" econom", "y"], ["l", "u"], ["vers", "ity"], ["el", "l"], ["ical", "ly"], [" C", "on"], [" s", "ec"], [" a", "b"], ["al", "s"], ["p", "t"], ["low", "ing"], [" f", "ore"], ["vel", "op"], ["k", "et"], [" f", "ol"], ["ी", "न"], ["स्", "कृत"], ["क", "ार"], [")", ","], ["ి", "త"], [" न", "े"], [" C", "E"], ["ప", "ు"], [" స", "ా"], ["ू", "र्व"], ["్", "చ"], ["ि", "या"], [" ", "'"], ["ज", "न"], ["त", "न्त्र"], [" ", "6"], ["्", "च"], ["m", "on"], [" 19", "4"], ["य", "ः"], ["ल", "ी"], ["०", "०"], ["ార", "్"], ["सी", "त्"], ["c", "y"], [" B", "eng"], [" Beng", "al"], [" P", "akistan"], [" Ch", "in"], ["es", "h"], [" A", "n"], [" lat", "er"], ["om", "in"], ["ad", "e"], ["mer", "g"], [" w", "estern"], ["in", "s"], [" langu", "ages"], ["y", "a"], ["it", "e"], ["u", "gh"], ["a", "ce"], [" rul", "e"], [" C", "om"], [" inf", "lu"], ["it", "ion"], ["an", "i"], [" t", "im"], [" r", "ate"], ["o", "di"], ["ate", "ly"], ["c", "i"], [" pe", "op"], [" ", "en"], [" im", "p"], [" class", "ical"], ["ar", "n"], [" U", "n"], ["a", "i"], ["ul", "ar"], [" de", "velop"], ["it", "ed"], [" S", "h"], [" a", "mong"], [" gen", "eral"], [" large", "st"], [" mus", "ic"], [" वि", "श"], ["प", "ु"], ["త", "ో"], ["द", "ि"], ["ు", "ల"], ["త", "్"], ["ష", "్ట"], [" प्र", "ा"], ["भ", "ू"], [" ", "8"], ["व", "र्"], ["ర", "ా"], ["ub", "lic"], [" P", "l"], ["व", "र"], [" ", "హ"], [" देश", "ः"], ["धर्म", "ः"], [" इ", "त्"], [" c", "ount"], [" s", "ince"], [" T", "h"], [" h", "um"], [" sub", "continent"], [" l", "if"], [" lif", "e"], ["is", "e"], [" the", "re"], ["is", "ed"], ["ain", "s"], ["un", "j"], ["unj", "ab"], [" M", "ugh"], [" econom", "ic"], ["at", "ive"], ["ec", "h"], [" n", "on"], ["c", "ed"], [" increas", "ed"], [" l", "it"], ["or", "m"], [" m", "id"], ["it", "ary"], ["il", "d"], [" h", "ist"], [" sp", "ec"], [" ex", "t"], [" peop", "le"], ["ow", "n"], [" per", "i"], [" peri", "od"], ["t", "ing"], [" e", "mp"], ["ra", "ph"], ["ab", "le"], ["es", "p"], ["ar", "at"], ["er", "ed"], ["i", "b"], ["imal", "ay"], ["ic", "e"], [" 201", "1"], [" स", "्व"], ["ध", "्य"], [" క", "ూడ"], [" भ", "ाषा"], ["ట", "్ట"], ["त्", "व"], ["क", "ा"], ["भ", "ा"], ["ం", "లో"], ["స్", "థ"], ["ग", "ो"], ["ac", "k"], ["म", "हा"], [" क", "ो"], [" द", "ि"], [" स", "ा"], ["क्ष", "िण"], ["रा", "ज्य"], ["ण", "ि"], [" द", "क्षिण"], [" विश", "्व"], ["ం", "ద"], [" 1", "2"], [" ज", "न"], ["स", "िन्"], ["చ", "్చ"], ["ण्", "ड"], ["v", "ent"], [" I", "sl"], [" th", "an"], [" o", "cc"], [" e", "merg"], [" Ind", "us"], ["ir", "d"], ["ill", "en"], ["illen", "ni"], ["illenni", "um"], [" S", "ans"], [" Sans", "k"], [" Sansk", "rit"], [" soc", "ial"], [" M", "a"], ["l", "im"], ["ult", "an"], [" P", "unjab"], [" S", "ik"], [" Mugh", "al"], ["f", "t"], [" E", "ast"], ["ve", "ment"], [" par", "li"], [" parli", "ament"], [" lit", "er"], [" n", "uclear"], [" st", "ate"], ["ect", "ed"], [" re", "f"], ["ci", "ent"], ["r", "on"], ["o", "od"], ["e", "ver"], ["it", "ies"], ["he", "n"], [" n", "ew"], [" s", "et"], ["at", "he"], [" m", "ain"], ["an", "ge"], [" p", "ower"], ["r", "ol"], ["ro", "c"], ["di", "c"], [" le", "ad"], [" A", "l"], [" w", "ar"], [" E", "ur"], [" num", "ber"], ["ter", "n"], [" H", "imalay"], [" on", "e"], [" c", "our"], [" spec", "ies"], ["प", "ाल"], ["्", "त"], [" ", "ఈ"], ["द्व", "ीप"], ["య", "ా"], ["ल", "ा"], ["ाग", "र"], [" श", "ासन"], [" ", "9"], [" 1", "5"], [" ప్ర", "ా"], [" రా", "జ"], [" ", "దేశ"], [" 19", "7"], ["स", "ा"], [" ", "దేశం"], ["र", "ु"], [" భారత", "దేశం"], ["त", "र"], ["न", "ी"], ["वि", "धान"], [" 19", "8"], ["ि", "य"], ["ం", "చ"], [" ", "భా"], [" ", "ఒ"], [" रा", "ज"], [" Ind", "o"], [" Pl", "ate"], ["्य", "ः"], [" वर्", "ष"], [" वर्", "त"], [" count", "ry"], ["l", "arge"], ["large", "st"], [" Chin", "a"], ["an", "k"], ["am", "an"], ["and", "s"], [" ri", "ver"], [" b", "as"], [" g", "ra"], ["iv", "il"], ["op", "e"], ["l", "a"], [" e", "st"], [" C", "ent"], [" D", "el"], [" Com", "p"], [" c", "ol"], [" ri", "gh"], [" o", "ther"], [" 195", "0"], [" th", "rough"], [" b", "illion"], [" U", "S"], [" th", "ough"], [" mil", "itary"], ["f", "e"], [" E", "n"], ["ri", "g"], ["du", "st"], ["t", "en"], [" includ", "ing"], [" G", "anges"], [" ag", "ric"], [" o", "ut"], [" the", "m"], ["em", "p"], ["og", "raph"], [" ca", "used"], [" T", "amil"], ["i", "z"], ["g", "en"], [" ", "up"], [" wh", "o"], ["t", "il"], ["he", "s"], [" s", "ur"], [" con", "stitution"], ["rib", "ut"], ["or", "ts"], ["athe", "m"], ["म", "े"], ["न", "े"], [" स", "र्व"], [" ", "ల"], ["ట", "్"], [" ", "ని"], ["్ర", "ీ"], [" మ", "ొ"], ["ష్ట", "్ర"], ["ग", "ा"], ["ాత", "ీయ"], [" ర", "ై"], [" प", "ु"], [" 1", "7"], ["द", "न"], ["द", "्य"], ["ो", "क"], [" W", "or"], [" Wor", "ld"], [" त", "े"], ["ब", "्"], ["श", "ि"], [" స", "్"], ["ద్", "ధ"], ["్ర", "ి"], ["ు", "లు"], ["ర్", "వ"], ["ఖ", "్య"], ["ख", "ा"], [" उ", "त्"], [" వ", "్య"], ["ణ", "ా"], [" ప", "ే"], ["ా", "న్"], ["త", "ర"], [" है", "ं"], ["ञ", "्च"], ["ाल", "य"], ["ध", "ि"], ["ण", "ा"], [" प", "ूर्व"], [" त", "स्"], ["he", "ast"], [" n", "o"], [" th", "ird"], [" m", "illennium"], [" B", "y"], [" p", "re"], [" pol", "it"], [" w", "om"], [" relig", "i"], ["us", "lim"], [" Cent", "ral"], [" Del", "hi"], ["re", "w"], [" Sik", "h"], [" centur", "ies"], [" Comp", "any"], [" g", "r"], ["duc", "ed"], ["p", "ut"], [" n", "e"], ["ord", "ing"], [" En", "g"], ["l", "ish"], ["i", "ans"], [" w", "ide"], ["at", "a"], [" sec", "ond"], ["ow", "ever"], [" w", "e"], [" st", "y"], [" f", "ound"], ["ment", "s"], [" s", "ome"], ["ou", "ld"], ["r", "uc"], [" fore", "st"], [" t", "r"], [" al", "l"], [" l", "ed"], [" s", "ign"], ["am", "p"], ["oc", "al"], ["id", "ent"], [" f", "ar"], [" A", "fter"], [" di", "re"], [" N", "ational"], [" ser", "ved"], [" r", "ural"], ["an", "a"], ["re", "ad"], ["u", "j"], [" influ", "en"], [" pl", "ay"], ["ra", "d"], [" S", "t"], ["r", "u"], [" cont", "ribut"], [" m", "athem"], ["व", "ी"], ["क", "ि"], ["ల్", "ల"], ["్ర", "ా"], ["వ", "ా"], ["న", "ే"], ["మ", "ైన"], ["ద్", "ద"], ["2", "0"], ["द", "ी"], [" 2", "6"], ["भ", "ाग"], ["1", "9"], [" 1", "0"], [" स", "ि"], ["%", "."], ["क्", "त"], ["स्", "थान"], ["ల", "ి"], [" प", "ा"], ["డ", "ి"], ["ట", "ు"], ["ध", "ु"], ["ండ", "ి"], [" ज", "ा"], ["ిం", "ద"], ["स", "ागर"], [" प्र", "थ"], [" प्रथ", "म"], ["भू", "म"], [" म", "हा"], ["ू", "प"], ["o", "st"], ["स", "ः"], ["देश", "ः"], [" रा", "ग"], ["ाद", "य"], ["वा", "न्"], [" 194", "7"], ["w", "est"], ["d", "aman"], ["a", "re"], [" m", "ade"], [" h", "igh"], ["ver", "se"], ["l", "ed"], [" emerg", "ed"], ["al", "le"], [" Hindu", "ism"], [" reg", "ions"], [" J", "ain"], [" polit", "ical"], [" wom", "en"], ["d", "le"], [" religi", "ous"], [" co", "ast"], [" M", "uslim"], ["m", "it"], ["ultan", "ate"], ["or", "k"], [" c", "ulture"], [" ", "us"], [" le", "ft"], ["ac", "y"], [" Indian", "s"], [" t", "ech"], [" mo", "vement"], [" tim", "e"], [" c", "ap"], ["olog", "y"], ["at", "s"], ["cc", "ording"], [" Eng", "lish"], ["iv", "es"], [" hist", "or"], [" east", "ern"], [" ", "used"], ["d", "ay"], [" ", "ent"], [" co", "al"], [" hum", "an"], ["e", "h"], ["an", "ts"], [" f", "e"], [" ", "—"], [" as", "s"], [" a", "c"], [" emp", "lo"], [" emplo", "y"], ["i", "ed"], ["ra", "hm"], [" cent", "ral"], [" cont", "rol"], ["c", "ri"], [" g", "reat"], [" tr", "ans"], [" the", "y"], ["ver", "y"], ["ar", "s"], ["om", "et"], [" Buddh", "ist"], ["er", "ation"], ["or", "s"], [" ", "esp"], [" esp", "ec"], [" espec", "ially"], [" p", "ain"], [" pain", "ting"], [" fol", "lowing"], [" in", "dust"], [" G", "and"], [" Gand", "hi"], [" ter", "rit"], ["a", "u"], [" includ", "e"], ["un", "d"], [" major", "ity"], [" P", "rad"], [" Prad", "esh"], [" ", "her"], [" are", "as"], ["at", "i"], [" J", "an"], [" m", "em"], ["h", "an"], [" grow", "th"], ["an", "ces"], [" co", "ok"], ["o", "ol"], ["ens", "us"], [" Hin", "di"], [" ", "२"], ["ప", "ా"], [" స్", "థ"], ["డ", "్"], ["%", ","], ["త", "ా"], ["प", "र"], ["प", "्त"], ["న", "ా"], [" మ", "ు"], ["ని", "కి"], [" स", "म्"], [" అ", "ధిక"], ["ధ", "్య"], [" ", "లో"], [" न", "ाम"], [" ఉ", "ంది"], [" ఉన్న", "ాయి"], [" स", "म"], ["स", "े"], ["ड", "़"], ["श्", "च"], ["द", "ु"], ["iv", "ed"], [" भ", "ू"], [" ", "ఏ"], [" ", "భ"], ["u", "e"], [" క", "ా"], ["च", "ार"], [" क", "र"], ["మ", "ా"], [")", "."], ["द", "े"], ["्र", "ी"], [" क", "ार"], [" त", "था"], [" మ", "ార్"], ["వ", "స్థ"], [" ఒ", "క"], ["स्", "था"], [" రా", "ష్ట్ర"], [" ल", "ोक"], ["భారత", "దేశం"], ["ह", "्"], ["वि", "ध"], [" 2", "1"], [" म", "ा"], ["ित", "ा"], ["ार्", "थ"], [" दि", "न"], ["ा", "णि"], ["सं", "स्कृत"], ["ना", "थ"], ["ति", "ः"], ["त", "त्"], ["డ", "ు"], [" ए", "ष"], ["भूम", "िः"], ["em", "oc"], [" B", "ang"], ["y", "an"], ["m", "ar"], [" I", "ts"], [" An", "daman"], ["b", "ar"], [" ag", "o"], [" occ", "up"], ["v", "ol"], ["v", "ing"], ["alle", "y"], [" ar", "ch"], ["ope", "an"], [" di", "ff"], [" ear", "ly"], ["n", "ing"], ["k", "ed"], ["li", "ef"], ["om", "s"], [" c", "ult"], [" ar", "m"], ["w", "ork"], [" c", "re"], [" le", "g"], ["ur", "n"], [" p", "rom"], [" n", "ational"], ["al", "e"], [" f", "ed"], [" parliament", "ary"], ["ist", "ic"], [" g", "rew"], ["u", "ally"], [" liter", "acy"], [" K", "as"], [" Kas", "hm"], [" b", "i"], [" supp", "ort"], [" P", "ers"], [" pro", "v"], [" Con", "stitution"], [" o", "rig"], ["ain", "ed"], [" wide", "ly"], [" di", "versity"], [" an", "imal"], [" The", "se"], [" fe", "at"], [" f", "ig"], [" v", "ill"], ["o", "in"], [" de", "f"], ["a", "red"], [" relig", "ions"], [" B", "rahm"], [" b", "ir"], ["i", "x"], ["ro", "p"], ["am", "m"], [" ", "roc"], ["m", "inist"], [" de", "v"], [" m", "an"], ["er", "t"], ["er", "ing"], [" p", "en"], [" pen", "ins"], [" wh", "ose"], [" s", "m"], ["if", "ic"], ["b", "ers"], ["in", "es"], ["it", "es"], [" l", "ocal"], ["v", "en"], ["ces", "s"], ["es", "s"], ["le", "g"], [" dire", "ct"], ["or", "ies"], [" st", "ates"], [" Himalay", "as"], [" an", "cient"], [" re", "m"], ["p", "ur"], [" G", "uj"], [" d", "ra"], ["on", "s"], ["al", "i"], ["J", "P"], [" N", "eh"], [" Neh", "ru"], [" part", "y"], [" l", "ast"], ["od", "y"], [" Un", "ited"], ["ec", "ut"], ["D", "P"], [" r", "ates"], [" g", "ar"], [" c", "ensus"], ["ic", "ial"], [" mar", "ri"], [" sc", "ul"], [" scul", "pt"], ["స", "ి"], ["్", "ల"], ["ార", "ం"], [".", "."], [" स्", "थान"], ["ె", "ండ"], ["ac", "t"], [" ప", "ా"], [" మార్", "గ"], [" హ", "ింద"], [" వ", "చ్చ"], ["धिक", "ार"], ["ष", "े"], [" ह", "िन्"], ["य", "ु"], [" सं", "स्कृत"], [" के", "न्द्र"], ["े", "द"], ["श", "त"], ["्", "ञ"], [" స", "్వ"], ["్ర", "మ"], ["श्च", "िम"], ["र्व", "त"], [" ", "ऐ"], ["्या", "य"], ["ి", "న్న"], ["త", "ం"], [" శ", "ా"], ["బ", "్"], ["ా", "నికి"], ["र्", "थ"], ["ధ", "ాన"], ["भ", "्य"], ["च", "्"], ["జ", "ాతీయ"], [" కూడ", "ా"], ["मु", "ख"], ["र", "े"], ["ख", "्या"], [" न", "ि"], ["ाल", "ा"], [" त", "त्"], ["ह", "ु"], ["र्", "ण"], [" म", "ु"], [" वि", "द्य"], [" पा", "कि"], [" उत्", "तर"], ["్", "మ"], [" 1", "3"], [" 19", "3"], ["ర", "్య"], [" क", "्र"], ["స్", "క"], ["व", "्य"], [" క", "ో"], [" చ", "ె"], ["గ", "ు"], ["ప", "్ర"], [" ए", "क"], ["ంత", "్ర"], [" क", "ृत"], ["ा", "ङ्क"], [" in", "d"], ["out", "heast"], ["der", "s"], [" B", "h"], [" n", "ear"], ["ic", "o"], ["e", "x"], [" with", "in"], [" Buddh", "ism"], [" r", "ise"], [" D", "uring"], [" st", "at"], ["in", "ed"], [" k", "ing"], ["is", "hed"], [" s", "ou"], [" sou", "ther"], [" souther", "n"], [" in", "ter"], ["ent", "ly"], [" cre", "ated"], [" comp", "os"], [" tech", "n"], [" ", "ed"], [" ed", "uc"], [" educ", "ation"], ["r", "ation"], [" fed", "eral"], [" rep", "ublic"], ["u", "al"], ["i", "et"], [" bec", "ome"], ["al", "ity"], ["is", "ing"], [" a", "ir"], ["ur", "ther"], [" Pers", "ian"], [" w", "ell"], ["k", "s"], [" B", "har"], [" orig", "in"], [" c", "ur"], [" popul", "ar"], [" ", "Y"], [" ear", "li"], [" form", "s"], ["p", "ed"], [" ", "z"], ["at", "t"], [" c", "ities"], [" M", "o"], [" sty", "les"], ["w", "n"], [" o", "ld"], ["e", "ak"], ["at", "ing"], ["s", "s"], [" agric", "ulture"], ["igh", "t"], ["all", "ed"], [" bas", "ed"], ["tion", "s"], ["se", "qu"], [" roc", "k"], ["m", "b"], [" ad", "minist"], [" al", "ong"], ["ive", "ly"], [" region", "al"], ["ak", "e"], [" develop", "ment"], ["ific", "ant"], [" s", "ch"], [" s", "ultanate"], ["th", "ough"], [" m", "en"], ["ist", "s"], [" penins", "ular"], ["ra", "ct"], ["un", "g"], [" mar", "ket"], ["ou", "p"], [" com", "mer"], [" b", "l"], [" p", "res"], [" long", "er"], [" se", "ver"], [" The", "re"], [" pro", "duc"], ["tern", "al"], ["c", "ent"], [" indust", "ry"], [" w", "on"], [" election", "s"], [" c", "r"], [" cont", "in"], [" l", "ower"], [" Guj", "arat"], [" W", "estern"], ["as", "h"], [" l", "ow"], ["ak", "sh"], [" c", "or"], [" un", "ion"], ["r", "ound"], [" righ", "t"], [" w", "in"], [" m", "on"], [" of", "ten"], [" employ", "ed"], [" end", "em"], ["b", "al"], [" c", "ar"], ["a", "h"], [" A", "ct"], ["t", "t"], [" B", "JP"], ["ol", "d"], [" 199", "1"], [" mem", "ber"], ["t", "al"], [" ex", "ecut"], [" G", "DP"], ["d", "e"], [" 200", "1"], ["f", "ore"], ["at", "h"], [" com", "mon"], [" mathem", "atic"], [" W", "ik"], [" ద", "క్ష"], ["ప", "ంచ"], [" ప్రా", "ంత"], [" మ", "త"], [" ఎ", "న్న"], [" ప", "ార"], [" వ్య", "వస్థ"], [" పే", "రు"], ["o", "ok"], ["े", "क"], [" దేశ", "ాల"], ["ग", "र"], ["िम", "ालय"], [" ब", "्र"], ["स", "ि"], ["ग", "त"], [" ब", "हु"], ["स", "भा"], ["क", "े"], [" क", "्"], ["ास", "ित"], [" अन", "्य"], ["క", "ో"], ["త", "్వ"], ["ప", "్"], ["మ", "ి"], ["र", "्य"], ["న్", "ని"], [" చ", "ే"], [" A", "r"], ["च", "ीन"], ["ం", "బ"], ["త", "్య"], [" 1", "4"], ["र", "ूप"], ["य", "े"], ["క్", "కు"], ["్ర", "ం"], [" రాజ", "్య"], ["స", "ు"], ["ద", "ాయ"], [" క", "ే"], [" దక్ష", "ి"], [" ప్ర", "పంచ"], [" పార", "్ట"], [" పార్ట", "ీ"], ["ग", "ीत"], ["श", "ासन"], ["ि", "ख"], [" మ", "ధ్య"], [" ప్ర", "ధాన"], [" 5", "0"], [" श", "्री"], [" प", "र्वत"], [" భారత", "ీయ"], [" రై", "లు"], ["गो", "ल"], ["ल", "े"], ["म", "ान"], [" ", "१"], [" अन", "ेक"], ["ा", "त्"], ["ड", "ा"], [" स्", "थ"], ["च", "ित"], [" म", "ध्य"], ["मा", "ण"], ["र", "त"], [" स", "िन्"], ["ह्", "म"], [" प", "श्चिम"], [" ने", "पाल"], ["व", "स्था"], ["ना", "म"], ["सि", "द्ध"], [" 5", "5"], ["క", "ొ"], ["ు", "న్న"], [" క", "ు"], [" ప", "ు"], ["क", "र"], ["ह", "र"], ["न", "ः"], ["िख", "ित"], [" ప", "రి"], ["ప", "ాల"], ["వ", "ర"], ["క", "ాల"], [" స", "ి"], [" 1", "1"], [" మొ", "ద"], [" క", "ాల"], ["ి", "స్త"], [" అ", "య"], [" ప్ర", "జ"], ["క్కు", "వ"], ["భ", "ుత"], ["భుత", "్వ"], [" క", "్రీ"], ["ध", "्व"], [" భా", "ష"], ["तम", "े"], ["स", "म"], ["నా", "భా"], ["భారత", "ీయ"], [" హింద", "ూ"], [" स्थान", "े"], ["द", "श"], ["स", "र्व"], [" र", "वी"], ["न", "ै"], [" ind", "ep"], [" indep", "end"], [" A", "ra"], ["e", "a"], [" b", "or"], [" w", "est"], ["l", "ad"], ["di", "v"], [" N", "ico"], [" Nico", "bar"], [" Isl", "ands"], ["a", "il"], [" A", "f"], ["at", "her"], ["et", "t"], [" gra", "du"], [" V", "alley"], [" C", "ivil"], [" rec", "ord"], ["di", "an"], ["ant", "ed"], [" Jain", "ism"], [" he", "re"], ["up", "ta"], [" f", "l"], ["ab", "il"], [" king", "d"], [" kingd", "oms"], [" S", "outheast"], [" Isl", "am"], ["ast", "ri"], [" est", "ab"], ["v", "al"], ["ar", "a"], [" ch", "anges"], ["m", "ary"], [" d", "omin"], ["s", "c"], ["os", "s"], [" m", "ult"], [" 202", "3"], [" an", "n"], [" f", "ast"], [" techn", "ology"], [" mid", "dle"], [" increas", "ing"], [" Kashm", "ir"], [" A", "mong"], [" f", "our"], [" w", "ild"], [" v", "i"], [" pro", "t"], [" ter", "m"], [" Bhar", "at"], [" v", "ari"], [" re", "n"], ["A", "n"], [" though", "t"], [" earli", "est"], [" k", "n"], ["in", "c"], [" ar", "ound"], ["ak", "h"], [" ch", "ar"], [" fig", "ures"], [" old", "est"], [" t", "rib"], ["ro", "ss"], [" pl", "ain"], [" w", "hen"], [" tim", "es"], [" Ma", "h"], [" h", "owever"], [" diff", "er"], [" e", "th"], ["ic", "es"], [" con", "duc"], [" bir", "th"], ["e", "ograph"], [" e", "mpire"], [" te", "x"], [" h", "is"], [" sub", "sequ"], [" pol", "ic"], ["is", "s"], [" comp", "le"], [" t", "a"], [" f", "low"], ["at", "ure"], [" res", "p"], ["t", "i"], ["d", "ed"], [" W", "est"], [" grow", "ing"], [" sm", "all"], [" t", "emp"], [" sign", "ificant"], [" num", "bers"], [" e", "very"], ["he", "re"], [" s", "o"], [" As", "ian"], [" v", "ast"], [" lead", "ing"], ["t", "ic"], ["ard", "s"], [" ag", "ain"], [" s", "up"], [" gr", "oup"], [" R", "aj"], [" a", "ff"], [" f", "urther"], [" cons", "id"], [" D", "al"], [" s", "um"], ["al", "th"], [" s", "a"], ["g", "u"], ["id", "ed"], [" leg", "is"], [" legis", "l"], [" pl", "ate"], [" app", "ro"], [" appro", "x"], [" approx", "im"], [" approxim", "ately"], [" sp", "read"], [" o", "b"], [" ", "upp"], [" upp", "er"], [" Th", "is"], [" ca", "us"], [" Plate", "au"], [" n", "ow"], [" rem", "ain"], [" sur", "v"], ["c", "an"], ["ap", "ut"], ["aput", "ra"], ["ort", "ant"], ["n", "a"], ["l", "ine"], [" di", "st"], [" A", "ccording"], [" territ", "ories"], [" p", "an"], [" D", "e"], [" h", "ig"], ["oc", "k"], [" influen", "ced"], ["at", "ak"], ["p", "l"], ["e", "y"], [" end", "ang"], [" endang", "ered"], [" f", "ive"], ["eral", "a"], [" P", "ar"], [" he", "ld"], [" un", "til"], [" Jan", "u"], [" Janu", "ary"], [" lead", "er"], [" 196", "5"], [" c", "ivil"], [" coal", "ition"], [" s", "ing"], [" form", "ed"], ["e", "e"], ["d", "ra"], [" As", "s"], [" St", "ates"], [" vill", "age"], [" execut", "ive"], ["ou", "se"], [" p", "ort"], [" th", "ree"], [" cour", "t"], [" cour", "ts"], ["m", "in"], [" N", "ad"], [" Nad", "u"], ["es", "e"], [" g", "lo"], [" to", "tal"], [" est", "im"], ["or", "ce"], ["al", "es"], [" ", "ve"], [" f", "amil"], [" famil", "ies"], [" off", "icial"], [" develop", "ed"], [" sch", "ool"], [" tradition", "al"], [" sculpt", "ure"], [" tradition", "s"], [" d", "ances"], [" wor", "n"], ["ge", "t"], ["ric", "ket"], [" भ", "ी"], [" अ", "व"], [" ग", "ण"], [" ह", "ु"], [" ह", "ो"], ["त", "ु"], ["प", "रा"], [" ज", "ि"], [" भ", "ाग"], [" ", "ई"], [" ", "య"], ["ద", "ు"], ["ప్", "ప"], [" 1", "6"], ["त", "ी"], [" क्", "षे"], [" क्षे", "त्र"], ["క", "ా"], ["ద", "ా"], ["స్క", "ృ"], ["क", "्र"], [" సా", "ం"], [" స", "భ"], ["ా", "బ"], ["ो", "ध"], [" ప్ర", "భుత్వ"], [" द", "्व"], ["ె", "ద్ద"], [" ", ":"], [" च", "ीन"], ["व्य", "वस्था"], ["श", "ासित"], [" వచ్చ", "ింది"], [" భారత", "దేశ"], ["భారత", "దేశ"], [" దేశం", "లో"], [" ఇ", "తర"], ["क", "ृ"], ["b", "ack"], ["व", "ं"], [" न", "्याय"], ["म", "ि"], ["्ञ", "ान"], ["००", "०"], ["व", "ार"], ["1", "7"], ["प", "ूर्व"], ["मा", "ज"], ["का", "श"], [" अ", "धि"], [" हिन्", "दु"], ["स", "न्"], ["भारत", "ीय"], ["१९", "४"], ["ग", "्र"], [" ब", "ा"], [" ", "था"], [" प्रा", "चीन"], [" पर", "ि"], ["रा", "ष्ट्र"], ["प्र", "ा"], ["ज", "य"], ["ग", "ण"], ["ు", "ంది"], [" ", "धर्म"], ["ान", "ा"], [" सिन्", "धु"], [" ब्र", "ह्म"], ["గ", "ి"], ["ల", "ం"], [" ద", "్వ"], [" స్థ", "ాన"], ["ణ", "ం"], [" ఉ", "త్"], ["త", "్ర"], ["ల", "ా"], [" ప", "ట్ట"], ["ి", "ల్ల"], ["ధ", "ించ"], [" జ", "రి"], [" అధిక", "ార"], [" కే", "ంద"], ["గ", "ర"], [" ", "ను"], [" ఉ", "ంట"], [" ర", "ెండ"], ["ల", "ీ"], ["ौ", "गोल"], ["ौगोल", "िक"], [" स्", "था"], ["न", "्य"], ["च", "्च"], ["पर", "ि"], ["ा", "खा"], ["मु", "द्र"], [" అ", "తి"], [" ఆ", "ర్"], ["రు", "వ"], ["రువ", "ాత"], ["వా", "ణా"], ["ज", "ा"], ["ल्", "ल"], [" वि", "धान"], [" ह", "े"], [" प", "त्र"], [" ज", "य"], [" మార్గ", "ాలు"], [" 2", "8"], ["तत्", "त्व"], ["द", "ः"], ["व", "ः"], ["न", "म्"], ["वर्", "ण"], ["ेण", "्"], [" प", "ञ्च"], ["म", "स्"], ["ह", "ो"], ["ड", "्"], ["वि", "ः"], [" 4", "0"], [" म", "ह"], [" स", "प्त"], ["ल", "ङ्क"], ["लङ्क", "ा"], [" स्", "त"], ["व", "त्"], ["हा", "सः"], [" र", "चित"], [" पत्र", "िका"], ["स", "स्य"], ["कृत", "्य"], [" are", "a"], [" d", "emoc"], ["b", "ian"], [" S", "ea"], [" N", "ep"], [" Bang", "lad"], [" Banglad", "esh"], [" S", "ri"], [" M", "al"], ["on", "es"], [" Af", "ric"], [" Afric", "a"], [" The", "ir"], [" p", "red"], [" di", "verse"], [" 12", "00"], [" record", "ed"], [" D", "ra"], [" Dra", "vi"], [" Dravi", "dian"], [" cons", "ol"], [" consol", "id"], [" l", "o"], [" Ma", "ur"], [" ", "er"], [" er", "a"], [" c", "reat"], [" arch", "it"], [" archit", "ect"], [" w", "rit"], ["t", "ou"], ["tou", "ch"], ["abil", "ity"], [" sc", "ri"], [" estab", "l"], [" establ", "ished"], ["mit", "t"], [" res", "ult"], [" result", "ing"], ["et", "work"], [" relig", "ion"], ["and", "ing"], [" t", "urn"], [" righ", "ts"], ["olog", "ical"], [" int", "ro"], [" p", "ublic"], [" to", "ok"], [" influ", "ence"], ["vi", "ol"], [" part", "ition"], [" a", "cc"], ["r", "atic"], [" soc", "iet"], [" 195", "1"], [" cap", "it"], [" re", "duced"], ["e", "qu"], ["di", "t"], [" dis", "put"], [" pol", "l"], ["g", "a"], ["odi", "versity"], ["o", "ts"], ["li", "fe"], [" tradition", "ally"], [" d", "er"], ["me", "di"], ["medi", "ately"], [" G", "ree"], [" ext", "ens"], ["t", "he"], [" n", "ame"], ["sh", "a"], ["li", "ed"], [" cur", "ren"], [" Hindu", "st"], ["r", "ing"], ["ri", "al"], [" ext", "ant"], ["et", "ic"], [" H", "owever"], [" kn", "own"], [" ab", "out"], ["ar", "h"], ["ar", "o"], ["av", "i"], [" feat", "ures"], ["di", "s"], [" st", "e"], ["oc", "i"], [" compos", "ed"], [" pl", "ace"], ["st", "ed"], [" in", "vol"], ["av", "ing"], [" f", "am"], [" be", "ing"], ["at", "ical"], [" r", "ange"], [" c", "alled"], ["if", "ied"], [" differ", "ent"], ["ing", "s"], ["ure", "d"], [" conduc", "ted"], ["iv", "ing"], [" l", "ay"], [" the", "se"], [" hist", "ory"], [" b", "ri"], ["in", "ing"], [" sp", "eak"], ["m", "iss"], ["el", "f"], [" ta", "x"], [" great", "er"], [" ren", "ew"], ["o", "tion"], [" V", "a"], [" s", "ix"], ["ous", "ly"], ["er", "v"], [" agric", "ult"], [" agricult", "ural"], [" sh", "ow"], [" T", "emp"], [" app", "ear"], ["n", "am"], ["ay", "s"], ["ar", "ies"], [" Al", "though"], [" el", "ites"], [" in", "di"], [" indi", "gen"], [" indigen", "ous"], [" st", "r"], [" b", "u"], ["or", "tion"], [" p", "ract"], ["u", "es"], ["it", "ions"], [" commer", "c"], [" commerc", "ial"], ["er", "ial"], [" pro", "cess"], [" Eur", "opean"], ["ab", "ly"], ["our", "ces"], ["v", "an"], ["e", "ly"], [" ref", "orm"], ["i", "e"], [" c", "an"], [" p", "r"], [" direct", "ly"], [" l", "im"], [" dec", "ad"], [" decad", "es"], ["st", "ruc"], [" gen", "er"], [" cons", "um"], [" re", "lief"], [" W", "ar"], ["op", "eration"], [" en", "ac"], [" enac", "ted"], ["i", "p"], [" Al", "l"], [" sec", "ular"], [" 7", "0"], [" G", "ond"], [" cr", "ust"], [" Eur", "as"], [" p", "il"], ["on", "e"], [" contin", "u"], [" continu", "ed"], [" T", "ib"], [" Tib", "et"], ["ak", "es"], [" T", "har"], [" D", "es"], [" c", "he"], ["k", "h"], [" D", "ec"], [" G", "h"], [" Gh", "ats"], [" Con", "stit"], [" e", "qu"], [" Brahm", "aputra"], ["re", "me"], ["r", "ish"], ["rish", "na"], ["ad", "a"], ["an", "n"], [" other", "s"], [" hig", "he"], [" highe", "st"], ["it", "s"], ["ab", "h"], [" sum", "mer"], [" s", "im"], ["ol", "e"], ["rop", "ical"], [" 201", "8"], [" re", "t"], ["arn", "atak"], ["arnatak", "a"], ["ri", "es"], [" f", "ish"], [" n", "at"], [" ex", "ch"], ["vent", "ion"], ["o", "or"], [" K", "erala"], [" 202", "2"], ["c", "hed"], ["tt", "ar"], ["G", "overnment"], [" cent", "re"], [" S", "ing"], [" Sing", "h"], [" b", "ody"], ["li", "ance"], [" j", "ust"], [" sing", "le"], [" ex", "ternal"], [" 202", "6"], [" ex", "c"], ["er", "c"], [" fore", "ign"], [" he", "ad"], [" f", "und"], [" fund", "ament"], [" fundament", "al"], [" Un", "ion"], [" ser", "v"], [" di", "v"], [" ", "qu"], [" rel", "ations"], [" t", "est"], [" ad", "dition"], [" N", "uclear"], ["tern", "ational"], ["t", "om"], ["er", "g"], ["erg", "y"], [" 201", "0"], [" n", "ation"], [" glo", "bal"], [" s", "ect"], [" sect", "or"], [" wor", "k"], ["or", "ter"], ["ine", "ering"], [" exp", "orts"], [" be", "fore"], [" estim", "ated"], [" f", "em"], [" produc", "er"], [" mil", "k"], [" p", "har"], [" phar", "m"], [" pharm", "ace"], [" pharmace", "ut"], [" pharmaceut", "ical"], ["reas", "ing"], [" cook", "ing"], ["i", "qu"], ["um", "b"], ["umb", "ai"], [" te", "a"], [" imp", "ortant"], ["ab", "ad"], ["iv", "al"], [" be", "low"], ["c", "ast"], [" f", "est"], [" influen", "ces"], [" mathematic", "s"], ["arn", "atic"], ["dra", "m"], ["dram", "as"], [" s", "ari"], [" w", "a"], [" wa", "ist"], [" common", "ly"], ["al", "w"], ["ame", "e"], ["amee", "z"], [" w", "ear"], [" cook", "ed"], [" ve", "get"], [" me", "at"], ["त", "्य"], ["4", "2"], [" P", "ro"], ["ी", "व"], [" 18", "5"], [" कार", "्य"], [" इ", "स"], ["ं", "त्र"], [" ज", "ै"], ["ो", "प"], ["स", "ू"], [" स्थ", "ित"], ["स", "ार"], ["గ", "్"], ["ష", "్"], [" ", "ऋ"], [" ", "५"], ["ీ", "ర్"], ["ాల", "్"], ["క్", "క"], ["धिकार", "िक"], [" म", "न"], ["ू", "ल"], [" వ", "ా"], [" మ", "హ"], [" క", "ొ"], ["ర", "ో"], [" ఏ", "ర్"], [" क", "िया"], [" బ", "హ"], ["ీ", "న"], ["ట", "ిక"], [" ప", "ాల"], ["గ", "ిన"], ["ౌ", "క"], ["त", "न"], [" క", "లి"], ["జ", "్య"], [" దక్షి", "ణా"], ["స్త", "ాన్"], [" వ", "ంట"], ["బ", "డ"], ["ంది", "న"], ["క", "ీయ"], [" కా", "ంగ"], [" కాంగ", "్ర"], [" కాంగ్ర", "ె"], ["గ", "ీ"], [" క్రీ", "డ"], ["ु", "र"], ["ृ", "द्ध"], [" కేంద", "్ర"], [" ఎ", "క్కువ"], [" ము", "ఖ్య"], [" అ", "నే"], [" పా", "కి"], ["స్త", "ుత"], [" అయ", "ిన"], ["ప్ర", "దాయ"], ["2", "00"], [" ह", "िमालय"], [" आ", "धिकारिक"], [" ", "छ"], ["भ", "ाषा"], [" జ", "నాభా"], [" ప", "ెద్ద"], [" ఎన్న", "ో"], [" ర", "వాణా"], ["ष्", "ण"], ["र्", "ष"], ["र", "ी"], ["वर", "ी"], [" य", "ु"], [" स", "ु"], [" 3", "0"], ["20", "1"], ["भ", "िन्"], ["भिन्", "न"], [" आ", "न्"], [" त", "क"], ["ल्", "ली"], ["क", "ाल"], ["ह", "ि"], [" 2", "5"], [" ", "0"], ["y", "p"], [" ब", "ौ"], [" बौ", "द्ध"], ["वर्", "ष"], ["ह", "ित"], [" म", "ूल"], ["य", "त"], ["ष्", "ठ"], ["ज", "्ञान"], [" )", ","], ["क", "ी"], [" त", "ु"], [" कार", "ण"], [" न", "व"], ["पाल", "िका"], ["थ", "ि"], ["ो", "त्"], ["रा", "ज"], ["े", "स"], [" द", "श"], [" ", "ति"], ["ధ", "ి"], [" ", "ట"], [" ", "ध"], [" म", "त"], ["धान", "ी"], [" जा", "त"], ["్య", "ం"], ["ిత", "్ర"], ["ార", "ి"], ["న", "ాలు"], [" सा", "थ"], ["ं", "ध"], ["కు", "ంట"], ["ట", "ం"], [" ఏర్", "ప"], ["క", "్రమ"], [" ప", "ర"], [" ప్ర", "తి"], ["మ", "ీ"], ["సి", "యా"], [" వ", "ే"], ["ంగ", "్ల"], ["ండ", "ు"], ["మ", "ే"], ["च", "ि"], ["ి", "మ"], ["ద", "ం"], ["ద్ధ", "ి"], ["ప", "ించ"], [" మ", "ాత"], [" క", "ార"], ["ప", "తి"], [" సా", "ధించ"], ["्र", "ि"], ["ल", "ाल"], ["१", "१"], ["ద", "ారు"], [" స", "రి"], [" సరి", "హ"], [" సరిహ", "ద్ద"], ["ండి", "యా"], ["ా", "వర"], ["లో", "ని"], [" శా", "స్త"], [" రాజ", "కీయ"], ["త్య", "ధిక"], [" సి", "ని"], [" సం", "గీ"], [" भ", "रत"], [" स्व", "तन्त्र"], [" प्र", "धान"], ["पु", "त्र"], ["ा", "धिक"], [" स", "दन"], [" రాష్ట్ర", "ాల"], [" గ", "ల"], [" ఇ", "ది"], [" కాల", "ంలో"], [" ప్ర", "స్తుత"], [" చ", "ిన్న"], ["ిస్త", "ారు"], [" త", "రువాత"], [" భారత", "్"], [" జ", "ాతీయ"], [" 3", "6"], ["6", "4"], ["2", "1"], ["ट", "ि"], ["पु", "रा"], ["न", "िक"], ["ृ", "ह"], ["म", "ार्"], ["ब", "्र"], [" उ", "ल्"], [" व", "ेद"], ["प", "द"], ["ट", "्"], ["ित", "म्"], ["म", "िन्"], [" वि", "ध"], [" विध", "ा"], ["विध", "ा"], ["म", "ित"], [" आ", "र्य"], [" R", "ep"], [" 3", "00"], [" 4", "2"], [" स", "र"], ["न्", "थ"], ["म", "ी"], ["ो", "ष"], [" ब", "ृह"], ["भाग", "ः"], [" अ", "ष्ट"], ["ब्", "ध"], ["े", "ऽ"], ["्य", "म्"], ["ध्व", "ज"], [" पु", "ण"], ["चार", "्य"], ["यो", "जन"], ["र्", "ग"], ["द", "ं"], ["स", "ङ्"], ["सङ्", "ख्या"], ["न", "ाना"], [" उ", "द्"], ["द्व", "ार"], ["व", "न्"], [" त", "म"], [" त", "ेन"], ["द", "म्"], [" ल", "िखित"], ["ान", "ु"], ["श", "ाला"], ["प", "ङ्क"], ["न", "ु"], ["कार", "ः"], [" स", "ङ्"], [" सङ्", "घ"], ["िण", "ी"], ["प", "तिः"], [" आ", "परा"], [" आपरा", "धिक"], [" न", "द"], ["ग", "स्"], ["म", "हो"], ["महो", "द"], ["महोद", "यः"], ["गीत", "म्"], [" अ", "द्"], [" सम्", "प्र"], [" popul", "ous"], [" independ", "ence"], ["ra", "cy"], ["ce", "an"], [" Ara", "bian"], [" B", "ay"], [" bor", "ders"], [" M", "yan"], [" Myan", "mar"], [" L", "ank"], [" sh", "are"], ["im", "e"], [" Ind", "ones"], [" Indones", "ia"], [" pred", "omin"], [" is", "ol"], [" mar", "g"], [" marg", "ins"], [" bas", "in"], [" gradu", "ally"], [" Civil", "isation"], ["a", "ic"], ["E", "ur"], ["Eur", "opean"], [" north", "west"], [" h", "y"], ["ning", "s"], [" supp", "l"], [" 4", "00"], ["is", "en"], ["ar", "ly"], [" g", "ave"], [" lo", "ose"], ["k", "n"], [" Maur", "ya"], [" G", "upta"], ["iv", "ity"], [" architect", "ure"], [" stat", "us"], ["touch", "ability"], [" or", "gan"], [" be", "lief"], [" M", "id"], [" Mid", "dle"], [" exp", "ort"], ["p", "ts"], [" cult", "ures"], ["ri", "st"], ["Z", "or"], ["Zor", "o"], ["Zoro", "astri"], ["Zoroastri", "an"], ["n", "d"], [" arm", "ies"], ["r", "an"], [" pl", "ains"], [" c", "os"], ["ol", "it"], ["di", "e"], ["die", "val"], [" Sikh", "ism"], ["j", "ect"], [" in", "stitution"], [" exp", "ans"], [" rel", "ative"], [" r", "ich"], ["on", "ial"], [" s", "over"], [" sover", "e"], [" sovere", "ign"], [" sovereign", "ty"], [" s", "low"], [" intro", "duced"], ["ot", "ed"], [" pri", "mary"], [" f", "act"], [" l", "oss"], [" m", "ig"], [" societ", "y"], [" n", "omin"], [" capit", "a"], [" h", "ub"], [" inf", "orm"], [" inform", "ation"], [" p", "over"], [" pover", "ty"], [" in", "equ"], [" inequ", "ality"], [" disput", "es"], ["our", "s"], ["on", "om"], [" ch", "ild"], [" le", "vel"], [" wild", "life"], [" support", "ed"], [" prot", "ected"], [" h", "ab"], [" hab", "it"], [" pro", "p"], [" im", "mediately"], [" ref", "er"], [" histor", "ical"], [" Gree", "k"], ["r", "at"], ["p", "ic"], [" origin", "ally"], [" N", "orth"], [" curren", "cy"], ["c", "om"], ["p", "ass"], ["pass", "ing"], ["res", "ent"], ["es", "c"], [" re", "ac"], [" reac", "hed"], [" l", "ik"], [" in", "it"], ["g", "arh"], ["om", "est"], ["omest", "ic"], [" animal", "s"], ["e", "b"], [" c", "att"], [" catt", "le"], ["ur", "red"], [" Mo", "hen"], [" Mohen", "j"], [" Mohenj", "o"], ["d", "aro"], ["h", "ol"], ["er", "i"], ["al", "a"], [" char", "ac"], [" charac", "ter"], [" se", "als"], [" writ", "ten"], [" scri", "pt"], [" ar", "ts"], ["ra", "c"], [" to", "wn"], [" p", "ast"], [" to", "day"], [" ass", "oci"], ["A", "ry"], ["Ary", "an"], [" ac", "ross"], [" set", "t"], ["l", "ing"], [" set", "ting"], [" ", "ir"], ["le", "ment"], [" d", "ri"], [" b", "ro"], [" bro", "ad"], [" par", "ts"], [" w", "ould"], [" urban", "isation"], [" v", "arn"], [" th", "ose"], [" Buddh", "a"], ["ress", "ed"], [" c", "ould"], [" b", "ack"], [" As", "h"], [" Ash", "ok"], [" Ashok", "a"], [" tex", "ts"], [" K", "al"], ["en", "se"], [" ad", "op"], [" d", "h"], [" forest", "s"], ["B", "y"], [" administ", "ration"], [" dev", "otion"], [" r", "ather"], [" ass", "ert"], [" P", "all"], [" Pall", "av"], ["ac", "ed"], [" g", "od"], [" part", "ic"], ["M", "e"], [" a", "ge"], [" cult", "ural"], [" m", "uch"], [" c", "le"], [" class", "es"], ["it", "ated"], [" p", "at"], [" Temp", "le"], [" s", "iz"], [" an", "ot"], [" anot", "her"], [" e", "ff"], ["un", "e"], [" m", "er"], [" mer", "ch"], [" s", "omet"], [" somet", "im"], [" sometim", "es"], ["A", "fter"], [" l", "aw"], [" law", "s"], [" s", "av"], [" v", "is"], ["en", "ing"], [" str", "ong"], [" c", "ame"], ["w", "ards"], [" the", "n"], [" pract", "ices"], [" trib", "al"], ["ond", "s"], [" A", "k"], ["l", "ung"], ["m", "s"], [" polic", "ies"], [" re", "ven"], [" reven", "ues"], [" p", "a"], ["re", "g"], [" s", "il"], [" ent", "er"], ["g", "er"], [" main", "t"], [" M", "arat"], ["h", "as"], [" col", "l"], [" rec", "og"], [" recog", "n"], [" f", "ra"], [" increasing", "ly"], [" comp", "an"], [" compan", "ies"], ["ol", "i"], [" st", "ren"], [" stren", "g"], [" streng", "th"], [" at", "t"], [" c", "ruc"], [" cruc", "ial"], [" subsequ", "ent"], [" g", "ood"], [" good", "s"], [" in", "st"], [" M", "any"], [" consid", "er"], [" h", "aving"], [" ra", "il"], [" rail", "w"], [" Eur", "ope"], ["ell", "ion"], [" sa", "fe"], ["gu", "ard"], [" again", "st"], ["us", "h"], [" mar", "ked"], [" de", "p"], ["t", "ure"], ["p", "ay"], ["p", "tion"], [" prov", "ided"], [" c", "rit"], ["ri", "d"], ["all", "s"], ["m", "a"], [" v", "ic"], [" vic", "t"], [" dec", "ade"], ["is", "es"], [" f", "in"], [" l", "ib"], [" lib", "eral"], ["f", "orm"], [" p", "ers"], [" vi", "ol"], [" se", "p"], ["amm", "u"], ["G", "eograph"], ["ul", "k"], ["a", "f"], ["id", "ly"], ["ill", "ed"], ["or", "n"], ["ut", "es"], [" m", "akes"], [" ab", "o"], [" abo", "ve"], [" l", "ies"], [" Des", "ert"], [" remain", "ing"], ["pur", "a"], ["har", "kh"], ["harkh", "and"], [" Dec", "can"], [" cont", "ains"], ["it", "ud"], [" Himalay", "an"], [" ri", "vers"], [" dra", "in"], ["di", "ent"], [" K", "rishna"], [" k", "il"], [" kil", "omet"], [" kilomet", "res"], [" m", "i"], ["4", "00"], [" be", "l"], [" bel", "ong"], ["aksh", "ad"], ["akshad", "we"], ["akshadwe", "ep"], ["l", "and"], [" cons", "ists"], [" 4", "3"], ["ar", "b"], [" lat", "ter"], [" cor", "al"], ["or", "am"], [" sur", "round"], ["and", "a"], ["in", "d"], [" d", "o"], ["y", "th"], [" t", "ree"], [" cl", "im"], ["d", "s"], [" sim", "il"], [" simil", "ar"], [" mo", "ist"], [" t", "ropical"], [" caus", "e"], ["ection", "s"], ["Indi", "an"], [" K", "arnataka"], ["ach", "al"], ["B", "i"], [" cont", "ain"], [" endem", "ic"], [" m", "amm"], [" mamm", "als"], [" dis", "pl"], ["u", "ous"], [" exch", "ange"], [" ex", "tin"], [" th", "reat"], ["en", "ed"], ["t", "re"], [" o", "p"], [" bl", "ack"], [" black", "b"], [" rec", "ent"], [" 193", "5"], [" 198", "0"], ["m", "end"], [" ad", "ded"], [" e", "ight"], [" B", "i"], [" R", "am"], ["s", "ar"], [" p", "ur"], [" Par", "k"], [" M", "ad"], ["art", "y"], [" Jan", "ata"], ["a", "har"], [" off", "ice"], [" 196", "2"], [" ch", "os"], [" chos", "en"], [" Indi", "ra"], [" S", "he"], [" de", "fe"], ["i", "ber"], [" dec", "la"], ["en", "cy"], [" o", "pp"], [" opp", "os"], [" minist", "ers"], [" ret", "urn"], [" 3", "1"], [" F", "ron"], [" Fron", "t"], [" Ch", "and"], [" m", "in"], [" government", "s"], [" fol", "low"], [" d", "ue"], [" D", "emoc"], ["D", "A"], ["P", "A"], ["res", "ident"], [" ab", "s"], ["ut", "e"], [" 201", "9"], [" 202", "4"], ["D", "em"], [" Constit", "u"], [" Constitu", "ent"], [" Ass", "em"], [" Assem", "b"], [" Assemb", "ly"], [" constitution", "al"], [" el", "ected"], ["e", "es"], ["A", "r"], [" Com", "mon"], [" c", "oun"], [" j", "ur"], ["ud", "uc"], ["uduc", "her"], ["uducher", "ry"], ["it", "al"], [" T", "er"], ["ani", "pur"], ["k", "im"], [" bec", "om"], [" becom", "ing"], [" N", "on"], ["A", "l"], [" w", "ent"], [" 196", "0"], [" we", "ap"], [" weap", "ons"], [" sign", "ed"], ["it", "her"], [" T", "reat"], [" Treat", "y"], ["cri", "min"], [" us", "e"], ["b", "le"], ["et", "er"], [" 200", "8"], [" en", "ergy"], [" a", "ver"], [" aver", "age"], ["ograph", "ics"], [" tra", "de"], [" ", "eng"], [" eng", "ineering"], [" 201", "3"], [" c", "al"], ["f", "orce"], [" gar", "lic"], [" to", "p"], ["re", "en"], [" g", "as"], [" Bang", "al"], [" Bangal", "ore"], [" col", "leg"], [" colleg", "es"], [" res", "ident"], [" resident", "s"], ["e", "dic"], ["9", "1"], [" M", "umbai"], [" speak", "ers"], [" comp", "rom"], [" comprom", "ise"], ["i", "i"], [" form", "al"], ["hed",
[...]
