{"vocab": {"\t": 0, "\n": 1, "\u000b": 2, "\f": 3, "\r": 4, " ": 5, "!": 6, "\"": 7, "#": 8, "$": 9, "%": 10, "&": 11, "'": 12, "(": 13, ")": 14, "*": 15, "+": 16, ",": 17, "-": 18, ".": 19, "/": 20, "0": 21, "1": 22, "2": 23, "3": 24, "4": 25, "5": 26, "6": 27, "7": 28, "8": 29, "9": 30, ":": 31, ";": 32, "<": 33, "=": 34, ">": 35, "?": 36, "@": 37, "A": 38, "B": 39, "C": 40, "D": 41, "E": 42, "F": 43, "G": 44, "H": 45, "I": 46, "J": 47, "K": 48, "L": 49, "M": 50, "N": 51, "O": 52, "P": 53, "Q": 54, "R": 55, "S": 56, "T": 57, "U": 58, "V": 59, "W": 60, "X": 61, "Y": 62, "Z": 63, "[": 64, "\\": 65, "]": 66, "^": 67, "_": 68, "`": 69, "a": 70, "b": 71, "c": 72, "d": 73, "e": 74, "f": 75, "g": 76, "h": 77, "i": 78, "j": 79, "k": 80, "l": 81, "m": 82, "n": 83, "o": 84, "p": 85, "q": 86, "r": 87, "s": 88, "t": 89, "u": 90, "v": 91, "w": 92, "x": 93, "y": 94, "z": 95, "{": 96, "|": 97, "}": 98, "~": 99, "°": 100, "Ö": 101, "á": 102, "â": 103, "í": 104, "ā": 105, "ī": 106, "Ś": 107, "ū": 108, "ə": 109, "ɦ": 110, "ɪ": 111, "ɾ": 112, "ʊ": 113, "ˈ": 114, "ː": 115, "ί": 116, "α": 117, "δ": 118, "ν": 119, "ς": 120, "ό": 121, "ऀ": 122, "ँ": 123, "ं": 124, "ः": 125, "ऄ": 126, "अ": 127, "आ": 128, "इ": 129, "ई": 130, "उ": 131, "ऊ": 132, "ऋ": 133, "ऌ": 134, "ऍ": 135, "ऎ": 136, "ए": 137, "ऐ": 138, "ऑ": 139, "ऒ": 140, "ओ": 141, "औ": 142, "क": 143, "ख": 144, "ग": 145, "घ": 146, "ङ": 147, "च": 148, "छ": 149, "ज": 150, "झ": 151, "ञ": 152, "ट": 153, "ठ": 154, "ड": 155, "ढ": 156, "ण": 157, "त": 158, "थ": 159, "द": 160, "ध": 161, "न": 162, "ऩ": 163, "प": 164, "फ": 165, "ब": 166, "भ": 167, "म": 168, "य": 169, "र": 170, "ऱ": 171, "ल": 172, "ळ": 173, "ऴ": 174, "व": 175, "श": 176, "ष": 177, "स": 178, "ह": 179, "ऺ": 180, "ऻ": 181, "़": 182, "ऽ": 183, "ा": 184, "ि": 185, "ी": 186, "ु": 187, "ू": 188, "ृ": 189, "ॄ": 190, "ॅ": 191, "ॆ": 192, "े": 193, "ै": 194, "ॉ": 195, "ॊ": 196, "ो": 197, "ौ": 198, "्": 199, "ॎ": 200, "ॏ": 201, "ॐ": 202, "॑": 203, "॒": 204, "॓": 205, "॔": 206, "ॕ": 207, "ॖ": 208, "ॗ": 209, "क़": 210, "ख़": 211, "ग़": 212, "ज़": 213, "ड़": 214, "ढ़": 215, "फ़": 216, "य़": 217, "ॠ": 218, "ॡ": 219, "ॢ": 220, "ॣ": 221, "।": 222, "॥": 223, "०": 224, "१": 225, "२": 226, "३": 227, "४": 228, "५": 229, "६": 230, "७": 231, "८": 232, "९": 233, "॰": 234, "ॱ": 235, "ॲ": 236, "ॳ": 237, "ॴ": 238, "ॵ": 239, "ॶ": 240, "ॷ": 241, "ॸ": 242, "ॹ": 243, "ॺ": 244, "ॻ": 245, "ॼ": 246, "ॽ": 247, "ॾ": 248, "ॿ": 249, "ఀ": 250, "ఁ": 251, "ం": 252, "ః": 253, "ఄ": 254, "అ": 255, "ఆ": 256, "ఇ": 257, "ఈ": 258, "ఉ": 259, "ఊ": 260, "ఋ": 261, "ఌ": 262, "఍": 263, "ఎ": 264, "ఏ": 265, "ఐ": 266, "఑": 267, "ఒ": 268, "ఓ": 269, "ఔ": 270, "క": 271, "ఖ": 272, "గ": 273, "ఘ": 274, "ఙ": 275, "చ": 276, "ఛ": 277, "జ": 278, "ఝ": 279, "ఞ": 280, "ట": 281, "ఠ": 282, "డ": 283, "ఢ": 284, "ణ": 285, "త": 286, "థ": 287, "ద": 288, "ధ": 289, "న": 290, "఩": 291, "ప": 292, "ఫ": 293, "బ": 294, "భ": 295, "మ": 296, "య": 297, "ర": 298, "ఱ": 299, "ల": 300, "ళ": 301, "ఴ": 302, "వ": 303, "శ": 304, "ష": 305, "స": 306, "హ": 307, "఺": 308, "఻": 309, "఼": 310, "ఽ": 311, "ా": 312, "ి": 313, "ీ": 314, "ు": 315, "ూ": 316, "ృ": 317, "ౄ": 318, "౅": 319, "ె": 320, "ే": 321, "ై": 322, "౉": 323, "ొ": 324, "ో": 325, "ౌ": 326, "్": 327, "౎": 328, "౏": 329, "౐": 330, "౑": 331, "౒": 332, "౓": 333, "౔": 334, "ౕ": 335, "ౖ": 336, "౗": 337, "ౘ": 338, "ౙ": 339, "ౚ": 340, "౛": 341, "౜": 342, "ౝ": 343, "౞": 344, "౟": 345, "ౠ": 346, "ౡ": 347, "ౢ": 348, "ౣ": 349, "౤": 350, "౥": 351, "౦": 352, "౧": 353, "౨": 354, "౩": 355, "౪": 356, "౫": 357, "౬": 358, "౭": 359, "౮": 360, "౯": 361, "౰": 362, "౱": 363, "౲": 364, "౳": 365, "౴": 366, "౵": 367, "౶": 368, "౷": 369, "౸": 370, "౹": 371, "౺": 372, "౻": 373, "౼": 374, "౽": 375, "౾": 376, "౿": 377, "ṅ": 378, "ṇ": 379, "ṣ": 380, "ṭ": 381, "Ἰ": 382, "–": 383, "—": 384, "†": 385, "′": 386, "₹": 387, "﻿": 388, " t": 389, "an": 390, "he": 391, "्य": 392, "in": 393, "्र": 394, " the": 395, "न्": 396, " स": 397, "on": 398, "ार": 399, "er": 400, "re": 401, " अ": 402, "al": 403, " प": 404, " o": 405, "at": 406, "st": 407, "र्": 408, "en": 409, "ar": 410, "di": 411, "स्": 412, "म्": 413, "and": 414, " ,": 415, " c": 416, "ति": 417, "ed": 418, " I": 419, " a": 420, " in": 421, " of": 422, " क": 423, " w": 424, "भार": 425, "भारत": 426, "it": 427, " व": 428, " s": 429, "स्य": 430, " In": 431, " and": 432, "त्": 433, "रा": 434, "or": 435, " p": 436, " b": 437, "ion": 438, "es": 439, " m": 440, " f": 441, "ic": 442, "दे": 443, " Indi": 444, "is": 445, "ान": 446, "ing": 447, "देश": 448, "as": 449, " प्र": 450, " त": 451, "िक": 452, " च": 453, " भारत": 454, " म": 455, "om": 456, "ent": 457, " l": 458, "त्र": 459, "्व": 460, " रा": 461, " आ": 462, "या": 463, "ना": 464, "ou": 465, " e": 466, " India": 467, "ित": 468, " वि": 469, " to": 470, " ग": 471, "ङ्": 472, " 1": 473, "मा": 474, " ज": 475, "ष्": 476, "ीय": 477, "नि": 478, " इ": 479, " d": 480, "वि": 481, "ur": 482, "ly": 483, " h": 484, "ec": 485, " ए": 486, " ब": 487, " T": 488, "भा": 489, " re": 490, "il": 491, " n": 492, "र्व": 493, "్ర": 494, "ता": 495, " ప": 496, "ाल": 497, " g": 498, " श": 499, "ष्ट": 500, "ra": 501, "th": 502, " द": 503, " न": 504, "ri": 505, "िन्": 506, "ul": 507, " देश": 508, "ol": 509, "श्": 510, "ृत": 511, " A": 512, "ార": 513, "ver": 514, "am": 515, " C": 516, "क्": 517, " .": 518, "ेन": 519, "न्ति": 520, "द्": 521, "हा": 522, "ेण": 523, "ation": 524, " B": 525, " 2": 526, " उ": 527, " S": 528, "्या": 529, "ीत": 530, "ve": 531, " सं": 532, " ह": 533, "ాల": 534, "le": 535, "ro": 536, "ut": 537, "द्र": 538, "ष्ट्र": 539, "ce": 540, "प्र": 541, "ज्य": 542, " The": 543, " is": 544, "ad": 545, "ist": 546, "ास": 547, "वा": 548, "ge": 549, "im": 550, "ते": 551, " वर्": 552, "्थ": 553, " Indian": 554, "धान": 555, " స": 556, "धर्": 557, " by": 558, " अस्": 559, "us": 560, " 19": 561, "ast": 562, " be": 563, "न्त": 564, " క": 565, " (": 566, " का": 567, " अस्ति": 568, "ig": 569, "क्ष": 570, "un": 571, "धर्म": 572, " राष्ट्र": 573, "भू": 574, "'s": 575, " M": 576, " th": 577, " P": 578, "तः": 579, "पि": 580, " गीत": 581, "ith": 582, "ir": 583, "id": 584, "ow": 585, "లో": 586, "ch": 587, "सा": 588, " य": 589, " r": 590, "सी": 591, "सं": 592, " के": 593, "कृत": 594, "न्त्र": 595, "ङ्क": 596, "్య": 597, " र": 598, "षु": 599, "षा": 600, "rom": 601, "00": 602, " with": 603, "et": 604, " for": 605, "स्थ": 606, "िका": 607, "ate": 608, "तम": 609, " con": 610, "ment": 611, "ङ्ग": 612, " వ": 613, " మ": 614, " was": 615, "em": 616, "du": 617, "गर": 618, "दा": 619, "ang": 620, "ter": 621, "न्द्र": 622, "op": 623, "ies": 624, " wh": 625, "tion": 626, " भारतीय": 627, " इति": 628, "स्त": 629, " mo": 630, " as": 631, "న్": 632, "ain": 633, " su": 634, "द्ध": 635, "ासन": 636, "मु": 637, "res": 638, "ीप": 639, "द्व": 640, " from": 641, "ong": 642, " st": 643, " भा": 644, "िः": 645, "est": 646, " अन": 647, "ay": 648, "ది": 649, "यो": 650, "िण": 651, " स्थ": 652, "्त": 653, "దే": 654, "ल्": 655, " N": 656, "ts": 657, "ण्": 658, "her": 659, "स्कृत": 660, "దేశ": 661, " ल": 662, "స్": 663, "ర్": 664, "तन्त्र": 665, "यः": 666, "सीत्": 667, "ical": 668, " ex": 669, " H": 670, " D": 671, "ిం": 672, " E": 673, " it": 674, "धिक": 675, "ని": 676, "se": 677, " G": 678, "ld": 679, " on": 680, "दि": 681, "ab": 682, "्च": 683, " '": 684, "पु": 685, "ak": 686, " di": 687, " an": 688, "gh": 689, " ర": 690, "భార": 691, "లు": 692, " देशः": 693, "धर्मः": 694, " इत्": 695, "ill": 696, "art": 697, "భారత": 698, "ac": 699, "१९": 700, "ich": 701, " राज्य": 702, " ప్ర": 703, " or": 704, " has": 705, "ूर्व": 706, " -": 707, "जन": 708, "००": 709, "नाम": 710, "ial": 711, " 20": 712, "वर्": 713, "गो": 714, "वर": 715, "um": 716, "महा": 717, "णि": 718, " అ": 719, "सिन्": 720, "ीन": 721, "der": 722, " which": 723, "ाद": 724, "ली": 725, " दि": 726, " विश": 727, "ud": 728, "ity": 729, " प्रा": 730, "ध्य": 731, " स्व": 732, " are": 733, "ive": 734, "त्व": 735, "राज्य": 736, "ण्ड": 737, "पाल": 738, "द्वीप": 739, "iv": 740, "्यः": 741, "कार": 742, "था": 743, " वर्त": 744, " un": 745, "ult": 746, "ला": 747, "ort": 748, "oun": 749, "con": 750, "ure": 751, "el": 752, "मे": 753, " भाषा": 754, "గా": 755, "rit": 756, "pp": 757, "ిక": 758, "शि": 759, " विश्व": 760, "गा": 761, "న్న": 762, "oc": 763, " शासन": 764, "रु": 765, "रि": 766, "भूम": 767, "विधान": 768, "ers": 769, "li": 770, "ot": 771, " K": 772, " v": 773, " सर्व": 774, "दन": 775, " ते": 776, " W": 777, "ञ्च": 778, " तस्": 779, "ary": 780, "का": 781, " inc": 782, " al": 783, "क्षिण": 784, " दक्षिण": 785, " जन": 786, " its": 787, "ere": 788, " com": 789, " cent": 790, "over": 791, " ఉ": 792, "नी": 793, " भ": 794, " राज": 795, " वर्ष": 796, "चि": 797, "ans": 798, " पु": 799, "द्य": 800, "ब्": 801, "ोक": 802, "खा": 803, "धि": 804, "णा": 805, "वी": 806, " wor": 807, "end": 808, " de": 809, "भाग": 810, "ag": 811, "स्थान": 812, "्म": 813, "सागर": 814, " प्रथ": 815, " प्रथम": 816, "ाणि": 817, "सः": 818, "देशः": 819, " राग": 820, "ादय": 821, "वान्": 822, "arge": 823, "ear": 824, " were": 825, "od": 826, "క్": 827, " at": 828, "mp": 829, "our": 830, "ated": 831, "ct": 832, "ాయ": 833, " सा": 834, " ने": 835, "त्त": 836, "In": 837, "ें": 838, " पूर्व": 839, " Hin": 840, "os": 841, "The": 842, "क्त": 843, " सि": 844, "धु": 845, "र्य": 846, " महा": 847, " As": 848, "ant": 849, "age": 850, "ism": 851, "ish": 852, " ch": 853, " sp": 854, " cont": 855, "िमा": 856, " सम्": 857, " భారత": 858, "दु": 859, "चार": 860, "िता": 861, "विध": 862, "तिः": 863, "ार्थ": 864, "ాత": 865, "तत्": 866, " दिन": 867, "संस्कृत": 868, "नाथ": 869, "ry": 870, " एष": 871, "भूमिः": 872, " pro": 873, "ance": 874, "దేశం": 875, " में": 876, "og": 877, "్ట": 878, "outh": 879, "ous": 880, " int": 881, "ions": 882, "uring": 883, "ect": 884, " pl": 885, "fter": 886, "aj": 887, "overn": 888, "ough": 889, "ను": 890, "కు": 891, " చ": 892, "कि": 893, "ాలు": 894, " R": 895, " है": 896, "ame": 897, "conom": 898, "eral": 899, "ap": 900, "ass": 901, "av": 902, "ात": 903, "प्त": 904, " Ch": 905, " co": 906, "low": 907, " U": 908, " नाम": 909, " జ": 910, "్వ": 911, " 201": 912, "रू": 913, "्री": 914, "angu": 915, "स्था": 916, " लोक": 917, " स्थान": 918, " ar": 919, "if": 920, "ern": 921, " J": 922, " bec": 923, " le": 924, " part": 925, "ore": 926, "overnment": 927, "र्वत": 928, "ండ": 929, " संस्कृत": 930, "ेद": 931, "्ञ": 932, " केन्द्र": 933, "शत": 934, "ine": 935, " ऐ": 936, "्याय": 937, "भ्य": 938, "च्": 939, " तत्": 940, " विद्य": 941, " कृत": 942, "ाङ्क": 943, "up": 944, " reg": 945, "mer": 946, " into": 947, " centur": 948, " econom": 949, "any": 950, " large": 951, "illion": 952, "ీయ": 953, " \"": 954, " ఇ": 955, " mar": 956, " rel": 957, "hi": 958, "uc": 959, "ates": 960, "ress": 961, "తి": 962, "ిన": 963, " २": 964, "ించ": 965, "Indi": 966, "ia": 967, " world": 968, " form": 969, " langu": 970, " per": 971, " cl": 972, " ad": 973, "ces": 974, "त्तर": 975, " पा": 976, " कार": 977, "ంది": 978, "ार्": 979, "यु": 980, "मान": 981, "ये": 982, "धिकार": 983, " se": 984, " pop": 985, " sub": 986, " ag": 987, "ally": 988, " Hindu": 989, " k": 990, "stit": 991, "me": 992, "inist": 993, "స్త": 994, "लय": 995, "श्चि": 996, "श्चिम": 997, "मुख": 998, "र्ण": 999, "ల్": 1000, "ख्या": 1001, " पाकि": 1002, " क्र": 1003, "व्य": 1004, "ाला": 1005, " 7": 1006, "सि": 1007, "ेक": 1008, "ence": 1009, " y": 1010, "ution": 1011, "ational": 1012, "irst": 1013, "qu": 1014, "har": 1015, " el": 1016, "िमालय": 1017, " ब्र": 1018, "गत": 1019, "सभा": 1020, "ासित": 1021, " पर्वत": 1022, "रूप": 1023, "गीत": 1024, "वर्ष": 1025, "शासन": 1026, "िख": 1027, " V": 1028, "गोल": 1029, " श्री": 1030, " भू": 1031, "िन्दु": 1032, "चित": 1033, " अनेक": 1034, "ात्": 1035, "डा": 1036, "so": 1037, " नद": 1038, "रत": 1039, " सिन्": 1040, "ह्म": 1041, " नेपाल": 1042, "सिद्ध": 1043, "नः": 1044, "िखित": 1045, "ध्व": 1046, "तमे": 1047, "ian": 1048, " Ind": 1049, " 5": 1050, " स्थाने": 1051, "दश": 1052, "सर्व": 1053, " रवी": 1054, "नै": 1055, "India": 1056, " popul": 1057, "red": 1058, "ave": 1059, "ik": 1060, " first": 1061, "all": 1062, " during": 1063, " government": 1064, "ber": 1065, " ఆ": 1066, " से": 1067, " को": 1068, "ద్": 1069, "ok": 1070, " sh": 1071, " ri": 1072, " dec": 1073, "ire": 1074, " pri": 1075, " sy": 1076, "reas": 1077, " tra": 1078, "lud": 1079, "రి": 1080, "ము": 1081, "రు": 1082, " F": 1083, "ric": 1084, " year": 1085, "cc": 1086, "reat": 1087, " exp": 1088, "ther": 1089, " comp": 1090, "ome": 1091, "we": 1092, " gen": 1093, "dition": 1094, "ेत्र": 1095, " సం": 1096, "िया": 1097, "ने": 1098, "रे": 1099, "र्थ": 1100, "िय": 1101, " 3": 1102, "ages": 1103, " मु": 1104, " 4": 1105, " उत्तर": 1106, " की": 1107, " న": 1108, " త": 1109, "ంత": 1110, "ound": 1111, "dern": 1112, "ff": 1113, "dh": 1114, " art": 1115, "gan": 1116, " over": 1117, "ign": 1118, "row": 1119, "ide": 1120, " end": 1121, "ew": 1122, "oth": 1123, " includ": 1124, "ection": 1125, " ద": 1126, " अन्य": 1127, "चीन": 1128, " రా": 1129, "ాన": 1130, " मा": 1131, " मध्य": 1132, " బ": 1133, " पश्चिम": 1134, "वस्था": 1135, "धार": 1136, "ంట": 1137, "వి": 1138, "ral": 1139, " अव": 1140, " गण": 1141, "तु": 1142, "ved": 1143, "igh": 1144, "estern": 1145, "used": 1146, " cons": 1147, " became": 1148, " res": 1149, "stitution": 1150, "duc": 1151, " inf": 1152, "ajor": 1153, " syst": 1154, " system": 1155, " century": 1156, " also": 1157, "परा": 1158, " भाग": 1159, "భా": 1160, "क्र": 1161, "ोध": 1162, " स्त": 1163, " औ": 1164, " चीन": 1165, "व्यवस्था": 1166, "शासित": 1167, "्ञान": 1168, "०००": 1169, " न्याय": 1170, "वार": 1171, "पूर्व": 1172, "काश": 1173, "१९४": 1174, " अधि": 1175, " हिन्दु": 1176, "सन्": 1177, "भारतीय": 1178, "हो": 1179, "प्रा": 1180, " परि": 1181, "राष्ट्र": 1182, " और": 1183, "जय": 1184, "गण": 1185, "ल्ल": 1186, " सिन्धु": 1187, " ब्रह्म": 1188, "ौगोल": 1189, "ौगोलिक": 1190, "परि": 1191, "ाखा": 1192, "मुद्र": 1193, "से": 1194, " विधान": 1195, " हे": 1196, " पत्र": 1197, " जय": 1198, "तत्त्व": 1199, "दः": 1200, "वः": 1201, "नम्": 1202, "वर्ण": 1203, "ेण्": 1204, "ep": 1205, " पञ्च": 1206, "मस्": 1207, "ड्": 1208, "विः": 1209, " 202": 1210, " सप्त": 1211, "लङ्क": 1212, "लङ्का": 1213, "वत्": 1214, "हासः": 1215, " रचित": 1216, " पत्रिका": 1217, "सस्य": 1218, "कृत्य": 1219, " had": 1220, " relig": 1221, "mpire": 1222, " pe": 1223, " rul": 1224, " but": 1225, " been": 1226, "atic": 1227, "imal": 1228, " have": 1229, " more": 1230, " पर": 1231, " గ": 1232, " )": 1233, " 200": 1234, "ach": 1235, "ాయి": 1236, " L": 1237, "ారు": 1238, "..": 1239, "ों": 1240, "ub": 1241, "ount": 1242, " South": 1243, "eng": 1244, "ord": 1245, " me": 1246, " tw": 1247, "ural": 1248, " after": 1249, " million": 1250, " class": 1251, "mong": 1252, "vers": 1253, " im": 1254, " num": 1255, "ongress": 1256, "ుత": 1257, " सम": 1258, "ైన": 1259, "ూడ": 1260, " rep": 1261, "हु": 1262, "ింది": 1263, " बहु": 1264, " most": 1265, " O": 1266, " lat": 1267, " years": 1268, " region": 1269, " he": 1270, " pol": 1271, "ose": 1272, "ulture": 1273, " two": 1274, " modern": 1275, " increas": 1276, " that": 1277, "hm": 1278, "vel": 1279, "ens": 1280, "ond": 1281, " such": 1282, "lo": 1283, "ower": 1284, " ca": 1285, " their": 1286, " minist": 1287, " क्": 1288, " 195": 1289, " 196": 1290, " ఎ": 1291, " వి": 1292, "ले": 1293, " १": 1294, "క్ష": 1295, "కి": 1296, "ంగా": 1297, "ంగ": 1298, "ack": 1299, "CE": 1300, "माण": 1301, "कर": 1302, "हर": 1303, "ధిక": 1304, "orth": 1305, "tin": 1306, " long": 1307, " BCE": 1308, " Bud": 1309, " Buddh": 1310, " soc": 1311, "ef": 1312, " sc": 1313, "ures": 1314, "anges": 1315, " par": 1316, " major": 1317, " dis": 1318, " tradition": 1319, "ree": 1320, " ;": 1321, " both": 1322, "sh": 1323, "ren": 1324, "ween": 1325, "ban": 1326, "rib": 1327, " Congress": 1328, "ru": 1329, " prime": 1330, " dance": 1331, " ई": 1332, " శ": 1333, " द्व": 1334, "कृ": 1335, "मि": 1336, "वं": 1337, "माज": 1338, " बा": 1339, " प्राचीन": 1340, " जात": 1341, "ीव": 1342, "ाना": 1343, " स्था": 1344, "न्य": 1345, "च्च": 1346, "టి": 1347, " ఉన్న": 1348, " ना": 1349, " मह": 1350, "त्य": 1351, "lic": 1352, " कार्य": 1353, " Asia": 1354, "istan": 1355, " cast": 1356, "ations": 1357, "hed": 1358, " population": 1359, " ter": 1360, "urban": 1361, "les": 1362, "ph": 1363, " not": 1364, "amil": 1365, " grow": 1366, " under": 1367, "ard": 1368, " ser": 1369, " जै": 1370, "ोप": 1371, "सू": 1372, " 199": 1373, " स्थित": 1374, " तथा": 1375, " ऋ": 1376, "सम": 1377, " ५": 1378, "धिकारिक": 1379, " मन": 1380, "ूल": 1381, "ृद्ध": 1382, " सु": 1383, " हिमालय": 1384, "ष्ण": 1385, " आधिकारिक": 1386, "र्ष": 1387, "भाषा": 1388, " 18": 1389, "वरी": 1390, "भिन्": 1391, "भिन्न": 1392, " आन्": 1393, "ल्ली": 1394, "हि": 1395, "olog": 1396, " बौ": 1397, " बौद्ध": 1398, "हित": 1399, " मूल": 1400, "यत": 1401, "ष्ठ": 1402, "ిత": 1403, "ज्ञान": 1404, " तु": 1405, " नव": 1406, "पालिका": 1407, "राज": 1408, " ति": 1409, "ालय": 1410, " मत": 1411, "धानी": 1412, "तन": 1413, "्रि": 1414, "लाल": 1415, "कु": 1416, "११": 1417, " भरत": 1418, "रम्": 1419, " स्वतन्त्र": 1420, "पुत्र": 1421, "ाधिक": 1422, " सदन": 1423, "పు": 1424, " नि": 1425, "ोत्": 1426, "पुरा": 1427, "ृह": 1428, "ब्र": 1429, " సా": 1430, " वेद": 1431, "पद": 1432, "ट्": 1433, "ितम्": 1434, "मिन्": 1435, " विध": 1436, " विधा": 1437, "विधा": 1438, "मित": 1439, " आर्य": 1440, "్చ": 1441, "्रन्": 1442, "्रन्थ": 1443, "चन": 1444, " बृह": 1445, "भागः": 1446, " अष्ट": 1447, "ब्ध": 1448, "मार्": 1449, "ेऽ": 1450, "्यम्": 1451, "ध्वज": 1452, " पुण": 1453, "चार्य": 1454, "योजन": 1455, "र्ग": 1456, "दं": 1457, "सङ्": 1458, "सङ्ख्या": 1459, "नाना": 1460, " उद्": 1461, "द्वार": 1462, "वन्": 1463, " तम": 1464, " तेन": 1465, "दम्": 1466, " लिखित": 1467, "ानु": 1468, "शाला": 1469, "पङ्क": 1470, "नु": 1471, "कारः": 1472, " सङ्": 1473, " सङ्घ": 1474, "िणी": 1475, "पतिः": 1476, " आपरा": 1477, " आपराधिक": 1478, "गस्": 1479, "महो": 1480, "महोद": 1481, "महोदयः": 1482, "गीतम्": 1483, " अद्": 1484, " उल्": 1485, " सम्प्र": 1486, " off": 1487, "ially": 1488, "ince": 1489, " east": 1490, "isation": 1491, "ni": 1492, " language": 1493, "aw": 1494, " supp": 1495, " nort": 1496, " caste": 1497, "ty": 1498, " this": 1499, " Empire": 1500, " Brit": 1501, " British": 1502, " began": 1503, "rough": 1504, "ament": 1505, "ucle": 1506, "uclear": 1507, " mil": 1508, "ari": 1509, " many": 1510, " app": 1511, "ory": 1512, " bet": 1513, " between": 1514, " urban": 1515, "ics": 1516, " te": 1517, " ra": 1518, " election": 1519, " minister": 1520, " j": 1521, " mus": 1522, "ార్": 1523, "ుల": 1524, "दी": 1525, "000": 1526, "త్": 1527, "తో": 1528, "के": 1529, "ష్ట": 1530, "రా": 1531, " It": 1532, " south": 1533, "out": 1534, " land": 1535, "akistan": 1536, " north": 1537, "sl": 1538, "contin": 1539, "continent": 1540, " rec": 1541, " ear": 1542, "vi": 1543, " norther": 1544, " northern": 1545, "ta": 1546, " economy": 1547, "lu": 1548, "versity": 1549, "ell": 1550, "ically": 1551, " Con": 1552, " sec": 1553, " ab": 1554, "als": 1555, "pt": 1556, "lowing": 1557, "ted": 1558, " fore": 1559, "velop": 1560, " fol": 1561, "),": 1562, " హ": 1563, " CE": 1564, " 6": 1565, " 194": 1566, "ట్ట": 1567, " కూడ": 1568, "mon": 1569, "ంలో": 1570, "స్థ": 1571, " count": 1572, "cy": 1573, " Beng": 1574, " Bengal": 1575, " Pakistan": 1576, " Chin": 1577, "esh": 1578, " An": 1579, " later": 1580, "omin": 1581, "ade": 1582, "merg": 1583, " western": 1584, "ins": 1585, " languages": 1586, "ya": 1587, "ite": 1588, "ugh": 1589, "ace": 1590, " rule": 1591, " Com": 1592, " influ": 1593, "ition": 1594, "ani": 1595, " tim": 1596, " rate": 1597, "odi": 1598, "ately": 1599, "ci": 1600, " peop": 1601, " en": 1602, " imp": 1603, " classical": 1604, "arn": 1605, " Un": 1606, "ai": 1607, "ular": 1608, " develop": 1609, "ited": 1610, " Sh": 1611, " among": 1612, " general": 1613, " largest": 1614, " music": 1615, " क्ष": 1616, " क्षेत्र": 1617, " 8": 1618, "ంద": 1619, "ived": 1620, "చ్చ": 1621, " धर्म": 1622, "जा": 1623, "యా": 1624, " ఈ": 1625, "ublic": 1626, " Pl": 1627, "ust": 1628, "सार": 1629, " since": 1630, " Th": 1631, " hum": 1632, " subcontinent": 1633, " lif": 1634, " life": 1635, "ise": 1636, " there": 1637, "ised": 1638, "ains": 1639, "unj": 1640, "unjab": 1641, " Mugh": 1642, " economic": 1643, "ative": 1644, "ech": 1645, " non": 1646, "ced": 1647, " increased": 1648, " lit": 1649, "orm": 1650, " mid": 1651, "itary": 1652, "ild": 1653, " hist": 1654, " spec": 1655, " ext": 1656, " people": 1657, "own": 1658, " peri": 1659, " period": 1660, "ting": 1661, " emp": 1662, "raph": 1663, "able": 1664, "esp": 1665, "ket": 1666, "arat": 1667, "ered": 1668, "ib": 1669, "imalay": 1670, "ice": 1671, " 2011": 1672, " ప్రా": 1673, " రాజ": 1674, "री": 1675, " छ": 1676, " దేశ": 1677, " कु": 1678, " यु": 1679, "काल": 1680, "ियो": 1681, " దేశం": 1682, " कारण": 1683, "ంచ": 1684, " భారతదేశం": 1685, "ेस": 1686, " दश": 1687, " భా": 1688, " ఒ": 1689, " प्रधान": 1690, " ల": 1691, " 12": 1692, " उत्": 1693, "टि": 1694, "निक": 1695, "ట్": 1696, " 21": 1697, " ని": 1698, "ोष": 1699, "్రీ": 1700, " काल": 1701, " गा": 1702, "vent": 1703, " Isl": 1704, " than": 1705, " occ": 1706, " emerg": 1707, " Indus": 1708, "ird": 1709, "illen": 1710, "illenni": 1711, "illennium": 1712, " Sans": 1713, " Sansk": 1714, " Sanskrit": 1715, " social": 1716, " Ma": 1717, "lim": 1718, "ultan": 1719, " Punjab": 1720, " Sik": 1721, " Mughal": 1722, "ft": 1723, " East": 1724, "vement": 1725, " parli": 1726, " parliament": 1727, " liter": 1728, " nuclear": 1729, " state": 1730, "ected": 1731, " ref": 1732, "cient": 1733, "ron": 1734, "ood": 1735, "ever": 1736, "ities": 1737, "hen": 1738, " new": 1739, " set": 1740, "athe": 1741, " main": 1742, "ange": 1743, " power": 1744, "rol": 1745, "roc": 1746, "dic": 1747, " lead": 1748, " Al": 1749, " war": 1750, " Eur": 1751, " number": 1752, "tern": 1753, " Himalay": 1754, " one": 1755, " cour": 1756, " species": 1757, "वे": 1758, " एवं": 1759, " सेना": 1760, "चल": 1761, " మొ": 1762, " वा": 1763, "मत": 1764, " 197": 1765, "शी": 1766, "स्त्र": 1767, "म्ब": 1768, "ష్ట్ర": 1769, " 9": 1770, " 15": 1771, " స్": 1772, "ద్ధ": 1773, "్రి": 1774, "ులు": 1775, " इस्": 1776, "मो": 1777, "गम": 1778, "पाद": 1779, "फल": 1780, "ర్వ": 1781, "ాతీయ": 1782, " రై": 1783, " पार": 1784, "ंश": 1785, "भूमि": 1786, "ाधिकार": 1787, "श्र": 1788, " एक": 1789, " उच्च": 1790, "ची": 1791, " १५": 1792, "रप": 1793, "यन": 1794, "लु": 1795, " स्": 1796, "ఖ్య": 1797, " पुरा": 1798, "न्तर": 1799, " इस्ला": 1800, " इस्लाम": 1801, "जित": 1802, "िर": 1803, " नागर": 1804, "१९४७": 1805, " ७": 1806, " వ్య": 1807, "ణా": 1808, " పే": 1809, " जैन": 1810, " जन्": 1811, " जन्म": 1812, "हिं": 1813, "गति": 1814, " प्रकाश": 1815, " प्रचल": 1816, " विज्ञान": 1817, " ये": 1818, "निरप": 1819, "जि": 1820, " सौ": 1821, "हार्": 1822, "हार्द": 1823, "ాన్": 1824, "తర": 1825, " 198": 1826, "नगर": 1827, "वर्त": 1828, " अध": 1829, "खण्ड": 1830, " गो": 1831, "स्तु": 1832, "ग्": 1833, "जीव": 1834, " नदी": 1835, " प्रमाण": 1836, "हिंसा": 1837, "बोध": 1838, "ात्म": 1839, "ात्मक": 1840, " वर्षा": 1841, "नव": 1842, "फे": 1843, "सूची": 1844, " दिव": 1845, " दिवस": 1846, "ల్ల": 1847, " ज्ञ": 1848, "म्प": 1849, "ीर्ण": 1850, " निक": 1851, "मन्त्र": 1852, "पुर": 1853, "ाव": 1854, "్రా": 1855, " भौगोलिक": 1856, "ितीय": 1857, "ाचार": 1858, " जग": 1859, "पुराण": 1860, " चि": 1861, "इति": 1862, "रण": 1863, "ेत": 1864, " अश": 1865, " अशोक": 1866, " पार्थ": 1867, " रो": 1868, "भेद": 1869, "खर": 1870, "धार्म": 1871, "धार्मिक": 1872, "हिमालय": 1873, " पत्": 1874, "ध्र": 1875, "लिखित": 1876, "हरु": 1877, " २८": 1878, "शक्त": 1879, " विद्यमान": 1880, " शाखा": 1881, "मुद्रा": 1882, " धर्": 1883, " धर्मा": 1884, " पथ": 1885, " छा": 1886, " डा": 1887, "नं": 1888, " राम": 1889, "प्रकाश": 1890, " Indo": 1891, " Plate": 1892, " हैं": 1893, "राज्यम्": 1894, "्याम": 1895, "दृ": 1896, " मात": 1897, "ोब": 1898, "ोबार": 1899, "ङ्गा": 1900, " ष": 1901, "तमेन": 1902, "शोध": 1903, "मन्": 1904, "विंश": 1905, "विंशति": 1906, "देह": 1907, "ह्": 1908, "कर्ण": 1909, "ारः": 1910, "व्या": 1911, " ग्रन्थ": 1912, "ेश": 1913, "ेसेण्": 1914, "ेसेण्ट": 1915, "ेसेण्टथ": 1916, "ेसेण्टथियो": 1917, "ेसेण्टथियोस": 1918, "ेसेण्टथियोसफ": 1919, "ेसेण्टथियोसफिक": 1920, "ेसेण्टथियोसफिकल": 1921, "१९४८": 1922, " वन्": 1923, "रच": 1924, " बृहत्": 1925, "सीमा": 1926, " समीप": 1927, " समुद्र": 1928, "कुर": 1929, "युत": 1930, "मुखा": 1931, "स्थानम्": 1932, "दस्": 1933, "शासनम्": 1934, " अष्टा": 1935, "पर्य": 1936, "मान्": 1937, " तृत": 1938, " तृतीय": 1939, "नमस्": 1940, "विष": 1941, "िनः": 1942, "्ना": 1943, "भरत": 1944, "यन्": 1945, "रब्ध": 1946, " तन्": 1947, " ५०००": 1948, " ५०००वर्ष": 1949, " ५०००वर्षे": 1950, " ५०००वर्षेभ": 1951, " ५०००वर्षेभ्यः": 1952, "ख्रि": 1953, "धौ": 1954, "तद्": 1955, "भौगोलिक": 1956, " माला": 1957, "द्वीपः": 1958, "भूता": 1959, " बर": 1960, "्मा": 1961, "भृत": 1962, "समृद्ध": 1963, "ेऽपि": 1964, "क्षेत्र": 1965, "शाखा": 1966, "न्याय": 1967, "संह": 1968, "संहिता": 1969, "बद्ध": 1970, "दधि": 1971, " स्वा": 1972, "हरलाल": 1973, "हरलालने": 1974, "हरलालनेहरु": 1975, "ीत्या": 1976, "क्षः": 1977, " प्रजा": 1978, "मेव": 1979, " शासनम्": 1980, " श्व": 1981, " श्वेत": 1982, "तस्": 1983, "िरः": 1984, "काः": 1985, "भव": 1986, "षय": 1987, "ख्यात": 1988, " पुण्य": 1989, "१९११": 1990, "१९११तमे": 1991, "समाज": 1992, "थम्": 1993, "तिप": 1994, "१९१९": 1995, "१९१९तमे": 1996, " कविः": 1997, "विद्य": 1998, "विद्यालय": 1999, " आह": 2000, " आह्व": 2001, " आह्वान": 2002, " चित्त": 2003, " मदन": 2004, "पल्ली": 2005, " सः": 2006, "ाचार्यः": 2007, "कविः": 2008, " जे": 2009, "नामा": 2010, " पत्नी": 2011, " छात्र": 2012, "र्तु": 2013, "शय": 2014, " अन्ति": 2015, " अन्तिम": 2016, " गी": 2017, " गीता": 2018, " रोमा": 2019, " ऐक": 2020, "कण्": 2021, "कण्ठ": 2022, "गायन": 2023, "मदन": 2024, "षित": 2025, "ग्ल": 2026, "ग्लान": 2027, "वादः": 2028, "रवी": 2029, " द्वितीय": 2030, "पुस्त": 2031, "पुस्तक": 2032, " रक्त": 2033, "दुर्ग": 2034, "डाय": 2035, "मेण्": 2036, " गीतम्": 2037, " रागः": 2038, "योजित": 2039, " जननी": 2040, "मय": 2041, "निः": 2042, " अनन्य": 2043, "चरण": 2044, "भावः": 2045, " धार्मिक": 2046, " यव": 2047, " country": 2048, "large": 2049, "largest": 2050, " China": 2051, "ank": 2052, "aman": 2053, "ands": 2054, " river": 2055, " bas": 2056, " gra": 2057, "ivil": 2058, "ope": 2059, "la": 2060, " est": 2061, " Cent": 2062, " Del": 2063, " Comp": 2064, " col": 2065, " righ": 2066, " other": 2067, " 1950": 2068, " through": 2069, " billion": 2070, " US": 2071, " though": 2072, " military": 2073, "fe": 2074, " En": 2075, "rig": 2076, "dust": 2077, "ten": 2078, " including": 2079, " Ganges": 2080, " agric": 2081, " out": 2082, " them": 2083, "emp": 2084, "ograph": 2085, " caused": 2086, " Tamil": 2087, "iz": 2088, "gen": 2089, " up": 2090, " who": 2091, "til": 2092, "hes": 2093, " sur": 2094, " constitution": 2095, "ribut": 2096, "orts": 2097, "athem": 2098, "వా": 2099, "నే": 2100, "మైన": 2101, "ద్ద": 2102, " Ar": 2103, " 17": 2104, "లి": 2105, "డి": 2106, " Wor": 2107, " World": 2108, "టు": 2109, "ండి": 2110, " जि": 2111, "ింద": 2112, "పా": 2113, " స్థ": 2114, "డ్": 2115, "తా": 2116, "heast": 2117, " no": 2118, " third": 2119, " millennium": 2120, " By": 2121, " pre": 2122, " polit": 2123, " wom": 2124, " religi": 2125, "uslim": 2126, " Central": 2127, " Delhi": 2128, "rew": 2129, " Sikh": 2130, " centuries": 2131, " Company": 2132, " gr": 2133, "duced": 2134, "put": 2135, " ne": 2136, "ording": 2137, " Eng": 2138, "lish": 2139, "ians": 2140, " wide": 2141, "ata": 2142, " second": 2143, "owever": 2144, " we": 2145, " sty": 2146, " found": 2147, "ments": 2148, " some": 2149, "ould": 2150, " forest": 2151, " tr": 2152, " all": 2153, " led": 2154, " sign": 2155, "amp": 2156, "ocal": 2157, "ident": 2158, " far": 2159, " After": 2160, " dire": 2161, " National": 2162, " served": 2163, " rural": 2164, "ana": 2165, "read": 2166, "uj": 2167, " influen": 2168, " play": 2169, "rad": 2170, " St": 2171, " contribut": 2172, " mathem": 2173, "20": 2174, "నా": 2175, " ము": 2176, "నికి": 2177, " అధిక": 2178, "ధ్య": 2179, " 26": 2180, " లో": 2181, "19": 2182, " 10": 2183, " था": 2184, " ఏ": 2185, "back": 2186, " భ": 2187, "%.": 2188, " ఉంది": 2189, " ఉన్నాయి": 2190, " కా": 2191, "మా": 2192, "ड़": 2193, " మార్": 2194, "వస్థ": 2195, " ఒక": 2196, " రాష్ట్ర": 2197, "ost": 2198, " कर": 2199, "%,": 2200, "భారతదేశం": 2201, "డు": 2202, " 1947": 2203, "west": 2204, "daman": 2205, "are": 2206, " made": 2207, " high": 2208, "verse": 2209, "led": 2210, " emerged": 2211, "alle": 2212, " Hinduism": 2213, " regions": 2214, " Jain": 2215, " political": 2216, " women": 2217, "dle": 2218, " religious": 2219, " coast": 2220, " Muslim": 2221, "mit": 2222, "ultanate": 2223, "ork": 2224, " culture": 2225, " us": 2226, " left": 2227, "acy": 2228, " Indians": 2229, " tech": 2230, " movement": 2231, " time": 2232, "ology": 2233, "ats": 2234, "ccording": 2235, " English": 2236, "ives": 2237, " histor": 2238, " eastern": 2239, " used": 2240, "day": 2241, " ent": 2242, " coal": 2243, " human": 2244, "eh": 2245, "ants": 2246, " fe": 2247, " —": 2248, " ass": 2249, " ac": 2250, " emplo": 2251, " employ": 2252, "ied": 2253, "rahm": 2254, " central": 2255, " control": 2256, "cri": 2257, " great": 2258, " trans": 2259, " they": 2260, "very": 2261, "ars": 2262, "omet": 2263, " Buddhist": 2264, "eration": 2265, "ors": 2266, " esp": 2267, " espec": 2268, " especially": 2269, " pain": 2270, " painting": 2271, " following": 2272, " indust": 2273, " Gand": 2274, " Gandhi": 2275, " territ": 2276, "au": 2277, " include": 2278, "und": 2279, " majority": 2280, " Prad": 2281, " Pradesh": 2282, " her": 2283, " areas": 2284, "ati": 2285, " Jan": 2286, " mem": 2287, "han": 2288, " growth": 2289, "ances": 2290, " cook": 2291, "ool": 2292, "ensus": 2293, " Hindi": 2294, "సి": 2295, "్ల": 2296, "ారం": 2297, " रू": 2298, "ెండ": 2299, " పా": 2300, " మార్గ": 2301, ").": 2302, " హింద": 2303, " వచ్చ": 2304, "ue": 2305, " స్వ": 2306, "్రమ": 2307, "ిన్న": 2308, "తం": 2309, " శా": 2310, "బ్": 2311, "ానికి": 2312, "ధాన": 2313, " अनु": 2314, "జాతీయ": 2315, "act": 2316, "धी": 2317, "్మ": 2318, " కూడా": 2319, "emoc": 2320, " Bang": 2321, "yan": 2322, "mar": 2323, " Its": 2324, " Andaman": 2325, "bar": 2326, " ago": 2327, " occup": 2328, "vol": 2329, "ving": 2330, "alley": 2331, " arch": 2332, "opean": 2333, " diff": 2334, " early": 2335, "ning": 2336, "ked": 2337, "lief": 2338, "oms": 2339, " cult": 2340, " arm": 2341, "work": 2342, " cre": 2343, " leg": 2344, "urn": 2345, " prom": 2346, " national": 2347, "ale": 2348, " fed": 2349, " parliamentary": 2350, "istic": 2351, " grew": 2352, " cap": 2353, "ually": 2354, " literacy": 2355, " Kas": 2356, " Kashm": 2357, " bi": 2358, " support": 2359, " Pers": 2360, " prov": 2361, " Constitution": 2362, " orig": 2363, "ained": 2364, " widely": 2365, " diversity": 2366, " animal": 2367, " These": 2368, " feat": 2369, " fig": 2370, " vill": 2371, "oin": 2372, " def": 2373, "ared": 2374, " religions": 2375, "duct": 2376, " Brahm": 2377, " bir": 2378, "ix": 2379, "rop": 2380, "amm": 2381, " roc": 2382, "minist": 2383, " dev": 2384, " man": 2385, "ert": 2386, "ering": 2387, " pen": 2388, " penins": 2389, " whose": 2390, " sm": 2391, "ific": 2392, "bers": 2393, "ines": 2394, "ites": 2395, " local": 2396, "ven": 2397, "cess": 2398, "ess": 2399, "leg": 2400, " direct": 2401, "ories": 2402, " states": 2403, " Himalayas": 2404, " ancient": 2405, " rem": 2406, "pur": 2407, " Guj": 2408, " dra": 2409, "ons": 2410, "ali": 2411, "JP": 2412, " Neh": 2413, " Nehru": 2414, " party": 2415, " last": 2416, "ody": 2417, " United": 2418, "ecut": 2419, "DP": 2420, " rates": 2421, " gar": 2422, " census": 2423, "icial": 2424, " marri": 2425, " scul": 2426, " sculpt": 2427, "ర్య": 2428, "స్క": 2429, " उप": 2430, "दान": 2431, "टी": 2432, " కో": 2433, " చె": 2434, "గు": 2435, "ప్ర": 2436, " 22": 2437, "ంత్ర": 2438, " దక్ష": 2439, " Arch": 2440, " Archived": 2441, "పంచ": 2442, " ప్రాంత": 2443, " మత": 2444, " ఎన్న": 2445, " పార": 2446, "तिक": 2447, "तं": 2448, "त्री": 2449, " Way": 2450, " Wayback": 2451, " Mach": 2452, " Machine": 2453, " వ్యవస్థ": 2454, " పేరు": 2455, "ोल": 2456, " या": 2457, " अधिक": 2458, " దేశాల": 2459, "కో": 2460, "ाली": 2461, " प्रति": 2462, " विक": 2463, "త్వ": 2464, "ప్": 2465, "మి": 2466, "న్ని": 2467, " చే": 2468, " गु": 2469, "स्कृ": 2470, "क्ति": 2471, "तर": 2472, " जल": 2473, "योग": 2474, "ంబ": 2475, "త్య": 2476, " विस्त": 2477, " आर्थ": 2478, " आर्थिक": 2479, "క్కు": 2480, "్రం": 2481, " రాజ్య": 2482, "సు": 2483, "దాయ": 2484, " కే": 2485, " దక్షి": 2486, "मी": 2487, "र्माण": 2488, " ప్రపంచ": 2489, " పార్ట": 2490, " పార్టీ": 2491, " 13": 2492, " 193": 2493, " మధ్య": 2494, " ప్రధాన": 2495, "ook": 2496, "पू": 2497, " समाज": 2498, " अन्त": 2499, " व्य": 2500, " शा": 2501, " अभ": 2502, " व्या": 2503, "ोन": 2504, " భారతీయ": 2505, " రైలు": 2506, " ind": 2507, "outheast": 2508, "ders": 2509, " Bh": 2510, " near": 2511, "ico": 2512, "ex": 2513, " within": 2514, " Buddhism": 2515, " rise": 2516, " During": 2517, " stat": 2518, "ined": 2519, " king": 2520, "ished": 2521, " sou": 2522, " souther": 2523, " southern": 2524, " inter": 2525, "ently": 2526, "ara": 2527, " created": 2528, " compos": 2529, " techn": 2530, " ed": 2531, " educ": 2532, " education": 2533, "ration": 2534, " federal": 2535, " republic": 2536, "ual": 2537, "iet": 2538, " become": 2539, "ality": 2540, "ising": 2541, " air": 2542, "urther": 2543, " Persian": 2544, " well": 2545, "ks": 2546, " Bhar": 2547, " origin": 2548, " cur": 2549, " popular": 2550, " Y": 2551, " earli": 2552, " forms": 2553, " z": 2554, "att": 2555, " cities": 2556, " Mo": 2557, " styles": 2558, "wn": 2559, " old": 2560, "eak": 2561, "ating": 2562, "ss": 2563, " agriculture": 2564, "ight": 2565, "alled": 2566, " based": 2567, "tions": 2568, "sequ": 2569, " rock": 2570, "mb": 2571, " administ": 2572, " along": 2573, "ively": 2574, " regional": 2575, "ake": 2576, " development": 2577, "ificant": 2578, " sch": 2579, " sultanate": 2580, "though": 2581, " men": 2582, "ists": 2583, " peninsular": 2584, "ract": 2585, "ung": 2586, " market": 2587, "oup": 2588, " commer": 2589, " bl": 2590, " pres": 2591, " longer": 2592, " sever": 2593, " There": 2594, "ternal": 2595, "cent": 2596, " industry": 2597, " won": 2598, " elections": 2599, " contin": 2600, " lower": 2601, "upp": 2602, " Gujarat": 2603, " Western": 2604, "ash": 2605, " low": 2606, "aksh": 2607, " cor": 2608, " union": 2609, "round": 2610, " right": 2611, " win": 2612, " mon": 2613, " often": 2614, " employed": 2615, " endem": 2616, "bal": 2617, " car": 2618, "ah": 2619, " Act": 2620, "tt": 2621, " BJP": 2622, "old": 2623, " 1991": 2624, " member": 2625, "tal": 2626, " execut": 2627, " GDP": 2628, "de": 2629, " 2001": 2630, "fore": 2631, "ath": 2632, " common": 2633, " mathematic": 2634, " Wik": 2635, "కొ": 2636, "ున్న": 2637, " स्थाप": 2638, "दोल": 2639, "दोलन": 2640, "ेष": 2641, "युक्त": 2642, "ील": 2643, " २००": 2644, " కు": 2645, " పు": 2646, "पूर्ण": 2647, " सिं": 2648, "धुनिक": 2649, " सह": 2650, "घोष": 2651, " పరి": 2652, "పాల": 2653, "వర": 2654, "కాల": 2655, " సి": 2656, "न्न": 2657, "करण": 2658, "िम": 2659, " अर्थ": 2660, "प्": 2661, " युग": 2662, "ूर": 2663, " మొద": 2664, " కాల": 2665, "ిస్త": 2666, " అయ": 2667, " ప్రజ": 2668, "క్కువ": 2669, "భుత": 2670, "భుత్వ": 2671, " క్రీ": 2672, " 14": 2673, " सी": 2674, "वादी": 2675, " सू": 2676, " आधुनिक": 2677, "चा": 2678, " कृ": 2679, "र्म": 2680, " प्राप्त": 2681, "१९५": 2682, " शक्ति": 2683, " सर्वो": 2684, " सर्वोच्च": 2685, " భాష": 2686, "నాభా": 2687, "భారతీయ": 2688, " 50": 2689, " समा": 2690, " आधार": 2691, "श्मी": 2692, "श्मीर": 2693, "देव": 2694, " जीव": 2695, " उभ": 2696, " कृष": 2697, " वाल": 2698, "बा": 2699, "रं": 2700, " सार": 2701, " హిందూ": 2702, " య": 2703, " पुरु": 2704, " भूमि": 2705, " सभ्य": 2706, "वै": 2707, "शा": 2708, "दर्": 2709, "वंश": 2710, "णाली": 2711, " सां": 2712, "स्कृतिक": 2713, "सर": 2714, " कृषि": 2715, " सिंह": 2716, "१९५०": 2717, "ुष्": 2718, " ३": 2719, "टर": 2720, " ८": 2721, " प्रत्य": 2722, " माध्य": 2723, "ण्डल": 2724, " झ": 2725, "षी": 2726, "దు": 2727, " हु": 2728, " हो": 2729, " सीमा": 2730, "हू": 2731, "तार": 2732, "भु": 2733, " वै": 2734, "शेष": 2735, "दिक": 2736, "पश्चिम": 2737, "दर्श": 2738, " १२": 2739, " शास": 2740, " शासक": 2741, " क्रम": 2742, " विशाल": 2743, " हर": 2744, " १९४७": 2745, "टा": 2746, " निम्": 2747, " निम्न": 2748, " ठ": 2749, "डु": 2750, " क्रय": 2751, "ूह": 2752, "ప్ప": 2753, "కా": 2754, "దా": 2755, "స్కృ": 2756, " त्रि": 2757, " अत्य": 2758, " चर": 2759, "वैदिक": 2760, " गौ": 2761, "क्रम": 2762, " प्राय": 2763, " चे": 2764, " शास्त्र": 2765, " भो": 2766, " प्राप्": 2767, "माता": 2768, "ेल": 2769, "ब्ब": 2770, " द्र": 2771, "श्रेण": 2772, " २९": 2773, " अन्तर्": 2774, " नर्म": 2775, " मुम्ब": 2776, " मुम्बई": 2777, " जवा": 2778, " विधि": 2779, "पति": 2780, " न्य": 2781, "मन": 2782, " द्वीप": 2783, "क्षि": 2784, "पक्ष": 2785, "जना": 2786, "सां": 2787, "स्व": 2788, " समान": 2789, "भाषी": 2790, " 55": 2791, " సాం": 2792, " సభ": 2793, "ాబ": 2794, "युग": 2795, "नौ": 2796, " वन्य": 2797, "ष्णु": 2798, " कथा": 2799, " ऋष": 2800, " ऋषभ": 2801, " आर": 2802, "प्राचीन": 2803, " ज्ञात": 2804, "वीर": 2805, " गौतम": 2806, " बु": 2807, " बुद्ध": 2808, "पदा": 2809, " उन्न": 2810, " मुक्त": 2811, " शक": 2812, "मध्य": 2813, " पुन": 2814, "नो": 2815, "लीप": 2816, " १२०": 2817, "ैव": 2818, "पिता": 2819, " संस्था": 2820, "ब्बत": 2821, "५००": 2822, "कीर्ण": 2823, "उत्तर": 2824, " स्थल": 2825, " श्र": 2826, " यमु": 2827, " यमुना": 2828, " गोदा": 2829, " सार्व": 2830, " कोल": 2831, " रूढ": 2832, "ेय": 2833, "सम्": 2834, "म्य": 2835, "तान्त्र": 2836, "तान्त्रिक": 2837, " शासित": 2838, "तौ": 2839, " प्रत्यक्ष": 2840, "मन्त्री": 2841, "प्रधान": 2842, " युध": 2843, " सन्": 2844, "यान": 2845, " लक्ष": 2846, "१६": 2847, "अर्थ": 2848, "सव": 2849, "चित्र": 2850, " २००५": 2851, "रस": 2852, " ७४": 2853, "हत": 2854, "सूचित": 2855, "नागर": 2856, "वह": 2857, " पारि": 2858, " पारिवार": 2859, " पारिवारिक": 2860, "वन": 2861, " कथ": 2862, " गर": 2863, " अभि": 2864, "जर": 2865, " ध्य": 2866, " कीर्": 2867, " शत": 2868, " यत्": 2869, " वरि": 2870, " वरिष्ठ": 2871, "बल": 2872, "शै": 2873, "ैक": 2874, " ప్రభుత్వ": 2875, " 11": 2876, " भी": 2877, "ెద్ద": 2878, " వచ్చింది": 2879, " భారతదేశ": 2880, "భారతదేశ": 2881, " దేశంలో": 2882, " ఇతర": 2883, "उप": 2884, "श्चन": 2885, "गणराज्यम्": 2886, "तमो": 2887, " वङ्ग": 2888, "ान्त": 2889, " वङ": 2890, " वङग": 2891, " नार": 2892, " नारिक": 2893, " नारिकेल": 2894, " श्याम": 2895, "ब्रह्म": 2896, "श्या": 2897, " अङ्ग": 2898, "जम्ब": 2899, "जम्बु": 2900, "दृष्ट": 2901, "एष": 2902, "सिन्धु": 2903, "सभ्य": 2904, " मातृ": 2905, " चतु": 2906, " चतुर्": 2907, " तत्त्व": 2908, "विष्ट": 2909, " झर": 2910, "तुष्ट": 2911, "रै": 2912, "मतम्": 2913, "ष्टु": 2914, "तेन": 2915, "साम": 2916, " भव": 2917, "कम्प": 2918, " अधु": 2919, " अधुना": 2920, "वृद्ध": 2921, "पथ": 2922, "वस्त्र": 2923, " व्यय": 2924, " दशम": 2925, "द्वय": 2926, "केन्द्र": 2927, "पुरो": 2928, "गामि": 2929, "पञ्च": 2930, "यम": 2931, " वस": 2932, " वसन्त": 2933, "खण्डः": 2934, "कथा": 2935, " दुष्": 2936, "पालित": 2937, " चक्र": 2938, "वर्ती": 2939, "न्या": 2940, " विष्णु": 2941, " उक्त": 2942, " यथा": 2943, "....": 2944, "इत्": 2945, " हिमा": 2946, "चै": 2947, " तद्": 2948, " भारती": 2949, "ततिः": 2950, "मानव": 2951, " पुरातत्त्व": 2952, " ३४": 2953, " ३४०००": 2954, " इदान": 2955, " इदानी": 2956, " इदानीन्त": 2957, " इदानीन्तन": 2958, "तान": 2959, " भूता": 2960, "भूत": 2961, " अत्यन्त": 2962, " पुरातन": 2963, " २०००": 2964, "वेद": 2965, "लब्ध": 2966, " ५००": 2967, " उभय": 2968, "विस्त": 2969, "विस्तीर्ण": 2970, "स्थाने": 2971, " ईश": 2972, " ईशान": 2973, "वृत": 2974, "दिशा": 2975, " बङ्ग": 2976, "लोप": 2977, " अण्ड": 2978, "निकोबार": 2979, "समु": 2980, "दायः": 2981, "यै": 2982, " प्रदेशः": 2983, " वाय": 2984, "पर्वत": 2985, "्रः": 2986, " पङ्क": 2987, "न्तरे": 2988, " काश्मीर": 2989, "र्यः": 2990, " पुष्": 2991, " पुष्प": 2992, " शो": 2993, " शोभ": 2994, " शोभन": 2995, "ोन्": 2996, " गङ्गा": 2997, "नद्": 2998, "ावली": 2999, "विन्": 3000, "विन्ध्य": 3001, "सात्": 3002, "श्रेण्यः": 3003, "नीतिः": 3004, "मानस": 3005, " षष्ठ": 3006, "च्य": 3007, " ज्ञा": 3008, "स्थाप": 3009, "स्थापित": 3010, " अस्त": 3011, "ाधि": 3012, "करणम्": 3013, " उच्": 3014, "स्थि": 3015, "स्थितिः": 3016, "दिल्ली": 3017, "स्र": 3018, "मुखः": 3019, " स्वक": 3020, " स्वकीय": 3021, "तया": 3022, " अधीन": 3023, "योजय": 3024, "सदः": 3025, "ालयः": 3026, " शी": 3027, " शीर्ष": 3028, "स्थः": 3029, "हवः": 3030, "नागरिक": 3031, "निर्माण": 3032, " स्थाप्य": 3033, "चित्": 3034, " एता": 3035, " एतादृ": 3036, " एतादृश": 3037, "दण्ड": 3038, "क्रिया": 3039, "ेऽथ": 3040, " ७३": 3041, " ७३तमेन": 3042, " ७४तमेन": 3043, "प्रणाली": 3044, "ीकृ": 3045, "सना": 3046, "सनातन": 3047, "वास्तु": 3048, "योगः": 3049, "वेदा": 3050, "वेदान्त": 3051, "हिन्दु": 3052, "मन्दि": 3053, "मन्दिरम्": 3054, "शोधनम्": 3055, "िणः": 3056, "पत": 3057, "क्री": 3058, "क्रीडा": 3059, " सूर्य": 3060, "मन्द": 3061, "िरा": 3062, " मण्डल": 3063, "स्वा": 3064, "त्वम्": 3065, "सप्त": 3066, "चत्": 3067, "वारि": 3068, "शततम": 3069, "मास": 3070, "दिन": 3071, "लभ": 3072, "जवा": 3073, " पञ्चा": 3074, " पञ्चाश": 3075, " षड्": 3076, "विंशतितम": 3077, "भौ": 3078, "भौम": 3079, "ेन्द्र": 3080, " अध्य": 3081, " पुनर्": 3082, "विभागः": 3083, "धानम्": 3084, " बृहद्": 3085, "गात्र": 3086, "कम्": 3087, "कारा": 3088, "भूय": 3089, " कुर": 3090, "ाधिकारः": 3091, " न्यस्त": 3092, " देह": 3093, "नगरम्": 3094, "ध्वजः": 3095, "ङ्कित": 3096, "त्रो": 3097, "ध्वं": 3098, " केसर": 3099, "वर्णः": 3100, " हरित": 3101, " नील": 3102, "चक्र": 3103, "शीर्ष": 3104, "चिह्": 3105, "चिह्नम्": 3106, "सत्य": 3107, "वाक": 3108, "वाक्यम्": 3109, "प्राण": 3110, " व्याघ": 3111, " व्याघ्र": 3112, "पक्षी": 3113, " मय": 3114, " मयूर": 3115, "नद": 3116, " गङ": 3117, " गङगा": 3118, "धू": 3119, " गोदावरी": 3120, "कपि": 3121, "कपिल": 3122, " गज": 3123, "कर्णिका": 3124, " कावे": 3125, " कावेरी": 3126, "जला": 3127, "फला": 3128, " सस्य": 3129, "श्याम": 3130, "श्यामल": 3131, " दिलीप": 3132, "रथ": 3133, "रथः": 3134, "िष्ठ": 3135, " पौ": 3136, " पौरा": 3137, " पौराण": 3138, " पौराणिक": 3139, "चिन्": 3140, "चिन्त": 3141, "चिन्तक": 3142, " कीर्तिः": 3143, " समु": 3144, "नय": 3145, " मन्त्र": 3146, " परम": 3147, " ज्ञान": 3148, "्मी": 3149, "व्यास": 3150, "नयः": 3151, "दीन": 3152, "कृष्ण": 3153, " अवतार": 3154, "पुरु": 3155, "पुरुष": 3156, " शङ्क": 3157, " शङ्कर": 3158, "राम": 3159, "ेश्व": 3160, "ेश्वर": 3161, "मध्व": 3162, " आचार्य": 3163, "त्रै": 3164, "तत्त्वम्": 3165, "ादि": 3166, "ात्मा": 3167, "गान्": 3168, "गान्धी": 3169, "मार्ग": 3170, "ेणैव": 3171, "पय": 3172, " काशी": 3173, " उडु": 3174, " तिरु": 3175, "बेसेण्टथियोसफिकल": 3176, "शता": 3177, "ोत्स": 3178, "ोत्सवः": 3179, " बेसेण्टथियोसफिकल": 3180, " तान": 3181, "१९४८तमे": 3182, " आचार": 3183, " वय": 3184, " वसा": 3185, "मः": 3186, "ञ्चन": 3187, " पोष": 3188, "ित्री": 3189, "वाङ्": 3190, " रम्य": 3191, "पूर्वा": 3192, " जैमि": 3193, " पाणि": 3194, "वयः": 3195, " कणा": 3196, "कः": 3197, " वरा": 3198, " वराह": 3199, "मिह": 3200, "भट": 3201, "भटः": 3202, "पुण": 3203, "पुण्य": 3204, "सम्प": 3205, "सम्पत्": 3206, " स्वर्ग": 3207, " वन्दन": 3208, " वन्दनीय": 3209, " पन्": 3210, "तन्त्रम्": 3211, " कोटि": 3212, "राजः": 3213, "सागरः": 3214, "तिब्बत": 3215, " निकोबार": 3216, " निकट": 3217, "मुख्य": 3218, " कोलक": 3219, " पुणे": 3220, "पुरातन": 3221, "रचना": 3222, "समूह": 3223, " उत्सव": 3224, " नैक": 3225, "परम्": 3226, "परम्परा": 3227, " विष": 3228, "रचय": 3229, "लेख": 3230, "लेखनी": 3231, "यम्": 3232, "खात": 3233, "काले": 3234, "सिता": 3235, " उन्नत": 3236, "अवन": 3237, "अवनति": 3238, " सुवर्ण": 3239, "देशीय": 3240, " काले": 3241, " विस्तारः": 3242, " पद्": 3243, "धत": 3244, " गत": 3245, "योजनम्": 3246, " उपरि": 3247, "स्प": 3248, " गुरु": 3249, "गङ्गा": 3250, "नदी": 3251, "आधार": 3252, "ग्रन्थ": 3253, "समा": 3254, " ग्रन्थिः": 3255, "२७": 3256, "उल्": 3257, "लेखा": 3258, " indep": 3259, " independ": 3260, " Ara": 3261, "ea": 3262, " bor": 3263, " west": 3264, "lad": 3265, "div": 3266, " Nico": 3267, " Nicobar": 3268, " Islands": 3269, "ail": 3270, " Af": 3271, "ather": 3272, "ett": 3273, " gradu": 3274, " Valley": 3275, " Civil": 3276, " record": 3277, "dian": 3278, "anted": 3279, " Jainism": 3280, " here": 3281, "upta": 3282, " fl": 3283, "abil": 3284, " kingd": 3285, " kingdoms": 3286, " Southeast": 3287, " Islam": 3288, "astri": 3289, " estab": 3290, "val": 3291, " changes": 3292, "mary": 3293, " domin": 3294, "sc": 3295, "oss": 3296, " mult": 3297, " 2023": 3298, " ann": 3299, " fast": 3300, " technology": 3301, " middle": 3302, " increasing": 3303, " Kashmir": 3304, " Among": 3305, " four": 3306, " wild": 3307, " vi": 3308, " prot": 3309, " term": 3310, " Bharat": 3311, " vari": 3312, " ren": 3313, "An": 3314, " thought": 3315, " earliest": 3316, " kn": 3317, "inc": 3318, "ped": 3319, " around": 3320, "akh": 3321, " char": 3322, " figures": 3323, " oldest": 3324, " trib": 3325, "ross": 3326, " plain": 3327, " when": 3328, " times": 3329, " Mah": 3330, " however": 3331, " differ": 3332, " eth": 3333, "ices": 3334, " conduct": 3335, " birth": 3336, "eograph": 3337, " empire": 3338, " tex": 3339, " his": 3340, " subsequ": 3341, " polic": 3342, "iss": 3343, "ruc": 3344, " comple": 3345, " ta": 3346, " flow": 3347, "ature": 3348, " resp": 3349, "ti": 3350, "ded": 3351, " West": 3352, " growing": 3353, " small": 3354, " temp": 3355, " significant": 3356, " numbers": 3357, " every": 3358, "here": 3359, " so": 3360, " Asian": 3361, " vast": 3362, " leading": 3363, "tic": 3364, "ards": 3365, " again": 3366, " sup": 3367, " group": 3368, " Raj": 3369, " aff": 3370, " further": 3371, " consid": 3372, " Dal": 3373, " sum": 3374, "alth": 3375, " sa": 3376, "gu": 3377, " produc": 3378, "ided": 3379, " legis": 3380, " legisl": 3381, " plate": 3382, " appro": 3383, " approx": 3384, " approxim": 3385, " approximately": 3386, " spread": 3387, " ob": 3388, " upp": 3389, " upper": 3390, " This": 3391, " caus": 3392, " Plateau": 3393, " now": 3394, " remain": 3395, " surv": 3396, "can": 3397, "aput": 3398, "aputra": 3399, "ortant": 3400, "na": 3401, "line": 3402, " dist": 3403, " According": 3404, " territories": 3405, " pan": 3406, " De": 3407, " hig": 3408, "ock": 3409, " influenced": 3410, "atak": 3411, "pl": 3412, "ey": 3413, " endang": 3414, " endangered": 3415, " five": 3416, "erala": 3417, " Par": 3418, " held": 3419, " until": 3420, " Janu": 3421, " January": 3422, " leader": 3423, " 1965": 3424, " civil": 3425, " coalition": 3426, " sing": 3427, " formed": 3428, "ee": 3429, "dra": 3430, " Ass": 3431, " States": 3432, " village": 3433, " executive": 3434, "ouse": 3435, " port": 3436, " three": 3437, " court": 3438, " courts": 3439, "min": 3440, " Nad": 3441, " Nadu": 3442, "ese": 3443, " glo": 3444, " total": 3445, " estim": 3446, "orce": 3447, "ales": 3448, " ve": 3449, " famil": 3450, " families": 3451, " official": 3452, " developed": 3453, " school": 3454, " traditional": 3455, " sculpture": 3456, " traditions": 3457, " dances": 3458, " worn": 3459, "get": 3460, "ricket": 3461, "ుంది": 3462, "గి": 3463, "లం": 3464, " ద్వ": 3465, " 16": 3466, " :": 3467, " స్థాన": 3468, "ణం": 3469, " ఉత్": 3470, "త్ర": 3471, "లా": 3472, " పట్ట": 3473, "ిల్ల": 3474, "ధించ": 3475, " इस": 3476, " జరి": 3477, " అధికార": 3478, " కేంద": 3479, "గర": 3480, " ను": 3481, " ఉంట": 3482, " రెండ": 3483, "లీ": 3484, "17": 3485, " అతి": 3486, " ఆర్": 3487, "రువ": 3488, "రువాత": 3489, "వాణా": 3490, " మార్గాలు": 3491, "ंग": 3492, " जा": 3493, "గ్": 3494, "ష్": 3495, "ీర్": 3496, "ాల్": 3497, "క్క": 3498, " వా": 3499, " మహ": 3500, " కొ": 3501, "రో": 3502, " ఏర్": 3503, " బహ": 3504, "ీన": 3505, "టిక": 3506, " పాల": 3507, "గిన": 3508, "ౌక": 3509, " 40": 3510, " కలి": 3511, "జ్య": 3512, " దక్షిణా": 3513, "స్తాన్": 3514, " వంట": 3515, "బడ": 3516, "ందిన": 3517, "కీయ": 3518, " కాంగ": 3519, " కాంగ్ర": 3520, " కాంగ్రె": 3521, "గీ": 3522, " క్రీడ": 3523, "42": 3524, " 28": 3525, " Pro": 3526, " किया": 3527, " కేంద్ర": 3528, " ఎక్కువ": 3529, " ముఖ్య": 3530, " అనే": 3531, " పాకి": 3532, "స్తుత": 3533, " అయిన": 3534, "ప్రదాయ": 3535, " 185": 3536, " జనాభా": 3537, " పెద్ద": 3538, " ఎన్నో": 3539, " రవాణా": 3540, " area": 3541, " democ": 3542, "bian": 3543, " Sea": 3544, " Nep": 3545, " Banglad": 3546, " Bangladesh": 3547, " Sri": 3548, " Mal": 3549, "ones": 3550, " Afric": 3551, " Africa": 3552, " Their": 3553, " pred": 3554, " diverse": 3555, " 1200": 3556, " recorded": 3557, " Dra": 3558, " Dravi": 3559, " Dravidian": 3560, " consol": 3561, " consolid": 3562, " lo": 3563, " Maur": 3564, " er": 3565, " era": 3566, " creat": 3567, " archit": 3568, " architect": 3569, " writ": 3570, "tou": 3571, "touch": 3572, "ability": 3573, " scri": 3574, " establ": 3575, " established": 3576, "mitt": 3577, " result": 3578, " resulting": 3579, "etwork": 3580, " religion": 3581, "anding": 3582, " turn": 3583, " rights": 3584, "ological": 3585, " intro": 3586, " public": 3587, " took": 3588, " influence": 3589, "viol": 3590, " partition": 3591, " acc": 3592, "ratic": 3593, " societ": 3594, " 1951": 3595, " capit": 3596, " reduced": 3597, "equ": 3598, "dit": 3599, " disput": 3600, " poll": 3601, "ga": 3602, "odiversity": 3603, "ots": 3604, "life": 3605, " traditionally": 3606, " der": 3607, "medi": 3608, "mediately": 3609, " Gree": 3610, " extens": 3611, "the": 3612, " name": 3613, "sha": 3614, "lied": 3615, " curren": 3616, " Hindust": 3617, "ring": 3618, "rial": 3619, " extant": 3620, "etic": 3621, " However": 3622, " known": 3623, " about": 3624, "arh": 3625, "aro": 3626, "avi": 3627, " features": 3628, "dis": 3629, " ste": 3630, "oci": 3631, " composed": 3632, " place": 3633, "sted": 3634, " invol": 3635, "aving": 3636, " fam": 3637, " being": 3638, "atical": 3639, " range": 3640, " called": 3641, "ified": 3642, " different": 3643, "ings": 3644, "ured": 3645, " conducted": 3646, "iving": 3647, " lay": 3648, " these": 3649, " history": 3650, " bri": 3651, "ining": 3652, " speak": 3653, "miss": 3654, "elf": 3655, " tax": 3656, " greater": 3657, " renew": 3658, "otion": 3659, " Va": 3660, " six": 3661, "ously": 3662, "erv": 3663, "uch": 3664, " agricult": 3665, " agricultural": 3666, " show": 3667, " Temp": 3668, " appear": 3669, "nam": 3670, "ays": 3671, "aries": 3672, " Although": 3673, " elites": 3674, " indi": 3675, " indigen": 3676, " indigenous": 3677, " str": 3678, " bu": 3679, "ortion": 3680, " pract": 3681, "ues": 3682, "itions": 3683, " commerc": 3684, " commercial": 3685, "erial": 3686, " process": 3687, " European": 3688, "ably": 3689, "ources": 3690, "van": 3691, "ely": 3692, " reform": 3693, "ie": 3694, " can": 3695, " pr": 3696, " directly": 3697, " lim": 3698, " decad": 3699, " decades": 3700, "stru": 3701, " gener": 3702, " consum": 3703, " relief": 3704, " War": 3705, "operation": 3706, " enac": 3707, " enacted": 3708, "ip": 3709, " All": 3710, " secular": 3711, " 70": 3712, " Gond": 3713, " cru": 3714, " crust": 3715, " Euras": 3716, " pil": 3717, "ets": 3718, "one": 3719, " continu": 3720, " continued": 3721, " Tib": 3722, " Tibet": 3723, "akes": 3724, " Thar": 3725, " Des": 3726, " che": 3727, "kh": 3728, " Dec": 3729, " Gh": 3730, " Ghats": 3731, " Constit": 3732, " equ": 3733, " Brahmaputra": 3734, "reme": 3735, "rish": 3736, "rishna": 3737, "ada": 3738, "ann": 3739, " others": 3740, " highe": 3741, " highest": 3742, "its": 3743, "abh": 3744, " summer": 3745, " sim": 3746, "ole": 3747, "ropical": 3748, " 2018": 3749, " ret": 3750, "arnatak": 3751, "arnataka": 3752, "ries": 3753, " fish": 3754, " nat": 3755, " exch": 3756, "vention": 3757, "oor": 3758, " Kerala": 3759, " 2022": 3760, "ched": 3761, "ttar": 3762, "Government": 3763, " centre": 3764, " Sing": 3765, " Singh": 3766, " body": 3767, "liance": 3768, " just": 3769, " single": 3770, " external": 3771, " 2026": 3772, " exc": 3773, " foreign": 3774, " head": 3775, " fund": 3776, " fundament": 3777, " fundamental": 3778, " Union": 3779, " serv": 3780, " div": 3781, " qu": 3782, " relations": 3783, " test": 3784, " addition": 3785, " Nuclear": 3786, "ternational": 3787, "tom": 3788, "erg": 3789, "ergy": 3790, " 2010": 3791, " nation": 3792, " global": 3793, " sect": 3794, " sector": 3795, " work": 3796, "orter": 3797, "ineering": 3798, " exports": 3799, " before": 3800, " estimated": 3801, " fem": 3802, " producer": 3803, " milk": 3804, " phar": 3805, " pharm": 3806, " pharmace": 3807, " pharmaceut": 3808, " pharmaceutical": 3809, "reasing": 3810, " cooking": 3811, "iqu": 3812, "umb": 3813, "umbai": 3814, " tea": 3815, " important": 3816, "abad": 3817, "ival": 3818, " below": 3819, "cast": 3820, " fest": 3821, " influences": 3822, " mathematics": 3823, "arnatic": 3824, "dram": 3825, "dramas": 3826, " sari": 3827, " wa": 3828, " waist": 3829, " commonly": 3830, "alw": 3831, "amee": 3832, "ameez": 3833, " wear": 3834, " cooked": 3835, " veget": 3836, " meat": 3837, " तक": 3838, "ధి": 3839, " ట": 3840, "్యం": 3841, "ిత్ర": 3842, "ారి": 3843, "నాలు": 3844, "200": 3845, "కుంట": 3846, "టం": 3847, " ఏర్ప": 3848, "క్రమ": 3849, " పర": 3850, " ప్రతి": 3851, "మీ": 3852, "సియా": 3853, " వే": 3854, "ంగ్ల": 3855, "ండు": 3856, "మే": 3857, " 30": 3858, "201": 3859, "ిమ": 3860, "దం": 3861, "ద్ధి": 3862, "పించ": 3863, " మాత": 3864, " కార": 3865, "పతి": 3866, " సాధించ": 3867, " साथ": 3868, "దారు": 3869, " సరి": 3870, " సరిహ": 3871, " సరిహద్ద": 3872, "ండియా": 3873, "ావర": 3874, "లోని": 3875, " శాస్త": 3876, " రాజకీయ": 3877, "త్యధిక": 3878, " సిని": 3879, " సంగీ": 3880, " ),": 3881, " 25": 3882, " 0": 3883, "yp": 3884, " రాష్ట్రాల": 3885, " గల": 3886, " ఇది": 3887, " కాలంలో": 3888, " ప్రస్తుత": 3889, " చిన్న": 3890, "ిస్తారు": 3891, " తరువాత": 3892, " భారత్": 3893, " జాతీయ": 3894, " सर": 3895, " सरकार": 3896, " వర్": 3897, " నె": 3898, "కోవ": 3899, " ఆధ": 3900, "యో": 3901, " 36": 3902, "64": 3903, "21": 3904, "ओं": 3905, " जिस": 3906, " సమా": 3907, "ిక్": 3908, "ాతి": 3909, "గం": 3910, " బ్రి": 3911, "ంధ": 3912, "రణ": 3913, " సంస్కృ": 3914, " జన": 3915, " ఉప": 3916, " నే": 3917, " సిం": 3918, " బహు": 3919, "తంత్ర": 3920, "పూ": 3921, "ప్పటిక": 3922, "డ్డ": 3923, "తిక": 3924, " మొదల": 3925, "ాత్ర": 3926, "మంత": 3927, "ెలు": 3928, " మూడ": 3929, " సౌక": 3930, " సౌకర్య": 3931, " వె": 3932, " Rep": 3933, " 300": 3934, " 42": 3935, "30": 3936, " सब": 3937, " सबसे": 3938, " సామ": 3939, "ైనా": 3940, " పట్టణ": 3941, "ఢిల్ల": 3942, "ఢిల్లీ": 3943, "ాన్ని": 3944, " నడి": 3945, "book": 3946, " ప్రాంతాలు": 3947, " రహ": 3948, " రహదారు": 3949, " రహదారుల": 3950, " వివి": 3951, " వివిధ": 3952, " ఇండియా": 3953, " రెండు": 3954, " ప్రము": 3955, " ప్రముఖ": 3956, " అత్యధిక": 3957, "చే": 3958, " populous": 3959, " independence": 3960, "racy": 3961, "cean": 3962, " Arabian": 3963, " Bay": 3964, " borders": 3965, " Myan": 3966, " Myanmar": 3967, " Lank": 3968, " share": 3969, "ime": 3970, " Indones": 3971, " Indonesia": 3972, " predomin": 3973, " isol": 3974, " marg": 3975, " margins": 3976, " basin": 3977, " gradually": 3978, " Civilisation": 3979, "aic": 3980, "Eur": 3981, "European": 3982, " northwest": 3983, " hy": 3984, "nings": 3985, " suppl": 3986, " 400": 3987, "isen": 3988, "arly": 3989, " gave": 3990, " loose": 3991, "kn": 3992, " Maurya": 3993, " Gupta": 3994, "ivity": 3995, " architecture": 3996, " status": 3997, "touchability": 3998, " organ": 3999, " belief": 4000, " Mid": 4001, " Middle": 4002, " export": 4003, "pts": 4004, " cultures": 4005, "rist": 4006, "Zor": 4007, "Zoro": 4008, "Zoroastri": 4009, "Zoroastrian": 4010, "nd": 4011, " armies": 4012, "ran": 4013, " plains": 4014, " cos": 4015, "olit": 4016, "die": 4017, "dieval": 4018, " Sikhism": 4019, "ject": 4020, " institution": 4021, " expans": 4022, " relative": 4023, " rich": 4024, "onial": 4025, " sover": 4026, " sovere": 4027, " sovereign": 4028, " sovereignty": 4029, " slow": 4030, " introduced": 4031, "oted": 4032, " primary": 4033, " fact": 4034, " loss": 4035, " mig": 4036, " society": 4037, " nomin": 4038, " capita": 4039, " hub": 4040, " inform": 4041, " information": 4042, " pover": 4043, " poverty": 4044, " inequ": 4045, " inequality": 4046, " disputes": 4047, "ours": 4048, "onom": 4049, " child": 4050, " level": 4051, " wildlife": 4052, " supported": 4053, " protected": 4054, " hab": 4055, " habit": 4056, " prop": 4057, " immediately": 4058, " refer": 4059, " historical": 4060, " Greek": 4061, "rat": 4062, "pic": 4063, " originally": 4064, " North": 4065, " currency": 4066, "com": 4067, "pass": 4068, "passing": 4069, "resent": 4070, "esc": 4071, "och": 4072, " reac": 4073, " reached": 4074, " lik": 4075, " init": 4076, "garh": 4077, "omest": 4078, "omestic": 4079, " animals": 4080, "eb": 4081, " catt": 4082, " cattle": 4083, "urred": 4084, " Mohen": 4085, " Mohenj": 4086, " Mohenjo": 4087, "daro": 4088, "hol": 4089, "eri": 4090, "ala": 4091, " charac": 4092, " character": 4093, " seals": 4094, " written": 4095, " script": 4096, " arts": 4097, "rac": 4098, " town": 4099, " past": 4100, " today": 4101, " associ": 4102, "Ary": 4103, "Aryan": 4104, " across": 4105, " sett": 4106, "ling": 4107, " setting": 4108, " ir": 4109, "lement": 4110, " dri": 4111, " bro": 4112, " broad": 4113, " parts": 4114, " would": 4115, " urbanisation": 4116, " varn": 4117, " those": 4118, " Buddha": 4119, "ressed": 4120, " could": 4121, " back": 4122, " Ash": 4123, " Ashok": 4124, " Ashoka": 4125, " texts": 4126, " Kal": 4127, "ense": 4128, " adop": 4129, " dh": 4130, " forests": 4131, "By": 4132, " administration": 4133, " devotion": 4134, " rather": 4135, " assert": 4136, " Pall": 4137, " Pallav": 4138, "aced": 4139, " god": 4140, " partic": 4141, "Me": 4142, " age": 4143, " cultural": 4144, " much": 4145, " cle": 4146, " classes": 4147, "itated": 4148, " pat": 4149, " Temple": 4150, " siz": 4151, " anot": 4152, " another": 4153, " eff": 4154, "une": 4155, " mer": 4156, " merch": 4157, " somet": 4158, " sometim": 4159, " sometimes": 4160, "After": 4161, " law": 4162, " laws": 4163, " sav": 4164, " vis": 4165, "ening": 4166, " strong": 4167, " came": 4168, "wards": 4169, " then": 4170, " practices": 4171, " tribal": 4172, "onds": 4173, " Ak": 4174, "lung": 4175, "ms": 4176, " policies": 4177, " reven": 4178, " revenues": 4179, " pa": 4180, "reg": 4181, " sil": 4182, " enter": 4183, "ger": 4184, " maint": 4185, " Marat": 4186, "has": 4187, " coll": 4188, " recog": 4189, " recogn": 4190, " fra": 4191, " increasingly": 4192, " compan": 4193, " companies": 4194, "oli": 4195, " stren": 4196, " streng": 4197, " strength": 4198, " att": 4199, " cruc": 4200, " crucial": 4201, " subsequent": 4202, " good": 4203, " goods": 4204, " Many": 4205, " consider": 4206, " having": 4207, " rail": 4208, " railw": 4209, " Europe": 4210, "ellion": 4211, " safe": 4212, "guard": 4213, " against": 4214, "ush": 4215, " marked": 4216, " dep": 4217, "struct": 4218, "pay": 4219, "ption": 4220, " provided": 4221, " crit": 4222, "rid": 4223, "alls": 4224, "ma": 4225, " vic": 4226, " vict": 4227, " decade": 4228, "ris": 4229, " fin": 4230, "pped": 4231, " lib": 4232, " liberal": 4233, "form": 4234, " pers": 4235, " viol": 4236, " sep": 4237, "ammu": 4238, "Geograph": 4239, "ulk": 4240, "af": 4241, "idly": 4242, "illed": 4243, "orn": 4244, "utes": 4245, " makes": 4246, " abo": 4247, " above": 4248, " lies": 4249, " Desert": 4250, " remaining": 4251, "pura": 4252, "harkh": 4253, "harkhand": 4254, " Deccan": 4255, " contains": 4256, "itud": 4257, " Himalayan": 4258, " rivers": 4259, " drain": 4260, "dient": 4261, " Krishna": 4262, " kil": 4263, " kilomet": 4264, " kilometres": 4265, " mi": 4266, "400": 4267, " bel": 4268, " belong": 4269, "akshad": 4270, "akshadwe": 4271, "akshadweep": 4272, "land": 4273, " consists": 4274, " 43": 4275, "arb": 4276, " latter": 4277, " coral": 4278, "oram": 4279, " surround": 4280, "anda": 4281, "ind": 4282, " do": 4283, "yth": 4284, " tree": 4285, " clim": 4286, "ds": 4287, " simil": 4288, " similar": 4289, " moist": 4290, " tropical": 4291, " cause": 4292, "ections": 4293, "Indian": 4294, " Karnataka": 4295, "achal": 4296, "Bi": 4297, " contain": 4298, " endemic": 4299, " mamm": 4300, " mammals": 4301, " displ": 4302, "uous": 4303, " exchange": 4304, " extin": 4305, " threat": 4306, "ened": 4307, "tre": 4308, " op": 4309, " black": 4310, " blackb": 4311, " recent": 4312, " 1935": 4313, " 1980": 4314, "mend": 4315, " added": 4316, " eight": 4317, " Bi": 4318, " Ram": 4319, "sar": 4320, " pur": 4321, " Park": 4322, " Mad": 4323, "arty": 4324, " Janata": 4325, "ahar": 4326, " office": 4327, " 1962": 4328, " chos": 4329, " chosen": 4330, " Indira": 4331, " She": 4332, " defe": 4333, "iber": 4334, " decla": 4335, "ency": 4336, " opp": 4337, " oppos": 4338, " ministers": 4339, " return": 4340, " 31": 4341, " Fron": 4342, " Front": 4343, " Chand": 4344, " min": 4345, " governments": 4346, " follow": 4347, " due": 4348, " Democ": 4349, "DA": 4350, "PA": 4351, "resident": 4352, " abs": 4353, "ute": 4354, " 2019": 4355, " 2024": 4356, "Dem": 4357, " Constitu": 4358, " Constituent": 4359, " Assem": 4360, " Assemb": 4361, " Assembly": 4362, " constitutional": 4363, " elected": 4364, "ees": 4365, "Ar": 4366, " Common": 4367, " jur": 4368, "uduc": 4369, "uducher": 4370, "uducherry": 4371, "ital": 4372, " Ter": 4373, "anipur": 4374, "kim": 4375, " becom": 4376, " becoming": 4377, " Non": 4378, "Al": 4379, " went": 4380, " 1960": 4381, " weap": 4382, " weapons": 4383, " signed": 4384, "ither": 4385, " Treat": 4386, " Treaty": 4387, "crimin": 4388, " use": 4389, "ble": 4390, "eter": 4391, " 2008": 4392, " energy": 4393, " aver": 4394, " average": 4395, "ographics": 4396, " trade": 4397, " eng": 4398, " engineering": 4399, " 2013": 4400, " cal": 4401, "force": 4402, " garlic": 4403, " top": 4404, "reen": 4405, " gas": 4406, " Bangal": 4407, " Bangalore": 4408, " colleg": 4409, " colleges": 4410, " resident": 4411, " residents": 4412, "edic": 4413, "91": 4414, " Mumbai": 4415, " speakers": 4416, " comprom": 4417, " compromise": 4418, "ii": 4419, " formal": 4420, "hedul": 4421, "heduled": 4422, " Ur": 4423, " Urdu": 4424, "riya": 4425, " Punjabi": 4426, " Tel": 4427, " promin": 4428, " bot": 4429, " bottom": 4430, "after": 4431, " (\"": 4432, " express": 4433, "hip": 4434, " impro": 4435, " schools": 4436, "cul": 4437, "HO": 4438, "reath": 4439, "ables": 4440, " very": 4441, " marriages": 4442, "anged": 4443, "rents": 4444, " natal": 4445, " band": 4446, " festival": 4447, "irt": 4448, " style": 4449, " Shiv": 4450, " Shiva": 4451, " sites": 4452, "anta": 4453, " bron": 4454, " bronz": 4455, " manus": 4456, " manuscri": 4457, "ov": 4458, " folk": 4459, " Yaksh": 4460, "angra": 4461, " mathematical": 4462, " transmit": 4463, " transmitted": 4464, " contributions": 4465, " conce": 4466, " examp": 4467, " example": 4468, " Hindustani": 4469, " Carnatic": 4470, " player": 4471, " Shank": 4472, " Shankar": 4473, "uk": 4474, "asi": 4475, " For": 4476, "oulder": 4477, "body": 4478, " garment": 4479, " shalw": 4480, " kameez": 4481, " cu": 4482, " chur": 4483, " churid": 4484, " churidars": 4485, " dishes": 4486, " eat": 4487, " eaten": 4488, "hess": 4489, " cricket": 4490, " Oly": 4491, " Olymp": 4492, " portal": 4493, " 78": 4494, " ﻿": 4495, " लि": 4496, " यह": 4497, "ंग्र": 4498, "ंध": 4499, " थ": 4500, "ीं": 4501, " बाद": 4502, "ించి": 4503, "వర్": 4504, " యు": 4505, " పో": 4506, "వే": 4507, "యం": 4508, "ూప": 4509, " गया": 4510, " कि": 4511, "बंध": 4512, " १९": 4513, "పో": 4514, "డం": 4515, " అను": 4516, "సర": 4517, " పేర్": 4518, " పూ": 4519, "వల": 4520, "వు": 4521, "వత్": 4522, " సమ": 4523, " ఖ": 4524, "చు": 4525, " ఐ": 4526, "బా": 4527, "ంగం": 4528, " పద్ధ": 4529, "మించ": 4530, "ల్ప": 4531, " మన": 4532, "35": 4533, "స్వా": 4534, "ముద": 4535, "ణి": 4536, " భూ": 4537, " పుట్ట": 4538, " దా": 4539, " గా": 4540, "షు": 4541, "రిత్ర": 4542, " సార": 4543, "హించ": 4544, "రాష్ట్ర": 4545, " ఎన్ను": 4546, " చేయ": 4547, "దేశాల": 4548, " తమి": 4549, " తమిళ": 4550, " हिन्": 4551, " మొదటి": 4552, " ప్రజా": 4553, " సింధ": 4554, "నీ": 4555, " అభ": 4556, " అభి": 4557, " చెంద": 4558, "ళ్ల": 4559, " పండు": 4560, "నుక": 4561, "చీన": 4562, " సర్వ": 4563, "మంత్రి": 4564, " నిర్వ": 4565, "కారం": 4566, " కోర్": 4567, " పరిశ": 4568, " బె": 4569, "01": 4570, "80": 4571, " report": 4572, "anguages": 4573, " ఒకటి": 4574, " అనేక": 4575, " చైనా": 4576, " సరిహద్దు": 4577, " శతా": 4578, " శతాబ్": 4579, " శతాబ్దం": 4580, " నుండి": 4581, " స్వాత": 4582, " స్వాతంత్ర": 4583, " స్వాతంత్ర్య": 4584, " జరిగిన": 4585, " మొత్": 4586, " మొత్తం": 4587, " ఉంటాయి": 4588, " కూడిన": 4589, " తన": 4590, " ఆర్ధిక": 4591, " రాష్ట్రపతి": 4592, " ప్రభుత్వం": 4593, " కాంగ్రెసు": 4594, " వాత": 4595, " వాతావర": 4596, " వాతావరణం": 4597, " జాబ": 4598, " జాబిత": 4599, " జాబితా": 4600, " పట్టణాల": 4601, " నగర": 4602, " నగరాల": 4603, " రైల": 4604, " రైల్వ": 4605, " రైల్వే": 4606, " నడిపించ": 4607, " సంగీతం": 4608, " );": 4609, "ती": 4610, " फ": 4611, "की": 4612, " अप": 4613, " जो": 4614, "soon": 4615, "्रा": 4616, "ढ़": 4617, " रूप": 4618, " बड़": 4619, "ंड": 4620, " चु": 4621, " साम": 4622, "में": 4623, "ఖండ": 4624, "వుల": 4625, "ెట్": 4626, "హార": 4627, " మే": 4628, " గో": 4629, " దీ": 4630, " విశ": 4631, "ోళ": 4632, " సు": 4633, " ఫ": 4634, "మన": 4635, " ఆక్రమ": 4636, " లక్ష": 4637, "్యాయ": 4638, "తులు": 4639, " ఘ": 4640, "సా": 4641, " 100": 4642, " వై": 4643, "మె": 4644, "నిక": 4645, "ీర": 4646, "ిత్రక": 4647, "యాల": 4648, "ాస": 4649, "ాఖ": 4650, "న్మ": 4651, " ద్వీ": 4652, " ద్వీప": 4653, " సంఘ": 4654, " ఆధార": 4655, "ుతున్న": 4656, "రాస": 4657, "ంటే": 4658, "టీ": 4659, " వల": 4660, " గు": 4661, " సంవత్": 4662, "ాల్లో": 4663, "ాప": 4664, "ుకు": 4665, "త్వం": 4666, "వరి": 4667, "ద్య": 4668, " సభ్య": 4669, "లే": 4670, "ోర": 4671, " సంఖ్య": 4672, " సంక": 4673, "ూచ": 4674, " మా": 4675, "డే": 4676, "్లో": 4677, "మై": 4678, "మ్మ": 4679, "గే": 4680, "ెల": 4681, " Republic": 4682, " 74": 4683, "mers": 4684, "ustral": 4685, " Am": 4686, " 24": 4687, "24": 4688, "...": 4689, "46": 4690, " 500": 4691, "ile": 4692, " मि": 4693, "ोड़": 4694, "స్వామ": 4695, "స్వామ్య": 4696, " కి": 4697, "దేశ్": 4698, " ఆఫ": 4699, " ఆఫ్": 4700, " నా": 4701, "ికత": 4702, " బ్రిటి": 4703, "ంప": 4704, "గంగా": 4705, "ట్లు": 4706, "ప్పటికీ": 4707, " లే": 4708, " పొ": 4709, " వార": 4710, " వారస": 4711, " చేస": 4712, " కార్య": 4713, " చరిత్ర": 4714, "ంచి": 4715, "దన": 4716, "వె": 4717, " కుటు": 4718, " కుటుంబ": 4719, "డ్డు": 4720, " రో": 4721, "ాలా": 4722, " పత": 4723, " క్య": 4724, "సై": 4725, " 29": 4726, " Fact": 4727, " Factbook": 4728, " పై": 4729, " పైగా": 4730, " ప్రపంచంలో": 4731, "పాలిత": 4732, " కలిగి": 4733, " పశ": 4734, " పశ్చ": 4735, " పశ్చిమ": 4736, " పాకిస్తాన్": 4737, " సామ్రా": 4738, " సామ్రాజ్య": 4739, "ుగా": 4740, " ఆర్థ": 4741, " ఆర్థిక": 4742, " అభివ": 4743, " అభివృ": 4744, " అభివృద్ధి": 4745, " వంటి": 4746, "లలో": 4747, " దక్షిణ": 4748, " ఉత్తర": 4749, " వచ్చిన": 4750, " శాస్త్రం": 4751, " ఢిల్లీ": 4752, " ప్రధానమంత్రి": 4753, " ప్రకారం": 4754, "మైనది": 4755, " అని": 4756, " కోర్టు": 4757, " మాత్రం": 4758, " సంప్రదాయ": 4759, " సంప్రదాయాల": 4760, "స్థాన్": 4761, " ప్రజల": 4762, " పాత్ర": 4763, " పరిశ్రమ": 4764, " మూడు": 4765, " ఉన్నారు": 4766, "%),": 4767, " భాషల": 4768, " అధికారిక": 4769, " రకాల": 4770, " సర్వీ": 4771, " సర్వీసు": 4772, " రైళ్ల": 4773, " పాక్": 4774, " సాంప్రదాయ": 4775, " చెందిన": 4776, " సినిమా": 4777, " బెంగా": 4778, " democracy": 4779, " Ocean": 4780, " southwest": 4781, " Nepal": 4782, " Thail": 4783, " Thailand": 4784, "Mo": 4785, "Modern": 4786, " humans": 4787, " occupation": 4788, " isolation": 4789, " hun": 4790, " hunter": 4791, "gather": 4792, "gatherers": 4793, " highly": 4794, "ettled": 4795, " evol": 4796, " archaic": 4797, " diffused": 4798, " hym": 4799, " hymn": 4800, " hymns": 4801, "isting": 4802, " supplanted": 4803, " arisen": 4804, "laim": 4805, "laiming": 4806, " Early": 4807, "knit": 4808, "ires": 4809, " flour": 4810, "ishing": 4811, " creativity": 4812, " decl": 4813, " untouchability": 4814, " exported": 4815, " Christ": 4816, " Christian": 4817, " Christianity": 4818, " Jud": 4819, "aism": 4820, " Zoroastrian": 4821, " Zoroastrianism": 4822, " coasts": 4823, " overran": 4824, " Sultanate": 4825, " drew": 4826, " network": 4827, " medieval": 4828, " Vi": 4829, " Vij": 4830, " Vijay": 4831, " Vijayan": 4832, " Vijayanag": 4833, " Vijayanagara": 4834, "hered": 4835, " expansion": 4836, " peace": 4837, " expanding": 4838, " turned": 4839, " colonial": 4840, " 1858": 4841, " ide": 4842, " ro": 4843, " nationalist": 4844, " nonviol": 4845, " nonviolent": 4846, " factor": 4847, " ending": 4848, " independent": 4849, "major": 4850, "majority": 4851, " dominion": 4852, "scale": 4853, " migration": 4854, " accom": 4855, " govern": 4856, " democratic": 4857, " multi": 4858, "eth": 4859, "nic": 4860, " 361": 4861, " nominal": 4862, " income": 4863, " annually": 4864, "grow": 4865, "growing": 4866, " cost": 4867, " neigh": 4868, " neighb": 4869, " unres": 4870, " unresol": 4871, " unresolved": 4872, "econom": 4873, "economic": 4874, " fac": 4875, " gender": 4876, " rising": 4877, " levels": 4878, " pollution": 4879, " mega": 4880, " megadi": 4881, " megadiverse": 4882, " biodiversity": 4883, " hots": 4884, " hotsp": 4885, " hotspots": 4886, " view": 4887, "Ety": 4888, "Etym": 4889, "Etymology": 4890, "tionary": 4891, " Cl": 4892, " Class": 4893, " Classical": 4894, " Lat": 4895, "ret": 4896, " Ἰ": 4897, " Ἰν": 4898, " Ἰνδ": 4899, " Ancient": 4900, " Ri": 4901, " River": 4902, " Ach": 4903, " Acha": 4904, " Achaem": 4905, " Achaemen": 4906, " Old": 4907, "indh": 4908, ",\"": 4909, " Asians": 4910, " [": 4911, "aː": 4912, " ]": 4913, " applied": 4914, " gained": 4915, " mean": 4916, " meaning": 4917, " entire": 4918, "Hist": 4919, "History": 4920, "Ancient": 4921, "ased": 4922, " data": 4923, " anat": 4924, " anatom": 4925, " 80": 4926, "ih": 4927, " vary": 4928, " only": 4929, "ils": 4930, "vid": 4931, "vidence": 4932, " Bal": 4933, "pro": 4934, "includ": 4935, "including": 4936, " bar": 4937, " occurred": 4938, "avira": 4939, " characteristic": 4940, " included": 4941, " stand": 4942, " standar": 4943, " standardis": 4944, " standardised": 4945, " works": 4946, " pot": 4947, " terrac": 4948, " terracot": 4949, " terracotta": 4950, " Network": 4951, " towns": 4952, " villages": 4953, " pastor": 4954, " pastoral": 4955, "etween": 4956, " associated": 4957, " what": 4958, "sp": 4959, " nex": 4960, " next": 4961, " sw": 4962, "lements": 4963, " settlement": 4964, " may": 4965, " involved": 4966, " creating": 4967, " fami": 4968, " family": 4969, " mainly": 4970, "dif": 4971, "dified": 4972, " chap": 4973, "tell": 4974, " regist": 4975, " tak": 4976, " fort": 4977, " fortified": 4978, " varna": 4979, "millennium": 4980, " ethical": 4981, " systems": 4982, "violence": 4983, "ixed": 4984, " heredit": 4985, " hereditary": 4986, " living": 4987, "ronic": 4988, " beg": 4989, " begin": 4990, " beginnings": 4991, " geograph": 4992, " brief": 4993, " briefly": 4994, " hubs": 4995, " exce": 4996, " notable": 4997, " ins": 4998, "ptions": 4999, " produced": 5000, "ream": 5001, " Fol": 5002, " Following": 5003, " adopted": 5004, " subsequently": 5005, " policy": 5006, "mission": 5007, "erous": 5008, " edic": 5009, " edicts": 5010, "ote": 5011, " welf": 5012, " welfare": 5013, "illing": 5014, " dest": 5015, "ruction": 5016, "mental": 5017, " historians": 5018, " emb": 5019, " complex": 5020, " Plain": 5021, " mod": 5022, " model": 5023, "upt": 5024, "sel": 5025, " refl": 5026, " flowering": 5027, " literature": 5028, " sci": 5029, " science": 5030, " Sang": 5031, " ruled": 5032, " Chol": 5033, " respect": 5034, " Ka": 5035, " Kaver": 5036, " Kaveri": 5037, " valley": 5038, "andy": 5039, " Pallavas": 5040, " Sim": 5041, " Simultan": 5042, " Simultane": 5043, " Simultaneously": 5044, " fav": 5045, " gods": 5046, " particular": 5047, " extensively": 5048, " able": 5049, " lands": 5050, " cleared": 5051, " make": 5052, " way": 5053, "tra": 5054, " ruling": 5055, "ences": 5056, " They": 5057, "yal": 5058, "yalty": 5059, " temples": 5060, " patron": 5061, " cit": 5062, " citiz": 5063, " citizens": 5064, " various": 5065, "where": 5066, "ili": 5067, " merchants": 5068, " initi": 5069, "orse": 5070, "aval": 5071, " united": 5072, " repe": 5073, " repeated": 5074, " repeatedly": 5075, "western": 5076, " event": 5077, " eventually": 5078, " Islamic": 5079, " largely": 5080, " own": 5081, " cust": 5082, "uls": 5083, " raid": 5084, " devast": 5085, " scen": 5086, " artists": 5087, " artis": 5088, " artisans": 5089, " syn": 5090, " build": 5091, " building": 5092, " portion": 5093, " rulers": 5094, " warri": 5095, " warriors": 5096, " did": 5097, "ste": 5098, "stead": 5099, " bal": 5100, "rative": 5101, "lus": 5102, "wing": 5103, " bonds": 5104, " Akbar": 5105, " emper": 5106, " emperor": 5107, " mand": 5108, " taxes": 5109, " lar": 5110, " larger": 5111, " markets": 5112, " literary": 5113, " textil": 5114, " New": 5115, "rent": 5116, " groups": 5117, " Rajput": 5118, " Rajputs": 5119, " Sikhs": 5120, "oration": 5121, " Ex": 5122, " commerce": 5123, " imperial": 5124, "ority": 5125, " late": 5126, " enab": 5127, " aut": 5128, " affa": 5129, " affair": 5130, " affairs": 5131, " presence": 5132, " coastal": 5133, "osts": 5134, " resources": 5135, " advan": 5136, " advanced": 5137, " attract": 5138, " company": 5139, "idel": 5140, " access": 5141, " size": 5142, " manu": 5143, " manuf": 5144, " manufact": 5145, " mat": 5146, " material": 5147, " materials": 5148, " ons": 5149, " onset": 5150, " severely": 5151, " effect": 5152, " appoin": 5153, " 184": 5154, "eneral": 5155, " ess": 5156, " essent": 5157, " essential": 5158, " dem": 5159, " railways": 5160, "duction": 5161, " Dis": 5162, "vas": 5163, "vasive": 5164, "sty": 5165, "style": 5166, " reforms": 5167, " har": 5168, " prin": 5169, " princes": 5170, " reb": 5171, " rebellion": 5172, "anded": 5173, " unitary": 5174, " limited": 5175, " safeguard": 5176, "uture": 5177, " 188": 5178, " hal": 5179, " half": 5180, " farmers": 5181, " depend": 5182, " dependent": 5183, "espite": 5184, " industrial": 5185, " generated": 5186, " food": 5187, " consumption": 5188, "ressive": 5189, " self": 5190, "ule": 5191, "co": 5192, " 1930": 5193, " victories": 5194, " cris": 5195, " II": 5196, " push": 5197, " advent": 5198, " liberalisation": 5199, " transform": 5200, " transformed": 5201, " persist": 5202, " violence": 5203, " Na": 5204, " separat": 5205, " Jammu": 5206, " Nort": 5207, " Northeast": 5208, " territor": 5209, " territorial": 5210, "Geography": 5211, " bulk": 5212, "ying": 5213, "onic": 5214, " ge": 5215, " geolog": 5216, " super": 5217, " supercontinent": 5218, " Gondw": 5219, " Gondwana": 5220, "east": 5221, " spreading": 5222, " Eurasian": 5223, " obstruct": 5224, " she": 5225, " layer": 5226, "head": 5227, " zone": 5228, " mount": 5229, " stif": 5230, " stiff": 5231, "ick": 5232, " Tibetan": 5233, " rap": 5234, " rapidly": 5235, " sedi": 5236, " sediment": 5237, "stitutes": 5238, "Gange": 5239, "Gangetic": 5240, " original": 5241, " extend": 5242, " extends": 5243, " direc": 5244, " To": 5245, " survives": 5246, " Sat": 5247, " Satpura": 5248, " ranges": 5249, " chains": 5250, " run": 5251, " Nag": 5252, " Jharkhand": 5253, " flank": 5254, " Eastern": 5255, "uted": 5256, " fash": 5257, " latitud": 5258, " subst": 5259, " substant": 5260, " substantially": 5261, " Kos": 5262, " Kosi": 5263, " extreme": 5264, " extremely": 5265, " gradient": 5266, " flo": 5267, " flood": 5268, " prevent": 5269, " Nar": 5270, " coastline": 5271, " meas": 5272, " leng": 5273, " length": 5274, "94": 5275, " Lakshadweep": 5276, " rocky": 5277, " sho": 5278, " shores": 5279, " marsh": 5280, " marshy": 5281, " Sund": 5282, " Sundarb": 5283, " Sundarbans": 5284, " shared": 5285, "elag": 5286, "ls": 5287, " vol": 5288, " volcan": 5289, " panoram": 5290, " Nanda": 5291, " Devi": 5292, " peak": 5293, " beh": 5294, " behind": 5295, "arlung": 5296, " Man": 5297, "adra": 5298, " Have": 5299, "limate": 5300, " strongly": 5301, " winds": 5302, " role": 5303, " June": 5304, " Oct": 5305, " Octo": 5306, " October": 5307, " climatic": 5308, " wet": 5309, " dry": 5310, "atures": 5311, " °": 5312, " proj": 5313, " present": 5314, "imachal": 5315, "Biodiversity": 5316, " countries": 5317, " habitat": 5318, " reptil": 5319, " amp": 5320, " amphi": 5321, " plant": 5322, "aps": 5323, " 34": 5324, " display": 5325, " endemism": 5326, " dense": 5327, " decid": 5328, " deciduous": 5329, " sal": 5330, " thorn": 5331, "ible": 5332, "string": 5333, " medic": 5334, "iant": 5335, "osa": 5336, "ought": 5337, " desc": 5338, "ision": 5339, " Eurasia": 5340, " Still": 5341, "oo": 5342, " pass": 5343, " contra": 5344, " vul": 5345, " vuln": 5346, " vulner": 5347, " vulnerable": 5348, " threatened": 5349, "edd": 5350, "des": 5351, " tig": 5352, " croc": 5353, " crocodi": 5354, " nearly": 5355, " extinct": 5356, " open": 5357, "lands": 5358, "zed": 5359, " blackbuc": 5360, " blackbuck": 5361, " cheet": 5362, " cheetah": 5363, " respon": 5364, " response": 5365, " 1972": 5366, " Fore": 5367, " amend": 5368, " amendments": 5369, "osp": 5370, "osphere": 5371, "erves": 5372, "ple": 5373, "orb": 5374, " Uttar": 5375, "akhand": 5376, " Cre": 5377, " gard": 5378, " garden": 5379, " Madh": 5380, "Polit": 5381, "Politics": 5382, " parties": 5383, "erally": 5384, "\")": 5385, " Party": 5386, " Jaw": 5387, " Jawahar": 5388, " Jawaharl": 5389, " Jawaharlal": 5390, " remained": 5391, " comf": 5392, " comfort": 5393, " comfortable": 5394, " died": 5395, " 1964": 5396, " Bah": 5397, " Shastri": 5398, " soon": 5399, " chose": 5400, " 1967": 5401, " 1971": 5402, " declared": 5403, "ending": 5404, " liber": 5405, " Emerg": 5406, " Emergency": 5407, " voted": 5408, " lasted": 5409, "aran": 5410, " returned": 5411, " Gold": 5412, " Golden": 5413, " Amrit": 5414, " Amritsar": 5415, " assass": 5416, " assassin": 5417, " assassinated": 5418, " 1984": 5419, " suc": 5420, " Rajiv": 5421, " alliance": 5422, " Lankan": 5423, " organisation": 5424, "ek": 5425, " intervention": 5426, " Ra": 5427, "year": 5428, " winning": 5429, " followed": 5430, " 1998": 5431, " Bihar": 5432, " Vaj": 5433, " Vajpay": 5434, " Vajpayee": 5435, " short": 5436, " El": 5437, " 1999": 5438, " Democratic": 5439, " Alliance": 5440, "Congress": 5441, "te": 5442, " NDA": 5443, " defeated": 5444, " President": 5445, " UPA": 5446, " 2009": 5447, " Modi": 5448, "ser": 5449, " uncom": 5450, " uncommon": 5451, " spe": 5452, " 1949": 5453, " Government": 5454, " frame": 5455, " framework": 5456, " exer": 5457, " exerc": 5458, " reser": 5459, " legislature": 5460, " hous": 5461, " houses": 5462, " Sabh": 5463, " Sabha": 5464, " deleg": 5465, " delegates": 5466, " members": 5467, " represent": 5468, "atives": 5469, " defin": 5470, " committ": 5471, "Artic": 5472, " Commonwe": 5473, " Commonwealth": 5474, "ises": 5475, " president": 5476, " seats": 5477, " house": 5478, "ounc": 5479, "ouncil": 5480, " decis": 5481, " compr": 5482, " comprising": 5483, " supreme": 5484, " juris": 5485, " jurisdic": 5486, " jurisdiction": 5487, " involving": 5488, "ke": 5489, " down": 5490, "vene": 5491, " any": 5492, " action": 5493, " Puducherry": 5494, " Cap": 5495, " Capital": 5496, " Territ": 5497, " Territory": 5498, " Re": 5499, "organ": 5500, " ling": 5501, " bodi": 5502, " bodies": 5503, " city": 5504, "Ch": 5505, "disha": 5506, "angana": 5507, "Uttar": 5508, "Un": 5509, "Fore": 5510, "Foreign": 5511, " played": 5512, " Chinese": 5513, " Sikkim": 5514, "eas": 5515, " wars": 5516, " close": 5517, " So": 5518, " Sovi": 5519, " Soviet": 5520, " arms": 5521, " produ": 5522, " produce": 5523, " additional": 5524, "ground": 5525, "Prol": 5526, "Prolif": 5527, "Proliferation": 5528, " discrimin": 5529, "atory": 5530, " doc": 5531, "tr": 5532, " civilian": 5533, " agree": 5534, " rece": 5535, " International": 5536, " Agen": 5537, " Agency": 5538, " rest": 5539, "sia": 5540, " Can": 5541, "Econom": 5542, "Economy": 5543, " ten": 5544, " economies": 5545, " domestic": 5546, " output": 5547, "PP": 5548, " annual": 5549, " Dem": 5550, " historically": 5551, " fall": 5552, "idesp": 5553, "idespread": 5554, "side": 5555, " emphas": 5556, "lows": 5557, " Or": 5558, " Organ": 5559, " Organiz": 5560, " Organization": 5561, " lab": 5562, " 2017": 5563, " service": 5564, "100": 5565, " contributed": 5566, " 1985": 5567, " 2021": 5568, " nin": 5569, " ninth": 5570, " exporter": 5571, " pet": 5572, " calend": 5573, " several": 5574, " 2007": 5575, " Some": 5576, " workforce": 5577, " female": 5578, "fast": 5579, " At": 5580, " includes": 5581, " biot": 5582, " biotech": 5583, " ₹": 5584, " elect": 5585, "rical": 5586, " gig": 5587, " gigaw": 5588, " gigawat": 5589, " gigawatts": 5590, " renewable": 5591, " green": 5592, " greenh": 5593, " greenhouse": 5594, " emiss": 5595, " emissions": 5596, " Inc": 5597, " Increasing": 5598, " contributes": 5599, " Pal": 5600, "rin": 5601, "aus": 5602, "ause": 5603, " comm": 5604, " commun": 5605, " communities": 5606, "Demographics": 5607, " brough": 5608, " brought": 5609, " decreasing": 5610, " expect": 5611, " expectan": 5612, " expectancy": 5613, "75": 5614, " mort": 5615, " mortality": 5616, " live": 5617, " births": 5618, " whe": 5619, " whereas": 5620, " 41": 5621, " sex": 5622, " rati": 5623, " according": 5624, " females": 5625, " males": 5626, "emale": 5627, " fo": 5628, " foetic": 5629, " foeticide": 5630, " 63": 5631, " stud": 5632, " study": 5633, " dy": 5634, " 27": 5635, " 53": 5636, " Kol": 5637, " Kolk": 5638, " Kolkata": 5639, " Ahm": 5640, " Ahmed": 5641, " Ahmedabad": 5642, "Languages": 5643, " bre": 5644, " break": 5645, "down": 5646, " sole": 5647, "fficial": 5648, " international": 5649, " numeral": 5650, " numerals": 5651, " artic": 5652, "efin": 5653, "\".": 5654, " list": 5655, " scheduled": 5656, " Assam": 5657, " Assamese": 5658, " Bengali": 5659, " Gujarati": 5660, " Kann": 5661, " Kannada": 5662, " Kashmi": 5663, " Kashmiri": 5664, " Malay": 5665, " Malayal": 5666, " Malayalam": 5667, " Marathi": 5668, " Oriya": 5669, " Telu": 5670, " Telugu": 5671, " Nepali": 5672, " Manipur": 5673, " Kon": 5674, " Konk": 5675, " Konkani": 5676, " Sant": 5677, " each": 5678, " pap": 5679, " paper": 5680, "Rel": 5681, "Relig": 5682, "Religion": 5683, " Hind": 5684, " Hindus": 5685, " Muslims": 5686, "aith": 5687, " expression": 5688, " wors": 5689, " worship": 5690, "everal": 5691, " San": 5692, " Sarn": 5693, " pilg": 5694, " pilgri": 5695, " pilgrim": 5696, "teri": 5697, "terior": 5698, "athur": 5699, " percent": 5700, " percentage": 5701, " poin": 5702, " points": 5703, "ika": 5704, " affir": 5705, " affirm": 5706, " hon": 5707, " Dalit": 5708, "que": 5709, " former": 5710, " formerly": 5711, " Col": 5712, "lege": 5713, " founded": 5714, "ealth": 5715, "den": 5716, " tu": 5717, " tuber": 5718, " tubercul": 5719, " tuberculos": 5720, " tuberculosis": 5721, " dise": 5722, " diseas": 5723, " disease": 5724, " breath": 5725, " breathing": 5726, " WHO": 5727, "ety": 5728, "Culture": 5729, " therefore": 5730, "castes": 5731, "ogam": 5732, "ogamy": 5733, " marry": 5734, " formally": 5735, " related": 5736, " parents": 5737, " divorce": 5738, " less": 5739, " bride": 5740, " married": 5741, " usually": 5742, " carved": 5743, " seal": 5744, " excav": 5745, " excavated": 5746, " best": 5747, " thereafter": 5748, " prob": 5749, " probably": 5750, "Over": 5751, " distin": 5752, " distinct": 5753, " figure": 5754, " give": 5755, "vara": 5756, " either": 5757, " cut": 5758, " reliefs": 5759, " Aj": 5760, " Ajanta": 5761, " generally": 5762, " artistic": 5763, " –": 5764, " saw": 5765, " dominance": 5766, " Cav": 5767, " Caves": 5768, " Ac": 5769, " bronze": 5770, " Nat": 5771, " Natar": 5772, " Nataraj": 5773, " Nataraja": 5774, " paintings": 5775, " ple": 5776, " inn": 5777, " innov": 5778, " everyday": 5779, "Bh": 5780, " Dance": 5781, "lit": 5782, " Vedic": 5783, " orally": 5784, " manuscript": 5785, " mathematicians": 5786, "rigon": 5787, "rigonomet": 5788, " cosine": 5789, " series": 5790, " sit": 5791, " sitar": 5792, " fil": 5793, " cin": 5794, " Sub": 5795, "athan": 5796, " sar": 5797, " playing": 5798, "Dance": 5799, "exts": 5800, "adem": 5801, "ademi": 5802, "aty": 5803, "atyam": 5804, " Chh": 5805, " Chhau": 5806, " Yakshag": 5807, " Yakshagana": 5808, "centur": 5809, "century": 5810, "cover": 5811, " Kath": 5812, " Kathak": 5813, " cloth": 5814, " shoulder": 5815, " dhot": 5816, " dhoti": 5817, " tun": 5818, " kur": 5819, " kurta": 5820, "ypically": 5821, " nar": 5822, " narrow": 5823, " pants": 5824, "ams": 5825, " occas": 5826, " occasions": 5827, " shalwar": 5828, " sports": 5829, " jack": 5830, " jackets": 5831, " gro": 5832, " sport": 5833, "wan": 5834, " shaw": 5835, " shawl": 5836, "isine": 5837, " cere": 5838, " cereal": 5839, " savour": 5840, " savoury": 5841, " steam": 5842, " steamed": 5843, " bread": 5844, " spic": 5845, " vegetar": 5846, " vegetarian": 5847, " feature": 5848, " techni": 5849, " partially": 5850, " tand": 5851, " tandoor": 5852, " kh": 5853, " kho": 5854, " Chess": 5855, " Champ": 5856, " Cup": 5857, " Cups": 5858, " hock": 5859, " hockey": 5860, " gold": 5861, " Olympics": 5862, "dia": 5863, " web": 5864, " /": 5865, " हुआ": 5866, " हुई": 5867, "ंद्र": 5868, " दे": 5869, "शिया": 5870, " रह": 5871, " केंद्र": 5872, " ड": 5873, "ेज": 5874, " थी": 5875, " समय": 5876, " दिया": 5877, " बना": 5878, " लिए": 5879, " दो": 5880, "ोग": 5881, " हिन्दी": 5882, "हीं": 5883, "नाव": 5884, "07": 5885, "62": 5886, "04": 5887, "14": 5888, " ).": 5889, " విస్త": 5890, "ీర్ణం": 5891, "స్థాన": 5892, " పార్": 5893, "బి": 5894, " పంచ": 5895, " శ్రీ": 5896, "టే": 5897, "టె": 5898, "మ్": 5899, " నాయ": 5900, "సం": 5901, "దర": 5902, " అవ": 5903, "ముఖ్య": 5904, " ఇవ": 5905, "రత": 5906, "మారు": 5907, "ర్ష": 5908, "లిచ": 5909, "తుల": 5910, "క్య": 5911, "గోళ": 5912, "బె": 5913, "న్నాయి": 5914, "సీ": 5915, "ద్ధం": 5916, "జి": 5917, " న్యాయ": 5918, "్యవస్థ": 5919, "ుతుంది": 5920, "క్షం": 5921, "ళ్": 5922, "ళ్ళ": 5923, " పేర్కొ": 5924, " మై": 5925, "ష్ణ": 5926, " కాశ": 5927, " కాశ్మ": 5928, "ూల": 5929, "ళి": 5930, " రంగ": 5931, " డ": 5932, "టా": 5933, " బా": 5934, " కల": 5935, "ందు": 5936, "గణ": 5937, " సంబ": 5938, "ూరు": 5939, " లా": 5940, "మతి": 5941, "కర": 5942, "స్తున్న": 5943, " నిర్": 5944, "మాన": 5945, " చి": 5946, " కథ": 5947, " టై": 5948, "ంటి": 5949, "ంక": 5950, "ंग्रेज": 5951, "स्तान": 5952, " बढ़": 5953, "ట్ల": 5954, " సై": 5955, "క్తి": 5956, "టర్": 5957, "టర్ల": 5958, " సముద": 5959, "ారిత్రక": 5960, " ఉత్త": 5961, " ఉత్తరా": 5962, " హిమ": 5963, " హిమాల": 5964, "రే": 5965, " జన్మ": 5966, "ప్రా": 5967, " వైవి": 5968, " వైవిధ్య": 5969, "యింది": 5970, "కోవడం": 5971, " పరిపాల": 5972, "ాత్మ": 5973, "క్షరాస": 5974, "క్షరాస్య": 5975, "ినీ": 5976, "తరాల": 5977, "చ్చు": 5978, "భాగ": 5979, "నది": 5980, " గుర్": 5981, " గుర్త": 5982, "స్వ": 5983, " గణ": 5984, " సహ": 5985, " ఇంగ్ల": 5986, " వ్యాప": 5987, " తి": 5988, "భిన్న": 5989, " రాజ్యా": 5990, " పద": 5991, " పద్ధతి": 5992, " సంవత్సర": 5993, "ాక": 5994, "బడ్డ": 5995, " సూచ": 5996, " వహించ": 5997, "ుత్": 5998, " ఎన్ని": 5999, " ఎన్నిక": 6000, "డిన": 6001, " కుల": 6002, " పీ": 6003, " పీఠ": 6004, " ఉండ": 6005, "దాయం": 6006, " తక్కువ": 6007, "ికా": 6008, " భిన్న": 6009, " ముంబ": 6010, " పురు": 6011, " పురుష": 6012, "లిం": 6013, " జరు": 6014, " జరుపు": 6015, " కన్న": 6016, "శాఖ": 6017, " ప్రారం": 6018, " ప్రారంభ": 6019, "ోర్": 6020, " మనదేశం": 6021, "పిక్": 6022, "ెలవు": 6023, "దినాలు": 6024, "23": 6025, "517": 6026, " 32": 6027, "63": 6028, "422": 6029, "40": 6030, "16": 6031, "199": 6032, " 82": 6033, "87": 6034, " 700": 6035, "\",": 6036, "Count": 6037, " BB": 6038, " BBC": 6039, " స్థానంలో": 6040, " ప్రజాస్వామ్య": 6041, " పాలన": 6042, " సమాఖ్య": 6043, " ముఖ్యమైన": 6044, " వాణి": 6045, " వాణిజ్య": 6046, " బంగ్ల": 6047, " బంగ్లా": 6048, " ఆఫ్ఘ": 6049, "నిస్తాన్": 6050, " సింధు": 6051, " నాగర": 6052, " నాగరికత": 6053, " బహుళ": 6054, " జాతి": 6055, " ప్రాంతాల": 6056, " ఒకే": 6057, " రాజ్యాల": 6058, " కంప": 6059, " కంపె": 6060, " కంపెనీ": 6061, " గాంధ": 6062, " గాంధీ": 6063, " స్వతంత్ర": 6064, " వేగంగా": 6065, " నాలు": 6066, " నాలుగు": 6067, " వీ": 6068, " వీటి": 6069, " జంబ": 6070, " జంబూ": 6071, "బడిన": 6072, " లేదా": 6073, " రాజు": 6074, " పొందిన": 6075, " ప్రాచీన": 6076, " మొట్ట": 6077, " మొట్టమ": 6078, " మొట్టమొ": 6079, " మొట్టమొద": 6080, " మొట్టమొదటి": 6081, " ఏర్పడ్డ": 6082, " సంస్కృతి": 6083, " సాంస్కృ": 6084, " సాంస్కృతిక": 6085, " వారసత్వ": 6086, " చేసింది": 6087, "బడింది": 6088, " మొదలైన": 6089, "పై": 6090, " భాగం": 6091, " మతాల": 6092, " దేశానికి": 6093, " కారణ": 6094, " కారణంగా": 6095, "లోను": 6096, " అధికారం": 6097, " నిర్వహ": 6098, " నిర్వహణ": 6099, " ద్వార": 6100, " ద్వారా": 6101, " ఉంటుంది": 6102, "కుంటారు": 6103, " ఇవి": 6104, " దాదా": 6105, " దాదాపు": 6106, " కలిసి": 6107, "ల్లో": 6108, " నుంచి": 6109, " కొన్ని": 6110, "రాష్ట్రాల": 6111, " శాస్త్ర": 6112, " శాస్త్రీయ": 6113, " సినిమ": 6114, " సినిమాలు": 6115, " మంది": 6116, "జనాభా": 6117, "వెనుక": 6118, "వెనుకటి": 6119, " కార్యక్రమ": 6120, " కార్యక్రమాల": 6121, " పండుగ": 6122, " హిందీ": 6123, " తెలు": 6124, " తెలుగు": 6125, " తమిళం": 6126, " ఇస్": 6127, " ఇస్లా": 6128, "ాబా": 6129, "ాబాద్": 6130, " దక్షిణాసియా": 6131, " ప్రతిపా": 6132, " ప్రతిపాదన": 6133, " శాఖ": 6134, " మార్గాల": 6135, " రోడ్డు": 6136, " కేవ": 6137, " కేవలం": 6138, " చాలా": 6139, " పరంగా": 6140, " క్రీడల": 6141, " పతకాల": 6142, " క్యాల": 6143, " క్యాలెండ": 6144, " క్యాలెండర్": 6145, " IS": 6146, " ISB": 6147, " ISBN": 6148, "సైటు": 6149, " अंग्रेज": 6150, " एशिया": 6151, " हुए": 6152, " मै": 6153, "तंत्र": 6154, " संघ": 6155, " रहा": 6156, " कई": 6157, " घ": 6158, "ँच": 6159, " होता": 6160, "ारा": 6161, " देशों": 6162, " चुनाव": 6163, " इसके": 6164, " साम्रा": 6165, " साम्राज्य": 6166, " करने": 6167, " प्रमुख": 6168, " बन": 6169, " करोड़": 6170, " अनुसार": 6171, "टे": 6172, " मान": 6173, " ख": 6174, " ऊ": 6175, "ड़ा": 6176, " नहीं": 6177, "ंत्र": 6178, "क्षा": 6179, "ंत्री": 6180, " मैदान": 6181, " स्वतंत्र": 6182, " पह": 6183, "मिल": 6184, "ियों": 6185, "पा": 6186, " संबंध": 6187, " द्वारा": 6188, " ओ": 6189, " भाषाओं": 6190, " राष्ट्रीय": 6191, "ंग्रेस": 6192, " संविधान": 6193, " पार्": 6194, " पाकिस्तान": 6195, " राजन": 6196, "द्योग": 6197, "ियाँ": 6198, " बहुत": 6199, " प्रदेश": 6200, "ाने": 6201, " नेत": 6202, " नेतृ": 6203, " नेतृत्व": 6204, " ही": 6205, "मंत्री": 6206, " दशक": 6207, "ख्य": 6208, "ॉंग्रेस": 6209, " जनजा": 6210, " जनजाति": 6211, "ters": 6212, "Austral": 6213, "Australian": 6214, " Mon": 6215, " Monsoon": 6216, "22": 6217, "500": 6218, " 72": 6219, "67": 6220, " 900": 6221, "wa": 6222, " 140": 6223, " Post": 6224, " Sum": 6225, "रब": 6226, "ंगा": 6227, " उन": 6228, " परमाण": 6229, " परमाणु": 6230, " मिल": 6231, " निर्माण": 6232, " पू": 6233, " सै": 6234, "रिक": 6235, " जाती": 6236, "बर": 6237, " मुख्य": 6238, " कॉंग्रेस": 6239, " कर्": 6240, " పార్ల": 6241, " పార్లమె": 6242, " పార్లమెంట": 6243, " అణ": 6244, "వస్త": 6245, "ాతం": 6246, "ోంది": 6247, "లంక": 6248, " ఇండ": 6249, " ఇండో": 6250, "ముల": 6251, "భాష": 6252, "ౌర్య": 6253, "వర్తి": 6254, "పరి": 6255, "ాధ": 6256, "ింగ్": 6257, " నాయక": 6258, "సాయ": 6259, " తర్వ": 6260, "భవ": 6261, "భవించి": 6262, "కాహార": 6263, "పే": 6264, "ుకోవ": 6265, " వేద": 6266, "ార్థ": 6267, " కృ": 6268, " గోదా": 6269, "వరీ": 6270, "ండ్": 6271, " భరత": 6272, " ఇత": 6273, " విశ్వ": 6274, "ామ": 6275, " పూర్వ": 6276, "యు": 6277, " శి": 6278, "చిత్ర": 6279, " మాన": 6280, "ారాల": 6281, " క్రి": 6282, " మె": 6283, "హర్": 6284, "గర్": 6285, " విలు": 6286, "వైన": 6287, "ోక": 6288, " వం": 6289, "ణించ": 6290, " పల్ల": 6291, "జ్": 6292, " తత్వ": 6293, " మొగ": 6294, "ట్టు": 6295, "రెండ": 6296, "ర్చు": 6297, " ఇక్క": 6298, "ితి": 6299, "ుకున్న": 6300, "ంచిన": 6301, "త్తా": 6302, "ర్షణ": 6303, " చవి": 6304, "జా": 6305, " లక్షణ": 6306, " కాపా": 6307, "కుంటూ": 6308, " అప్ప": 6309, "ెన్": 6310, "ౌర": 6311, " వాటి": 6312, "వాదం": 6313, " పరీ": 6314, " పరీక్ష": 6315, " లె": 6316, "వ్యవస్థ": 6317, "మల": 6318, " కాలే": 6319, "మితి": 6320, "సభ": 6321, " మంత్ర": 6322, " స్వీ": 6323, " ఎగు": 6324, " ప్రత్య": 6325, "జీ": 6326, "ప్రీ": 6327, "ప్రీం": 6328, " హై": 6329, " రి": 6330, "చ్చే": 6331, "వార": 6332, "ెర్": 6333, " రక": 6334, " రకాలు": 6335, "పాటు": 6336, "రాజ": 6337, " ఐక్య": 6338, " ప్రతిప": 6339, " ఓ": 6340, "డించ": 6341, "పోత": 6342, "న్నీ": 6343, "ౌగోళ": 6344, "ౌగోళిక": 6345, " ఆన": 6346, " బి": 6347, " పర్వ": 6348, "వంత": 6349, " థ": 6350, " ఎడ": 6351, " గంగ": 6352, "హ్మ": 6353, "శీ": 6354, " నెల": 6355, " నెలకొ": 6356, "తల": 6357, " కలు": 6358, "ానీ": 6359, "త్రి": 6360, "ూడండి": 6361, " వ్యవ": 6362, "నుల": 6363, "ట్ర": 6364, "ట్రో": 6365, "నాల": 6366, "్రామ": 6367, "కృ": 6368, "ెస్": 6369, " రూప": 6370, "ర్లు": 6371, "ిర": 6372, " కల్": 6373, "ర్శ": 6374, "దేశీ": 6375, "ికుల": 6376, " భాగ": 6377, "కరణ": 6378, "న్నై": 6379, "దరా": 6380, "దరాబా": 6381, " మహి": 6382, " మహిళ": 6383, " జనగణ": 6384, "్రై": 6385, " సంబంధ": 6386, "శ్ర": 6387, " సంస్కృత": 6388, "చె": 6389, "నం": 6390, "జిత": 6391, "ంజ": 6392, "తే": 6393, "కూ": 6394, "చ్చని": 6395, " వర్గ": 6396, "చన": 6397, "హ్": 6398, "బు": 6399, "బుల్": 6400, " ప్రయో": 6401, " ప్రయోజ": 6402, "వల్ల": 6403, " తె": 6404, " పాలకు": 6405, " నిర్మించ": 6406, "డుతున్న": 6407, "మూల": 6408, "ాయు": 6409, " విమాన": 6410, "డానికి": 6411, " మర": 6412, " సమాజ": 6413, "ోధ": 6414, "్యా": 6415, " చిరు": 6416, "టక": 6417, "గమ": 6418, " రచ": 6419, " రచయ": 6420, " రచయిత": 6421, "నాథ": 6422, " ధ": 6423, " ధర": 6424, " నెహ": 6425, "కం": 6426, "టన్": 6427, " పతా": 6428, "దిన": 6429, "అధిక": 6430, "అధికార": 6431, " ప్ల": 6432, "IA": 6433, " Prof": 6434, " Profile": 6435, " కోట్ల": 6436, " సైనిక": 6437, " సామర్": 6438, " సామర్థ": 6439, " సామర్థ్యం": 6440, " ప్రాంతీయ": 6441, " వేల": 6442, " కిలో": 6443, " కిలోమీ": 6444, " కిలోమీటర్ల": 6445, " సముద్ర": 6446, " సముద్రత": 6447, " సముద్రతీర": 6448, " భాగా": 6449, " భాగాన్ని": 6450, "ుకొ": 6451, "ుకొని": 6452, " చారిత్రక": 6453, " మహాస": 6454, " మహాసముద": 6455, " మహాసముద్రం": 6456, " తూ": 6457, " తూర్": 6458, " తూర్పు": 6459, "లుగా": 6460, "పాల్": 6461, " భూట": 6462, " భూటాన్": 6463, " సరిహద్దుల": 6464, " బౌ": 6465, " బౌద్ధ": 6466, " జైన": 6467, " సిక్": 6468, " సిక్కు": 6469, " ఏప": 6470, " ఏప్రి": 6471, " ఏప్రిల్": 6472, " పలు": 6473, "పోయింది": 6474, " బ్రిటిష": 6475, " ఈస్": 6476, " ఈస్ట్": 6477, " పరిపాలన": 6478, " కింద": 6479, " మహాత్మ": 6480, " సంస్క": 6481, " సంస్కరణ": 6482, " సంస్కరణల": 6483, " చెందుతున్న": 6484, " పుట్టు": 6485, " పుట్టుపూ": 6486, " పుట్టుపూర్వ": 6487, " పుట్టుపూర్వో": 6488, " పుట్టుపూర్వోత్": 6489, " పుట్టుపూర్వోత్తరాల": 6490, " పేర్లు": 6491, " ఉపయో": 6492, " ఉపయోగ": 6493, " నేరే": 6494, " నేరేడు": 6495, " కనుక": 6496, " మీ": 6497, " మీద": 6498, "ుడు": 6499, "తరువాత": 6500, " సింధూ": 6501, " రూ": 6502, " రూపా": 6503, " రూపాంత": 6504, " రూపాంతర": 6505, " వారి": 6506, " వలన": 6507, " అవి": 6508, " స్థావర": 6509, " స్థావరాల": 6510, " ప్రాంతాల్లో": 6511, "లోయ": 6512, " ఆసియా": 6513, " భారతంలో": 6514, " మొదలగు": 6515, "ించారు": 6516, " కళ": 6517, " కళలు": 6518, " సారస్వ": 6519, " సారస్వత": 6520, " సాంక": 6521, " సాంకే": 6522, " సాంకేతిక": 6523, " సహస": 6524, " సహస్రా": 6525, " సహస్రాబ్": 6526, " సహస్రాబ్ది": 6527, "లతో": 6528, " అయినా": 6529, " ఐరో": 6530, " ఐరోపా": 6531, " బ్రిటిషు": 6532, " తిరు": 6533, " తిరుగు": 6534, " తిరుగుబా": 6535, " తిరుగుబాటు": 6536, " సమర": 6537, " జనవరి": 6538, " గణతంత్ర": 6539, " రాజ్యం": 6540, " జాత": 6541, " జాతులు": 6542, " విభిన్న": 6543, " లౌక": 6544, " లౌకిక": 6545, " మాత్రమ": 6546, " మాత్రమే": 6547, " నిర్వహించ": 6548, " మరో": 6549, " రాజ్యాంగం": 6550, " పదవి": 6551, " ఎల": 6552, " ఎలక్": 6553, "టోర": 6554, "టోరల్": 6555, " సంవత్సరాల": 6556, " ఎన్నుకో": 6557, " ఎన్నుకోబడ": 6558, "తారు": 6559, " సభ్యులు": 6560, " నియ": 6561, " నియమించ": 6562, " శాస": 6563, " శాసన": 6564, " ప్రజలు": 6565, " అతిప": 6566, " అతిపెద్ద": 6567, " జనతా": 6568, " ఇటీ": 6569, " ఇటీవల": 6570, " కోల్": 6571, " సార్వ": 6572, " సార్వత్ర": 6573, " సార్వత్రిక": 6574, " పార్టీల": 6575, " సంకీర్": 6576, " సంకీర్ణ": 6577, "కాగా": 6578, " కాంగ్రెస్": 6579, " స్థానాల": 6580, " గెలు": 6581, " గెలుచు": 6582, "వచ్చు": 6583, " గుర్తించ": 6584, " ఈశ": 6585, " ఈశాన": 6586, " ఈశాన్య": 6587, " హిమాలయ": 6588, "ుకుని": 6589, " కూడి": 6590, " పూర్": 6591, " పూర్తి": 6592, " పూర్తిగా": 6593, "భూ": 6594, "భూమి": 6595, " కను": 6596, " కనుమ": 6597, "దేశపు": 6598, " జమ్మ": 6599, " జమ్మూ": 6600, " లకు": 6601, "లేదు": 6602, "ఆర్": 6603, "ఆర్ధిక": 6604, " ఆధారప": 6605, " ఆధారపడిన": 6606, "ాదాయం": 6607, " కంటే": 6608, " గత": 6609, " అమె": 6610, " అమెర": 6611, " అమెరికా": 6612, " వ్యాపార": 6613, " సామా": 6614, " సామాజ": 6615, " సామాజిక": 6616, " ముంబై": 6617, " 83": 6618, " పురుషుల": 6619, " అక్షరాస్య": 6620, " స్త": 6621, " స్త్రీ": 6622, " రెండో": 6623, " ముస్": 6624, " ముస్లిం": 6625, " భక్తి": 6626, " భాషా": 6627, " కుటుంబాల": 6628, " ఇంగ్లీ": 6629, " ఇంగ్లీషు": 6630, "ప్రాచీన": 6631, " సౌకర్యాలు": 6632, " సౌకర్యాల": 6633, " నిడి": 6634, " నిడివి": 6635, "ఢా": 6636, "ఢాకా": 6637, "హోర్": 6638, " ప్రారంభించ": 6639, "ాలనే": 6640, "ుతూ": 6641, "ననీ": 6642, " నిపు": 6643, " నిపుణ": 6644, " నిపుణులు": 6645, " సూచించ": 6646, " సూచించిన": 6647, "మేన": 6648, "మేనని": 6649, " ఉండటం": 6650, " జరిగే": 6651, " కల్ప": 6652, "ప్పటికినీ": 6653, "నుండి": 6654, " అంత": 6655, " అంతర్": 6656, " అంతర్జాతీయ": 6657, "జల": 6658, " ముడి": 6659, " ఖని": 6660, " ఖనిజ": 6661, " విష": 6662, " విషయాల": 6663, " ప్రపంచము": 6664, "ఒక": 6665, " భావ": 6666, " పవి": 6667, " పవిత్ర": 6668, " సంగీత": 6669, " ప్రజాద": 6670, " ప్రజాదరణ": 6671, " ప్రసి": 6672, " ప్రసిద్ధి": 6673, " సాధించిన": 6674, "ుడ": 6675, "ుడైన": 6676, " మల": 6677, " మలయా": 6678, " మలయాళ": 6679, " కన్నడ": 6680, " ఆహ": 6681, " ఆహారం": 6682, "వార్": 6683, " క్రీడా": 6684, " స్థానం": 6685, " ఒలం": 6686, " ఒలంపిక్": 6687, " పర్య": 6688, " పర్యాయ": 6689, " హాక": 6690, " హాకీ": 6691, " బంగ": 6692, " బంగారు": 6693, " కబడ్డ": 6694, " కబడ్డీ": 6695, " శెలవు": 6696, " పక్క": 6697, " పక్కన": 6698, "భారతీయుల": 6699, " మాట్": 6700, " మాట్లా": 6701, " మాట్లాడే": 6702, " =": 6703, "విద్య": 6704, "విద్యుత్": 6705, " 's": 6706, " భూభాగ": 6707, " offic": 6708, " officially": 6709, " sevent": 6710, " seventh": 6711, " Bound": 6712, " Bounded": 6713, " southeast": 6714, " sha": 6715, " shares": 6716, " Bhut": 6717, " Bhutan": 6718, " Lanka": 6719, " Maldiv": 6720, " Maldives": 6721, " marit": 6722, " maritime": 6723, " border": 6724, " arri": 6725, " arrived": 6726, " predominant": 6727, " predominantly": 6728, " Settled": 6729, " evolving": 6730, " daw": 6731, " dawnings": 6732, "existing": 6733, " proc": 6734, " proclaiming": 6735, " orders": 6736, " unl": 6737, " unlin": 6738, " unlinked": 6739, " heredi": 6740, " heredity": 6741, " consolidations": 6742, " Emp": 6743, " Empires": 6744, " flourishing": 6745, " writing": 6746, " declined": 6747, " organised": 6748, " scripts": 6749, " Judaism": 6750, " intermitt": 6751, " intermittently": 6752, " cosm": 6753, " cosmop": 6754, " cosmopolit": 6755, " cosmopolitan": 6756, " networks": 6757, "last": 6758, "lasting": 6759, " composite": 6760, " reject": 6761, " rejecting": 6762, " institutional": 6763, " institutionalised": 6764, " ushered": 6765, " architectural": 6766, " legacy": 6767, " Gra": 6768, " Gradu": 6769, " Gradually": 6770, " consolidated": 6771, " Crow": 6772, " Crown": 6773, " promised": 6774, " granted": 6775, " slowly": 6776, " technological": 6777, " ideas": 6778, " root": 6779, " movements": 6780, " Noted": 6781, " resist": 6782, " resistance": 6783, " 1920": 6784, " partitioned": 6785, " dominions": 6786, " unp": 6787, " unpre": 6788, " unpreced": 6789, " unprecedent": 6790, " unprecedented": 6791, " accomp": 6792, " accompani": 6793, " accompanied": 6794, " governed": 6795, " plural": 6796, " pluralistic": 6797, " multil": 6798, " multiling": 6799, " multilingual": 6800, "ethnic": 6801, "601": 6802, "weap": 6803, "weapon": 6804, " rank": 6805, " ranks": 6806, " expen": 6807, " expendit": 6808, " expenditure": 6809, " neighbours": 6810, " soci": 6811, " socio": 6812, " chall": 6813, " challeng": 6814, " challenges": 6815, " faces": 6816, " mal": 6817, " maln": 6818, " malnut": 6819, " malnutrit": 6820, " malnutrition": 6821, " viewed": 6822, " tol": 6823, " toler": 6824, " tolerance": 6825, " habitats": 6826, "According": 6827, " Ox": 6828, " Oxf": 6829, " Oxford": 6830, " Dic": 6831, " Dictionary": 6832, " proper": 6833, " noun": 6834, " derives": 6835, " Latin": 6836, " reference": 6837, " loosely": 6838, "def": 6839, "defined": 6840, " stret": 6841, " stretch": 6842, " stretching": 6843, " Further": 6844, " ety": 6845, " etymon": 6846, " etymons": 6847, " Hell": 6848, " Hellen": 6849, " Hellenistic": 6850, " Ἰνδί": 6851, " Ἰνδία": 6852, " Indos": 6853, " Ἰνδό": 6854, " Ἰνδός": 6855, " Achaemenian": 6856, " province": 6857, " Achaemenid": 6858, " Sindh": 6859, " Sindhu": 6860, "river": 6861, " specif": 6862, " specifically": 6863, " extension": 6864, "settled": 6865, " Greeks": 6866, " referred": 6867, " Indoi": 6868, "'.": 6869, " Bhā": 6870, " Bhārat": 6871, " pron": 6872, " pronoun": 6873, " pronounced": 6874, " ˈ": 6875, " ˈb": 6876, " ˈbɦ": 6877, " ˈbɦaː": 6878, " ˈbɦaːɾ": 6879, " ˈbɦaːɾə": 6880, " ˈbɦaːɾət": 6881, " ment": 6882, " mention": 6883, " mentioned": 6884, " epic": 6885, " po": 6886, " poet": 6887, " poetry": 6888, " variations": 6889, " render": 6890, " rendering": 6891, " Bharatav": 6892, " Bharatavar": 6893, " Bharatavarsha": 6894, " native": 6895, "Hin": 6896, "Hindust": 6897, "Hindustan": 6898, " ɦ": 6899, " ɦɪ": 6900, " ɦɪnd": 6901, " ɦɪndʊ": 6902, " ɦɪndʊˈ": 6903, " ɦɪndʊˈst": 6904, " ɦɪndʊˈstaː": 6905, " ɦɪndʊˈstaːn": 6906, " Hindustan": 6907, " varied": 6908, " referring": 6909, " encom": 6910, " encompassing": 6911, "present": 6912, " entirety": 6913, "Based": 6914, " coalesc": 6915, " coalescence": 6916, " Mit": 6917, " Mitoch": 6918, " Mitochond": 6919, " Mitochondrial": 6920, " DN": 6921, " DNA": 6922, " Chrom": 6923, " Chromos": 6924, " Chromosome": 6925, " line": 6926, " lineages": 6927, " anatomically": 6928, " Hom": 6929, " Homo": 6930, " sap": 6931, " sapi": 6932, " sapiens": 6933, " likel": 6934, " likelih": 6935, " likelihood": 6936, " initially": 6937, " varying": 6938, " genetic": 6939, " foss": 6940, " fossils": 6941, " date": 6942, " Evidence": 6943, " neol": 6944, " neolith": 6945, " neolithic": 6946, " Meh": 6947, " Mehr": 6948, " Mehrgarh": 6949, " Baloch": 6950, " Balochistan": 6951, " dates": 6952, " 7000": 6953, " Domestic": 6954, " Domestication": 6955, " grain": 6956, "produc": 6957, "producing": 6958, " plants": 6959, " barle": 6960, " barley": 6961, " humped": 6962, " zeb": 6963, " zebu": 6964, " evolved": 6965, " flourished": 6966, " 2500": 6967, "1900": 6968, " Centred": 6969, " Hara": 6970, " Harapp": 6971, " Harappa": 6972, " Dhol": 6973, " Dholavira": 6974, " Gan": 6975, " Ganw": 6976, " Ganweri": 6977, " Ganweriw": 6978, " Ganweriwala": 6979, " Rakh": 6980, " Rakhig": 6981, " Rakhigar": 6982, " Rakhigarhi": 6983, " weigh": 6984, " weights": 6985, " steat": 6986, " steatite": 6987, " plan": 6988, " planning": 6989, " cra": 6990, " craf": 6991, " crafts": 6992, " potter": 6993, " pottery": 6994, " statu": 6995, " statuett": 6996, " statuettes": 6997, " Networks": 6998, " agro": 6999, "Between": 7000, " 1500": 7001, " evidence": 7002, " Rig": 7003, " Ved": 7004, " Veda": 7005, " scripture": 7006, "wh": 7007, "which": 7008, "speak": 7009, "speaking": 7010, " tribes": 7011, " migr": 7012, " migrating": 7013, " Afgh": 7014, " Afghan": 7015, " Afghanistan": 7016, " settling": 7017, " swathe": 7018, " swathes": 7019, " adj": 7020, " adjoin": 7021, " adjoining": 7022, " defore": 7023, " deforested": 7024, " fires": 7025, " employing": 7026, " iron": 7027, " implements": 7028, " prep": 7029, " prepared": 7030, " driving": 7031, " pree": 7032, " preex": 7033, " preexisting": 7034, " ens": 7035, " ensl": 7036, " enslaving": 7037, "divide": 7038, " spok": 7039, " spoken": 7040, " refined": 7041, " gram": 7042, " gramm": 7043, " grammatical": 7044, " emer": 7045, " emerge": 7046, " codified": 7047, " Aṣ": 7048, " Aṣṭ": 7049, " Aṣṭā": 7050, " Aṣṭādh": 7051, " Aṣṭādhy": 7052, " Aṣṭādhyā": 7053, " Aṣṭādhyāy": 7054, " Aṣṭādhyāyī": 7055, " ('": 7056, "Eight": 7057, " chapters": 7058, "')": 7059, " Pā": 7060, " Pāṇ": 7061, " Pāṇin": 7062, " Pāṇini": 7063, " ep": 7064, " epics": 7065, " Mahā": 7066, " Mahāb": 7067, " Mahābh": 7068, " Mahābhā": 7069, " Mahābhār": 7070, " Mahābhārata": 7071, " Rā": 7072, " Rām": 7073, " Rāmā": 7074, " Rāmāya": 7075, " Rāmāyaṇ": 7076, " Rāmāyaṇa": 7077, " oral": 7078, " story": 7079, " storytell": 7080, " storytelling": 7081, " registers": 7082, " Epic": 7083, " rough": 7084, " roughly": 7085, " contemp": 7086, " contempor": 7087, " contemporary": 7088, " taken": 7089, " differenti": 7090, " differentiation": 7091, " teach": 7092, " teachings": 7093, " Mahavira": 7094, " Both": 7095, " stressed": 7096, " abj": 7097, " abjured": 7098, " sac": 7099, " sacri": 7100, " sacrif": 7101, " sacrifices": 7102, " Brahman": 7103, " Brahmanism": 7104, " fixed": 7105, " ethically": 7106, " socially": 7107, " mor": 7108, " morally": 7109, " Chronic": 7110, " Chronicling": 7111, " backd": 7112, " backdrop": 7113, " emergence": 7114, " geographically": 7115, " extensive": 7116, " foun": 7117, " founder": 7118, " grands": 7119, " grandson": 7120, "ca": 7121, " 268": 7122, "232": 7123, " controlled": 7124, " arter": 7125, " arteries": 7126, " except": 7127, " deep": 7128, " inscri": 7129, " inscriptions": 7130, " declining": 7131, " mainst": 7132, " mainstream": 7133, " speaking": 7134, " conqu": 7135, " conquest": 7136, " Kaling": 7137, " Kalinga": 7138, " forces": 7139, " imm": 7140, " immense": 7141, " adopting": 7142, " dhamm": 7143, " dhamma": 7144, " commission": 7145, " commissioning": 7146, " numerous": 7147, " pill": 7148, " pillar": 7149, " throughout": 7150, " promote": 7151, " forb": 7152, " forbade": 7153, " killing": 7154, " destruction": 7155, " seen": 7156, " env": 7157, " envir": 7158, " environ": 7159, " environmental": 7160, " embodi": 7161, " embodiment": 7162, " ethos": 7163, " taxation": 7164, " Under": 7165, " Gupt": 7166, " Guptas": 7167, " renewed": 7168, " manage": 7169, " management": 7170, " rit": 7171, " ritual": 7172, " itsel": 7173, " itself": 7174, " renewal": 7175, " reflected": 7176, " Sangam": 7177, " reve": 7178, " reveals": 7179, " peninsul": 7180, " peninsula": 7181, " Cher": 7182, " Cheras": 7183, " Cholas": 7184, " respectively": 7185, " Pandy": 7186, " Pandyas": 7187, " fart": 7188, " farther": 7189, " Vaig": 7190, " Vaigai": 7191, " sixth": 7192, " grown": 7193, " favou": 7194, " favoured": 7195, " conserv": 7196, " conservative": 7197, " transac": 7198, " transaction": 7199, " transactional": 7200, " transactionalism": 7201, " repl": 7202, " replaced": 7203, " kingly": 7204, " plac": 7205, " places": 7206, " Bhak": 7207, " Bhakti": 7208, " traded": 7209, " Rom": 7210, " Roman": 7211, "Medieval": 7212, " 600": 7213, " defined": 7214, " No": 7215, " ruler": 7216, " create": 7217, " consist": 7218, " consistently": 7219, " bey": 7220, " beyond": 7221, " core": 7222, " peoples": 7223, " accomm": 7224, " accommod": 7225, " accommodated": 7226, "tradition": 7227, "traditional": 7228, " consequ": 7229, " consequently": 7230, " differences": 7231, " devotional": 7232, " imitated": 7233, " resur": 7234, " resurg": 7235, " resurgence": 7236, " royalty": 7237, " big": 7238, " patronised": 7239, " capital": 7240, " sizes": 7241, " everywhere": 7242, " underw": 7243, " underwent": 7244, " effec": 7245, " effects": 7246, " fel": 7247, " felt": 7248, " La": 7249, " Laos": 7250, " Br": 7251, " Brune": 7252, " Brunei": 7253, " Cam": 7254, " Camb": 7255, " Cambodi": 7256, " Cambodia": 7257, " Viet": 7258, " Vietnam": 7259, " Ph": 7260, " Phili": 7261, " Philipp": 7262, " Philippines": 7263, " Malays": 7264, " Malaysia": 7265, " schol": 7266, " scholars": 7267, " transmission": 7268, " initiative": 7269, " soj": 7270, " sojour": 7271, " sojourning": 7272, " sem": 7273, " semin": 7274, " seminaries": 7275, " transl": 7276, " translating": 7277, " nom": 7278, " noma": 7279, " nomadic": 7280, " clans": 7281, " using": 7282, " swif": 7283, " swift": 7284, "horse": 7285, " caval": 7286, " cavalry": 7287, " raising": 7288, " ethnic": 7289, " ethnicity": 7290, " establish": 7291, " establishment": 7292, " 120": 7293, " 1206": 7294, " forays": 7295, " disr": 7296, " disrupt": 7297, " disruptive": 7298, "Muslim": 7299, " subject": 7300, " customs": 7301, " repuls": 7302, " repulsing": 7303, " Mong": 7304, " Mongol": 7305, " raiders": 7306, " saved": 7307, " devastation": 7308, " visited": 7309, " scene": 7310, " fle": 7311, " flee": 7312, " fleeing": 7313, " sol": 7314, " soldi": 7315, " soldiers": 7316, " lear": 7317, " learn": 7318, " learned": 7319, " my": 7320, " myst": 7321, " mystics": 7322, " traders": 7323, " thereb": 7324, " thereby": 7325, " sync": 7326, " syncre": 7327, " syncretic": 7328, "Isl": 7329, "Islam": 7330, "Islamic": 7331, " raiding": 7332, " weak": 7333, " weakening": 7334, " pav": 7335, " paved": 7336, " Emb": 7337, " Embrac": 7338, " Embracing": 7339, " Sha": 7340, " Shaiv": 7341, " Shaivite": 7342, " upon": 7343, " afterwards": 7344, "Early": 7345, " fell": 7346, " superi": 7347, " superior": 7348, " mob": 7349, " mobil": 7350, " mobility": 7351, " fire": 7352, " firep": 7353, " firepower": 7354, " generation": 7355, " stamp": 7356, " societies": 7357, " Instead": 7358, " balan": 7359, " balanced": 7360, " pac": 7361, " pacified": 7362, " administrative": 7363, " inclus": 7364, " inclusive": 7365, " systematic": 7366, " centralised": 7367, " unif": 7368, " uniform": 7369, " Esc": 7370, " Esche": 7371, " Eschewing": 7372, " ident": 7373, " identity": 7374, " Mughals": 7375, "flung": 7376, " real": 7377, " realms": 7378, " loyalty": 7379, "exp": 7380, "expressed": 7381, " Persianised": 7382, "to": 7383, "divine": 7384, " deriving": 7385, " mandating": 7386, " paid": 7387, "regul": 7388, "regulated": 7389, " silver": 7390, " peas": 7391, " peasants": 7392, " maintained": 7393, " patronage": 7394, " textiles": 7395, " Newly": 7396, " cohe": 7397, " coherent": 7398, " Marathas": 7399, " governing": 7400, " amb": 7401, " ambitions": 7402, " collab": 7403, " collaboration": 7404, " adversity": 7405, " recognition": 7406, " experi": 7407, " experience": 7408, " Exp": 7409, " Expanding": 7410, " incre": 7411, " incremental": 7412, " frag": 7413, " fragment": 7414, " fragmentation": 7415, " au": 7416, " auth": 7417, " authority": 7418, " facil": 7419, " facilitated": 7420, " decent": 7421, " decentral": 7422, " decentralisation": 7423, " enabling": 7424, " provinc": 7425, " provincial": 7426, " localised": 7427, " autonom": 7428, " autonomy": 7429, " consolidate": 7430, " lines": 7431, " enterp": 7432, " enterpr": 7433, " enterprise": 7434, " blurred": 7435, " charter": 7436, " chartered": 7437, "not": 7438, "notably": 7439, "soli": 7440, "solidified": 7441, " outp": 7442, " outposts": 7443, " seas": 7444, " training": 7445, " attractive": 7446, " elite": 7447, " factors": 7448, " allowing": 7449, " gain": 7450, " 176": 7451, " 1765": 7452, " sidel": 7453, " sideline": 7454, " ric": 7455, " riches": 7456, " army": 7457, " enabled": 7458, " annex": 7459, " annexe": 7460, " subdu": 7461, " subdue": 7462, " 1820": 7463, " exporting": 7464, " manufactured": 7465, " instead": 7466, " supply": 7467, " supplying": 7468, " raw": 7469, " curta": 7470, " curtail": 7471, " curtailed": 7472, " effectively": 7473, " consci": 7474, " consciously": 7475, " aren": 7476, " arenas": 7477, " appoint": 7478, " appointment": 7479, " 1848": 7480, " Lord": 7481, " Dalh": 7482, " Dalhous": 7483, " Dalhousie": 7484, " Govern": 7485, " Governor": 7486, " General": 7487, " stage": 7488, " consolidation": 7489, " demar": 7490, " demarc": 7491, " demarcation": 7492, " surve": 7493, " surveill": 7494, " surveillance": 7495, " Tech": 7496, " Techn": 7497, " Technological": 7498, "among": 7499, " canals": 7500, " teleg": 7501, " telegraph": 7502, "were": 7503, " introduction": 7504, " Disa": 7505, " Disaff": 7506, " Disaffection": 7507, " Reb": 7508, " Rebellion": 7509, " 1857": 7510, " Fed": 7511, " resent": 7512, " resentments": 7513, " perce": 7514, " perceptions": 7515, " invasive": 7516, " harsh": 7517, " summary": 7518, " treat": 7519, " treatment": 7520, " wealth": 7521, " wealthy": 7522, " landown": 7523, " landowners": 7524, " rocked": 7525, " shook": 7526, " foundations": 7527, " suppressed": 7528, " disb": 7529, " disbanded": 7530, " administer": 7531, " Proc": 7532, " Proclaiming": 7533, " gradual": 7534, " landed": 7535, " gent": 7536, " gentry": 7537, " feud": 7538, " feudal": 7539, " future": 7540, " unre": 7541, " unrest": 7542, " founding": 7543, " 1885": 7544, " rush": 7545, " commercialisation": 7546, " setback": 7547, " setbacks": 7548, " whim": 7549, " whims": 7550, " faraw": 7551, " faraway": 7552, " increase": 7553, " famines": 7554, " despite": 7555, " ris": 7556, " risks": 7557, " infra": 7558, " infrastruct": 7559, " infrastructure": 7560, " born": 7561, " borne": 7562, " taxpay": 7563, " taxpayers": 7564, " litt": 7565, " little": 7566, " employment": 7567, " cro": 7568, " cropp": 7569, " cropping": 7570, " newly": 7571, " canalled": 7572, " production": 7573, " internal": 7574, " railway": 7575, " critical": 7576, " famine": 7577, " notably": 7578, " moving": 7579, " hel": 7580, " helped": 7581, " nas": 7582, " nascent": 7583, "owned": 7584, " Gandhian": 7585, " repressive": 7586, " legislation": 7587, " strid": 7588, " strident": 7589, " calls": 7590, "rule": 7591, " Mahat": 7592, " Mahatma": 7593, " legislative": 7594, " bes": 7595, " beset": 7596, " crises": 7597, " particip": 7598, " participation": 7599, " final": 7600, " ups": 7601, " upsur": 7602, " upsurge": 7603, " nationalism": 7604, " capped": 7605, " tempered": 7606, " Econom": 7607, " Economic": 7608, " ham": 7609, " hamst": 7610, " hamstr": 7611, " hamstrung": 7612, " persistent": 7613, "rel": 7614, "related": 7615, " Mao": 7616, " Maoist": 7617, "insp": 7618, "inspi": 7619, "inspired": 7620, " Nax": 7621, " Naxal": 7622, " Naxalite": 7623, " insur": 7624, " insurgen": 7625, " insurgenc": 7626, " insurgencies": 7627, " separatism": 7628, " accoun": 7629, " accounts": 7630, " lying": 7631, " atop": 7632, " tect": 7633, " tectonic": 7634, " defining": 7635, " geologic": 7636, " processes": 7637, "eastw": 7638, "eastward": 7639, " drift": 7640, " seaf": 7641, " seaflo": 7642, " seafloor": 7643, " Teth": 7644, " Tethyan": 7645, " ocean": 7646, " oceanic": 7647, " northeast": 7648, " subduct": 7649, " continent": 7650, " continental": 7651, " obstructed": 7652, " sheared": 7653, " hor": 7654, " horiz": 7655, " horizon": 7656, " horizont": 7657, " horizontally": 7658, " mant": 7659, " mantle": 7660, " sl": 7661, " slid": 7662, " piled": 7663, " sheets": 7664, " na": 7665, " napp": 7666, " nappes": 7667, " ahead": 7668, " subduction": 7669, " oro": 7670, " orogen": 7671, " orogeny": 7672, " mountain": 7673, " stiffer": 7674, " causing": 7675, " crustal": 7676, " thick": 7677, " thickening": 7678, " Im": 7679, " Immediately": 7680, " emerging": 7681, " cres": 7682, " crescent": 7683, "shap": 7684, "shaped": 7685, " trough": 7686, " filled": 7687, "born": 7688, "borne": 7689, " constitutes": 7690, " appearance": 7691, " Araval": 7692, " Aravalli": 7693, " Rid": 7694, " Ridge": 7695, " southwester": 7696, " southwesterly": 7697, " direction": 7698, " chec": 7699, " checked": 7700, " Arav": 7701, " Aravall": 7702, " Aravallis": 7703, " geologically": 7704, " stable": 7705, " Vindh": 7706, " Vindhya": 7707, " paralle": 7708, " parallel": 7709, "rich": 7710, " Chot": 7711, " Chota": 7712, " Nagpur": 7713, " landm": 7714, " landmass": 7715, " flanked": 7716, " plateau": 7717, " formations": 7718, " Constituted": 7719, " fashion": 7720, " equat": 7721, " equator": 7722, " 44": 7723, " 35": 7724, " latitude": 7725, " 68": 7726, " 97": 7727, " longitud": 7728, " longitude": 7729, "Major": 7730, "orig": 7731, "origin": 7732, " Imp": 7733, " Important": 7734, " tribut": 7735, " tributaries": 7736, " Yam": 7737, " Yamun": 7738, " Yamuna": 7739, "term": 7740, " silt": 7741, " depos": 7742, " deposition": 7743, " leads": 7744, " severe": 7745, " floods": 7746, " course": 7747, " Major": 7748, " steep": 7749, " steeper": 7750, " gradients": 7751, " wat": 7752, " waters": 7753, " flooding": 7754, " God": 7755, " Godav": 7756, " Godavari": 7757, " Mahana": 7758, " Mahanadi": 7759, " Narm": 7760, " Narmada": 7761, " Tap": 7762, " Tapti": 7763, " measures": 7764, "700": 7765, " distance": 7766, "423": 7767, "094": 7768, "300": 7769, " island": 7770, " naval": 7771, " hyd": 7772, " hydro": 7773, " hydrog": 7774, " hydrograph": 7775, " hydrographic": 7776, " charts": 7777, " mainland": 7778, " sandy": 7779, " beac": 7780, " beaches": 7781, " cli": 7782, " cliff": 7783, " cliffs": 7784, " 46": 7785, " mud": 7786, " mudf": 7787, " mudfl": 7788, " mudflats": 7789, " Co": 7790, " Coast": 7791, " Coastal": 7792, " Rann": 7793, " Kut": 7794, " Kutch": 7795, " allu": 7796, " alluv": 7797, " alluvial": 7798, " del": 7799, " delta": 7800, " archip": 7801, " archipelag": 7802, " archipelagos": 7803, " atol": 7804, " atolls": 7805, " volcanic": 7806, " chain": 7807, " panoramic": 7808, " Garh": 7809, " Garhw": 7810, " Garhwal": 7811, " Kum": 7812, " Kuma": 7813, " Kumaon": 7814, " Peak": 7815, " Peaks": 7816, " surroundings": 7817, " Tris": 7818, " Trisul": 7819, " entirely": 7820, " Kot": 7821, " mountains": 7822, " does": 7823, "Yarlung": 7824, " suture": 7825, " contour": 7826, " weld": 7827, " welded": 7828, " Mount": 7829, " Kail": 7830, " Kailash": 7831, " Lake": 7832, " Manas": 7833, " Manasaro": 7834, " Manasarov": 7835, " Manasarovar": 7836, " Tr": 7837, " Trans": 7838, "Himalay": 7839, "Himalaya": 7840, "sac": 7841, "sacred": 7842, " myth": 7843, " mythology": 7844, "lie": 7845, " Yarlung": 7846, " Ts": 7847, " Tsang": 7848, " Tsangp": 7849, " Tsangpo": 7850, " mark": 7851, " limits": 7852, " Himalaya": 7853, " lake": 7854, " Tung": 7855, " Tungabh": 7856, " Tungabhadra": 7857, " outc": 7858, " outcrop": 7859, " outcrops": 7860, " flows": 7861, "Brahm": 7862, "Brahmaputra": 7863, " Delta": 7864, " Sent": 7865, " Sentin": 7866, " Sentinel": 7867, " image": 7868, " mang": 7869, " mangro": 7870, " mangrove": 7871, " beach": 7872, " Havel": 7873, " Havelock": 7874, " Island": 7875, "Climate": 7876, " climate": 7877, " drive": 7878, " economically": 7879, " cultur": 7880, " culturally": 7881, " piv": 7882, " pivot": 7883, " pivotal": 7884, " winter": 7885, " monso": 7886, " monsoons": 7887, " cold": 7888, " kat": 7889, " katab": 7890, " katabatic": 7891, " blowing": 7892, " ke": 7893, " keep": 7894, " keeping": 7895, " warmer": 7896, " loc": 7897, " locations": 7898, " latitudes": 7899, " plays": 7900, " attracting": 7901, " moisture": 7902, "laden": 7903, " monsoon": 7904, " provide": 7905, " rain": 7906, " rainf": 7907, " rainfall": 7908, "Four": 7909, " groupings": 7910, " predominate": 7911, " subt": 7912, " subtropical": 7913, " humid": 7914, " mont": 7915, " montan": 7916, " montane": 7917, " Temper": 7918, " Temperatures": 7919, " risen": 7920, " 1901": 7921, " Climate": 7922, " change": 7923, " retreat": 7924, " gl": 7925, " glac": 7926, " glaci": 7927, " glaciers": 7928, " adverse": 7929, " adversely": 7930, " affected": 7931, " current": 7932, " projections": 7933, " severity": 7934, " drough": 7935, " droughts": 7936, " will": 7937, " markedly": 7938, " blo": 7939, " bloom": 7940, " mist": 7941, " Southwest": 7942, " Mall": 7943, " Mallal": 7944, " Mallalli": 7945, " Falls": 7946, " Hass": 7947, " Hassan": 7948, " drom": 7949, " dromed": 7950, " dromedary": 7951, " des": 7952, " desert": 7953, "New": 7954, " sn": 7955, " snow": 7956, " Bas": 7957, " Basp": 7958, " Baspa": 7959, " Sangla": 7960, " Himachal": 7961, " host": 7962, " biological": 7963, " bird": 7964, " reptile": 7965, " amphibian": 7966, " Ful": 7967, " Fully": 7968, " overl": 7969, " overlaps": 7970, " occupy": 7971, " Moder": 7972, " Moderately": 7973, " canop": 7974, " canopy": 7975, " dens": 7976, " density": 7977, " occupies": 7978, "39": 7979, " predominates": 7980, " temper": 7981, " temperate": 7982, " conif": 7983, " coniferous": 7984, " teak": 7985, " natural": 7986, " zones": 7987, " irrig": 7988, " irrigation": 7989, " visible": 7990, " tre": 7991, " trees": 7992, " astring": 7993, " astringent": 7994, " Az": 7995, " Aza": 7996, " Azadi": 7997, " Azadira": 7998, " Azadirach": 7999, " Azadirachta": 8000, " indic": 8001, " indica": 8002, " neem": 8003, " herbal": 8004, " medicine": 8005, " lu": 8006, " lux": 8007, " luxur": 8008, " luxuriant": 8009, " Fic": 8010, " Ficus": 8011, " religiosa": 8012, " peep": 8013, " peepul": 8014, " displayed": 8015, " Pali": 8016, " canon": 8017, " sought": 8018, " enl": 8019, " enligh": 8020, " enlighten": 8021, " enlightenment": 8022, "Many": 8023, " descend": 8024, " descended": 8025, " separ": 8026, " separated": 8027, " collision": 8028, " mass": 8029, " volcanism": 8030, " extinc": 8031, " extinction": 8032, " entered": 8033, " zoo": 8034, " zooge": 8035, " zoogeograph": 8036, " zoogeographic": 8037, " passes": 8038, " flanking": 8039, " lowered": 8040, " stands": 8041, " contrast": 8042, " contrasting": 8043, " 45": 8044, " reptiles": 8045, " amphib": 8046, " amphibians": 8047, " endemics": 8048, " hood": 8049, " hooded": 8050, " leaf": 8051, " monk": 8052, " monkey": 8053, " Bedd": 8054, " Beddome": 8055, " toad": 8056, " 172": 8057, " IU": 8058, " IUC": 8059, " IUCN": 8060, "design": 8061, "designated": 8062, " tiger": 8063, " dol": 8064, " dolph": 8065, " dolphin": 8066, " Crit": 8067, " Critically": 8068, " ghar": 8069, " gharial": 8070, " crocodili": 8071, " crocodilian": 8072, " bust": 8073, " bustard": 8074, " white": 8075, "rum": 8076, "rumped": 8077, " vulture": 8078, " inge": 8079, " ingested": 8080, " carr": 8081, " carrion": 8082, " dic": 8083, " diclo": 8084, " diclof": 8085, " diclofen": 8086, " diclofenac": 8087, "treated": 8088, " Bef": 8089, " Before": 8090, " ming": 8091, " mingled": 8092, " interv": 8093, " intervals": 8094, " grass": 8095, " grasslands": 8096, " grazed": 8097, " herds": 8098, " prey": 8099, " preyed": 8100, " Asi": 8101, " Asiatic": 8102, " pervasive": 8103, " ec": 8104, " ecolog": 8105, " ecologically": 8106, " devastating": 8107, " enc": 8108, " encro": 8109, " encroach": 8110, " encroachment": 8111, " critically": 8112, " parks": 8113, " expanded": 8114, " Wild": 8115, " Wildlife": 8116, " Prot": 8117, " Protection": 8118, " Project": 8119, " Tig": 8120, " Tiger": 8121, " wil": 8122, " wildern": 8123, " wilderness": 8124, " Forest": 8125, " Cons": 8126, " Conserv": 8127, " Conservation": 8128, " 1988": 8129, " hosts": 8130, " hund": 8131, " hundred": 8132, " san": 8133, " sanct": 8134, " sanctu": 8135, " sanctuaries": 8136, " eighte": 8137, " eighteen": 8138, " biosphere": 8139, " reserves": 8140, " Biosphere": 8141, " Res": 8142, " Reserves": 8143, " eigh": 8144, " eighty": 8145, "nine": 8146, " wetlands": 8147, " registered": 8148, " Ramsar": 8149, " Convention": 8150, " Att": 8151, " Attac": 8152, " Attacus": 8153, " tap": 8154, " tapro": 8155, " taproban": 8156, " taprobanis": 8157, " moth": 8158, " Kad": 8159, " Kadav": 8160, " Kadavoor": 8161, " tigers": 8162, "170": 8163, " purple": 8164, " sun": 8165, " sunb": 8166, " sunbird": 8167, " perched": 8168, " Jim": 8169, " Corb": 8170, " Corbett": 8171, " Uttarakhand": 8172, " Crested": 8173, " haw": 8174, " hawk": 8175, "eag": 8176, "eagle": 8177, " liz": 8178, " lizard": 8179, " Madhya": 8180, "Sal": 8181, "Salt": 8182, "Saltw": 8183, "Saltwat": 8184, "Saltwater": 8185, " crocodile": 8186, " politics": 8187, "party": 8188, " recognised": 8189, "generally": 8190, " Bharati": 8191, " Bharatiya": 8192, "BJP": 8193, ");": 8194, " considered": 8195, " ideological": 8196, "righ": 8197, "right": 8198, " Au": 8199, " Aug": 8200, " August": 8201, " Domin": 8202, " Dominion": 8203, " caret": 8204, " caretak": 8205, " caretaker": 8206, " 1957": 8207, " May": 8208, " Lal": 8209, " Bahad": 8210, " Bahadur": 8211, " unan": 8212, " unanim": 8213, " unanimously": 8214, " thus": 8215, "Pakistan": 8216, " 1966": 8217, " signing": 8218, " Tash": 8219, " Tashk": 8220, " Tashkent": 8221, " Pe": 8222, " Peace": 8223, " Decl": 8224, " Declar": 8225, " Declaration": 8226, " landsl": 8227, " landslide": 8228, " defeat": 8229, " Liber": 8230, " Liberation": 8231, " 1975": 8232, " emergency": 8233, " sus": 8234, " susp": 8235, " suspending": 8236, " libert": 8237, " liberties": 8238, " discon": 8239, " discont": 8240, " discontent": 8241, " 1977": 8242, " opposed": 8243, " Mor": 8244, " Morar": 8245, " Morarj": 8246, " Morarji": 8247, " Desai": 8248, " Charan": 8249, " operation": 8250, " milit": 8251, " militants": 8252, " occupying": 8253, " bodyguard": 8254, " succe": 8255, " succeed": 8256, " succeeded": 8257, " victory": 8258, " 1989": 8259, " Lef": 8260, " Left": 8261, " Chandra": 8262, " Shek": 8263, " Shekhar": 8264, " round": 8265, " polling": 8266, " separatist": 8267, " seek": 8268, " seeking": 8269, " aven": 8270, " avenge": 8271, " Naras": 8272, " Narasim": 8273, " Narasimh": 8274, " Narasimha": 8275, " Rao": 8276, " minority": 8277, " ful": 8278, " full": 8279, " 1996": 8280, " relied": 8281, " Deve": 8282, " Gow": 8283, " Gowd": 8284, " Gowda": 8285, " Gujral": 8286, " serving": 8287, " Atal": 8288, " Bihari": 8289, "lived": 8290, " lack": 8291, " mandate": 8292, " Elections": 8293, "NDA": 8294, " complete": 8295, " 2004": 8296, " Prog": 8297, " Progressive": 8298, "UPA": 8299, " Manm": 8300, " Manmo": 8301, " Manmohan": 8302, " propos": 8303, " proposed": 8304, " Son": 8305, " Sonia": 8306, "elected": 8307, " 2014": 8308, " Naren": 8309, " Narendra": 8310, " absol": 8311, " absolute": 8312, " los": 8313, " losing": 8314, " partn": 8315, " partners": 8316, " lon": 8317, " longe": 8318, " longest": 8319, "serving": 8320, " backsl": 8321, " backslid": 8322, " backsliding": 8323, " Democracy": 8324, " Report": 8325, " draf": 8326, " drafted": 8327, " speed": 8328, " absence": 8329, " irreg": 8330, " irregular": 8331, " irregularities": 8332, " 1946": 8333, " Long": 8334, " passages": 8335, " describ": 8336, " describes": 8337, " stru": 8338, " struct": 8339, " structure": 8340, " conspic": 8341, " conspicuous": 8342, " exclus": 8343, " exclusively": 8344, " exercised": 8345, " defence": 8346, " ports": 8347, " reserve": 8348, " pow": 8349, " powers": 8350, " taking": 8351, " Lok": 8352, " Rajya": 8353, " nominated": 8354, " representatives": 8355, " definition": 8356, " directives": 8357, " go": 8358, " goals": 8359, " ende": 8360, " endeav": 8361, " endeavor": 8362, " Ire": 8363, " Ireland": 8364, " recom": 8365, " recommend": 8366, " recommended": 8367, " panch": 8368, " panchay": 8369, " panchayat": 8370, " committees": 8371, " Untouchability": 8372, " il": 8373, " illeg": 8374, " illegal": 8375, "Article": 8376, " distinc": 8377, " distinctions": 8378, " derec": 8379, " derecog": 8380, " derecogni": 8381, " derecognized": 8382, "Articles": 8383, ")).": 8384, " promul": 8385, " promulg": 8386, " promulgation": 8387, " exercises": 8388, " App": 8389, " Appoin": 8390, " Appointed": 8391, " vice": 8392, "president": 8393, " Council": 8394, " Minist": 8395, " Ministers": 8396, "with": 8397, " cab": 8398, " cabin": 8399, " cabinet": 8400, " committee": 8401, "headed": 8402, " Any": 8403, " hold": 8404, " holding": 8405, " portf": 8406, " portfoli": 8407, " portfolio": 8408, " must": 8409, " subord": 8410, " subordin": 8411, " subordinate": 8412, " council": 8413, " respons": 8414, " responsible": 8415, " servants": 8416, " act": 8417, " perm": 8418, " perman": 8419, " permanent": 8420, " executives": 8421, " decisions": 8422, " implement": 8423, " implemented": 8424, "tier": 8425, " ju": 8426, " judi": 8427, " judici": 8428, " judiciary": 8429, " headed": 8430, " Chi": 8431, " Chief": 8432, " Just": 8433, " Justice": 8434, " trial": 8435, " cas": 8436, " cases": 8437, " appell": 8438, " appellate": 8439, " stri": 8440, " strike": 8441, " contravene": 8442, " inval": 8443, " invalid": 8444, " invalidate": 8445, " deem": 8446, " deems": 8447, " uncon": 8448, " unconstitution": 8449, " unconstitutional": 8450, "Ad": 8451, "Administ": 8452, "Administrative": 8453, " divis": 8454, " divisions": 8455, " legislatures": 8456, " Westmin": 8457, " Westminst": 8458, " Westminster": 8459, " appointed": 8460, " administrat": 8461, " administrators": 8462, " 1956": 8463, " Reorgan": 8464, " Reorganisation": 8465, " reorgan": 8466, " reorganised": 8467, " lingu": 8468, " linguistic": 8469, " basis": 8470, " quar": 8471, " quarter": 8472, " distric": 8473, " district": 8474, " block": 8475, "St": 8476, "States": 8477, "Andh": 8478, "Andhra": 8479, "Arun": 8480, "Arunachal": 8481, "Ass": 8482, "Assam": 8483, "Bihar": 8484, "Chh": 8485, "Chhatt": 8486, "Chhattis": 8487, "Chhattisgarh": 8488, "Go": 8489, "Goa": 8490, "Guj": 8491, "Gujarat": 8492, "Hary": 8493, "Haryana": 8494, "Himachal": 8495, "Jharkhand": 8496, "Karnataka": 8497, "Kerala": 8498, "Mad": 8499, "Madh": 8500, "Madhya": 8501, "Mahar": 8502, "Maharash": 8503, "Maharashtra": 8504, "Manipur": 8505, "Megh": 8506, "Meghal": 8507, "Meghalay": 8508, "Meghalaya": 8509, "Miz": 8510, "Mizoram": 8511, "Nag": 8512, "Nagal": 8513, "Nagaland": 8514, "Odisha": 8515, "Punjab": 8516, "Raj": 8517, "Rajast": 8518, "Rajasthan": 8519, "Sik": 8520, "Sikkim": 8521, "Tamil": 8522, "Tel": 8523, "Telangana": 8524, "Tri": 8525, "Tripura": 8526, "Uttarakhand": 8527, "West": 8528, "Union": 8529, "Andaman": 8530, "Chan": 8531, "Chandi": 8532, "Chandigarh": 8533, "Dadra": 8534, " Nagar": 8535, " Haveli": 8536, " Daman": 8537, " Di": 8538, " Diu": 8539, "Jammu": 8540, "Lad": 8541, "Ladakh": 8542, "Lakshadweep": 8543, "National": 8544, "Puducherry": 8545, " Nations": 8546, " decol": 8547, " decolon": 8548, " decolonisation": 8549, "Align": 8550, "Aligned": 8551, " Movement": 8552, " cordi": 8553, " cordial": 8554, " decisively": 8555, " fend": 8556, " excur": 8557, " excurs": 8558, " excursions": 8559, " uneas": 8560, " uneasy": 8561, " neighbour": 8562, " Three": 8563, " fought": 8564, " disputed": 8565, " territory": 8566, " purs": 8567, " pursue": 8568, " ties": 8569, " suppli": 8570, " supplier": 8571, " 59": 8572, " 596": 8573, " threats": 8574, " intervene": 8575, " 1974": 8576, " carri": 8577, " carried": 8578, " underground": 8579, " testing": 8580, " neither": 8581, " Compre": 8582, " Comprehen": 8583, " Comprehens": 8584, " Comprehensive": 8585, "Test": 8586, "Ban": 8587, " nor": 8588, " considering": 8589, " flaw": 8590, " flawed": 8591, " discriminatory": 8592, " maintains": 8593, " developing": 8594, " tri": 8595, " triad": 8596, " capability": 8597, " Min": 8598, " Minim": 8599, " Minimum": 8600, " Credi": 8601, " Credible": 8602, " Deter": 8603, " Deterren": 8604, " Deterrence": 8605, " doctr": 8606, " doctrine": 8607, "Since": 8608, " Cold": 8609, " strate": 8610, " strateg": 8611, " strategic": 8612, " cooperation": 8613, " agreement": 8614, " poss": 8615, " possess": 8616, " possessed": 8617, " received": 8618, " wai": 8619, " waivers": 8620, " Atom": 8621, " Atomic": 8622, " Energy": 8623, " Supp": 8624, " Suppli": 8625, " Suppliers": 8626, " Gr": 8627, " Group": 8628, " earlier": 8629, " restric": 8630, " restrictions": 8631, " agreements": 8632, " Rus": 8633, " Russia": 8634, " Fr": 8635, " France": 8636, " King": 8637, " Kingd": 8638, " Kingdom": 8639, " Canada": 8640, " gross": 8641, "GDP": 8642, " placed": 8643, " Meas": 8644, " Measured": 8645, " purch": 8646, " purchas": 8647, " purchasing": 8648, " parity": 8649, "PPP": 8650, " fastest": 8651, " exceed": 8652, " exceeding": 8653, " 1990": 8654, " Demographics": 8655, " stra": 8656, " strain": 8657, " maintain": 8658, " maintaining": 8659, " regionally": 8660, " measured": 8661, " glob": 8662, " globally": 8663, "income": 8664, " dai": 8665, " daily": 8666, "Until": 8667, " protection": 8668, " protectionist": 8669, " socialist": 8670, " economics": 8671, " Widespread": 8672, " regul": 8673, " regulation": 8674, " walled": 8675, " outside": 8676, " acute": 8677, " balance": 8678, " pay": 8679, " payments": 8680, " crisis": 8681, " forced": 8682, " liberalise": 8683, " moved": 8684, " towards": 8685, " free": 8686, "market": 8687, " emphasising": 8688, " inve": 8689, " invest": 8690, " investment": 8691, " inflows": 8692, " Trad": 8693, " Trade": 8694, " 1995": 8695, " 522": 8696, "million": 8697, "worker": 8698, " labour": 8699, " force": 8700, " remitt": 8701, " remittances": 8702, " working": 8703, " 2006": 8704, " stood": 8705, "%;": 8706, " importer": 8707, " sixte": 8708, " sixteent": 8709, " sixteenth": 8710, " Between": 8711, " contrib": 8712, " contribution": 8713, " petroc": 8714, " petroche": 8715, " petrochem": 8716, " petrochemical": 8717, " textile": 8718, " calendar": 8719, "Aver": 8720, "Averag": 8721, "Averaging": 8722, " dou": 8723, " doub": 8724, " doubled": 8725, " hour": 8726, " hourly": 8727, " wage": 8728, " 431": 8729, " projected": 8730, " 580": 8731, " 2030": 8732, " consumer": 8733, " stea": 8734, " steadi": 8735, " steadily": 8736, "308": 8737, "380": 8738, "73": 8739, "731": 8740, " expected": 8741, "264": 8742, " woman": 8743, " radi": 8744, " radish": 8745, " foreground": 8746, " Nil": 8747, " Nilg": 8748, " Nilgir": 8749, " Nilgiris": 8750, " sour": 8751, " sourced": 8752, " farms": 8753, " herd": 8754, " harve": 8755, " harvested": 8756, " hand": 8757, " milking": 8758, "Indust": 8759, "Industries": 8760, " autom": 8761, " automot": 8762, " automotive": 8763, "fastest": 8764, " sales": 8765, "2010": 8766, "2009": 8767, " veh": 8768, " vehic": 8769, " vehicle": 8770, " surpassing": 8771, " Jap": 8772, " Japan": 8773, " IT": 8774, " prof": 8775, " profess": 8776, " profession": 8777, " professionals": 8778, " equall": 8779, " equalling": 8780, " merchan": 8781, " merchandi": 8782, " merchandise": 8783, " manufacturing": 8784, " units": 8785, " generic": 8786, " medicines": 8787, " supplies": 8788, "60": 8789, " vac": 8790, " vacc": 8791, " vaccines": 8792, " demand": 8793, " contributing": 8794, "44": 8795, " destin": 8796, " destinations": 8797, " 2012": 8798, "2013": 8799, " 204": 8800, " rup": 8801, " rupees": 8802, " 235": 8803, "US": 8804, " capac": 8805, " capacity": 8806, " generate": 8807, " electrical": 8808, " usage": 8809, " emit": 8810, " emits": 8811, " equates": 8812, " tons": 8813, " carb": 8814, " carbon": 8815, " dio": 8816, " diox": 8817, " dioxide": 8818, " person": 8819, " electric": 8820, " electricity": 8821, " clean": 8822, " liqu": 8823, " liquef": 8824, " liquefied": 8825, " petrol": 8826, " petrole": 8827, " petroleum": 8828, " prior": 8829, " priorities": 8830, "Mumbai": 8831, " terti": 8832, " tertiary": 8833, " finance": 8834, " tour": 8835, " tourism": 8836, " Shown": 8837, " Taj": 8838, " Mahal": 8839, " Palace": 8840, " Hot": 8841, " Hotel": 8842, " Gate": 8843, " Gatew": 8844, " Gateway": 8845, " drin": 8846, " drink": 8847, " drinkers": 8848, " consume": 8849, " panorama": 8850, " soft": 8851, " softw": 8852, " software": 8853, " multin": 8854, " multinational": 8855, " corp": 8856, " corpor": 8857, " corporations": 8858, " centres": 8859, " because": 8860, " pool": 8861, " sk": 8862, " skilled": 8863, " graduates": 8864, " surrounding": 8865, " fishing": 8866, " net": 8867, " raised": 8868, " Koch": 8869, " Kochi": 8870, " Fishing": 8871, " supports": 8872, "With": 8873, "428": 8874, "627": 8875, "663": 8876, "210": 8877, "193": 8878, " reported": 8879, " provision": 8880, " provisional": 8881, " median": 8882, " 2020": 8883, " Medic": 8884, " Medical": 8885, " adv": 8886, " advances": 8887, " product": 8888, " productivity": 8889, " Green": 8890, " Revol": 8891, " Revolution": 8892, " decen": 8893, " decenn": 8894, " decennial": 8895, " compared": 8896, "54": 8897, " previ": 8898, " previous": 8899, "1991": 8900, "2001": 8901, " post": 8902, "col": 8903, "colonial": 8904, " counted": 8905, " 49": 8906, " 1970": 8907, "1975": 8908, "five": 8909, " 113": 8910, " 1994": 8911, " ratio": 8912, " 940": 8913, " Female": 8914, " infant": 8915, " infantic": 8916, " infanticide": 8917, " lately": 8918, " lop": 8919, "sided": 8920, " ratios": 8921, " miss": 8922, " missing": 8923, " quad": 8924, " quadr": 8925, " quadrup": 8926, " quadrupled": 8927, "2014": 8928, " faster": 8929, " same": 8930, " gir": 8931, " girls": 8932, " unw": 8933, " unwanted": 8934, " receive": 8935, " adequ": 8936, " adequate": 8937, " care": 8938, " Despite": 8939, " ban": 8940, "select": 8941, "selective": 8942, " practice": 8943, " stop": 8944, " stopped": 8945, "Mig": 8946, "Migration": 8947, " dynam": 8948, " dynamic": 8949, " lived": 8950, "81": 8951, " slowing": 8952, " overall": 8953, " shar": 8954, " sharp": 8955, " decline": 8956, "plus": 8957, " agg": 8958, " aggl": 8959, " agglom": 8960, " agglomer": 8961, " agglomerations": 8962, " Chen": 8963, " Chenn": 8964, " Chennai": 8965, " Bengalur": 8966, " Bengaluru": 8967, " Hy": 8968, " Hyder": 8969, " Hyderabad": 8970, " order": 8971, " 1881": 8972, " Census": 8973, " gives": 8974, " breakdown": 8975, "There": 8976, " Tai": 8977, "Kad": 8978, "Kadai": 8979, " Andamanese": 8980, " minor": 8981, " isolates": 8982, " Sep": 8983, " Sept": 8984, " Septem": 8985, " September": 8986, " deb": 8987, " debate": 8988, " opposing": 8989, " camp": 8990, " camps": 8991, " protag": 8992, " protagon": 8993, " protagonists": 8994, " wanted": 8995, " Devan": 8996, " Devanag": 8997, " Devanagari": 8998, "national": 8999, " pref": 9000, " prefer": 9001, " preferred": 9002, "official": 9003, " associate": 9004, " lex": 9005, " lexic": 9006, " lexicon": 9007, "iii": 9008, "Ara": 9009, "Arab": 9010, "Arabic": 9011, " resol": 9012, " resolution": 9013, " articles": 9014, " 343": 9015, "351": 9016, " bit": 9017, " bitter": 9018, " opposition": 9019, " where": 9020, " continue": 9021, "associ": 9022, "associate": 9023, " indefin": 9024, " indefinite": 9025, " indefinitely": 9026, " Eigh": 9027, " Eighth": 9028, " Sched": 9029, " Schedule": 9030, " recognises": 9031, " obl": 9032, " oblig": 9033, " obligated": 9034, "scheduled": 9035, "such": 9036, "spec": 9037, "specific": 9038, "bec": 9039, "because": 9040, " val": 9041, " value": 9042, " herit": 9043, " heritage": 9044, " Sind": 9045, " Sindhi": 9046, "1967": 9047, " Manipuri": 9048, "1992": 9049, " Maith": 9050, " Maithili": 9051, " Dog": 9052, " Dogri": 9053, " Santali": 9054, " Bod": 9055, " Bodo": 9056, "2004": 9057, "langu": 9058, "language": 9059, " speech": 9060, "On": 9061, " reverse": 9062, " money": 9063, " notes": 9064, " den": 9065, " denomin": 9066, " denomination": 9067, " listed": 9068, " panel": 9069, " prominently": 9070, " else": 9071, " elsewhere": 9072, " characterised": 9073, " beliefs": 9074, " Through": 9075, " Throughout": 9076, " birthpl": 9077, " birthplace": 9078, " Jains": 9079, " Buddhists": 9080, " adher": 9081, " adhering": 9082, " Pars": 9083, " Parsis": 9084, " Iran": 9085, " Iranis": 9086, " Bahá": 9087, " Faith": 9088, " Pream": 9089, " Preamble": 9090, " declares": 9091, " fre": 9092, " freed": 9093, " freedom": 9094, " (\"...": 9095, " liberty": 9096, " faith": 9097, ".\")": 9098, " 79": 9099, " follows": 9100, " Several": 9101, " Don": 9102, " Dony": 9103, " Donyi": 9104, "Pol": 9105, "Polo": 9106, " Sanam": 9107, " Sanamah": 9108, " Sanamahism": 9109, " Sarnaism": 9110, " Ni": 9111, " Niam": 9112, " Niamtre": 9113, "Jain": 9114, " Shra": 9115, " Shravan": 9116, " Shravanab": 9117, " Shravanabelag": 9118, " Shravanabelagol": 9119, " Shravanabelagola": 9120, " exterior": 9121, " Judes": 9122, " Chur": 9123, " Church": 9124, " Chinn": 9125, " Chinnathur": 9126, " Chinnathurai": 9127, " agi": 9128, " agiary": 9129, "Interior": 9130, " Mag": 9131, " Magen": 9132, " Dav": 9133, " David": 9134, " Sy": 9135, " Syn": 9136, " Synag": 9137, " Synagog": 9138, " Synagogue": 9139, "Educ": 9140, "Education": 9141, "%:": 9142, " 65": 9143, " gap": 9144, " dro": 9145, " dropped": 9146, " improvement": 9147, " twice": 9148, " 93": 9149, " lowest": 9150, "82": 9151, " 1981": 9152, " respective": 9153, " 1921": 9154, " 1891": 9155, " Latika": 9156, " Cha": 9157, " Chaud": 9158, " Chaudh": 9159, " Chaudhary": 9160, " 191": 9161, " 1911": 9162, " Stat": 9163, " Statist": 9164, " Statistically": 9165, " priv": 9166, " private": 9167, " spending": 9168, " Pri": 9169, " Primary": 9170, " taugh": 9171, " taught": 9172, " uni": 9173, " univers": 9174, " universities": 9175, " higher": 9176, " reserved": 9177, " affirmative": 9178, " disad": 9179, " disadv": 9180, " disadvant": 9181, " disadvantag": 9182, " disadvantaged": 9183, " improved": 9184, " cited": 9185, " contributors": 9186, "Child": 9187, "Children": 9188, " awa": 9189, " await": 9190, " lun": 9191, " lunch": 9192, " Ray": 9193, " Rayk": 9194, " Rayka": 9195, "also": 9196, " Raika": 9197, " salut": 9198, " salutation": 9199, " Jai": 9200, " Bhim": 9201, " blackbo": 9202, " blackboard": 9203, " honours": 9204, " jurist": 9205, " refor": 9206, " reformer": 9207, " Amb": 9208, " Ambed": 9209, " Ambedk": 9210, " Ambedkar": 9211, " Madr": 9212, " Madras": 9213, " Madrasah": 9214, " Mas": 9215, " Masj": 9216, " Masjid": 9217, "Ala": 9218, " mos": 9219, " mosque": 9220, " Srir": 9221, " Srirang": 9222, " Srirangap": 9223, " Srirangapat": 9224, " Srirangapatna": 9225, " buil": 9226, " built": 9227, " 178": 9228, " 1786": 9229, " Tip": 9230, " Tipu": 9231, " Sultan": 9232, "II": 9233, "IIT": 9234, " Ro": 9235, " Roork": 9236, " Roorkee": 9237, " Thom": 9238, " Thomas": 9239, " Thomason": 9240, " College": 9241, " Engineering": 9242, " college": 9243, " foundedin": 9244, " 1847": 9245, " train": 9246, " const": 9247, " construction": 9248, " Canal": 9249, "Health": 9250, " bears": 9251, " disp": 9252, " disprop": 9253, " disproportion": 9254, " disproportionately": 9255, " bur": 9256, " burden": 9257, " Health": 9258, "WHO": 9259, " statist": 9260, " statistics": 9261, " estimating": 9262, " infections": 9263, " account": 9264, " accounting": 9265, " carry": 9266, " infection": 9267, " chronic": 9268, " obstructive": 9269, " pul": 9270, " pulmon": 9271, " pulmonary": 9272, " death": 9273, " heart": 9274, " polluted": 9275, " limit": 9276, " quality": 9277, " reports": 9278, " meets": 9279, " saf": 9280, " safety": 9281, " gu": 9282, " guidel": 9283, " guidelines": 9284, " like": 9285, " equival": 9286, " equivalent": 9287, " smok": 9288, " smoking": 9289, " cig": 9290, " cigare": 9291, " cigarett": 9292, " cigarettes": 9293, " day": 9294, " killed": 9295, "Soc": 9296, "Societ": 9297, "Society": 9298, "Although": 9299, " uniqu": 9300, " uniquely": 9301, " broadly": 9302, " castes": 9303, " varnas": 9304, " Brahmin": 9305, " priest": 9306, " priests": 9307, " Ksh": 9308, " Kshat": 9309, " Kshatriya": 9310, " Vaish": 9311, " Vaishya": 9312, " Shud": 9313, " Shudra": 9314, " Out": 9315, " Outside": 9316, " lie": 9317, "outcastes": 9318, "untouch": 9319, "untouchables": 9320, "descri": 9321, "description": 9322, " pride": 9323, "bro": 9324, "brok": 9325, "broken": 9326, "downt": 9327, "downtro": 9328, "downtrod": 9329, "downtrodden": 9330, " Each": 9331, " divided": 9332, " jat": 9333, " jatis": 9334, " tied": 9335, " occupations": 9336, " custom": 9337, " endogamy": 9338, " marrying": 9339, " subcast": 9340, " subcaste": 9341, " label": 9342, " occupational": 9343, " cho": 9344, " choice": 9345, " entren": 9346, " entrenched": 9347, " abol": 9348, " abolished": 9349, " anti": 9350, "discrimin": 9351, "discriminatory": 9352, " initiatives": 9353, "based": 9354, " discrimination": 9355, " seg": 9356, " segreg": 9357, " segregation": 9358, "Mult": 9359, "Multi": 9360, "gener": 9361, "generational": 9362, " patr": 9363, " patril": 9364, " patriline": 9365, " patrilineal": 9366, " join": 9367, " joint": 9368, " norm": 9369, " arr": 9370, " arranged": 9371, " eld": 9372, " elders": 9373, " Mar": 9374, " Marri": 9375, " Marriage": 9376, " thous": 9377, " thousand": 9378, " reach": 9379, " reaching": 9380, " legal": 9381, " marriage": 9382, " marriageable": 9383, " moreover": 9384, " exogamy": 9385, " obser": 9386, " observed": 9387, " marries": 9388, " visit": 9389, " home": 9390, " rite": 9391, " rak": 9392, " raksha": 9393, " bandhan": 9394, " hom": 9395, " homes": 9396, " offer": 9397, " recour": 9398, " recourse": 9399, " marital": 9400, " stress": 9401, " tribe": 9402, " Dand": 9403, " Dandari": 9404, " Jainoor": 9405, " Telangana": 9406, " predates": 9407, " synt": 9408, " synthes": 9409, " synthesis": 9410, "first": 9411, " Ramnam": 9412, " Ramnami": 9413, " Sam": 9414, " Samaj": 9415, " Dalits": 9416, " deity": 9417, " Rama": 9418, " tatt": 9419, " tattoo": 9420, "Vis": 9421, "Visual": 9422, " exchanged": 9423, " greatly": 9424, " Thous": 9425, " Thousands": 9426, " civilisation": 9427, " Pash": 9428, " Pashup": 9429, " Pashupati": 9430, " 192": 9431, " 1928": 9432, "29": 9433, " Virt": 9434, " Virtually": 9435, " Alm": 9436, " Almost": 9437, " surviving": 9438, " dur": 9439, " durable": 9440, " coins": 9441, " wood": 9442, " lost": 9443, " Mauryan": 9444, " distinctly": 9445, " sculpting": 9446, " interest": 9447, " articul": 9448, " articulating": 9449, " prec": 9450, " precise": 9451, " anatomy": 9452, " showing": 9453, " smo": 9454, " smooth": 9455, " smoothly": 9456, " flowing": 9457, " expressing": 9458, " prana": 9459, "breath": 9460, " complic": 9461, " complicated": 9462, " need": 9463, " multip": 9464, " multiple": 9465, " heads": 9466, " genders": 9467, " Ardh": 9468, " Ardhan": 9469, " Ardhanar": 9470, " Ardhanarish": 9471, " Ardhanarishvara": 9472, " Parv": 9473, " Parvati": 9474, "Most": 9475, " stup": 9476, " stupas": 9477, " Sanch": 9478, " Sanchi": 9479, " Sarnath": 9480, " Amar": 9481, " Amarav": 9482, " Amaravati": 9483, " Kar": 9484, " Karla": 9485, " Ell": 9486, " Ellor": 9487, " Ellora": 9488, " spite": 9489, " mix": 9490, " mixt": 9491, " mixture": 9492, " prev": 9493, " prevail": 9494, " prevailing": 9495, " sculptors": 9496, " regard": 9497, " regarded": 9498, " lingered": 9499, " Ele": 9500, " Eleph": 9501, " Elephanta": 9502, " Across": 9503, " formul": 9504, " formulaic": 9505, " 800": 9506, " fine": 9507, " finely": 9508, " det": 9509, " detail": 9510, " surrounds": 9511, " statues": 9512, " But": 9513, " Pallava": 9514, " Chola": 9515, " dyn": 9516, " dynast": 9517, " dynasties": 9518, " stone": 9519, " sust": 9520, " sustained": 9521, " ach": 9522, " achie": 9523, " achievement": 9524, " bronzes": 9525, " ic": 9526, " iconic": 9527, " symb": 9528, " symbol": 9529, " survived": 9530, " few": 9531, " crow": 9532, " crowded": 9533, " scenes": 9534, " Pain": 9535, " Painted": 9536, " manuscripts": 9537, " survive": 9538, " onwards": 9539, " significantly": 9540, "derived": 9541, " start": 9542, " starting": 9543, " mini": 9544, " miniature": 9545, " emphasis": 9546, " portra": 9547, " portraits": 9548, " recording": 9549, " prince": 9550, " princely": 9551, " pleas": 9552, " pleasures": 9553, " variety": 9554, " smaller": 9555, " innovative": 9556, " Nih": 9557, " Nihâ": 9558, " Nihâl": 9559, " Nains": 9560, " Nainsu": 9561, " Nainsukh": 9562, " supplied": 9563, " considerable": 9564, " cheap": 9565, " Kaligh": 9566, " Kalighat": 9567, " done": 9568, " Cal": 9569, " Calc": 9570, " Calcut": 9571, " Calcutta": 9572, " Sch": 9573, " School": 9574, " Art": 9575, " reflect": 9576, " reflecting": 9577, "Bhutes": 9578, "Bhutesvara": 9579, " Yakshis": 9580, " Mathur": 9581, " Mathura": 9582, "Gupta": 9583, " Killing": 9584, " Horse": 9585, " Demon": 9586, " Kes": 9587, " Keshi": 9588, "Krishna": 9589, " Fl": 9590, " Flut": 9591, " Fluting": 9592, " Mil": 9593, " Milk": 9594, " Milkma": 9595, " Milkmaid": 9596, " Milkmaids": 9597, " Kangra": 9598, " 1775": 9599, "178": 9600, "1785": 9601, "Chol": 9602, "Chola": 9603, "Lord": 9604, "\"),": 9605, "Mathem": 9606, "Mathematic": 9607, "Mathematics": 9608, "Sign": 9609, "Significant": 9610, " Ś": 9611, " Śul": 9612, " Śulb": 9613, " Śulba": 9614, " Sū": 9615, " Sūtr": 9616, " Sūtras": 9617, "literally": 9618, "Aph": 9619, "Aphor": 9620, "Aphorism": 9621, "Aphorisms": 9622, " Chord": 9623, " Chords": 9624, " ver": 9625, " verbal": 9626, " Pyth": 9627, " Pythag": 9628, " Pythagore": 9629, " Pythagorean": 9630, " theore": 9631, " theorem": 9632, "although": 9633, " likely": 9634, " Bab": 9635, " Baby": 9636, " Babyl": 9637, " Babylon": 9638, " Babylonians": 9639, " .)": 9640, " docu": 9641, " document": 9642, " birch": 9643, " bark": 9644, " Bakh": 9645, " Bakhsh": 9646, " Bakhshali": 9647, " Ary": 9648, " Aryabh": 9649, " Aryabhata": 9650, " Brahmag": 9651, " Brahmagupta": 9652, " Bhas": 9653, " Bhask": 9654, " Bhaskara": 9655, " Var": 9656, " Varā": 9657, " Varāh": 9658, " Varāham": 9659, " Varāhami": 9660, " Varāhamihi": 9661, " Varāhamihira": 9662, " Madhav": 9663, " Madhava": 9664, " decimal": 9665, " concept": 9666, " zer": 9667, " zero": 9668, " neg": 9669, " negative": 9670, " arith": 9671, " arithm": 9672, " arithmetic": 9673, " alge": 9674, " algeb": 9675, " algebra": 9676, " Trigonomet": 9677, " Trigonometry": 9678, " definitions": 9679, " sine": 9680, " concepts": 9681, " landmar": 9682, " landmark": 9683, " expansions": 9684, " trigonomet": 9685, " trigonometric": 9686, " fun": 9687, " func": 9688, " functions": 9689, "sine": 9690, " arc": 9691, " tang": 9692, " tangent": 9693, " completed": 9694, " invention": 9695, " calcul": 9696, " calculus": 9697, " Srin": 9698, " Sriniv": 9699, " Srinivas": 9700, " Srinivasa": 9701, " Raman": 9702, " Ramanuj": 9703, " Ramanujan": 9704, " theory": 9705, "Mus": 9706, "Music": 9707, " arra": 9708, " array": 9709, " musical": 9710, " musics": 9711, " origins": 9712, " split": 9713, " improv": 9714, " improvis": 9715, " improvisational": 9716, " featuring": 9717, " instru": 9718, " instruments": 9719, " tab": 9720, " tabla": 9721, " foc": 9722, " focused": 9723, " compositions": 9724, " krit": 9725, " kriti": 9726, " while": 9727, " elements": 9728, " raga": 9729, " mel": 9730, " melodi": 9731, " melodic": 9732, " tala": 9733, " rh": 9734, " rhyth": 9735, " rhythm": 9736, " rhythmic": 9737, " meter": 9738, " genres": 9739, " ja": 9740, " jaz": 9741, " jazz": 9742, " musicians": 9743, " coun": 9744, " counter": 9745, " counterc": 9746, " counterculture": 9747, " film": 9748, " cinem": 9749, " cinema": 9750, " directors": 9751, " sung": 9752, " playback": 9753, " singers": 9754, " Modern": 9755, " takes": 9756, " Subb": 9757, " Subbul": 9758, " Subbulak": 9759, " Subbulaks": 9760, " Subbulakshm": 9761, " Subbulakshmi": 9762, " vocal": 9763, " vocalist": 9764, "Carnatic": 9765, " mrid": 9766, " mridang": 9767, " mridangam": 9768, " Palgh": 9769, " Palghat": 9770, " Mani": 9771, " Iy": 9772, " Iyer": 9773, "left": 9774, " violinist": 9775, " violinists": 9776, ".:": 9777, " Vaid": 9778, " Vaidyan": 9779, " Vaidyanathan": 9780, " Subra": 9781, " Subram": 9782, " Subramani": 9783, " Subramaniam": 9784, "Alla": 9785, "Allaud": 9786, "Allaudd": 9787, "Allauddin": 9788, " Khan": 9789, " sarod": 9790, " teac": 9791, " teacher": 9792, "Ravi": 9793, " Wood": 9794, " Woodst": 9795, " Woodstock": 9796, " drawn": 9797, " heavi": 9798, " heavily": 9799, " arose": 9800, " contexts": 9801, " spons": 9802, " sponsors": 9803, " sponsorship": 9804, " promotion": 9805, " Whe": 9806, " Whether": 9807, " deter": 9808, " determ": 9809, " determined": 9810, " Sange": 9811, " Sangeet": 9812, " Natak": 9813, " Academi": 9814, " perform": 9815, " performing": 9816, " perh": 9817, " perhaps": 9818, " meet": 9819, " criter": 9820, " criteria": 9821, " Akademi": 9822, "known": 9823, " Bharatn": 9824, " Bharatnatyam": 9825, " temple": 9826, " devad": 9827, " devadas": 9828, " devadasis": 9829, " Id": 9830, " Ident": 9831, " Identified": 9832, "prostitutes": 9833, " courtes": 9834, " courtesans": 9835, " dan": 9836, " danc": 9837, " dancing": 9838, " bann": 9839, " banned": 9840, " Conc": 9841, " Concur": 9842, " Concurrent": 9843, " Concurrently": 9844, " reh": 9845, " rehabil": 9846, " rehabilitated": 9847, "pure": 9848, " Ruk": 9849, " Rukmin": 9850, " Rukmini": 9851, " Arund": 9852, " Arundale": 9853, " prominent": 9854, " devd": 9855, " devdasi": 9856, " attain": 9857, " prominence": 9858, " Than": 9859, " Thanj": 9860, " Thanjav": 9861, " Thanjavur": 9862, " Balas": 9863, " Balasar": 9864, " Balasaras": 9865, " Balasarasw": 9866, " Balasaraswati": 9867, " sources": 9868, " Odisha": 9869, "Local": 9870, " Ras": 9871, " Rasl": 9872, " Raslil": 9873, " Raslila": 9874, " Teruk": 9875, " Terukk": 9876, " Terukkut": 9877, " Terukkutt": 9878, " Terukkuttu": 9879, " calendrical": 9880, " Bhangra": 9881, " Vais": 9882, " Vaisak": 9883, " Vaisakhi": 9884, " spring": 9885, " Garb": 9886, " Garba": 9887, " Nav": 9888, " Navrat": 9889, " Navratri": 9890, " Adiv": 9891, " Adivasi": 9892, " Santal": 9893, " Tod": 9894, " Toda": 9895, " honour": 9896, " Ö": 9897, " Ön": 9898, " buff": 9899, " buffal": 9900, " buffalo": 9901, " earth": 9902, "Among": 9903, " directions": 9904, " Uday": 9905, " adhered": 9906, " rig": 9907, " rigidly": 9908, " Examp": 9909, " Examples": 9910, " fables": 9911, " Pan": 9912, " Panch": 9913, " Panchat": 9914, " Panchatant": 9915, " Panchatantra": 9916, " medit": 9917, " meditation": 9918, " Discover": 9919, " Discovery": 9920, " asp": 9921, " aspect": 9922, " films": 9923, " tal": 9924, " talk": 9925, " talkies": 9926, " indiv": 9927, " individ": 9928, " individual": 9929, " Bol": 9930, " Bolly": 9931, " Bollyw": 9932, " Bollywood": 9933, " Tow": 9934, " Towards": 9935, " innovations": 9936, "Bhangra": 9937, " Kathakali": 9938, " Bharatan": 9939, " Bharatanatyam": 9940, " absorb": 9941, " absorbed": 9942, "Cl": 9943, "Cloth": 9944, "Clothing": 9945, "From": 9946, " dress": 9947, " draped": 9948, " pi": 9949, " piec": 9950, " piece": 9951, " yards": 9952, " wra": 9953, " wrapped": 9954, " comb": 9955, " combined": 9956, " unders": 9957, " undersk": 9958, " underskirt": 9959, " pett": 9960, " pettico": 9961, " petticoat": 9962, " tuc": 9963, " tucked": 9964, " secure": 9965, " fastening": 9966, " blouse": 9967, " choli": 9968, " serves": 9969, "covering": 9970, " midri": 9971, " midriff": 9972, " obsc": 9973, " obscuring": 9974, " contours": 9975, " shorter": 9976, " stit": 9977, " stitched": 9978, " clot": 9979, " clothes": 9980, " widespread": 9981, " 1300": 9982, " 152": 9983, " 1525": 9984, " garments": 9985, " still": 9986, " shalwars": 9987, " py": 9988, " pyj": 9989, " pyjam": 9990, " pyjamas": 9991, " trous": 9992, " trousers": 9993, " tunics": 9994, " Shalw": 9995, " Shalwars": 9996, " atypically": 9997, " cuff": 9998, " cuffed": 9999}, "merges": [[" ", "t"], ["a", "n"], ["h", "e"], ["्", "य"], ["i", "n"], ["्", "र"], [" t", "he"], ["न", "्"], [" ", "स"], ["o", "n"], ["ा", "र"], ["e", "r"], ["r", "e"], [" ", "अ"], ["a", "l"], [" ", "प"], [" ", "o"], ["a", "t"], ["s", "t"], ["र", "्"], ["e", "n"], ["a", "r"], ["d", "i"], ["स", "्"], ["म", "्"], ["an", "d"], [" ", ","], [" ", "c"], ["त", "ि"], ["e", "d"], [" ", "I"], [" ", "a"], [" ", "in"], [" o", "f"], [" ", "क"], [" ", "w"], ["भ", "ार"], ["भार", "त"], ["i", "t"], [" ", "व"], [" ", "s"], ["स", "्य"], [" I", "n"], [" ", "and"], ["त", "्"], ["र", "ा"], ["o", "r"], [" ", "p"], [" ", "b"], ["i", "on"], ["e", "s"], [" ", "m"], [" ", "f"], ["i", "c"], ["द", "े"], [" In", "di"], ["i", "s"], ["ा", "न"], ["in", "g"], ["दे", "श"], ["a", "s"], [" प", "्र"], [" ", "त"], ["ि", "क"], [" ", "च"], [" ", "भारत"], [" ", "म"], ["o", "m"], ["en", "t"], [" ", "l"], ["त", "्र"], ["्", "व"], [" ", "रा"], [" ", "आ"], ["य", "ा"], ["न", "ा"], ["o", "u"], [" ", "e"], [" Indi", "a"], ["ि", "त"], [" व", "ि"], [" t", "o"], [" ", "ग"], ["ङ", "्"], [" ", "1"], ["म", "ा"], [" ", "ज"], ["ष", "्"], ["ी", "य"], ["न", "ि"], [" ", "इ"], [" ", "d"], ["व", "ि"], ["u", "r"], ["l", "y"], [" ", "h"], ["e", "c"], [" ", "ए"], [" ", "ब"], [" ", "T"], ["भ", "ा"], [" ", "re"], ["i", "l"], [" ", "n"], ["र्", "व"], ["్", "ర"], ["त", "ा"], [" ", "ప"], ["ा", "ल"], [" ", "g"], [" ", "श"], ["ष्", "ट"], ["r", "a"], ["t", "h"], [" ", "द"], [" ", "न"], ["r", "i"], ["ि", "न्"], ["u", "l"], [" ", "देश"], ["o", "l"], ["श", "्"], ["ृ", "त"], [" ", "A"], ["ా", "ర"], ["v", "er"], ["a", "m"], [" ", "C"], ["क", "्"], [" ", "."], ["े", "न"], ["न्", "ति"], ["द", "्"], ["ह", "ा"], ["े", "ण"], ["at", "ion"], [" ", "B"], [" ", "2"], [" ", "उ"], [" ", "S"], ["्य", "ा"], ["ी", "त"], ["v", "e"], [" स", "ं"], [" ", "ह"], ["ా", "ల"], ["l", "e"], ["r", "o"], ["u", "t"], ["द", "्र"], ["ष्ट", "्र"], ["c", "e"], ["प", "्र"], ["ज", "्य"], [" T", "he"], [" ", "is"], ["a", "d"], ["i", "st"], ["ा", "स"], ["व", "ा"], ["g", "e"], ["i", "m"], ["त", "े"], [" व", "र्"], ["्", "थ"], [" Indi", "an"], ["ध", "ान"], [" ", "స"], ["ध", "र्"], [" b", "y"], [" अ", "स्"], ["u", "s"], [" 1", "9"], ["a", "st"], [" b", "e"], ["न्", "त"], [" ", "క"], [" ", "("], [" क", "ा"], [" अस्", "ति"], ["i", "g"], ["क्", "ष"], ["u", "n"], ["धर्", "म"], [" रा", "ष्ट्र"], ["भ", "ू"], ["'", "s"], [" ", "M"], [" t", "h"], [" ", "P"], ["त", "ः"], ["प", "ि"], [" ग", "ीत"], ["it", "h"], ["i", "r"], ["i", "d"], ["o", "w"], ["ల", "ో"], ["c", "h"], ["स", "ा"], [" ", "य"], [" ", "r"], ["स", "ी"], ["स", "ं"], [" क", "े"], ["क", "ृत"], ["न्", "त्र"], ["ङ्", "क"], ["్", "య"], [" ", "र"], ["ष", "ु"], ["ष", "ा"], ["r", "om"], ["0", "0"], [" w", "ith"], ["e", "t"], [" f", "or"], ["स्", "थ"], ["िक", "ा"], ["at", "e"], ["त", "म"], [" c", "on"], ["m", "ent"], ["ङ्", "ग"], [" ", "వ"], [" ", "మ"], [" w", "as"], ["e", "m"], ["d", "u"], ["ग", "र"], ["द", "ा"], ["an", "g"], ["t", "er"], ["न्", "द्र"], ["o", "p"], ["i", "es"], [" w", "h"], ["t", "ion"], [" भारत", "ीय"], [" इ", "ति"], ["स्", "त"], [" m", "o"], [" a", "s"], ["న", "్"], ["a", "in"], [" s", "u"], ["द्", "ध"], ["ास", "न"], ["म", "ु"], ["re", "s"], ["ी", "प"], ["द", "्व"], [" f", "rom"], ["on", "g"], [" ", "st"], [" ", "भा"], ["ि", "ः"], ["e", "st"], [" अ", "न"], ["a", "y"], ["ద", "ి"], ["य", "ो"], ["ि", "ण"], [" स", "्थ"], ["्", "त"], ["ద", "ే"], ["ल", "्"], [" ", "N"], ["t", "s"], ["ण", "्"], ["he", "r"], ["स्", "कृत"], ["దే", "శ"], [" ", "ल"], ["స", "్"], ["ర", "్"], ["त", "न्त्र"], ["य", "ः"], ["सी", "त्"], ["ic", "al"], [" e", "x"], [" ", "H"], [" ", "D"], ["ి", "ం"], [" ", "E"], [" ", "it"], ["ध", "िक"], ["న", "ి"], ["s", "e"], [" ", "G"], ["l", "d"], [" ", "on"], ["द", "ि"], ["a", "b"], ["्", "च"], [" ", "'"], ["प", "ु"], ["a", "k"], [" ", "di"], [" ", "an"], ["g", "h"], [" ", "ర"], ["భ", "ార"], ["ల", "ు"], [" देश", "ः"], ["धर्म", "ः"], [" इ", "त्"], ["il", "l"], ["ar", "t"], ["భార", "త"], ["a", "c"], ["१", "९"], ["ic", "h"], [" रा", "ज्य"], [" ప", "్ర"], [" o", "r"], [" h", "as"], ["ू", "र्व"], [" ", "-"], ["ज", "न"], ["०", "०"], ["ना", "म"], ["i", "al"], [" 2", "0"], ["व", "र्"], ["ग", "ो"], ["व", "र"], ["u", "m"], ["म", "हा"], ["ण", "ि"], [" ", "అ"], ["स", "िन्"], ["ी", "न"], ["d", "er"], [" wh", "ich"], ["ा", "द"], ["ल", "ी"], [" द", "ि"], [" वि", "श"], ["u", "d"], ["it", "y"], [" प्र", "ा"], ["ध", "्य"], [" स", "्व"], [" a", "re"], ["i", "ve"], ["त्", "व"], ["रा", "ज्य"], ["ण्", "ड"], ["प", "ाल"], ["द्व", "ीप"], ["i", "v"], ["्य", "ः"], ["क", "ार"], ["थ", "ा"], [" वर्", "त"], [" ", "un"], ["ul", "t"], ["ल", "ा"], ["or", "t"], ["ou", "n"], ["c", "on"], ["u", "re"], ["e", "l"], ["म", "े"], [" भा", "षा"], ["గ", "ా"], ["r", "it"], ["p", "p"], ["ి", "క"], ["श", "ि"], [" विश", "्व"], ["ग", "ा"], ["న్", "న"], ["o", "c"], [" श", "ासन"], ["र", "ु"], ["र", "ि"], ["भू", "म"], ["वि", "धान"], ["er", "s"], ["l", "i"], ["o", "t"], [" ", "K"], [" ", "v"], [" स", "र्व"], ["द", "न"], [" त", "े"], [" ", "W"], ["ञ", "्च"], [" त", "स्"], ["ar", "y"], ["क", "ा"], [" in", "c"], [" ", "al"], ["क्ष", "िण"], [" द", "क्षिण"], [" ज", "न"], [" it", "s"], ["er", "e"], [" c", "om"], [" c", "ent"], ["o", "ver"], [" ", "ఉ"], ["न", "ी"], [" ", "भ"], [" रा", "ज"], [" वर्", "ष"], ["च", "ि"], ["an", "s"], [" प", "ु"], ["द", "्य"], ["ब", "्"], ["ो", "क"], ["ख", "ा"], ["ध", "ि"], ["ण", "ा"], ["व", "ी"], [" w", "or"], ["en", "d"], [" d", "e"], ["भा", "ग"], ["a", "g"], ["स्थ", "ान"], ["्", "म"], ["सा", "गर"], [" प्र", "थ"], [" प्रथ", "म"], ["ा", "णि"], ["स", "ः"], ["देश", "ः"], [" रा", "ग"], ["ाद", "य"], ["वा", "न्"], ["ar", "ge"], ["e", "ar"], [" w", "ere"], ["o", "d"], ["క", "్"], [" ", "at"], ["m", "p"], ["ou", "r"], ["at", "ed"], ["c", "t"], ["ా", "య"], [" स", "ा"], [" न", "े"], ["त्", "त"], ["I", "n"], ["े", "ं"], [" प", "ूर्व"], [" H", "in"], ["o", "s"], ["T", "he"], ["क्", "त"], [" स", "ि"], ["ध", "ु"], ["र", "्य"], [" म", "हा"], [" A", "s"], ["an", "t"], ["a", "ge"], ["is", "m"], ["is", "h"], [" c", "h"], [" s", "p"], [" con", "t"], ["ि", "मा"], [" स", "म्"], [" ", "భారత"], ["द", "ु"], ["च", "ार"], ["ित", "ा"], ["वि", "ध"], ["ति", "ः"], ["ार", "्थ"], ["ా", "త"], ["त", "त्"], [" दि", "न"], ["सं", "स्कृत"], ["ना", "थ"], ["r", "y"], [" ए", "ष"], ["भूम", "िः"], [" p", "ro"], ["an", "ce"], ["దేశ", "ం"], [" म", "ें"], ["o", "g"], ["్", "ట"], ["ou", "th"], ["ou", "s"], [" in", "t"], ["ion", "s"], ["ur", "ing"], ["ec", "t"], [" p", "l"], ["f", "ter"], ["a", "j"], ["over", "n"], ["ou", "gh"], ["న", "ు"], ["క", "ు"], [" ", "చ"], ["क", "ि"], ["ాల", "ు"], [" ", "R"], [" ह", "ै"], ["am", "e"], ["con", "om"], ["er", "al"], ["a", "p"], ["as", "s"], ["a", "v"], ["ा", "त"], ["प", "्त"], [" C", "h"], [" c", "o"], ["l", "ow"], [" ", "U"], [" ", "नाम"], [" ", "జ"], ["్", "వ"], [" 20", "1"], ["र", "ू"], ["्र", "ी"], ["ang", "u"], ["स्थ", "ा"], [" ल", "ोक"], [" स्थ", "ान"], [" ", "ar"], ["i", "f"], ["er", "n"], [" ", "J"], [" b", "ec"], [" l", "e"], [" p", "art"], ["o", "re"], ["overn", "ment"], ["र्व", "त"], ["ం", "డ"], [" सं", "स्कृत"], ["े", "द"], ["्", "ञ"], [" के", "न्द्र"], ["श", "त"], ["in", "e"], [" ", "ऐ"], ["्या", "य"], ["भ", "्य"], ["च", "्"], [" त", "त्"], [" वि", "द्य"], [" क", "ृत"], ["ा", "ङ्क"], ["u", "p"], [" re", "g"], ["m", "er"], [" int", "o"], [" cent", "ur"], [" e", "conom"], ["an", "y"], [" l", "arge"], ["ill", "ion"], ["ీ", "య"], [" ", "\""], [" ", "ఇ"], [" m", "ar"], [" re", "l"], ["h", "i"], ["u", "c"], ["at", "es"], ["res", "s"], ["త", "ి"], ["ి", "న"], [" ", "२"], ["ిం", "చ"], ["In", "di"], ["i", "a"], [" wor", "ld"], [" for", "m"], [" l", "angu"], [" p", "er"], [" c", "l"], [" a", "d"], ["c", "es"], ["त्त", "र"], [" प", "ा"], [" क", "ार"], ["ం", "ది"], ["ार", "्"], ["य", "ु"], ["म", "ान"], ["य", "े"], ["धिक", "ार"], [" s", "e"], [" p", "op"], [" su", "b"], [" a", "g"], ["al", "ly"], [" Hin", "du"], [" ", "k"], ["st", "it"], ["m", "e"], ["in", "ist"], ["స్", "త"], ["ल", "य"], ["श्", "चि"], ["श्चि", "म"], ["मु", "ख"], ["र्", "ण"], ["ల", "్"], ["ख", "्या"], [" पा", "कि"], [" क", "्र"], ["व", "्य"], ["ाल", "ा"], [" ", "7"], ["स", "ि"], ["े", "क"], ["en", "ce"], [" ", "y"], ["ut", "ion"], ["ation", "al"], ["ir", "st"], ["q", "u"], ["h", "ar"], [" e", "l"], ["िमा", "लय"], [" ब", "्र"], ["ग", "त"], ["स", "भा"], ["ास", "ित"], [" प", "र्वत"], ["रू", "प"], ["ग", "ीत"], ["वर्", "ष"], ["श", "ासन"], ["ि", "ख"], [" ", "V"], ["गो", "ल"], [" श", "्री"], [" ", "भू"], ["िन्", "दु"], ["च", "ित"], [" अन", "ेक"], ["ा", "त्"], ["ड", "ा"], ["s", "o"], [" न", "द"], ["र", "त"], [" स", "िन्"], ["ह", "्म"], [" ने", "पाल"], ["सि", "द्ध"], ["न", "ः"], ["िख", "ित"], ["ध", "्व"], ["तम", "े"], ["i", "an"], [" In", "d"], [" ", "5"], [" स्थान", "े"], ["द", "श"], ["स", "र्व"], [" र", "वी"], ["न", "ै"], ["Indi", "a"], [" pop", "ul"], ["re", "d"], ["a", "ve"], ["i", "k"], [" f", "irst"], ["al", "l"], [" d", "uring"], [" g", "overnment"], ["b", "er"], [" ", "ఆ"], [" स", "े"], [" क", "ो"], ["ద", "్"], ["o", "k"], [" s", "h"], [" ", "ri"], [" d", "ec"], ["i", "re"], [" p", "ri"], [" s", "y"], ["re", "as"], [" t", "ra"], ["l", "ud"], ["ర", "ి"], ["మ", "ు"], ["ర", "ు"], [" ", "F"], ["r", "ic"], [" y", "ear"], ["c", "c"], ["re", "at"], [" ex", "p"], ["t", "her"], [" com", "p"], ["om", "e"], ["w", "e"], [" g", "en"], ["di", "tion"], ["े", "त्र"], [" స", "ం"], ["ि", "या"], ["न", "े"], ["र", "े"], ["र्", "थ"], ["ि", "य"], [" ", "3"], ["ag", "es"], [" म", "ु"], [" ", "4"], [" उ", "त्तर"], [" क", "ी"], [" ", "న"], [" ", "త"], ["ం", "త"], ["oun", "d"], ["der", "n"], ["f", "f"], ["d", "h"], [" ", "art"], ["g", "an"], [" o", "ver"], ["ig", "n"], ["ro", "w"], ["id", "e"], [" ", "end"], ["e", "w"], ["o", "th"], [" inc", "lud"], ["ec", "tion"], [" ", "ద"], [" अन", "्य"], ["च", "ीन"], [" ర", "ా"], ["ా", "న"], [" म", "ा"], [" म", "ध्य"], [" ", "బ"], [" प", "श्चिम"], ["व", "स्था"], ["ध", "ार"], ["ం", "ట"], ["వ", "ి"], ["r", "al"], [" अ", "व"], [" ग", "ण"], ["त", "ु"], ["v", "ed"], ["ig", "h"], ["est", "ern"], ["us", "ed"], [" con", "s"], [" bec", "ame"], [" re", "s"], ["stit", "ution"], ["du", "c"], [" in", "f"], ["aj", "or"], [" sy", "st"], [" syst", "em"], [" centur", "y"], [" al", "so"], ["प", "रा"], [" भा", "ग"], ["భ", "ా"], ["क", "्र"], ["ो", "ध"], [" स", "्त"], [" ", "औ"], [" च", "ीन"], ["व्य", "वस्था"], ["श", "ासित"], ["्ञ", "ान"], ["००", "०"], [" न", "्याय"], ["व", "ार"], ["प", "ूर्व"], ["का", "श"], ["१९", "४"], [" अ", "धि"], [" ह", "िन्दु"], ["स", "न्"], ["भारत", "ीय"], ["ह", "ो"], ["प्र", "ा"], [" प", "रि"], ["रा", "ष्ट्र"], [" औ", "र"], ["ज", "य"], ["ग", "ण"], ["ल्", "ल"], [" सिन्", "धु"], [" ब्र", "ह्म"], ["ौ", "गोल"], ["ौगोल", "िक"], ["प", "रि"], ["ा", "खा"], ["मु", "द्र"], ["स", "े"], [" वि", "धान"], [" ह", "े"], [" प", "त्र"], [" ज", "य"], ["तत्", "त्व"], ["द", "ः"], ["व", "ः"], ["न", "म्"], ["वर्", "ण"], ["ेण", "्"], ["e", "p"], [" प", "ञ्च"], ["म", "स्"], ["ड", "्"], ["वि", "ः"], [" 20", "2"], [" स", "प्त"], ["ल", "ङ्क"], ["लङ्क", "ा"], ["व", "त्"], ["हा", "सः"], [" र", "चित"], [" पत्र", "िका"], ["स", "स्य"], ["कृत", "्य"], [" h", "ad"], [" rel", "ig"], ["mp", "ire"], [" p", "e"], [" r", "ul"], [" b", "ut"], [" be", "en"], ["at", "ic"], ["im", "al"], [" h", "ave"], [" mo", "re"], [" प", "र"], [" ", "గ"], [" ", ")"], [" 2", "00"], ["a", "ch"], ["ాయ", "ి"], [" ", "L"], ["ార", "ు"], [".", "."], ["ो", "ं"], ["u", "b"], ["oun", "t"], [" S", "outh"], ["en", "g"], ["or", "d"], [" m", "e"], [" t", "w"], ["ur", "al"], [" a", "fter"], [" m", "illion"], [" cl", "ass"], ["m", "ong"], ["ver", "s"], [" ", "im"], [" n", "um"], ["ong", "ress"], ["ు", "త"], [" स", "म"], ["ై", "న"], ["ూ", "డ"], [" re", "p"], ["ह", "ु"], ["ిం", "ది"], [" ब", "हु"], [" mo", "st"], [" ", "O"], [" l", "at"], [" year", "s"], [" reg", "ion"], [" ", "he"], [" p", "ol"], ["o", "se"], ["ult", "ure"], [" tw", "o"], [" mo", "dern"], [" inc", "reas"], [" th", "at"], ["h", "m"], ["ve", "l"], ["en", "s"], ["on", "d"], [" su", "ch"], ["l", "o"], ["ow", "er"], [" c", "a"], [" the", "ir"], [" m", "inist"], [" क", "्"], [" 19", "5"], [" 19", "6"], [" ", "ఎ"], [" వ", "ి"], ["ल", "े"], [" ", "१"], ["క్", "ష"], ["క", "ి"], ["ం", "గా"], ["ం", "గ"], ["ac", "k"], ["C", "E"], ["मा", "ण"], ["क", "र"], ["ह", "र"], ["ధ", "ిక"], ["or", "th"], ["t", "in"], [" l", "ong"], [" B", "CE"], [" B", "ud"], [" Bud", "dh"], [" s", "oc"], ["e", "f"], [" s", "c"], ["u", "res"], ["ang", "es"], [" p", "ar"], [" m", "ajor"], [" di", "s"], [" tra", "dition"], ["re", "e"], [" ", ";"], [" b", "oth"], ["s", "h"], ["re", "n"], ["we", "en"], ["b", "an"], ["ri", "b"], [" C", "ongress"], ["r", "u"], [" pri", "me"], [" d", "ance"], [" ", "ई"], [" ", "శ"], [" द", "्व"], ["क", "ृ"], ["म", "ि"], ["व", "ं"], ["मा", "ज"], [" ब", "ा"], [" प्रा", "चीन"], [" ज", "ात"], ["ी", "व"], ["ान", "ा"], [" स्थ", "ा"], ["न", "्य"], ["च", "्च"], ["ట", "ి"], [" ఉ", "న్న"], [" ", "ना"], [" म", "ह"], ["त", "्य"], ["l", "ic"], [" कार", "्य"], [" As", "ia"], ["ist", "an"], [" c", "ast"], ["ation", "s"], ["he", "d"], [" popul", "ation"], [" t", "er"], ["ur", "ban"], ["l", "es"], ["p", "h"], [" n", "ot"], ["am", "il"], [" g", "row"], [" un", "der"], ["ar", "d"], [" s", "er"], [" ज", "ै"], ["ो", "प"], ["स", "ू"], [" 19", "9"], [" स्थ", "ित"], [" त", "था"], [" ", "ऋ"], ["स", "म"], [" ", "५"], ["धिकार", "िक"], [" म", "न"], ["ू", "ल"], ["ृ", "द्ध"], [" स", "ु"], [" ह", "िमालय"], ["ष्", "ण"], [" आ", "धिकारिक"], ["र्", "ष"], ["भा", "षा"], [" 1", "8"], ["वर", "ी"], ["भ", "िन्"], ["भिन्", "न"], [" आ", "न्"], ["ल्", "ली"], ["ह", "ि"], ["ol", "og"], [" ब", "ौ"], [" बौ", "द्ध"], ["ह", "ित"], [" म", "ूल"], ["य", "त"], ["ष्", "ठ"], ["ి", "త"], ["ज", "्ञान"], [" त", "ु"], [" न", "व"], ["पाल", "िका"], ["रा", "ज"], [" ", "ति"], ["ाल", "य"], [" म", "त"], ["धान", "ी"], ["त", "न"], ["्र", "ि"], ["ल", "ाल"], ["क", "ु"], ["१", "१"], [" भ", "रत"], ["र", "म्"], [" स्व", "तन्त्र"], ["पु", "त्र"], ["ा", "धिक"], [" स", "दन"], ["ప", "ు"], [" ", "नि"], ["ो", "त्"], ["पु", "रा"], ["ृ", "ह"], ["ब", "्र"], [" స", "ా"], [" व", "ेद"], ["प", "द"], ["ट", "्"], ["ित", "म्"], ["म", "िन्"], [" वि", "ध"], [" विध", "ा"], ["विध", "ा"], ["म", "ित"], [" आ", "र्य"], ["్", "చ"], ["्र", "न्"], ["्रन्", "थ"], ["च", "न"], [" ब", "ृह"], ["भाग", "ः"], [" अ", "ष्ट"], ["ब्", "ध"], ["म", "ार्"], ["े", "ऽ"], ["्य", "म्"], ["ध्व", "ज"], [" पु", "ण"], ["चार", "्य"], ["यो", "जन"], ["र्", "ग"], ["द", "ं"], ["स", "ङ्"], ["सङ्", "ख्या"], ["न", "ाना"], [" उ", "द्"], ["द्व", "ार"], ["व", "न्"], [" त", "म"], [" त", "ेन"], ["द", "म्"], [" ल", "िखित"], ["ान", "ु"], ["श", "ाला"], ["प", "ङ्क"], ["न", "ु"], ["कार", "ः"], [" स", "ङ्"], [" सङ्", "घ"], ["िण", "ी"], ["प", "तिः"], [" आ", "परा"], [" आपरा", "धिक"], ["ग", "स्"], ["म", "हो"], ["महो", "द"], ["महोद", "यः"], ["गीत", "म्"], [" अ", "द्"], [" उ", "ल्"], [" सम्", "प्र"], [" of", "f"], ["ial", "ly"], ["in", "ce"], [" e", "ast"], ["is", "ation"], ["n", "i"], [" langu", "age"], ["a", "w"], [" su", "pp"], [" n", "ort"], [" cast", "e"], ["t", "y"], [" th", "is"], [" E", "mpire"], [" B", "rit"], [" Brit", "ish"], [" be", "gan"], ["r", "ough"], ["am", "ent"], ["uc", "le"], ["ucle", "ar"], [" m", "il"], ["ar", "i"], [" m", "any"], [" a", "pp"], ["or", "y"], [" be", "t"], [" bet", "ween"], [" ", "urban"], ["ic", "s"], [" t", "e"], [" ", "ra"], [" el", "ection"], [" minist", "er"], [" ", "j"], [" m", "us"], ["ార", "్"], ["ు", "ల"], ["द", "ी"], ["00", "0"], ["త", "్"], ["త", "ో"], ["क", "े"], ["ష", "్ట"], ["ర", "ా"], [" I", "t"], [" s", "outh"], ["ou", "t"], [" l", "and"], ["ak", "istan"], [" n", "orth"], ["s", "l"], ["con", "tin"], ["contin", "ent"], [" re", "c"], [" e", "ar"], ["v", "i"], [" nort", "her"], [" norther", "n"], ["t", "a"], [" econom", "y"], ["l", "u"], ["vers", "ity"], ["el", "l"], ["ical", "ly"], [" C", "on"], [" s", "ec"], [" a", "b"], ["al", "s"], ["p", "t"], ["low", "ing"], ["t", "ed"], [" f", "ore"], ["vel", "op"], [" f", "ol"], [")", ","], [" ", "హ"], [" C", "E"], [" ", "6"], [" 19", "4"], ["ట", "్ట"], [" క", "ూడ"], ["m", "on"], ["ం", "లో"], ["స్", "థ"], [" c", "ount"], ["c", "y"], [" B", "eng"], [" Beng", "al"], [" P", "akistan"], [" Ch", "in"], ["es", "h"], [" A", "n"], [" lat", "er"], ["om", "in"], ["ad", "e"], ["mer", "g"], [" w", "estern"], ["in", "s"], [" langu", "ages"], ["y", "a"], ["it", "e"], ["u", "gh"], ["a", "ce"], [" rul", "e"], [" C", "om"], [" inf", "lu"], ["it", "ion"], ["an", "i"], [" t", "im"], [" r", "ate"], ["o", "di"], ["ate", "ly"], ["c", "i"], [" pe", "op"], [" ", "en"], [" im", "p"], [" class", "ical"], ["ar", "n"], [" U", "n"], ["a", "i"], ["ul", "ar"], [" de", "velop"], ["it", "ed"], [" S", "h"], [" a", "mong"], [" gen", "eral"], [" large", "st"], [" mus", "ic"], [" क्", "ष"], [" क्ष", "ेत्र"], [" ", "8"], ["ం", "ద"], ["iv", "ed"], ["చ", "్చ"], [" ", "धर्म"], ["ज", "ा"], ["య", "ా"], [" ", "ఈ"], ["ub", "lic"], [" P", "l"], ["u", "st"], ["स", "ार"], [" s", "ince"], [" T", "h"], [" h", "um"], [" sub", "continent"], [" l", "if"], [" lif", "e"], ["is", "e"], [" the", "re"], ["is", "ed"], ["ain", "s"], ["un", "j"], ["unj", "ab"], [" M", "ugh"], [" econom", "ic"], ["at", "ive"], ["ec", "h"], [" n", "on"], ["c", "ed"], [" increas", "ed"], [" l", "it"], ["or", "m"], [" m", "id"], ["it", "ary"], ["il", "d"], [" h", "ist"], [" sp", "ec"], [" ex", "t"], [" peop", "le"], ["ow", "n"], [" per", "i"], [" peri", "od"], ["t", "ing"], [" e", "mp"], ["ra", "ph"], ["ab", "le"], ["es", "p"], ["k", "et"], ["ar", "at"], ["er", "ed"], ["i", "b"], ["imal", "ay"], ["ic", "e"], [" 201", "1"], [" ప్ర", "ా"], [" రా", "జ"], ["र", "ी"], [" ", "छ"], [" ", "దేశ"], [" क", "ु"], [" य", "ु"], ["क", "ाल"], ["ि", "यो"], [" ", "దేశం"], [" कार", "ण"], ["ం", "చ"], [" భారత", "దేశం"], ["े", "स"], [" द", "श"], [" ", "భా"], [" ", "ఒ"], [" प्र", "धान"], [" ", "ల"], [" 1", "2"], [" उ", "त्"], ["ट", "ि"], ["न", "िक"], ["ట", "్"], [" 2", "1"], [" ", "ని"], ["ो", "ष"], ["్ర", "ీ"], [" क", "ाल"], [" ग", "ा"], ["v", "ent"], [" I", "sl"], [" th", "an"], [" o", "cc"], [" e", "merg"], [" Ind", "us"], ["ir", "d"], ["ill", "en"], ["illen", "ni"], ["illenni", "um"], [" S", "ans"], [" Sans", "k"], [" Sansk", "rit"], [" soc", "ial"], [" M", "a"], ["l", "im"], ["ult", "an"], [" P", "unjab"], [" S", "ik"], [" Mugh", "al"], ["f", "t"], [" E", "ast"], ["ve", "ment"], [" par", "li"], [" parli", "ament"], [" lit", "er"], [" n", "uclear"], [" st", "ate"], ["ect", "ed"], [" re", "f"], ["ci", "ent"], ["r", "on"], ["o", "od"], ["e", "ver"], ["it", "ies"], ["he", "n"], [" n", "ew"], [" s", "et"], ["at", "he"], [" m", "ain"], ["an", "ge"], [" p", "ower"], ["r", "ol"], ["ro", "c"], ["di", "c"], [" le", "ad"], [" A", "l"], [" w", "ar"], [" E", "ur"], [" num", "ber"], ["ter", "n"], [" H", "imalay"], [" on", "e"], [" c", "our"], [" spec", "ies"], ["व", "े"], [" ए", "वं"], [" से", "ना"], ["च", "ल"], [" మ", "ొ"], [" व", "ा"], ["म", "त"], [" 19", "7"], ["श", "ी"], ["स्", "त्र"], ["म्", "ब"], ["ష్ట", "్ర"], [" ", "9"], [" 1", "5"], [" స", "్"], ["ద్", "ధ"], ["్ర", "ి"], ["ు", "లు"], [" इ", "स्"], ["म", "ो"], ["ग", "म"], ["प", "ाद"], ["फ", "ल"], ["ర్", "వ"], ["ాత", "ీయ"], [" ర", "ై"], [" प", "ार"], ["ं", "श"], ["भूम", "ि"], ["ा", "धिकार"], ["श", "्र"], [" ए", "क"], [" उ", "च्च"], ["च", "ी"], [" १", "५"], ["र", "प"], ["य", "न"], ["ल", "ु"], [" स", "्"], ["ఖ", "్య"], [" पु", "रा"], ["न्त", "र"], [" इस्", "ला"], [" इस्ला", "म"], ["ज", "ित"], ["ि", "र"], [" ना", "गर"], ["१९४", "७"], [" ", "७"], [" వ", "్య"], ["ణ", "ా"], [" ప", "ే"], [" जै", "न"], [" ज", "न्"], [" जन्", "म"], ["हि", "ं"], ["ग", "ति"], [" प्र", "काश"], [" प्र", "चल"], [" वि", "ज्ञान"], [" य", "े"], ["नि", "रप"], ["ज", "ि"], [" स", "ौ"], ["ह", "ार्"], ["हार्", "द"], ["ా", "న్"], ["త", "ర"], [" 19", "8"], ["न", "गर"], ["वर्", "त"], [" अ", "ध"], ["ख", "ण्ड"], [" ग", "ो"], ["स्त", "ु"], ["ग", "्"], ["ज", "ीव"], [" नद", "ी"], [" प्र", "माण"], ["हिं", "सा"], ["ब", "ोध"], ["ात्", "म"], ["ात्म", "क"], [" वर्", "षा"], ["न", "व"], ["फ", "े"], ["सू", "ची"], [" दि", "व"], [" दिव", "स"], ["ల్", "ల"], [" ज", "्ञ"], ["म्", "प"], ["ी", "र्ण"], [" न", "िक"], ["म", "न्त्र"], ["पु", "र"], ["ा", "व"], ["్ర", "ా"], [" भ", "ौगोलिक"], ["ित", "ीय"], ["ा", "चार"], [" ज", "ग"], ["पुरा", "ण"], [" च", "ि"], ["इ", "ति"], ["र", "ण"], ["े", "त"], [" अ", "श"], [" अश", "ोक"], [" प", "ार्थ"], [" र", "ो"], ["भ", "ेद"], ["ख", "र"], ["धार", "्म"], ["धार्म", "िक"], ["ह", "िमालय"], [" प", "त्"], ["ध", "्र"], ["ल", "िखित"], ["ह", "रु"], [" २", "८"], ["श", "क्त"], [" विद्य", "मान"], [" श", "ाखा"], ["मुद्र", "ा"], [" ", "धर्"], [" धर्", "मा"], [" प", "थ"], [" छ", "ा"], [" ", "डा"], ["न", "ं"], [" रा", "म"], ["प्र", "काश"], [" Ind", "o"], [" Pl", "ate"], [" है", "ं"], ["राज्य", "म्"], ["्या", "म"], ["द", "ृ"], [" म", "ात"], ["ो", "ब"], ["ोब", "ार"], ["ङ्ग", "ा"], [" ", "ष"], ["तम", "ेन"], ["श", "ोध"], ["म", "न्"], ["वि", "ंश"], ["विंश", "ति"], ["दे", "ह"], ["ह", "्"], ["क", "र्ण"], ["ार", "ः"], ["व", "्या"], [" ग", "्रन्थ"], ["े", "श"], ["ेस", "ेण्"], ["ेसेण्", "ट"], ["ेसेण्ट", "थ"], ["ेसेण्टथ", "ियो"], ["ेसेण्टथियो", "स"], ["ेसेण्टथियोस", "फ"], ["ेसेण्टथियोसफ", "िक"], ["ेसेण्टथियोसफिक", "ल"], ["१९४", "८"], [" व", "न्"], ["र", "च"], [" बृह", "त्"], ["सी", "मा"], [" सम", "ीप"], [" स", "मुद्र"], ["कु", "र"], ["यु", "त"], ["मु", "खा"], ["स्थान", "म्"], ["द", "स्"], ["शासन", "म्"], [" अष्ट", "ा"], ["प", "र्य"], ["मा", "न्"], [" त", "ृत"], [" तृत", "ीय"], ["न", "मस्"], ["वि", "ष"], ["ि", "नः"], ["्", "ना"], ["भ", "रत"], ["य", "न्"], ["र", "ब्ध"], [" त", "न्"], [" ५", "०००"], [" ५०००", "वर्ष"], [" ५०००वर्ष", "े"], [" ५०००वर्षे", "भ"], [" ५०००वर्षेभ", "्यः"], ["ख", "्रि"], ["ध", "ौ"], ["त", "द्"], ["भ", "ौगोलिक"], [" म", "ाला"], ["द्वीप", "ः"], ["भू", "ता"], [" ब", "र"], ["्", "मा"], ["भ", "ृत"], ["सम", "ृद्ध"], ["ेऽ", "पि"], ["क्ष", "ेत्र"], ["श", "ाखा"], ["न", "्याय"], ["सं", "ह"], ["संह", "िता"], ["ब", "द्ध"], ["द", "धि"], [" स्व", "ा"], ["हर", "लाल"], ["हरलाल", "ने"], ["हरलालने", "हरु"], ["ीत", "्या"], ["क्ष", "ः"], [" प्र", "जा"], ["मे", "व"], [" शासन", "म्"], [" श", "्व"], [" श्व", "ेत"], ["त", "स्"], ["िर", "ः"], ["का", "ः"], ["भ", "व"], ["ष", "य"], ["ख्या", "त"], [" पुण", "्य"], ["१९", "११"], ["१९११", "तमे"], ["स", "माज"], ["थ", "म्"], ["ति", "प"], ["१९", "१९"], ["१९१९", "तमे"], [" क", "विः"], ["वि", "द्य"], ["विद्य", "ालय"], [" आ", "ह"], [" आह", "्व"], [" आह्व", "ान"], [" चि", "त्त"], [" म", "दन"], ["प", "ल्ली"], [" स", "ः"], ["ाचार", "्यः"], ["क", "विः"], [" ज", "े"], ["ना", "मा"], [" पत्", "नी"], [" छा", "त्र"], ["र्", "तु"], ["श", "य"], [" अ", "न्ति"], [" अन्ति", "म"], [" ग", "ी"], [" गी", "ता"], [" रो", "मा"], [" ऐ", "क"], ["क", "ण्"], ["कण्", "ठ"], ["गा", "यन"], ["म", "दन"], ["ष", "ित"], ["ग्", "ल"], ["ग्ल", "ान"], ["वा", "दः"], ["र", "वी"], [" द्व", "ितीय"], ["पु", "स्त"], ["पुस्त", "क"], [" र", "क्त"], ["दु", "र्ग"], ["डा", "य"], ["म", "ेण्"], [" गीत", "म्"], [" राग", "ः"], ["यो", "जित"], [" जन", "नी"], ["म", "य"], ["नि", "ः"], [" अन", "न्य"], ["च", "रण"], ["भा", "वः"], [" ", "धार्मिक"], [" य", "व"], [" count", "ry"], ["l", "arge"], ["large", "st"], [" Chin", "a"], ["an", "k"], ["am", "an"], ["and", "s"], [" ri", "ver"], [" b", "as"], [" g", "ra"], ["iv", "il"], ["op", "e"], ["l", "a"], [" e", "st"], [" C", "ent"], [" D", "el"], [" Com", "p"], [" c", "ol"], [" ri", "gh"], [" o", "ther"], [" 195", "0"], [" th", "rough"], [" b", "illion"], [" U", "S"], [" th", "ough"], [" mil", "itary"], ["f", "e"], [" E", "n"], ["ri", "g"], ["du", "st"], ["t", "en"], [" includ", "ing"], [" G", "anges"], [" ag", "ric"], [" o", "ut"], [" the", "m"], ["em", "p"], ["og", "raph"], [" ca", "used"], [" T", "amil"], ["i", "z"], ["g", "en"], [" ", "up"], [" wh", "o"], ["t", "il"], ["he", "s"], [" s", "ur"], [" con", "stitution"], ["rib", "ut"], ["or", "ts"], ["athe", "m"], ["వ", "ా"], ["న", "ే"], ["మ", "ైన"], ["ద్", "ద"], [" A", "r"], [" 1", "7"], ["ల", "ి"], ["డ", "ి"], [" W", "or"], [" Wor", "ld"], ["ట", "ు"], ["ండ", "ి"], [" ज", "ि"], ["ిం", "ద"], ["ప", "ా"], [" స్", "థ"], ["డ", "్"], ["త", "ా"], ["he", "ast"], [" n", "o"], [" th", "ird"], [" m", "illennium"], [" B", "y"], [" p", "re"], [" pol", "it"], [" w", "om"], [" relig", "i"], ["us", "lim"], [" Cent", "ral"], [" Del", "hi"], ["re", "w"], [" Sik", "h"], [" centur", "ies"], [" Comp", "any"], [" g", "r"], ["duc", "ed"], ["p", "ut"], [" n", "e"], ["ord", "ing"], [" En", "g"], ["l", "ish"], ["i", "ans"], [" w", "ide"], ["at", "a"], [" sec", "ond"], ["ow", "ever"], [" w", "e"], [" st", "y"], [" f", "ound"], ["ment", "s"], [" s", "ome"], ["ou", "ld"], [" fore", "st"], [" t", "r"], [" al", "l"], [" l", "ed"], [" s", "ign"], ["am", "p"], ["oc", "al"], ["id", "ent"], [" f", "ar"], [" A", "fter"], [" di", "re"], [" N", "ational"], [" ser", "ved"], [" r", "ural"], ["an", "a"], ["re", "ad"], ["u", "j"], [" influ", "en"], [" pl", "ay"], ["ra", "d"], [" S", "t"], [" cont", "ribut"], [" m", "athem"], ["2", "0"], ["న", "ా"], [" మ", "ు"], ["ని", "కి"], [" అ", "ధిక"], ["ధ", "్య"], [" 2", "6"], [" ", "లో"], ["1", "9"], [" 1", "0"], [" ", "था"], [" ", "ఏ"], ["b", "ack"], [" ", "భ"], ["%", "."], [" ఉ", "ంది"], [" ఉన్న", "ాయి"], [" క", "ా"], ["మ", "ా"], ["ड", "़"], [" మ", "ార్"], ["వ", "స్థ"], [" ఒ", "క"], [" రా", "ష్ట్ర"], ["o", "st"], [" क", "र"], ["%", ","], ["భారత", "దేశం"], ["డ", "ు"], [" 194", "7"], ["w", "est"], ["d", "aman"], ["a", "re"], [" m", "ade"], [" h", "igh"], ["ver", "se"], ["l", "ed"], [" emerg", "ed"], ["al", "le"], [" Hindu", "ism"], [" reg", "ions"], [" J", "ain"], [" polit", "ical"], [" wom", "en"], ["d", "le"], [" religi", "ous"], [" co", "ast"], [" M", "uslim"], ["m", "it"], ["ultan", "ate"], ["or", "k"], [" c", "ulture"], [" ", "us"], [" le", "ft"], ["ac", "y"], [" Indian", "s"], [" t", "ech"], [" mo", "vement"], [" tim", "e"], ["olog", "y"], ["at", "s"], ["cc", "ording"], [" Eng", "lish"], ["iv", "es"], [" hist", "or"], [" east", "ern"], [" ", "used"], ["d", "ay"], [" ", "ent"], [" co", "al"], [" hum", "an"], ["e", "h"], ["an", "ts"], [" f", "e"], [" ", "—"], [" as", "s"], [" a", "c"], [" emp", "lo"], [" emplo", "y"], ["i", "ed"], ["ra", "hm"], [" cent", "ral"], [" cont", "rol"], ["c", "ri"], [" g", "reat"], [" tr", "ans"], [" the", "y"], ["ver", "y"], ["ar", "s"], ["om", "et"], [" Buddh", "ist"], ["er", "ation"], ["or", "s"], [" ", "esp"], [" esp", "ec"], [" espec", "ially"], [" p", "ain"], [" pain", "ting"], [" fol", "lowing"], [" in", "dust"], [" G", "and"], [" Gand", "hi"], [" ter", "rit"], ["a", "u"], [" includ", "e"], ["un", "d"], [" major", "ity"], [" P", "rad"], [" Prad", "esh"], [" ", "her"], [" are", "as"], ["at", "i"], [" J", "an"], [" m", "em"], ["h", "an"], [" grow", "th"], ["an", "ces"], [" co", "ok"], ["o", "ol"], ["ens", "us"], [" Hin", "di"], ["స", "ి"], ["్", "ల"], ["ార", "ం"], [" र", "ू"], ["ె", "ండ"], [" ప", "ా"], [" మార్", "గ"], [")", "."], [" హ", "ింద"], [" వ", "చ్చ"], ["u", "e"], [" స", "్వ"], ["్ర", "మ"], ["ి", "న్న"], ["త", "ం"], [" శ", "ా"], ["బ", "్"], ["ా", "నికి"], ["ధ", "ాన"], [" अन", "ु"], ["జ", "ాతీయ"], ["ac", "t"], ["ध", "ी"], ["్", "మ"], [" కూడ", "ా"], ["em", "oc"], [" B", "ang"], ["y", "an"], ["m", "ar"], [" I", "ts"], [" An", "daman"], ["b", "ar"], [" ag", "o"], [" occ", "up"], ["v", "ol"], ["v", "ing"], ["alle", "y"], [" ar", "ch"], ["ope", "an"], [" di", "ff"], [" ear", "ly"], ["n", "ing"], ["k", "ed"], ["li", "ef"], ["om", "s"], [" c", "ult"], [" ar", "m"], ["w", "ork"], [" c", "re"], [" le", "g"], ["ur", "n"], [" p", "rom"], [" n", "ational"], ["al", "e"], [" f", "ed"], [" parliament", "ary"], ["ist", "ic"], [" g", "rew"], [" c", "ap"], ["u", "ally"], [" liter", "acy"], [" K", "as"], [" Kas", "hm"], [" b", "i"], [" supp", "ort"], [" P", "ers"], [" pro", "v"], [" Con", "stitution"], [" o", "rig"], ["ain", "ed"], [" wide", "ly"], [" di", "versity"], [" an", "imal"], [" The", "se"], [" fe", "at"], [" f", "ig"], [" v", "ill"], ["o", "in"], [" de", "f"], ["a", "red"], [" relig", "ions"], ["du", "ct"], [" B", "rahm"], [" b", "ir"], ["i", "x"], ["ro", "p"], ["am", "m"], [" ", "roc"], ["m", "inist"], [" de", "v"], [" m", "an"], ["er", "t"], ["er", "ing"], [" p", "en"], [" pen", "ins"], [" wh", "ose"], [" s", "m"], ["if", "ic"], ["b", "ers"], ["in", "es"], ["it", "es"], [" l", "ocal"], ["v", "en"], ["ces", "s"], ["es", "s"], ["le", "g"], [" dire", "ct"], ["or", "ies"], [" st", "ates"], [" Himalay", "as"], [" an", "cient"], [" re", "m"], ["p", "ur"], [" G", "uj"], [" d", "ra"], ["on", "s"], ["al", "i"], ["J", "P"], [" N", "eh"], [" Neh", "ru"], [" part", "y"], [" l", "ast"], ["od", "y"], [" Un", "ited"], ["ec", "ut"], ["D", "P"], [" r", "ates"], [" g", "ar"], [" c", "ensus"], ["ic", "ial"], [" mar", "ri"], [" sc", "ul"], [" scul", "pt"], ["ర", "్య"], ["స్", "క"], [" उ", "प"], ["द", "ान"], ["ट", "ी"], [" క", "ో"], [" చ", "ె"], ["గ", "ు"], ["ప", "్ర"], [" 2", "2"], ["ంత", "్ర"], [" ద", "క్ష"], [" Ar", "ch"], [" Arch", "ived"], ["ప", "ంచ"], [" ప్రా", "ంత"], [" మ", "త"], [" ఎ", "న్న"], [" ప", "ార"], ["ति", "क"], ["त", "ं"], ["त्र", "ी"], [" W", "ay"], [" Way", "back"], [" M", "ach"], [" Mach", "ine"], [" వ్య", "వస్థ"], [" పే", "రు"], ["ो", "ल"], [" ", "या"], [" अ", "धिक"], [" దేశ", "ాల"], ["క", "ో"], ["ाल", "ी"], [" प्र", "ति"], [" व", "िक"], ["త", "్వ"], ["ప", "్"], ["మ", "ి"], ["న్", "ని"], [" చ", "ే"], [" ग", "ु"], ["स्", "कृ"], ["क्", "ति"], ["त", "र"], [" ज", "ल"], ["यो", "ग"], ["ం", "బ"], ["త", "్య"], [" वि", "स्त"], [" आ", "र्थ"], [" आर्थ", "िक"], ["క్", "కు"], ["్ర", "ం"], [" రాజ", "్య"], ["స", "ు"], ["ద", "ాయ"], [" క", "ే"], [" దక్ష", "ి"], ["म", "ी"], ["र्", "माण"], [" ప్ర", "పంచ"], [" పార", "్ట"], [" పార్ట", "ీ"], [" 1", "3"], [" 19", "3"], [" మ", "ధ్య"], [" ప్ర", "ధాన"], ["o", "ok"], ["प", "ू"], [" स", "माज"], [" अ", "न्त"], [" व", "्य"], [" श", "ा"], [" अ", "भ"], [" व", "्या"], ["ो", "न"], [" భారత", "ీయ"], [" రై", "లు"], [" in", "d"], ["out", "heast"], ["der", "s"], [" B", "h"], [" n", "ear"], ["ic", "o"], ["e", "x"], [" with", "in"], [" Buddh", "ism"], [" r", "ise"], [" D", "uring"], [" st", "at"], ["in", "ed"], [" k", "ing"], ["is", "hed"], [" s", "ou"], [" sou", "ther"], [" souther", "n"], [" in", "ter"], ["ent", "ly"], ["ar", "a"], [" cre", "ated"], [" comp", "os"], [" tech", "n"], [" ", "ed"], [" ed", "uc"], [" educ", "ation"], ["r", "ation"], [" fed", "eral"], [" rep", "ublic"], ["u", "al"], ["i", "et"], [" bec", "ome"], ["al", "ity"], ["is", "ing"], [" a", "ir"], ["ur", "ther"], [" Pers", "ian"], [" w", "ell"], ["k", "s"], [" B", "har"], [" orig", "in"], [" c", "ur"], [" popul", "ar"], [" ", "Y"], [" ear", "li"], [" form", "s"], [" ", "z"], ["at", "t"], [" c", "ities"], [" M", "o"], [" sty", "les"], ["w", "n"], [" o", "ld"], ["e", "ak"], ["at", "ing"], ["s", "s"], [" agric", "ulture"], ["igh", "t"], ["all", "ed"], [" bas", "ed"], ["tion", "s"], ["se", "qu"], [" roc", "k"], ["m", "b"], [" ad", "minist"], [" al", "ong"], ["ive", "ly"], [" region", "al"], ["ak", "e"], [" develop", "ment"], ["ific", "ant"], [" s", "ch"], [" s", "ultanate"], ["th", "ough"], [" m", "en"], ["ist", "s"], [" penins", "ular"], ["ra", "ct"], ["un", "g"], [" mar", "ket"], ["ou", "p"], [" com", "mer"], [" b", "l"], [" p", "res"], [" long", "er"], [" se", "ver"], [" The", "re"], ["tern", "al"], ["c", "ent"], [" indust", "ry"], [" w", "on"], [" election", "s"], [" cont", "in"], [" l", "ower"], ["u", "pp"], [" Guj", "arat"], [" W", "estern"], ["as", "h"], [" l", "ow"], ["ak", "sh"], [" c", "or"], [" un", "ion"], ["r", "ound"], [" righ", "t"], [" w", "in"], [" m", "on"], [" of", "ten"], [" employ", "ed"], [" end", "em"], ["b", "al"], [" c", "ar"], ["a", "h"], [" A", "ct"], ["t", "t"], [" B", "JP"], ["ol", "d"], [" 199", "1"], [" mem", "ber"], ["t", "al"], [" ex", "ecut"], [" G", "DP"], ["d", "e"], [" 200", "1"], ["f", "ore"], ["at", "h"], [" com", "mon"], [" mathem", "atic"], [" W", "ik"], ["క", "ొ"], ["ు", "న్న"], [" स्था", "प"], ["द", "ोल"], ["दोल", "न"], ["े", "ष"], ["यु", "क्त"], ["ी", "ल"], [" २", "००"], [" క", "ు"], [" ప", "ు"], ["पू", "र्ण"], [" सि", "ं"], ["धु", "निक"], [" स", "ह"], ["घ", "ोष"], [" ప", "రి"], ["ప", "ాల"], ["వ", "ర"], ["క", "ాల"], [" స", "ి"], ["न्", "न"], ["कर", "ण"], ["ि", "म"], [" अ", "र्थ"], ["प", "्"], [" यु", "ग"], ["ू", "र"], [" మొ", "ద"], [" క", "ాల"], ["ి", "స్త"], [" అ", "య"], [" ప్ర", "జ"], ["క్కు", "వ"], ["భ", "ుత"], ["భుత", "్వ"], [" క", "్రీ"], [" 1", "4"], [" स", "ी"], ["वा", "दी"], [" स", "ू"], [" आ", "धुनिक"], ["च", "ा"], [" क", "ृ"], ["र्", "म"], [" प्रा", "प्त"], ["१९", "५"], [" श", "क्ति"], [" सर्व", "ो"], [" सर्वो", "च्च"], [" భా", "ష"], ["నా", "భా"], ["భారత", "ీయ"], [" 5", "0"], [" स", "मा"], [" आ", "धार"], ["श्", "मी"], ["श्मी", "र"], ["दे", "व"], [" ज", "ीव"], [" उ", "भ"], [" कृ", "ष"], [" व", "ाल"], ["ब", "ा"], ["र", "ं"], [" स", "ार"], [" హింద", "ూ"], [" ", "య"], [" पु", "रु"], [" ", "भूमि"], [" स", "भ्य"], ["व", "ै"], ["श", "ा"], ["द", "र्"], ["वं", "श"], ["ण", "ाली"], [" सा", "ं"], ["स्कृ", "तिक"], ["स", "र"], [" कृष", "ि"], [" सिं", "ह"], ["१९५", "०"], ["ु", "ष्"], [" ", "३"], ["ट", "र"], [" ", "८"], [" प्र", "त्य"], [" मा", "ध्य"], ["ण्ड", "ल"], [" ", "झ"], ["ष", "ी"], ["ద", "ు"], [" ह", "ु"], [" ह", "ो"], [" सी", "मा"], ["ह", "ू"], ["त", "ार"], ["भ", "ु"], [" व", "ै"], ["श", "ेष"], ["द", "िक"], ["प", "श्चिम"], ["दर्", "श"], [" १", "२"], [" श", "ास"], [" शास", "क"], [" क्र", "म"], [" विश", "ाल"], [" ह", "र"], [" ", "१९४७"], ["ट", "ा"], [" नि", "म्"], [" निम्", "न"], [" ", "ठ"], ["ड", "ु"], [" क्र", "य"], ["ू", "ह"], ["ప్", "ప"], ["క", "ా"], ["ద", "ా"], ["స్క", "ృ"], [" त", "्रि"], [" अ", "त्य"], [" च", "र"], ["वै", "दिक"], [" ग", "ौ"], ["क्र", "म"], [" प्रा", "य"], [" च", "े"], [" शा", "स्त्र"], [" भ", "ो"], [" प्रा", "प्"], ["मा", "ता"], ["े", "ल"], ["ब्", "ब"], [" द", "्र"], ["श्र", "ेण"], [" २", "९"], [" अन्त", "र्"], [" न", "र्म"], [" मु", "म्ब"], [" मुम्ब", "ई"], [" ज", "वा"], [" वि", "धि"], ["प", "ति"], [" न", "्य"], ["म", "न"], [" द्व", "ीप"], ["क्ष", "ि"], ["प", "क्ष"], ["ज", "ना"], ["सा", "ं"], ["स्", "व"], [" स", "मान"], ["भा", "षी"], [" 5", "5"], [" సా", "ం"], [" స", "భ"], ["ా", "బ"], ["यु", "ग"], ["न", "ौ"], [" व", "न्य"], ["ष्ण", "ु"], [" क", "था"], [" ऋ", "ष"], [" ऋष", "भ"], [" आ", "र"], ["प्रा", "चीन"], [" ज्ञ", "ात"], ["वी", "र"], [" गौ", "तम"], [" ब", "ु"], [" बु", "द्ध"], ["प", "दा"], [" उ", "न्न"], [" मु", "क्त"], [" श", "क"], ["म", "ध्य"], [" पु", "न"], ["न", "ो"], ["ल", "ीप"], [" १२", "०"], ["ै", "व"], ["प", "िता"], [" सं", "स्था"], ["ब्ब", "त"], ["५", "००"], ["क", "ीर्ण"], ["उ", "त्तर"], [" स्थ", "ल"], [" श", "्र"], [" य", "मु"], [" यमु", "ना"], [" गो", "दा"], [" सार", "्व"], [" को", "ल"], [" रू", "ढ"], ["े", "य"], ["स", "म्"], ["म", "्य"], ["ता", "न्त्र"], ["तान्त्र", "िक"], [" श", "ासित"], ["त", "ौ"], [" प्रत्य", "क्ष"], ["मन्त्र", "ी"], ["प्र", "धान"], [" यु", "ध"], [" स", "न्"], ["य", "ान"], [" ल", "क्ष"], ["१", "६"], ["अ", "र्थ"], ["स", "व"], ["चि", "त्र"], [" २००", "५"], ["र", "स"], [" ७", "४"], ["ह", "त"], ["सू", "चित"], ["ना", "गर"], ["व", "ह"], [" पार", "ि"], [" पारि", "वार"], [" पारिवार", "िक"], ["व", "न"], [" क", "थ"], [" ग", "र"], [" अभ", "ि"], ["ज", "र"], [" ", "ध्य"], [" की", "र्"], [" श", "त"], [" य", "त्"], [" व", "रि"], [" वरि", "ष्ठ"], ["ब", "ल"], ["श", "ै"], ["ै", "क"], [" ప్ర", "భుత్వ"], [" 1", "1"], [" भ", "ी"], ["ె", "ద్ద"], [" వచ్చ", "ింది"], [" భారత", "దేశ"], ["భారత", "దేశ"], [" దేశం", "లో"], [" ఇ", "తర"], ["उ", "प"], ["श्", "चन"], ["गण", "राज्यम्"], ["तम", "ो"], [" व", "ङ्ग"], ["ा", "न्त"], [" व", "ङ"], [" वङ", "ग"], [" न", "ार"], [" नार", "िक"], [" नारिक", "ेल"], [" श", "्याम"], ["ब्र", "ह्म"], ["श", "्या"], [" अ", "ङ्ग"], ["ज", "म्ब"], ["जम्ब", "ु"], ["दृ", "ष्ट"], ["ए", "ष"], ["सिन्", "धु"], ["स", "भ्य"], [" मात", "ृ"], [" च", "तु"], [" चतु", "र्"], [" तत्", "त्व"], ["वि", "ष्ट"], [" झ", "र"], ["तु", "ष्ट"], ["र", "ै"], ["मत", "म्"], ["ष्ट", "ु"], ["त", "ेन"], ["सा", "म"], [" भ", "व"], ["क", "म्प"], [" अ", "धु"], [" अधु", "ना"], ["व", "ृद्ध"], ["प", "थ"], ["व", "स्त्र"], [" व्य", "य"], [" दश", "म"], ["द्व", "य"], ["के", "न्द्र"], ["पुर", "ो"], ["गा", "मि"], ["प", "ञ्च"], ["य", "म"], [" व", "स"], [" वस", "न्त"], ["खण्ड", "ः"], ["क", "था"], [" द", "ुष्"], ["पाल", "ित"], [" च", "क्र"], ["वर्त", "ी"], ["न", "्या"], [" वि", "ष्णु"], [" उ", "क्त"], [" य", "था"], ["..", ".."], ["इ", "त्"], [" ह", "िमा"], ["च", "ै"], [" त", "द्"], [" भारत", "ी"], ["त", "तिः"], ["मान", "व"], [" पुरा", "तत्त्व"], [" ३", "४"], [" ३४", "०००"], [" इ", "दान"], [" इदान", "ी"], [" इदानी", "न्त"], [" इदानीन्त", "न"], ["त", "ान"], [" भू", "ता"], ["भू", "त"], [" अत्य", "न्त"], [" पुरा", "तन"], [" २", "०००"], ["व", "ेद"], ["ल", "ब्ध"], [" ५", "००"], [" उभ", "य"], ["वि", "स्त"], ["विस्त", "ीर्ण"], ["स्थान", "े"], [" ई", "श"], [" ईश", "ान"], ["व", "ृत"], ["दि", "शा"], [" ब", "ङ्ग"], ["ल", "ोप"], [" अ", "ण्ड"], ["निक", "ोबार"], ["स", "मु"], ["दा", "यः"], ["य", "ै"], [" प्र", "देशः"], [" वा", "य"], ["प", "र्वत"], ["्र", "ः"], [" प", "ङ्क"], ["न्त", "रे"], [" का", "श्मीर"], ["र", "्यः"], [" पु", "ष्"], [" पुष्", "प"], [" श", "ो"], [" शो", "भ"], [" शोभ", "न"], ["ो", "न्"], [" ग", "ङ्गा"], ["न", "द्"], ["ाव", "ली"], ["वि", "न्"], ["विन्", "ध्य"], ["सा", "त्"], ["श्रेण", "्यः"], ["नी", "तिः"], ["मान", "स"], [" ष", "ष्ठ"], ["च", "्य"], [" ज्ञ", "ा"], ["स्था", "प"], ["स्थाप", "ित"], [" अस्", "त"], ["ा", "धि"], ["करण", "म्"], [" उ", "च्"], ["स्थ", "ि"], ["स्थि", "तिः"], ["दि", "ल्ली"], ["स", "्र"], ["मुख", "ः"], [" स्व", "क"], [" स्वक", "ीय"], ["त", "या"], [" अध", "ीन"], ["यो", "जय"], ["स", "दः"], ["ाल", "यः"], [" श", "ी"], [" शी", "र्ष"], ["स्थ", "ः"], ["ह", "वः"], ["नागर", "िक"], ["नि", "र्माण"], [" स्थाप", "्य"], ["चि", "त्"], [" ए", "ता"], [" एता", "दृ"], [" एतादृ", "श"], ["द", "ण्ड"], ["क्र", "िया"], ["ेऽ", "थ"], [" ७", "३"], [" ७३", "तमेन"], [" ७४", "तमेन"], ["प्र", "णाली"], ["ी", "कृ"], ["स", "ना"], ["सना", "तन"], ["वा", "स्तु"], ["योग", "ः"], ["वे", "दा"], ["वेदा", "न्त"], ["ह", "िन्दु"], ["मन्", "दि"], ["मन्दि", "रम्"], ["शोध", "नम्"], ["िण", "ः"], ["प", "त"], ["क", "्री"], ["क्री", "डा"], [" सू", "र्य"], ["मन्", "द"], ["ि", "रा"], [" म", "ण्डल"], ["स्", "वा"], ["त्व", "म्"], ["स", "प्त"], ["च", "त्"], ["वार", "ि"], ["शत", "तम"], ["मा", "स"], ["दि", "न"], ["ल", "भ"], ["ज", "वा"], [" पञ्च", "ा"], [" पञ्चा", "श"], [" ष", "ड्"], ["विंशति", "तम"], ["भ", "ौ"], ["भौ", "म"], ["े", "न्द्र"], [" अ", "ध्य"], [" पुन", "र्"], ["वि", "भागः"], ["धान", "म्"], [" बृह", "द्"], ["गा", "त्र"], ["क", "म्"], ["कार", "ा"], ["भू", "य"], [" कु", "र"], ["ाधिकार", "ः"], [" न्य", "स्त"], [" ", "देह"], ["नगर", "म्"], ["ध्वज", "ः"], ["ङ्क", "ित"], ["त्र", "ो"], ["ध्व", "ं"], [" के", "सर"], ["वर्ण", "ः"], [" हर", "ित"], [" न", "ील"], ["च", "क्र"], ["शी", "र्ष"], ["चि", "ह्"], ["चिह्", "नम्"], ["स", "त्य"], ["वा", "क"], ["वाक", "्यम्"], ["प्रा", "ण"], [" व्या", "घ"], [" व्याघ", "्र"], ["पक्ष", "ी"], [" म", "य"], [" मय", "ूर"], ["न", "द"], [" ग", "ङ"], [" गङ", "गा"], ["ध", "ू"], [" गोदा", "वरी"], ["क", "पि"], ["कपि", "ल"], [" ग", "ज"], ["कर्ण", "िका"], [" का", "वे"], [" कावे", "री"], ["ज", "ला"], ["फ", "ला"], [" स", "स्य"], ["श", "्याम"], ["श्याम", "ल"], [" दि", "लीप"], ["र", "थ"], ["रथ", "ः"], ["ि", "ष्ठ"], [" प", "ौ"], [" पौ", "रा"], [" पौरा", "ण"], [" पौराण", "िक"], ["च", "िन्"], ["चिन्", "त"], ["चिन्त", "क"], [" कीर्", "तिः"], [" स", "मु"], ["न", "य"], [" म", "न्त्र"], [" पर", "म"], [" ज", "्ञान"], ["्म", "ी"], ["व्या", "स"], ["न", "यः"], ["द", "ीन"], ["कृ", "ष्ण"], [" अव", "तार"], ["पु", "रु"], ["पुरु", "ष"], [" श", "ङ्क"], [" शङ्क", "र"], ["रा", "म"], ["ेश", "्व"], ["ेश्व", "र"], ["म", "ध्व"], [" आ", "चार्य"], ["त्र", "ै"], ["तत्त्व", "म्"], ["ा", "दि"], ["ात्", "मा"], ["गा", "न्"], ["गान्", "धी"], ["मार्", "ग"], ["ेण", "ैव"], ["प", "य"], [" का", "शी"], [" उ", "डु"], [" ति", "रु"], ["ब", "ेसेण्टथियोसफिकल"], ["श", "ता"], ["ोत्", "स"], ["ोत्स", "वः"], [" ब", "ेसेण्टथियोसफिकल"], [" त", "ान"], ["१९४८", "तमे"], [" आ", "चार"], [" व", "य"], [" व", "सा"], ["म", "ः"], ["ञ्च", "न"], [" प", "ोष"], ["ि", "त्री"], ["वा", "ङ्"], [" र", "म्य"], ["पूर्व", "ा"], [" जै", "मि"], [" प", "ाणि"], ["व", "यः"], [" क", "णा"], ["क", "ः"], [" व", "रा"], [" वरा", "ह"], ["मि", "ह"], ["भ", "ट"], ["भट", "ः"], ["पु", "ण"], ["पुण", "्य"], ["स", "म्प"], ["सम्प", "त्"], [" स्व", "र्ग"], [" वन्", "दन"], [" वन्दन", "ीय"], [" प", "न्"], ["तन्त्र", "म्"], [" को", "टि"], ["राज", "ः"], ["सागर", "ः"], ["ति", "ब्बत"], [" निक", "ोबार"], [" निक", "ट"], ["मुख", "्य"], [" कोल", "क"], [" पुण", "े"], ["पुरा", "तन"], ["रच", "ना"], ["सम", "ूह"], [" उत्", "सव"], [" न", "ैक"], ["प", "रम्"], ["परम्", "परा"], [" वि", "ष"], ["रच", "य"], ["ले", "ख"], ["लेख", "नी"], ["य", "म्"], ["खा", "त"], ["काल", "े"], ["स", "िता"], [" उन्न", "त"], ["अ", "वन"], ["अवन", "ति"], [" सु", "वर्ण"], ["देश", "ीय"], [" काल", "े"], [" विस्त", "ारः"], [" प", "द्"], ["ध", "त"], [" ग", "त"], ["योजन", "म्"], [" उ", "परि"], ["स्", "प"], [" गु", "रु"], ["ग", "ङ्गा"], ["न", "दी"], ["आ", "धार"], ["ग", "्रन्थ"], ["स", "मा"], [" ग्रन्थ", "िः"], ["२", "७"], ["उ", "ल्"], ["ले", "खा"], [" ind", "ep"], [" indep", "end"], [" A", "ra"], ["e", "a"], [" b", "or"], [" w", "est"], ["l", "ad"], ["di", "v"], [" N", "ico"], [" Nico", "bar"], [" Isl", "ands"], ["a", "il"], [" A", "f"], ["at", "her"], ["et", "t"], [" gra", "du"], [" V", "alley"], [" C", "ivil"], [" rec", "ord"], ["di", "an"], ["ant", "ed"], [" Jain", "ism"], [" he", "re"], ["up", "ta"], [" f", "l"], ["ab", "il"], [" king", "d"], [" kingd", "oms"], [" S", "outheast"], [" Isl", "am"], ["ast", "ri"], [" est", "ab"], ["v", "al"], [" ch", "anges"], ["m", "ary"], [" d", "omin"], ["s", "c"], ["os", "s"], [" m", "ult"], [" 202", "3"], [" an", "n"], [" f", "ast"], [" techn", "ology"], [" mid", "dle"], [" increas", "ing"], [" Kashm", "ir"], [" A", "mong"], [" f", "our"], [" w", "ild"], [" v", "i"], [" pro", "t"], [" ter", "m"], [" Bhar", "at"], [" v", "ari"], [" re", "n"], ["A", "n"], [" though", "t"], [" earli", "est"], [" k", "n"], ["in", "c"], ["p", "ed"], [" ar", "ound"], ["ak", "h"], [" ch", "ar"], [" fig", "ures"], [" old", "est"], [" t", "rib"], ["ro", "ss"], [" pl", "ain"], [" w", "hen"], [" tim", "es"], [" Ma", "h"], [" h", "owever"], [" diff", "er"], [" e", "th"], ["ic", "es"], [" con", "duct"], [" bir", "th"], ["e", "ograph"], [" e", "mpire"], [" te", "x"], [" h", "is"], [" sub", "sequ"], [" pol", "ic"], ["is", "s"], ["r", "uc"], [" comp", "le"], [" t", "a"], [" f", "low"], ["at", "ure"], [" res", "p"], ["t", "i"], ["d", "ed"], [" W", "est"], [" grow", "ing"], [" sm", "all"], [" t", "emp"], [" sign", "ificant"], [" num", "bers"], [" e", "very"], ["he", "re"], [" s", "o"], [" As", "ian"], [" v", "ast"], [" lead", "ing"], ["t", "ic"], ["ard", "s"], [" ag", "ain"], [" su", "p"], [" gr", "oup"], [" R", "aj"], [" a", "ff"], [" f", "urther"], [" cons", "id"], [" D", "al"], [" su", "m"], ["al", "th"], [" s", "a"], ["g", "u"], [" pro", "duc"], ["id", "ed"], [" leg", "is"], [" legis", "l"], [" pl", "ate"], [" app", "ro"], [" appro", "x"], [" approx", "im"], [" approxim", "ately"], [" sp", "read"], [" o", "b"], [" ", "upp"], [" upp", "er"], [" Th", "is"], [" ca", "us"], [" Plate", "au"], [" n", "ow"], [" rem", "ain"], [" sur", "v"], ["c", "an"], ["ap", "ut"], ["aput", "ra"], ["ort", "ant"], ["n", "a"], ["l", "ine"], [" di", "st"], [" A", "ccording"], [" territ", "ories"], [" p", "an"], [" D", "e"], [" h", "ig"], ["oc", "k"], [" influen", "ced"], ["at", "ak"], ["p", "l"], ["e", "y"], [" end", "ang"], [" endang", "ered"], [" f", "ive"], ["eral", "a"], [" P", "ar"], [" he", "ld"], [" un", "til"], [" Jan", "u"], [" Janu", "ary"], [" lead", "er"], [" 196", "5"], [" c", "ivil"], [" coal", "ition"], [" s", "ing"], [" form", "ed"], ["e", "e"], ["d", "ra"], [" As", "s"], [" St", "ates"], [" vill", "age"], [" execut", "ive"], ["ou", "se"], [" p", "ort"], [" th", "ree"], [" cour", "t"], [" cour", "ts"], ["m", "in"], [" N", "ad"], [" Nad", "u"], ["es", "e"], [" g", "lo"], [" to", "tal"], [" est", "im"], ["or", "ce"], ["al", "es"], [" ", "ve"], [" f", "amil"], [" famil", "ies"], [" off", "icial"], [" develop", "ed"], [" sch", "ool"], [" tradition", "al"], [" sculpt", "ure"], [" tradition", "s"], [" d", "ances"], [" wor", "n"], ["ge", "t"], ["ric", "ket"], ["ు", "ంది"], ["గ", "ి"], ["ల", "ం"], [" ద", "్వ"], [" 1", "6"], [" ", ":"], [" స్థ", "ాన"], ["ణ", "ం"], [" ఉ", "త్"], ["త", "్ర"], ["ల", "ా"], [" ప", "ట్ట"], ["ి", "ల్ల"], ["ధ", "ించ"], [" इ", "स"], [" జ", "రి"], [" అధిక", "ార"], [" కే", "ంద"], ["గ", "ర"], [" ", "ను"], [" ఉ", "ంట"], [" ర", "ెండ"], ["ల", "ీ"], ["1", "7"], [" అ", "తి"], [" ఆ", "ర్"], ["రు", "వ"], ["రువ", "ాత"], ["వా", "ణా"], [" మార్గ", "ాలు"], ["ं", "ग"], [" ज", "ा"], ["గ", "్"], ["ష", "్"], ["ీ", "ర్"], ["ాల", "్"], ["క్", "క"], [" వ", "ా"], [" మ", "హ"], [" క", "ొ"], ["ర", "ో"], [" ఏ", "ర్"], [" బ", "హ"], ["ీ", "న"], ["ట", "ిక"], [" ప", "ాల"], ["గ", "ిన"], ["ౌ", "క"], [" 4", "0"], [" క", "లి"], ["జ", "్య"], [" దక్షి", "ణా"], ["స్త", "ాన్"], [" వ", "ంట"], ["బ", "డ"], ["ంది", "న"], ["క", "ీయ"], [" కా", "ంగ"], [" కాంగ", "్ర"], [" కాంగ్ర", "ె"], ["గ", "ీ"], [" క్రీ", "డ"], ["4", "2"], [" 2", "8"], [" P", "ro"], [" क", "िया"], [" కేంద", "్ర"], [" ఎ", "క్కువ"], [" ము", "ఖ్య"], [" అ", "నే"], [" పా", "కి"], ["స్త", "ుత"], [" అయ", "ిన"], ["ప్ర", "దాయ"], [" 18", "5"], [" జ", "నాభా"], [" ప", "ెద్ద"], [" ఎన్న", "ో"], [" ర", "వాణా"], [" are", "a"], [" d", "emoc"], ["b", "ian"], [" S", "ea"], [" N", "ep"], [" Bang", "lad"], [" Banglad", "esh"], [" S", "ri"], [" M", "al"], ["on", "es"], [" Af", "ric"], [" Afric", "a"], [" The", "ir"], [" p", "red"], [" di", "verse"], [" 12", "00"], [" record", "ed"], [" D", "ra"], [" Dra", "vi"], [" Dravi", "dian"], [" cons", "ol"], [" consol", "id"], [" l", "o"], [" Ma", "ur"], [" ", "er"], [" er", "a"], [" c", "reat"], [" arch", "it"], [" archit", "ect"], [" w", "rit"], ["t", "ou"], ["tou", "ch"], ["abil", "ity"], [" sc", "ri"], [" estab", "l"], [" establ", "ished"], ["mit", "t"], [" res", "ult"], [" result", "ing"], ["et", "work"], [" relig", "ion"], ["and", "ing"], [" t", "urn"], [" righ", "ts"], ["olog", "ical"], [" int", "ro"], [" p", "ublic"], [" to", "ok"], [" influ", "ence"], ["vi", "ol"], [" part", "ition"], [" a", "cc"], ["r", "atic"], [" soc", "iet"], [" 195",
[...]
