{
  "version": "1.0",
  "truncation": null,
  "padding": null,
  "added_tokens": [],
  "normalizer": {
    "type": "NFKC"
  },
  "pre_tokenizer": {
    "type": "Metaspace",
    "replacement": "▁",
    "prepend_scheme": "never",
    "split": true
  },
  "post_processor": null,
  "decoder": {
    "type": "Metaspace",
    "replacement": "▁",
    "prepend_scheme": "never",
    "split": true
  },
  "model": {
    "type": "BPE",
    "dropout": null,
    "unk_token": null,
    "continuing_subword_prefix": null,
    "end_of_word_suffix": null,
    "fuse_unk": false,
    "byte_fallback": false,
    "ignore_merges": false,
    "vocab": {
      "\t": 0,
      "\n": 1,
      "\u000b": 2,
      "\f": 3,
      "\r": 4,
      "▁": 5,
      "!": 6,
      "\"": 7,
      "#": 8,
      "$": 9,
      "%": 10,
      "&": 11,
      "'": 12,
      "(": 13,
      ")": 14,
      "*": 15,
      "+": 16,
      ",": 17,
      "-": 18,
      ".": 19,
      "/": 20,
      "0": 21,
      "1": 22,
      "2": 23,
      "3": 24,
      "4": 25,
      "5": 26,
      "6": 27,
      "7": 28,
      "8": 29,
      "9": 30,
      ":": 31,
      ";": 32,
      "<": 33,
      "=": 34,
      ">": 35,
      "?": 36,
      "@": 37,
      "A": 38,
      "B": 39,
      "C": 40,
      "D": 41,
      "E": 42,
      "F": 43,
      "G": 44,
      "H": 45,
      "I": 46,
      "J": 47,
      "K": 48,
      "L": 49,
      "M": 50,
      "N": 51,
      "O": 52,
      "P": 53,
      "Q": 54,
      "R": 55,
      "S": 56,
      "T": 57,
      "U": 58,
      "V": 59,
      "W": 60,
      "X": 61,
      "Y": 62,
      "Z": 63,
      "[": 64,
      "\\": 65,
      "]": 66,
      "^": 67,
      "_": 68,
      "`": 69,
      "a": 70,
      "b": 71,
      "c": 72,
      "d": 73,
      "e": 74,
      "f": 75,
      "g": 76,
      "h": 77,
      "i": 78,
      "j": 79,
      "k": 80,
      "l": 81,
      "m": 82,
      "n": 83,
      "o": 84,
      "p": 85,
      "q": 86,
      "r": 87,
      "s": 88,
      "t": 89,
      "u": 90,
      "v": 91,
      "w": 92,
      "x": 93,
      "y": 94,
      "z": 95,
      "{": 96,
      "|": 97,
      "}": 98,
      "~": 99,
      "°": 100,
      "Ö": 101,
      "á": 102,
      "â": 103,
      "í": 104,
      "ā": 105,
      "ī": 106,
      "Ś": 107,
      "ū": 108,
      "ə": 109,
      "ɦ": 110,
      "ɪ": 111,
      "ɾ": 112,
      "ʊ": 113,
      "ˈ": 114,
      "ː": 115,
      "ί": 116,
      "α": 117,
      "δ": 118,
      "ν": 119,
      "ς": 120,
      "ό": 121,
      "ऀ": 122,
      "ँ": 123,
      "ं": 124,
      "ः": 125,
      "ऄ": 126,
      "अ": 127,
      "आ": 128,
      "इ": 129,
      "ई": 130,
      "उ": 131,
      "ऊ": 132,
      "ऋ": 133,
      "ऌ": 134,
      "ऍ": 135,
      "ऎ": 136,
      "ए": 137,
      "ऐ": 138,
      "ऑ": 139,
      "ऒ": 140,
      "ओ": 141,
      "औ": 142,
      "क": 143,
      "ख": 144,
      "ग": 145,
      "घ": 146,
      "ङ": 147,
      "च": 148,
      "छ": 149,
      "ज": 150,
      "झ": 151,
      "ञ": 152,
      "ट": 153,
      "ठ": 154,
      "ड": 155,
      "ढ": 156,
      "ण": 157,
      "त": 158,
      "थ": 159,
      "द": 160,
      "ध": 161,
      "न": 162,
      "ऩ": 163,
      "प": 164,
      "फ": 165,
      "ब": 166,
      "भ": 167,
      "म": 168,
      "य": 169,
      "र": 170,
      "ऱ": 171,
      "ल": 172,
      "ळ": 173,
      "ऴ": 174,
      "व": 175,
      "श": 176,
      "ष": 177,
      "स": 178,
      "ह": 179,
      "ऺ": 180,
      "ऻ": 181,
      "़": 182,
      "ऽ": 183,
      "ा": 184,
      "ि": 185,
      "ी": 186,
      "ु": 187,
      "ू": 188,
      "ृ": 189,
      "ॄ": 190,
      "ॅ": 191,
      "ॆ": 192,
      "े": 193,
      "ै": 194,
      "ॉ": 195,
      "ॊ": 196,
      "ो": 197,
      "ौ": 198,
      "्": 199,
      "ॎ": 200,
      "ॏ": 201,
      "ॐ": 202,
      "॑": 203,
      "॒": 204,
      "॓": 205,
      "॔": 206,
      "ॕ": 207,
      "ॖ": 208,
      "ॗ": 209,
      "क़": 210,
      "ख़": 211,
      "ग़": 212,
      "ज़": 213,
      "ड़": 214,
      "ढ़": 215,
      "फ़": 216,
      "य़": 217,
      "ॠ": 218,
      "ॡ": 219,
      "ॢ": 220,
      "ॣ": 221,
      "।": 222,
      "॥": 223,
      "०": 224,
      "१": 225,
      "२": 226,
      "३": 227,
      "४": 228,
      "५": 229,
      "६": 230,
      "७": 231,
      "८": 232,
      "९": 233,
      "॰": 234,
      "ॱ": 235,
      "ॲ": 236,
      "ॳ": 237,
      "ॴ": 238,
      "ॵ": 239,
      "ॶ": 240,
      "ॷ": 241,
      "ॸ": 242,
      "ॹ": 243,
      "ॺ": 244,
      "ॻ": 245,
      "ॼ": 246,
      "ॽ": 247,
      "ॾ": 248,
      "ॿ": 249,
      "ఀ": 250,
      "ఁ": 251,
      "ం": 252,
      "ః": 253,
      "ఄ": 254,
      "అ": 255,
      "ఆ": 256,
      "ఇ": 257,
      "ఈ": 258,
      "ఉ": 259,
      "ఊ": 260,
      "ఋ": 261,
      "ఌ": 262,
      "఍": 263,
      "ఎ": 264,
      "ఏ": 265,
      "ఐ": 266,
      "఑": 267,
      "ఒ": 268,
      "ఓ": 269,
      "ఔ": 270,
      "క": 271,
      "ఖ": 272,
      "గ": 273,
      "ఘ": 274,
      "ఙ": 275,
      "చ": 276,
      "ఛ": 277,
      "జ": 278,
      "ఝ": 279,
      "ఞ": 280,
      "ట": 281,
      "ఠ": 282,
      "డ": 283,
      "ఢ": 284,
      "ణ": 285,
      "త": 286,
      "థ": 287,
      "ద": 288,
      "ధ": 289,
      "న": 290,
      "఩": 291,
      "ప": 292,
      "ఫ": 293,
      "బ": 294,
      "భ": 295,
      "మ": 296,
      "య": 297,
      "ర": 298,
      "ఱ": 299,
      "ల": 300,
      "ళ": 301,
      "ఴ": 302,
      "వ": 303,
      "శ": 304,
      "ష": 305,
      "స": 306,
      "హ": 307,
      "఺": 308,
      "఻": 309,
      "఼": 310,
      "ఽ": 311,
      "ా": 312,
      "ి": 313,
      "ీ": 314,
      "ు": 315,
      "ూ": 316,
      "ృ": 317,
      "ౄ": 318,
      "౅": 319,
      "ె": 320,
      "ే": 321,
      "ై": 322,
      "౉": 323,
      "ొ": 324,
      "ో": 325,
      "ౌ": 326,
      "్": 327,
      "౎": 328,
      "౏": 329,
      "౐": 330,
      "౑": 331,
      "౒": 332,
      "౓": 333,
      "౔": 334,
      "ౕ": 335,
      "ౖ": 336,
      "౗": 337,
      "ౘ": 338,
      "ౙ": 339,
      "ౚ": 340,
      "౛": 341,
      "౜": 342,
      "ౝ": 343,
      "౞": 344,
      "౟": 345,
      "ౠ": 346,
      "ౡ": 347,
      "ౢ": 348,
      "ౣ": 349,
      "౤": 350,
      "౥": 351,
      "౦": 352,
      "౧": 353,
      "౨": 354,
      "౩": 355,
      "౪": 356,
      "౫": 357,
      "౬": 358,
      "౭": 359,
      "౮": 360,
      "౯": 361,
      "౰": 362,
      "౱": 363,
      "౲": 364,
      "౳": 365,
      "౴": 366,
      "౵": 367,
      "౶": 368,
      "౷": 369,
      "౸": 370,
      "౹": 371,
      "౺": 372,
      "౻": 373,
      "౼": 374,
      "౽": 375,
      "౾": 376,
      "౿": 377,
      "ṅ": 378,
      "ṇ": 379,
      "ṣ": 380,
      "ṭ": 381,
      "Ἰ": 382,
      "–": 383,
      "—": 384,
      "†": 385,
      "′": 386,
      "₹": 387,
      "﻿": 388,
      "▁t": 389,
      "an": 390,
      "he": 391,
      "in": 392,
      "▁the": 393,
      "on": 394,
      "er": 395,
      "re": 396,
      "al": 397,
      "▁o": 398,
      "st": 399,
      "at": 400,
      "en": 401,
      "ar": 402,
      "di": 403,
      "and": 404,
      "▁c": 405,
      "ed": 406,
      "▁I": 407,
      "▁a": 408,
      "▁in": 409,
      "▁of": 410,
      "▁w": 411,
      "it": 412,
      "▁s": 413,
      "▁In": 414,
      "▁and": 415,
      "or": 416,
      "▁,": 417,
      "▁p": 418,
      "▁b": 419,
      "ion": 420,
      "es": 421,
      "▁m": 422,
      "▁f": 423,
      "ic": 424,
      "▁Indi": 425,
      "is": 426,
      "ing": 427,
      "as": 428,
      "om": 429,
      "ent": 430,
      "▁l": 431,
      "्र": 432,
      "्य": 433,
      "ou": 434,
      "▁e": 435,
      "▁India": 436,
      "▁to": 437,
      "▁स": 438,
      "▁1": 439,
      "ार": 440,
      "▁d": 441,
      "ur": 442,
      "ly": 443,
      "▁h": 444,
      "ec": 445,
      "न्": 446,
      "▁T": 447,
      "▁क": 448,
      "▁re": 449,
      "il": 450,
      "▁n": 451,
      "▁g": 452,
      "▁प": 453,
      "ra": 454,
      "th": 455,
      "ri": 456,
      "▁अ": 457,
      "ul": 458,
      "ol": 459,
      "్ర": 460,
      "ver": 461,
      "am": 462,
      "▁ప": 463,
      "▁C": 464,
      "▁A": 465,
      "▁.": 466,
      "र्": 467,
      "ation": 468,
      "▁B": 469,
      "▁S": 470,
      "ార": 471,
      "ve": 472,
      "▁2": 473,
      "le": 474,
      "ro": 475,
      "ut": 476,
      "स्": 477,
      "ce": 478,
      "▁The": 479,
      "▁भ": 480,
      "▁is": 481,
      "ad": 482,
      "ist": 483,
      "ारत": 484,
      "ति": 485,
      "ాల": 486,
      "ge": 487,
      "im": 488,
      "▁व": 489,
      "▁Indian": 490,
      "▁by": 491,
      "म्": 492,
      "us": 493,
      "ast": 494,
      "▁be": 495,
      "▁19": 496,
      "▁म": 497,
      "ig": 498,
      "रा": 499,
      "un": 500,
      "'s": 501,
      "▁th": 502,
      "▁స": 503,
      "▁P": 504,
      "ith": 505,
      "ir": 506,
      "id": 507,
      "ow": 508,
      "त्": 509,
      "▁r": 510,
      "▁M": 511,
      "▁క": 512,
      "uc": 513,
      "स्य": 514,
      "rom": 515,
      "▁with": 516,
      "et": 517,
      "▁for": 518,
      "00": 519,
      "ate": 520,
      "▁con": 521,
      "ment": 522,
      "లో": 523,
      "▁was": 524,
      "em": 525,
      "ang": 526,
      "ter": 527,
      "op": 528,
      "ies": 529,
      "▁wh": 530,
      "tion": 531,
      "▁द": 532,
      "్య": 533,
      "ान": 534,
      "▁mo": 535,
      "▁as": 536,
      "ain": 537,
      "res": 538,
      "▁from": 539,
      "ong": 540,
      "▁st": 541,
      "ac": 542,
      "▁(": 543,
      "▁भारत": 544,
      "िक": 545,
      "▁వ": 546,
      "est": 547,
      "▁మ": 548,
      "▁प्र": 549,
      "▁त": 550,
      "▁N": 551,
      "ts": 552,
      "ेश": 553,
      "her": 554,
      "ay": 555,
      "ical": 556,
      "▁ex": 557,
      "న్": 558,
      "▁H": 559,
      "▁D": 560,
      "▁E": 561,
      "▁it": 562,
      "se": 563,
      "▁G": 564,
      "ld": 565,
      "▁ह": 566,
      "▁on": 567,
      "या": 568,
      "ab": 569,
      "ది": 570,
      "um": 571,
      "దే": 572,
      "ak": 573,
      "▁di": 574,
      "▁an": 575,
      "gh": 576,
      "ill": 577,
      "art": 578,
      "▁च": 579,
      "▁न": 580,
      "దేశ": 581,
      "ich": 582,
      "त्र": 583,
      "▁or": 584,
      "▁ज": 585,
      "▁has": 586,
      "▁आ": 587,
      "స్": 588,
      "ర్": 589,
      "ial": 590,
      "▁20": 591,
      "ిం": 592,
      "्व": 593,
      "▁रा": 594,
      "up": 595,
      "ud": 596,
      "ని": 597,
      "భార": 598,
      "der": 599,
      "▁which": 600,
      "భారత": 601,
      "▁ర": 602,
      "లు": 603,
      "ity": 604,
      "▁ब": 605,
      "▁are": 606,
      "ive": 607,
      "▁ప్ర": 608,
      "ित": 609,
      "▁वि": 610,
      "▁ग": 611,
      "oc": 612,
      "▁un": 613,
      "ult": 614,
      "ort": 615,
      "con": 616,
      "du": 617,
      "ure": 618,
      "el": 619,
      "oun": 620,
      "▁అ": 621,
      "ub": 622,
      "rit": 623,
      "ीय": 624,
      "li": 625,
      "▁के": 626,
      "ers": 627,
      "ना": 628,
      "ot": 629,
      "▁K": 630,
      "▁v": 631,
      "ाल": 632,
      "iv": 633,
      "▁इ": 634,
      "ary": 635,
      "▁inc": 636,
      "▁al": 637,
      "ष्": 638,
      "▁its": 639,
      "ere": 640,
      "▁com": 641,
      "▁cent": 642,
      "over": 643,
      "గా": 644,
      "ిక": 645,
      "ans": 646,
      "న్న": 647,
      "▁ए": 648,
      "▁W": 649,
      "ता": 650,
      "▁wor": 651,
      "end": 652,
      "▁de": 653,
      "ch": 654,
      "ag": 655,
      "ङ्": 656,
      "arge": 657,
      "ear": 658,
      "▁were": 659,
      "od": 660,
      "वि": 661,
      "मा": 662,
      "mp": 663,
      "our": 664,
      "ated": 665,
      "▁ఉ": 666,
      "▁श": 667,
      "In": 668,
      "▁Hin": 669,
      "os": 670,
      "The": 671,
      "नि": 672,
      "ें": 673,
      "क्": 674,
      "▁As": 675,
      "ant": 676,
      "age": 677,
      "ism": 678,
      "ish": 679,
      "▁ch": 680,
      "ap": 681,
      "▁sp": 682,
      "▁cont": 683,
      "र्व": 684,
      "भारत": 685,
      "▁at": 686,
      "▁pro": 687,
      "ance": 688,
      "ry": 689,
      "క్": 690,
      "og": 691,
      "ాయ": 692,
      "▁उ": 693,
      "outh": 694,
      "ous": 695,
      "▁int": 696,
      "ions": 697,
      "uring": 698,
      "ect": 699,
      "▁pl": 700,
      "fter": 701,
      "aj": 702,
      "overn": 703,
      "ough": 704,
      "ष्ट": 705,
      "▁R": 706,
      "िन्": 707,
      "ame": 708,
      "conom": 709,
      "eral": 710,
      "ass": 711,
      "av": 712,
      "▁భారత": 713,
      "देश": 714,
      "▁Ch": 715,
      "▁co": 716,
      "low": 717,
      "▁U": 718,
      "▁201": 719,
      "▁में": 720,
      "దేశం": 721,
      "angu": 722,
      "▁देश": 723,
      "हा": 724,
      "ాత": 725,
      "▁सं": 726,
      "▁ar": 727,
      "if": 728,
      "ern": 729,
      "▁J": 730,
      "▁bec": 731,
      "▁le": 732,
      "▁part": 733,
      "ore": 734,
      "overnment": 735,
      "ను": 736,
      "▁है": 737,
      "श्": 738,
      "్ట": 739,
      "ृत": 740,
      "▁reg": 741,
      "mer": 742,
      "▁into": 743,
      "hi": 744,
      "▁centur": 745,
      "▁econom": 746,
      "any": 747,
      "▁large": 748,
      "illion": 749,
      "▁का": 750,
      "्या": 751,
      "కు": 752,
      "ాలు": 753,
      "▁చ": 754,
      "द्": 755,
      "▁mar": 756,
      "▁rel": 757,
      "ates": 758,
      "ress": 759,
      "था": 760,
      "▁జ": 761,
      "Indi": 762,
      "ia": 763,
      "▁world": 764,
      "▁form": 765,
      "▁langu": 766,
      "▁per": 767,
      "▁cl": 768,
      "▁ad": 769,
      "ces": 770,
      "ct": 771,
      "్వ": 772,
      "ेन": 773,
      "ज्य": 774,
      "न्ति": 775,
      "ండ": 776,
      "▁se": 777,
      "▁pop": 778,
      "▁sub": 779,
      "▁ag": 780,
      "ally": 781,
      "▁Hindu": 782,
      "▁k": 783,
      "stit": 784,
      "me": 785,
      "inist": 786,
      "ీయ": 787,
      "ine": 788,
      "ेण": 789,
      "ीत": 790,
      "ence": 791,
      "▁y": 792,
      "ution": 793,
      "ational": 794,
      "irst": 795,
      "qu": 796,
      "har": 797,
      "▁el": 798,
      "▁ఇ": 799,
      "▁7": 800,
      "द्र": 801,
      "▁V": 802,
      "so": 803,
      "తి": 804,
      "ास": 805,
      "ిన": 806,
      "ian": 807,
      "▁Ind": 808,
      "India": 809,
      "▁popul": 810,
      "red": 811,
      "ave": 812,
      "ik": 813,
      "duc": 814,
      "▁first": 815,
      "all": 816,
      "▁during": 817,
      "▁government": 818,
      "▁\"": 819,
      "ष्ट्र": 820,
      "▁5": 821,
      "ించ": 822,
      "▁-": 823,
      "क्ष": 824,
      "ంది": 825,
      "वा": 826,
      "ते": 827,
      "ाग": 828,
      "▁र": 829,
      "▁sh": 830,
      "▁ri": 831,
      "▁dec": 832,
      "ire": 833,
      "▁pri": 834,
      "▁sy": 835,
      "reas": 836,
      "▁tra": 837,
      "pp": 838,
      "lud": 839,
      "प्र": 840,
      "ok": 841,
      "▁वर्": 842,
      "స్త": 843,
      "▁स्": 844,
      "धान": 845,
      "▁य": 846,
      "ric": 847,
      "▁year": 848,
      "cc": 849,
      "reat": 850,
      "▁exp": 851,
      "ther": 852,
      "▁comp": 853,
      "ome": 854,
      "we": 855,
      "▁gen": 856,
      "dition": 857,
      "ber": 858,
      "ల్": 859,
      "▁F": 860,
      "धर्": 861,
      "ages": 862,
      "▁3": 863,
      "▁4": 864,
      "ound": 865,
      "dern": 866,
      "ved": 867,
      "ff": 868,
      "dh": 869,
      "▁art": 870,
      "gan": 871,
      "▁over": 872,
      "ign": 873,
      "row": 874,
      "ide": 875,
      "▁end": 876,
      "ew": 877,
      "oth": 878,
      "uch": 879,
      "▁includ": 880,
      "ection": 881,
      "न्त": 882,
      "▁ఆ": 883,
      "ద్": 884,
      "ral": 885,
      "igh": 886,
      "estern": 887,
      "used": 888,
      "upp": 889,
      "▁cons": 890,
      "▁became": 891,
      "▁res": 892,
      "stitution": 893,
      "▁inf": 894,
      "ajor": 895,
      "▁syst": 896,
      "▁system": 897,
      "▁century": 898,
      "▁also": 899,
      "రి": 900,
      "▁ल": 901,
      "ము": 902,
      "धर्म": 903,
      "రు": 904,
      "▁राष्ट्र": 905,
      "ों": 906,
      "षा": 907,
      "▁अस्": 908,
      "ep": 909,
      "▁సం": 910,
      "▁had": 911,
      "▁relig": 912,
      "mpire": 913,
      "▁pe": 914,
      "▁rul": 915,
      "▁but": 916,
      "▁been": 917,
      "atic": 918,
      "imal": 919,
      "▁have": 920,
      "ted": 921,
      "▁more": 922,
      "▁202": 923,
      "▁న": 924,
      "▁త": 925,
      "▁L": 926,
      "ంత": 927,
      "▁200": 928,
      "▁రా": 929,
      "▁)": 930,
      "सी": 931,
      "▁ద": 932,
      "▁अस्ति": 933,
      "ాన": 934,
      "▁South": 935,
      "eng": 936,
      "ord": 937,
      "▁me": 938,
      "▁tw": 939,
      "ural": 940,
      "▁after": 941,
      "▁million": 942,
      "▁class": 943,
      "mong": 944,
      "vers": 945,
      "▁im": 946,
      "▁num": 947,
      "ongress": 948,
      "▁भारतीय": 949,
      "▁औ": 950,
      "सं": 951,
      "▁బ": 952,
      "ంట": 953,
      "వి": 954,
      "భా": 955,
      "▁rep": 956,
      "▁और": 957,
      "तः": 958,
      "पि": 959,
      "स्त": 960,
      "▁गीत": 961,
      "▁most": 962,
      "▁O": 963,
      "▁lat": 964,
      "▁years": 965,
      "▁region": 966,
      "▁he": 967,
      "▁pol": 968,
      "ose": 969,
      "ulture": 970,
      "▁two": 971,
      "▁modern": 972,
      "▁increas": 973,
      "▁that": 974,
      "hm": 975,
      "vel": 976,
      "ens": 977,
      "ond": 978,
      "▁such": 979,
      "lo": 980,
      "ower": 981,
      "▁their": 982,
      "▁minist": 983,
      "िका": 984,
      "कृत": 985,
      "ount": 986,
      "▁195": 987,
      "▁196": 988,
      "तम": 989,
      "न्त्र": 990,
      "ాయి": 991,
      "CE": 992,
      "▁గ": 993,
      "▁अन": 994,
      "ారు": 995,
      "ङ्क": 996,
      "ust": 997,
      "षु": 998,
      "orth": 999,
      "tin": 1000,
      "▁long": 1001,
      "▁BCE": 1002,
      "▁Bud": 1003,
      "▁Buddh": 1004,
      "▁soc": 1005,
      "ef": 1006,
      "▁sc": 1007,
      "ures": 1008,
      "anges": 1009,
      "▁par": 1010,
      "▁major": 1011,
      "▁dis": 1012,
      "▁tradition": 1013,
      "ree": 1014,
      "▁;": 1015,
      "▁both": 1016,
      "sh": 1017,
      "ren": 1018,
      "ween": 1019,
      "ban": 1020,
      "rib": 1021,
      "▁ca": 1022,
      "▁Congress": 1023,
      "▁prime": 1024,
      "▁dance": 1025,
      "▁की": 1026,
      "ుత": 1027,
      "ైన": 1028,
      "िण": 1029,
      "ూడ": 1030,
      "ింది": 1031,
      "द्ध": 1032,
      "ार्": 1033,
      "दा": 1034,
      "ासन": 1035,
      "ङ्ग": 1036,
      "lic": 1037,
      "▁Asia": 1038,
      "istan": 1039,
      "▁cast": 1040,
      "ations": 1041,
      "hed": 1042,
      "▁population": 1043,
      "▁ter": 1044,
      "urban": 1045,
      "les": 1046,
      "ph": 1047,
      "▁not": 1048,
      "amil": 1049,
      "▁grow": 1050,
      "▁under": 1051,
      "ard": 1052,
      "▁ser": 1053,
      "ाम": 1054,
      "न्द्र": 1055,
      "मु": 1056,
      "▁ఎ": 1057,
      "▁199": 1058,
      "▁पर": 1059,
      "కి": 1060,
      "ంగా": 1061,
      "थान": 1062,
      "ीप": 1063,
      "▁18": 1064,
      "ach": 1065,
      "ाषा": 1066,
      "olog": 1067,
      "धिक": 1068,
      "ल्": 1069,
      "▁వి": 1070,
      "క్ష": 1071,
      "ంగ": 1072,
      "▁इति": 1073,
      "ధిక": 1074,
      "द्व": 1075,
      "▁से": 1076,
      "▁off": 1077,
      "ially": 1078,
      "ince": 1079,
      "▁east": 1080,
      "isation": 1081,
      "ni": 1082,
      "▁language": 1083,
      "aw": 1084,
      "▁supp": 1085,
      "▁nort": 1086,
      "▁caste": 1087,
      "ty": 1088,
      "▁this": 1089,
      "▁Empire": 1090,
      "▁Brit": 1091,
      "▁British": 1092,
      "▁began": 1093,
      "rough": 1094,
      "ament": 1095,
      "ucle": 1096,
      "uclear": 1097,
      "▁mil": 1098,
      "ari": 1099,
      "▁many": 1100,
      "▁app": 1101,
      "ory": 1102,
      "▁bet": 1103,
      "▁between": 1104,
      "▁urban": 1105,
      "ics": 1106,
      "▁te": 1107,
      "▁ra": 1108,
      "▁election": 1109,
      "▁minister": 1110,
      "▁j": 1111,
      "▁mus": 1112,
      "▁శ": 1113,
      "१९": 1114,
      "यो": 1115,
      "▁ఉన్న": 1116,
      "ाद": 1117,
      "▁राज्य": 1118,
      "టి": 1119,
      "000": 1120,
      "िम": 1121,
      "ण्": 1122,
      "िः": 1123,
      "▁It": 1124,
      "▁south": 1125,
      "out": 1126,
      "▁land": 1127,
      "akistan": 1128,
      "▁north": 1129,
      "sl": 1130,
      "contin": 1131,
      "continent": 1132,
      "▁rec": 1133,
      "▁ear": 1134,
      "vi": 1135,
      "▁norther": 1136,
      "▁northern": 1137,
      "ta": 1138,
      "▁economy": 1139,
      "lu": 1140,
      "versity": 1141,
      "ell": 1142,
      "ically": 1143,
      "▁Con": 1144,
      "▁sec": 1145,
      "▁ab": 1146,
      "als": 1147,
      "pt": 1148,
      "lowing": 1149,
      "▁fore": 1150,
      "velop": 1151,
      "ket": 1152,
      "▁fol": 1153,
      "ीन": 1154,
      "स्कृत": 1155,
      "कार": 1156,
      "),": 1157,
      "ిత": 1158,
      "▁ने": 1159,
      "▁CE": 1160,
      "పు": 1161,
      "▁సా": 1162,
      "ूर्व": 1163,
      "్చ": 1164,
      "िया": 1165,
      "▁'": 1166,
      "जन": 1167,
      "तन्त्र": 1168,
      "▁6": 1169,
      "्च": 1170,
      "mon": 1171,
      "▁194": 1172,
      "यः": 1173,
      "ली": 1174,
      "००": 1175,
      "ార్": 1176,
      "सीत्": 1177,
      "cy": 1178,
      "▁Beng": 1179,
      "▁Bengal": 1180,
      "▁Pakistan": 1181,
      "▁Chin": 1182,
      "esh": 1183,
      "▁An": 1184,
      "▁later": 1185,
      "omin": 1186,
      "ade": 1187,
      "merg": 1188,
      "▁western": 1189,
      "ins": 1190,
      "▁languages": 1191,
      "ya": 1192,
      "ite": 1193,
      "ugh": 1194,
      "ace": 1195,
      "▁rule": 1196,
      "▁Com": 1197,
      "▁influ": 1198,
      "ition": 1199,
      "ani": 1200,
      "▁tim": 1201,
      "▁rate": 1202,
      "odi": 1203,
      "ately": 1204,
      "ci": 1205,
      "▁peop": 1206,
      "▁en": 1207,
      "▁imp": 1208,
      "▁classical": 1209,
      "arn": 1210,
      "▁Un": 1211,
      "ai": 1212,
      "ular": 1213,
      "▁develop": 1214,
      "ited": 1215,
      "▁Sh": 1216,
      "▁among": 1217,
      "▁general": 1218,
      "▁largest": 1219,
      "▁music": 1220,
      "▁विश": 1221,
      "पु": 1222,
      "తో": 1223,
      "दि": 1224,
      "ుల": 1225,
      "త్": 1226,
      "ష్ట": 1227,
      "▁प्रा": 1228,
      "भू": 1229,
      "▁8": 1230,
      "वर्": 1231,
      "రా": 1232,
      "ublic": 1233,
      "▁Pl": 1234,
      "वर": 1235,
      "▁హ": 1236,
      "▁देशः": 1237,
      "धर्मः": 1238,
      "▁इत्": 1239,
      "▁count": 1240,
      "▁since": 1241,
      "▁Th": 1242,
      "▁hum": 1243,
      "▁subcontinent": 1244,
      "▁lif": 1245,
      "▁life": 1246,
      "ise": 1247,
      "▁there": 1248,
      "ised": 1249,
      "ains": 1250,
      "unj": 1251,
      "unjab": 1252,
      "▁Mugh": 1253,
      "▁economic": 1254,
      "ative": 1255,
      "ech": 1256,
      "▁non": 1257,
      "ced": 1258,
      "▁increased": 1259,
      "▁lit": 1260,
      "orm": 1261,
      "▁mid": 1262,
      "itary": 1263,
      "ild": 1264,
      "▁hist": 1265,
      "▁spec": 1266,
      "▁ext": 1267,
      "▁people": 1268,
      "own": 1269,
      "▁peri": 1270,
      "▁period": 1271,
      "ting": 1272,
      "▁emp": 1273,
      "raph": 1274,
      "able": 1275,
      "esp": 1276,
      "arat": 1277,
      "ered": 1278,
      "ib": 1279,
      "imalay": 1280,
      "ice": 1281,
      "▁2011": 1282,
      "▁स्व": 1283,
      "ध्य": 1284,
      "▁కూడ": 1285,
      "▁भाषा": 1286,
      "ట్ట": 1287,
      "त्व": 1288,
      "का": 1289,
      "भा": 1290,
      "ంలో": 1291,
      "స్థ": 1292,
      "गो": 1293,
      "ack": 1294,
      "महा": 1295,
      "▁को": 1296,
      "▁दि": 1297,
      "▁सा": 1298,
      "क्षिण": 1299,
      "राज्य": 1300,
      "णि": 1301,
      "▁दक्षिण": 1302,
      "▁विश्व": 1303,
      "ంద": 1304,
      "▁12": 1305,
      "▁जन": 1306,
      "सिन्": 1307,
      "చ్చ": 1308,
      "ण्ड": 1309,
      "vent": 1310,
      "▁Isl": 1311,
      "▁than": 1312,
      "▁occ": 1313,
      "▁emerg": 1314,
      "▁Indus": 1315,
      "ird": 1316,
      "illen": 1317,
      "illenni": 1318,
      "illennium": 1319,
      "▁Sans": 1320,
      "▁Sansk": 1321,
      "▁Sanskrit": 1322,
      "▁social": 1323,
      "▁Ma": 1324,
      "lim": 1325,
      "ultan": 1326,
      "▁Punjab": 1327,
      "▁Sik": 1328,
      "▁Mughal": 1329,
      "ft": 1330,
      "▁East": 1331,
      "vement": 1332,
      "▁parli": 1333,
      "▁parliament": 1334,
      "▁liter": 1335,
      "▁nuclear": 1336,
      "▁state": 1337,
      "ected": 1338,
      "▁ref": 1339,
      "cient": 1340,
      "ron": 1341,
      "ood": 1342,
      "ever": 1343,
      "ities": 1344,
      "hen": 1345,
      "▁new": 1346,
      "▁set": 1347,
      "athe": 1348,
      "▁main": 1349,
      "ange": 1350,
      "▁power": 1351,
      "rol": 1352,
      "roc": 1353,
      "dic": 1354,
      "▁lead": 1355,
      "▁Al": 1356,
      "▁war": 1357,
      "▁Eur": 1358,
      "▁number": 1359,
      "tern": 1360,
      "▁Himalay": 1361,
      "▁one": 1362,
      "▁cour": 1363,
      "▁species": 1364,
      "पाल": 1365,
      "्त": 1366,
      "▁ఈ": 1367,
      "द्वीप": 1368,
      "యా": 1369,
      "ला": 1370,
      "ागर": 1371,
      "▁शासन": 1372,
      "▁9": 1373,
      "▁15": 1374,
      "▁ప్రా": 1375,
      "▁రాజ": 1376,
      "▁దేశ": 1377,
      "▁197": 1378,
      "सा": 1379,
      "▁దేశం": 1380,
      "रु": 1381,
      "▁భారతదేశం": 1382,
      "तर": 1383,
      "नी": 1384,
      "विधान": 1385,
      "▁198": 1386,
      "िय": 1387,
      "ంచ": 1388,
      "▁భా": 1389,
      "▁ఒ": 1390,
      "▁राज": 1391,
      "▁Indo": 1392,
      "▁Plate": 1393,
      "्यः": 1394,
      "▁वर्ष": 1395,
      "▁वर्त": 1396,
      "▁country": 1397,
      "large": 1398,
      "largest": 1399,
      "▁China": 1400,
      "ank": 1401,
      "aman": 1402,
      "ands": 1403,
      "▁river": 1404,
      "▁bas": 1405,
      "▁gra": 1406,
      "ivil": 1407,
      "ope": 1408,
      "la": 1409,
      "▁est": 1410,
      "▁Cent": 1411,
      "▁Del": 1412,
      "▁Comp": 1413,
      "▁col": 1414,
      "▁righ": 1415,
      "▁other": 1416,
      "▁1950": 1417,
      "▁through": 1418,
      "▁billion": 1419,
      "▁US": 1420,
      "▁though": 1421,
      "▁military": 1422,
      "fe": 1423,
      "▁En": 1424,
      "rig": 1425,
      "dust": 1426,
      "ten": 1427,
      "▁including": 1428,
      "▁Ganges": 1429,
      "▁agric": 1430,
      "▁out": 1431,
      "▁them": 1432,
      "emp": 1433,
      "ograph": 1434,
      "▁caused": 1435,
      "▁Tamil": 1436,
      "iz": 1437,
      "gen": 1438,
      "▁up": 1439,
      "▁who": 1440,
      "til": 1441,
      "hes": 1442,
      "▁sur": 1443,
      "▁constitution": 1444,
      "ribut": 1445,
      "orts": 1446,
      "athem": 1447,
      "मे": 1448,
      "ने": 1449,
      "▁सर्व": 1450,
      "▁ల": 1451,
      "ట్": 1452,
      "▁ని": 1453,
      "్రీ": 1454,
      "▁మొ": 1455,
      "ష్ట్ర": 1456,
      "गा": 1457,
      "ాతీయ": 1458,
      "▁రై": 1459,
      "▁पु": 1460,
      "▁17": 1461,
      "दन": 1462,
      "द्य": 1463,
      "ोक": 1464,
      "▁Wor": 1465,
      "▁World": 1466,
      "▁ते": 1467,
      "ब्": 1468,
      "शि": 1469,
      "▁స్": 1470,
      "ద్ధ": 1471,
      "్రి": 1472,
      "ులు": 1473,
      "ర్వ": 1474,
      "ఖ్య": 1475,
      "खा": 1476,
      "▁उत्": 1477,
      "▁వ్య": 1478,
      "ణా": 1479,
      "▁పే": 1480,
      "ాన్": 1481,
      "తర": 1482,
      "▁हैं": 1483,
      "ञ्च": 1484,
      "ालय": 1485,
      "धि": 1486,
      "णा": 1487,
      "▁पूर्व": 1488,
      "▁तस्": 1489,
      "heast": 1490,
      "▁no": 1491,
      "▁third": 1492,
      "▁millennium": 1493,
      "▁By": 1494,
      "▁pre": 1495,
      "▁polit": 1496,
      "▁wom": 1497,
      "▁religi": 1498,
      "uslim": 1499,
      "▁Central": 1500,
      "▁Delhi": 1501,
      "rew": 1502,
      "▁Sikh": 1503,
      "▁centuries": 1504,
      "▁Company": 1505,
      "▁gr": 1506,
      "duced": 1507,
      "put": 1508,
      "▁ne": 1509,
      "ording": 1510,
      "▁Eng": 1511,
      "lish": 1512,
      "ians": 1513,
      "▁wide": 1514,
      "ata": 1515,
      "▁second": 1516,
      "owever": 1517,
      "▁we": 1518,
      "▁sty": 1519,
      "▁found": 1520,
      "ments": 1521,
      "▁some": 1522,
      "ould": 1523,
      "ruc": 1524,
      "▁forest": 1525,
      "▁tr": 1526,
      "▁all": 1527,
      "▁led": 1528,
      "▁sign": 1529,
      "amp": 1530,
      "ocal": 1531,
      "ident": 1532,
      "▁far": 1533,
      "▁After": 1534,
      "▁dire": 1535,
      "▁National": 1536,
      "▁served": 1537,
      "▁rural": 1538,
      "ana": 1539,
      "read": 1540,
      "uj": 1541,
      "▁influen": 1542,
      "▁play": 1543,
      "rad": 1544,
      "▁St": 1545,
      "ru": 1546,
      "▁contribut": 1547,
      "▁mathem": 1548,
      "वी": 1549,
      "कि": 1550,
      "ల్ల": 1551,
      "్రా": 1552,
      "వా": 1553,
      "నే": 1554,
      "మైన": 1555,
      "ద్ద": 1556,
      "20": 1557,
      "दी": 1558,
      "▁26": 1559,
      "भाग": 1560,
      "19": 1561,
      "▁10": 1562,
      "▁सि": 1563,
      "%.": 1564,
      "क्त": 1565,
      "स्थान": 1566,
      "లి": 1567,
      "▁पा": 1568,
      "డి": 1569,
      "టు": 1570,
      "धु": 1571,
      "ండి": 1572,
      "▁जा": 1573,
      "ింద": 1574,
      "सागर": 1575,
      "▁प्रथ": 1576,
      "▁प्रथम": 1577,
      "भूम": 1578,
      "▁महा": 1579,
      "ूप": 1580,
      "ost": 1581,
      "सः": 1582,
      "देशः": 1583,
      "▁राग": 1584,
      "ादय": 1585,
      "वान्": 1586,
      "▁1947": 1587,
      "west": 1588,
      "daman": 1589,
      "are": 1590,
      "▁made": 1591,
      "▁high": 1592,
      "verse": 1593,
      "led": 1594,
      "▁emerged": 1595,
      "alle": 1596,
      "▁Hinduism": 1597,
      "▁regions": 1598,
      "▁Jain": 1599,
      "▁political": 1600,
      "▁women": 1601,
      "dle": 1602,
      "▁religious": 1603,
      "▁coast": 1604,
      "▁Muslim": 1605,
      "mit": 1606,
      "ultanate": 1607,
      "ork": 1608,
      "▁culture": 1609,
      "▁us": 1610,
      "▁left": 1611,
      "acy": 1612,
      "▁Indians": 1613,
      "▁tech": 1614,
      "▁movement": 1615,
      "▁time": 1616,
      "▁cap": 1617,
      "ology": 1618,
      "ats": 1619,
      "ccording": 1620,
      "▁English": 1621,
      "ives": 1622,
      "▁histor": 1623,
      "▁eastern": 1624,
      "▁used": 1625,
      "day": 1626,
      "▁ent": 1627,
      "▁coal": 1628,
      "▁human": 1629,
      "eh": 1630,
      "ants": 1631,
      "▁fe": 1632,
      "▁—": 1633,
      "▁ass": 1634,
      "▁ac": 1635,
      "▁emplo": 1636,
      "▁employ": 1637,
      "ied": 1638,
      "rahm": 1639,
      "▁central": 1640,
      "▁control": 1641,
      "cri": 1642,
      "▁great": 1643,
      "▁trans": 1644,
      "▁they": 1645,
      "very": 1646,
      "ars": 1647,
      "omet": 1648,
      "▁Buddhist": 1649,
      "eration": 1650,
      "ors": 1651,
      "▁esp": 1652,
      "▁espec": 1653,
      "▁especially": 1654,
      "▁pain": 1655,
      "▁painting": 1656,
      "▁following": 1657,
      "▁indust": 1658,
      "▁Gand": 1659,
      "▁Gandhi": 1660,
      "▁territ": 1661,
      "au": 1662,
      "▁include": 1663,
      "und": 1664,
      "▁majority": 1665,
      "▁Prad": 1666,
      "▁Pradesh": 1667,
      "▁her": 1668,
      "▁areas": 1669,
      "ati": 1670,
      "▁Jan": 1671,
      "▁mem": 1672,
      "han": 1673,
      "▁growth": 1674,
      "ances": 1675,
      "▁cook": 1676,
      "ool": 1677,
      "ensus": 1678,
      "▁Hindi": 1679,
      "▁२": 1680,
      "పా": 1681,
      "▁స్థ": 1682,
      "డ్": 1683,
      "%,": 1684,
      "తా": 1685,
      "पर": 1686,
      "प्त": 1687,
      "నా": 1688,
      "▁ము": 1689,
      "నికి": 1690,
      "▁सम्": 1691,
      "▁అధిక": 1692,
      "ధ్య": 1693,
      "▁లో": 1694,
      "▁नाम": 1695,
      "▁ఉంది": 1696,
      "▁ఉన్నాయి": 1697,
      "▁सम": 1698,
      "से": 1699,
      "ड़": 1700,
      "श्च": 1701,
      "दु": 1702,
      "ived": 1703,
      "▁भू": 1704,
      "▁ఏ": 1705,
      "▁భ": 1706,
      "ue": 1707,
      "▁కా": 1708,
      "चार": 1709,
      "▁कर": 1710,
      "మా": 1711,
      ").": 1712,
      "दे": 1713,
      "्री": 1714,
      "▁कार": 1715,
      "▁तथा": 1716,
      "▁మార్": 1717,
      "వస్థ": 1718,
      "▁ఒక": 1719,
      "स्था": 1720,
      "▁రాష్ట్ర": 1721,
      "▁लोक": 1722,
      "భారతదేశం": 1723,
      "ह्": 1724,
      "विध": 1725,
      "▁21": 1726,
      "▁मा": 1727,
      "िता": 1728,
      "ार्थ": 1729,
      "▁दिन": 1730,
      "ाणि": 1731,
      "संस्कृत": 1732,
      "नाथ": 1733,
      "तिः": 1734,
      "तत्": 1735,
      "డు": 1736,
      "▁एष": 1737,
      "भूमिः": 1738,
      "emoc": 1739,
      "▁Bang": 1740,
      "yan": 1741,
      "mar": 1742,
      "▁Its": 1743,
      "▁Andaman": 1744,
      "bar": 1745,
      "▁ago": 1746,
      "▁occup": 1747,
      "vol": 1748,
      "ving": 1749,
      "alley": 1750,
      "▁arch": 1751,
      "opean": 1752,
      "▁diff": 1753,
      "▁early": 1754,
      "ning": 1755,
      "ked": 1756,
      "lief": 1757,
      "oms": 1758,
      "▁cult": 1759,
      "▁arm": 1760,
      "work": 1761,
      "▁cre": 1762,
      "▁leg": 1763,
      "urn": 1764,
      "▁prom": 1765,
      "▁national": 1766,
      "ale": 1767,
      "▁fed": 1768,
      "▁parliamentary": 1769,
      "istic": 1770,
      "▁grew": 1771,
      "ually": 1772,
      "▁literacy": 1773,
      "▁Kas": 1774,
      "▁Kashm": 1775,
      "▁bi": 1776,
      "▁support": 1777,
      "▁Pers": 1778,
      "▁prov": 1779,
      "▁Constitution": 1780,
      "▁orig": 1781,
      "ained": 1782,
      "▁widely": 1783,
      "▁diversity": 1784,
      "▁animal": 1785,
      "▁These": 1786,
      "▁feat": 1787,
      "▁fig": 1788,
      "▁vill": 1789,
      "oin": 1790,
      "▁def": 1791,
      "ared": 1792,
      "▁religions": 1793,
      "▁Brahm": 1794,
      "▁bir": 1795,
      "ix": 1796,
      "rop": 1797,
      "amm": 1798,
      "▁roc": 1799,
      "minist": 1800,
      "▁dev": 1801,
      "▁man": 1802,
      "ert": 1803,
      "ering": 1804,
      "▁pen": 1805,
      "▁penins": 1806,
      "▁whose": 1807,
      "▁sm": 1808,
      "ific": 1809,
      "bers": 1810,
      "ines": 1811,
      "ites": 1812,
      "▁local": 1813,
      "ven": 1814,
      "cess": 1815,
      "ess": 1816,
      "leg": 1817,
      "▁direct": 1818,
      "ories": 1819,
      "▁states": 1820,
      "▁Himalayas": 1821,
      "▁ancient": 1822,
      "▁rem": 1823,
      "pur": 1824,
      "▁Guj": 1825,
      "▁dra": 1826,
      "ons": 1827,
      "ali": 1828,
      "JP": 1829,
      "▁Neh": 1830,
      "▁Nehru": 1831,
      "▁party": 1832,
      "▁last": 1833,
      "ody": 1834,
      "▁United": 1835,
      "ecut": 1836,
      "DP": 1837,
      "▁rates": 1838,
      "▁gar": 1839,
      "▁census": 1840,
      "icial": 1841,
      "▁marri": 1842,
      "▁scul": 1843,
      "▁sculpt": 1844,
      "సి": 1845,
      "్ల": 1846,
      "ారం": 1847,
      "..": 1848,
      "▁स्थान": 1849,
      "ెండ": 1850,
      "act": 1851,
      "▁పా": 1852,
      "▁మార్గ": 1853,
      "▁హింద": 1854,
      "▁వచ్చ": 1855,
      "धिकार": 1856,
      "षे": 1857,
      "▁हिन्": 1858,
      "यु": 1859,
      "▁संस्कृत": 1860,
      "▁केन्द्र": 1861,
      "ेद": 1862,
      "शत": 1863,
      "्ञ": 1864,
      "▁స్వ": 1865,
      "్రమ": 1866,
      "श्चिम": 1867,
      "र्वत": 1868,
      "▁ऐ": 1869,
      "्याय": 1870,
      "ిన్న": 1871,
      "తం": 1872,
      "▁శా": 1873,
      "బ్": 1874,
      "ానికి": 1875,
      "र्थ": 1876,
      "ధాన": 1877,
      "भ्य": 1878,
      "च्": 1879,
      "జాతీయ": 1880,
      "▁కూడా": 1881,
      "मुख": 1882,
      "रे": 1883,
      "ख्या": 1884,
      "▁नि": 1885,
      "ाला": 1886,
      "▁तत्": 1887,
      "हु": 1888,
      "र्ण": 1889,
      "▁मु": 1890,
      "▁विद्य": 1891,
      "▁पाकि": 1892,
      "▁उत्तर": 1893,
      "్మ": 1894,
      "▁13": 1895,
      "▁193": 1896,
      "ర్య": 1897,
      "▁क्र": 1898,
      "స్క": 1899,
      "व्य": 1900,
      "▁కో": 1901,
      "▁చె": 1902,
      "గు": 1903,
      "ప్ర": 1904,
      "▁एक": 1905,
      "ంత్ర": 1906,
      "▁कृत": 1907,
      "ाङ्क": 1908,
      "▁ind": 1909,
      "outheast": 1910,
      "ders": 1911,
      "▁Bh": 1912,
      "▁near": 1913,
      "ico": 1914,
      "ex": 1915,
      "▁within": 1916,
      "▁Buddhism": 1917,
      "▁rise": 1918,
      "▁During": 1919,
      "▁stat": 1920,
      "ined": 1921,
      "▁king": 1922,
      "ished": 1923,
      "▁sou": 1924,
      "▁souther": 1925,
      "▁southern": 1926,
      "▁inter": 1927,
      "ently": 1928,
      "▁created": 1929,
      "▁compos": 1930,
      "▁techn": 1931,
      "▁ed": 1932,
      "▁educ": 1933,
      "▁education": 1934,
      "ration": 1935,
      "▁federal": 1936,
      "▁republic": 1937,
      "ual": 1938,
      "iet": 1939,
      "▁become": 1940,
      "ality": 1941,
      "ising": 1942,
      "▁air": 1943,
      "urther": 1944,
      "▁Persian": 1945,
      "▁well": 1946,
      "ks": 1947,
      "▁Bhar": 1948,
      "▁origin": 1949,
      "▁cur": 1950,
      "▁popular": 1951,
      "▁Y": 1952,
      "▁earli": 1953,
      "▁forms": 1954,
      "ped": 1955,
      "▁z": 1956,
      "att": 1957,
      "▁cities": 1958,
      "▁Mo": 1959,
      "▁styles": 1960,
      "wn": 1961,
      "▁old": 1962,
      "eak": 1963,
      "ating": 1964,
      "ss": 1965,
      "▁agriculture": 1966,
      "ight": 1967,
      "alled": 1968,
      "▁based": 1969,
      "tions": 1970,
      "sequ": 1971,
      "▁rock": 1972,
      "mb": 1973,
      "▁administ": 1974,
      "▁along": 1975,
      "ively": 1976,
      "▁regional": 1977,
      "ake": 1978,
      "▁development": 1979,
      "ificant": 1980,
      "▁sch": 1981,
      "▁sultanate": 1982,
      "though": 1983,
      "▁men": 1984,
      "ists": 1985,
      "▁peninsular": 1986,
      "ract": 1987,
      "ung": 1988,
      "▁market": 1989,
      "oup": 1990,
      "▁commer": 1991,
      "▁bl": 1992,
      "▁pres": 1993,
      "▁longer": 1994,
      "▁sever": 1995,
      "▁There": 1996,
      "▁produc": 1997,
      "ternal": 1998,
      "cent": 1999,
      "▁industry": 2000,
      "▁won": 2001,
      "▁elections": 2002,
      "▁cr": 2003,
      "▁contin": 2004,
      "▁lower": 2005,
      "▁Gujarat": 2006,
      "▁Western": 2007,
      "ash": 2008,
      "▁low": 2009,
      "aksh": 2010,
      "▁cor": 2011,
      "▁union": 2012,
      "round": 2013,
      "▁right": 2014,
      "▁win": 2015,
      "▁mon": 2016,
      "▁often": 2017,
      "▁employed": 2018,
      "▁endem": 2019,
      "bal": 2020,
      "▁car": 2021,
      "ah": 2022,
      "▁Act": 2023,
      "tt": 2024,
      "▁BJP": 2025,
      "old": 2026,
      "▁1991": 2027,
      "▁member": 2028,
      "tal": 2029,
      "▁execut": 2030,
      "▁GDP": 2031,
      "de": 2032,
      "▁2001": 2033,
      "fore": 2034,
      "ath": 2035,
      "▁common": 2036,
      "▁mathematic": 2037,
      "▁Wik": 2038,
      "▁దక్ష": 2039,
      "పంచ": 2040,
      "▁ప్రాంత": 2041,
      "▁మత": 2042,
      "▁ఎన్న": 2043,
      "▁పార": 2044,
      "▁వ్యవస్థ": 2045,
      "▁పేరు": 2046,
      "ook": 2047,
      "ेक": 2048,
      "▁దేశాల": 2049,
      "गर": 2050,
      "िमालय": 2051,
      "▁ब्र": 2052,
      "सि": 2053,
      "गत": 2054,
      "▁बहु": 2055,
      "सभा": 2056,
      "के": 2057,
      "▁क्": 2058,
      "ासित": 2059,
      "▁अन्य": 2060,
      "కో": 2061,
      "త్వ": 2062,
      "ప్": 2063,
      "మి": 2064,
      "र्य": 2065,
      "న్ని": 2066,
      "▁చే": 2067,
      "▁Ar": 2068,
      "चीन": 2069,
      "ంబ": 2070,
      "త్య": 2071,
      "▁14": 2072,
      "रूप": 2073,
      "ये": 2074,
      "క్కు": 2075,
      "్రం": 2076,
      "▁రాజ్య": 2077,
      "సు": 2078,
      "దాయ": 2079,
      "▁కే": 2080,
      "▁దక్షి": 2081,
      "▁ప్రపంచ": 2082,
      "▁పార్ట": 2083,
      "▁పార్టీ": 2084,
      "गीत": 2085,
      "शासन": 2086,
      "िख": 2087,
      "▁మధ్య": 2088,
      "▁ప్రధాన": 2089,
      "▁50": 2090,
      "▁श्री": 2091,
      "▁पर्वत": 2092,
      "▁భారతీయ": 2093,
      "▁రైలు": 2094,
      "गोल": 2095,
      "ले": 2096,
      "मान": 2097,
      "▁१": 2098,
      "▁अनेक": 2099,
      "ात्": 2100,
      "डा": 2101,
      "▁स्थ": 2102,
      "चित": 2103,
      "▁मध्य": 2104,
      "माण": 2105,
      "रत": 2106,
      "▁सिन्": 2107,
      "ह्म": 2108,
      "▁पश्चिम": 2109,
      "▁नेपाल": 2110,
      "वस्था": 2111,
      "नाम": 2112,
      "सिद्ध": 2113,
      "▁55": 2114,
      "కొ": 2115,
      "ున్న": 2116,
      "▁కు": 2117,
      "▁పు": 2118,
      "कर": 2119,
      "हर": 2120,
      "नः": 2121,
      "िखित": 2122,
      "▁పరి": 2123,
      "పాల": 2124,
      "వర": 2125,
      "కాల": 2126,
      "▁సి": 2127,
      "▁11": 2128,
      "▁మొద": 2129,
      "▁కాల": 2130,
      "ిస్త": 2131,
      "▁అయ": 2132,
      "▁ప్రజ": 2133,
      "క్కువ": 2134,
      "భుత": 2135,
      "భుత్వ": 2136,
      "▁క్రీ": 2137,
      "ध्व": 2138,
      "▁భాష": 2139,
      "तमे": 2140,
      "सम": 2141,
      "నాభా": 2142,
      "భారతీయ": 2143,
      "▁హిందూ": 2144,
      "▁स्थाने": 2145,
      "दश": 2146,
      "सर्व": 2147,
      "▁रवी": 2148,
      "नै": 2149,
      "▁indep": 2150,
      "▁independ": 2151,
      "▁Ara": 2152,
      "ea": 2153,
      "▁bor": 2154,
      "▁west": 2155,
      "lad": 2156,
      "div": 2157,
      "▁Nico": 2158,
      "▁Nicobar": 2159,
      "▁Islands": 2160,
      "ail": 2161,
      "▁Af": 2162,
      "ather": 2163,
      "ett": 2164,
      "▁gradu": 2165,
      "▁Valley": 2166,
      "▁Civil": 2167,
      "▁record": 2168,
      "dian": 2169,
      "anted": 2170,
      "▁Jainism": 2171,
      "▁here": 2172,
      "upta": 2173,
      "▁fl": 2174,
      "abil": 2175,
      "▁kingd": 2176,
      "▁kingdoms": 2177,
      "▁Southeast": 2178,
      "▁Islam": 2179,
      "astri": 2180,
      "▁estab": 2181,
      "val": 2182,
      "ara": 2183,
      "▁changes": 2184,
      "mary": 2185,
      "▁domin": 2186,
      "sc": 2187,
      "oss": 2188,
      "▁mult": 2189,
      "▁2023": 2190,
      "▁ann": 2191,
      "▁fast": 2192,
      "▁technology": 2193,
      "▁middle": 2194,
      "▁increasing": 2195,
      "▁Kashmir": 2196,
      "▁Among": 2197,
      "▁four": 2198,
      "▁wild": 2199,
      "▁vi": 2200,
      "▁prot": 2201,
      "▁term": 2202,
      "▁Bharat": 2203,
      "▁vari": 2204,
      "▁ren": 2205,
      "An": 2206,
      "▁thought": 2207,
      "▁earliest": 2208,
      "▁kn": 2209,
      "inc": 2210,
      "▁around": 2211,
      "akh": 2212,
      "▁char": 2213,
      "▁figures": 2214,
      "▁oldest": 2215,
      "▁trib": 2216,
      "ross": 2217,
      "▁plain": 2218,
      "▁when": 2219,
      "▁times": 2220,
      "▁Mah": 2221,
      "▁however": 2222,
      "▁differ": 2223,
      "▁eth": 2224,
      "ices": 2225,
      "▁conduc": 2226,
      "▁birth": 2227,
      "eograph": 2228,
      "▁empire": 2229,
      "▁tex": 2230,
      "▁his": 2231,
      "▁subsequ": 2232,
      "▁polic": 2233,
      "iss": 2234,
      "▁comple": 2235,
      "▁ta": 2236,
      "▁flow": 2237,
      "ature": 2238,
      "▁resp": 2239,
      "ti": 2240,
      "ded": 2241,
      "▁West": 2242,
      "▁growing": 2243,
      "▁small": 2244,
      "▁temp": 2245,
      "▁significant": 2246,
      "▁numbers": 2247,
      "▁every": 2248,
      "here": 2249,
      "▁so": 2250,
      "▁Asian": 2251,
      "▁vast": 2252,
      "▁leading": 2253,
      "tic": 2254,
      "ards": 2255,
      "▁again": 2256,
      "▁sup": 2257,
      "▁group": 2258,
      "▁Raj": 2259,
      "▁aff": 2260,
      "▁further": 2261,
      "▁consid": 2262,
      "▁Dal": 2263,
      "▁sum": 2264,
      "alth": 2265,
      "▁sa": 2266,
      "gu": 2267,
      "ided": 2268,
      "▁legis": 2269,
      "▁legisl": 2270,
      "▁plate": 2271,
      "▁appro": 2272,
      "▁approx": 2273,
      "▁approxim": 2274,
      "▁approximately": 2275,
      "▁spread": 2276,
      "▁ob": 2277,
      "▁upp": 2278,
      "▁upper": 2279,
      "▁This": 2280,
      "▁caus": 2281,
      "▁Plateau": 2282,
      "▁now": 2283,
      "▁remain": 2284,
      "▁surv": 2285,
      "can": 2286,
      "aput": 2287,
      "aputra": 2288,
      "ortant": 2289,
      "na": 2290,
      "line": 2291,
      "▁dist": 2292,
      "▁According": 2293,
      "▁territories": 2294,
      "▁pan": 2295,
      "▁De": 2296,
      "▁hig": 2297,
      "ock": 2298,
      "▁influenced": 2299,
      "atak": 2300,
      "pl": 2301,
      "ey": 2302,
      "▁endang": 2303,
      "▁endangered": 2304,
      "▁five": 2305,
      "erala": 2306,
      "▁Par": 2307,
      "▁held": 2308,
      "▁until": 2309,
      "▁Janu": 2310,
      "▁January": 2311,
      "▁leader": 2312,
      "▁1965": 2313,
      "▁civil": 2314,
      "▁coalition": 2315,
      "▁sing": 2316,
      "▁formed": 2317,
      "ee": 2318,
      "dra": 2319,
      "▁Ass": 2320,
      "▁States": 2321,
      "▁village": 2322,
      "▁executive": 2323,
      "ouse": 2324,
      "▁port": 2325,
      "▁three": 2326,
      "▁court": 2327,
      "▁courts": 2328,
      "min": 2329,
      "▁Nad": 2330,
      "▁Nadu": 2331,
      "ese": 2332,
      "▁glo": 2333,
      "▁total": 2334,
      "▁estim": 2335,
      "orce": 2336,
      "ales": 2337,
      "▁ve": 2338,
      "▁famil": 2339,
      "▁families": 2340,
      "▁official": 2341,
      "▁developed": 2342,
      "▁school": 2343,
      "▁traditional": 2344,
      "▁sculpture": 2345,
      "▁traditions": 2346,
      "▁dances": 2347,
      "▁worn": 2348,
      "get": 2349,
      "ricket": 2350,
      "▁भी": 2351,
      "▁अव": 2352,
      "▁गण": 2353,
      "▁हु": 2354,
      "▁हो": 2355,
      "तु": 2356,
      "परा": 2357,
      "▁जि": 2358,
      "▁भाग": 2359,
      "▁ई": 2360,
      "▁య": 2361,
      "దు": 2362,
      "ప్ప": 2363,
      "▁16": 2364,
      "ती": 2365,
      "▁क्षे": 2366,
      "▁क्षेत्र": 2367,
      "కా": 2368,
      "దా": 2369,
      "స్కృ": 2370,
      "क्र": 2371,
      "▁సాం": 2372,
      "▁సభ": 2373,
      "ాబ": 2374,
      "ोध": 2375,
      "▁ప్రభుత్వ": 2376,
      "▁द्व": 2377,
      "ెద్ద": 2378,
      "▁:": 2379,
      "▁चीन": 2380,
      "व्यवस्था": 2381,
      "शासित": 2382,
      "▁వచ్చింది": 2383,
      "▁భారతదేశ": 2384,
      "భారతదేశ": 2385,
      "▁దేశంలో": 2386,
      "▁ఇతర": 2387,
      "कृ": 2388,
      "back": 2389,
      "वं": 2390,
      "▁न्याय": 2391,
      "मि": 2392,
      "्ञान": 2393,
      "०००": 2394,
      "वार": 2395,
      "17": 2396,
      "पूर्व": 2397,
      "माज": 2398,
      "काश": 2399,
      "▁अधि": 2400,
      "▁हिन्दु": 2401,
      "सन्": 2402,
      "भारतीय": 2403,
      "१९४": 2404,
      "ग्र": 2405,
      "▁बा": 2406,
      "▁था": 2407,
      "▁प्राचीन": 2408,
      "▁परि": 2409,
      "राष्ट्र": 2410,
      "प्रा": 2411,
      "जय": 2412,
      "गण": 2413,
      "ుంది": 2414,
      "▁धर्म": 2415,
      "ाना": 2416,
      "▁सिन्धु": 2417,
      "▁ब्रह्म": 2418,
      "గి": 2419,
      "లం": 2420,
      "▁ద్వ": 2421,
      "▁స్థాన": 2422,
      "ణం": 2423,
      "▁ఉత్": 2424,
      "త్ర": 2425,
      "లా": 2426,
      "▁పట్ట": 2427,
      "ిల్ల": 2428,
      "ధించ": 2429,
      "▁జరి": 2430,
      "▁అధికార": 2431,
      "▁కేంద": 2432,
      "గర": 2433,
      "▁ను": 2434,
      "▁ఉంట": 2435,
      "▁రెండ": 2436,
      "లీ": 2437,
      "ौगोल": 2438,
      "ौगोलिक": 2439,
      "▁स्था": 2440,
      "न्य": 2441,
      "च्च": 2442,
      "परि": 2443,
      "ाखा": 2444,
      "मुद्र": 2445,
      "▁అతి": 2446,
      "▁ఆర్": 2447,
      "రువ": 2448,
      "రువాత": 2449,
      "వాణా": 2450,
      "जा": 2451,
      "ल्ल": 2452,
      "▁विधान": 2453,
      "▁हे": 2454,
      "▁पत्र": 2455,
      "▁जय": 2456,
      "▁మార్గాలు": 2457,
      "▁28": 2458,
      "तत्त्व": 2459,
      "दः": 2460,
      "वः": 2461,
      "नम्": 2462,
      "वर्ण": 2463,
      "ेण्": 2464,
      "▁पञ्च": 2465,
      "मस्": 2466,
      "हो": 2467,
      "ड्": 2468,
      "विः": 2469,
      "▁40": 2470,
      "▁मह": 2471,
      "▁सप्त": 2472,
      "लङ्क": 2473,
      "लङ्का": 2474,
      "▁स्त": 2475,
      "वत्": 2476,
      "हासः": 2477,
      "▁रचित": 2478,
      "▁पत्रिका": 2479,
      "सस्य": 2480,
      "कृत्य": 2481,
      "▁area": 2482,
      "▁democ": 2483,
      "bian": 2484,
      "▁Sea": 2485,
      "▁Nep": 2486,
      "▁Banglad": 2487,
      "▁Bangladesh": 2488,
      "▁Sri": 2489,
      "▁Mal": 2490,
      "ones": 2491,
      "▁Afric": 2492,
      "▁Africa": 2493,
      "▁Their": 2494,
      "▁pred": 2495,
      "▁diverse": 2496,
      "▁1200": 2497,
      "▁recorded": 2498,
      "▁Dra": 2499,
      "▁Dravi": 2500,
      "▁Dravidian": 2501,
      "▁consol": 2502,
      "▁consolid": 2503,
      "▁lo": 2504,
      "▁Maur": 2505,
      "▁er": 2506,
      "▁era": 2507,
      "▁creat": 2508,
      "▁archit": 2509,
      "▁architect": 2510,
      "▁writ": 2511,
      "tou": 2512,
      "touch": 2513,
      "ability": 2514,
      "▁scri": 2515,
      "▁establ": 2516,
      "▁established": 2517,
      "mitt": 2518,
      "▁result": 2519,
      "▁resulting": 2520,
      "etwork": 2521,
      "▁religion": 2522,
      "anding": 2523,
      "▁turn": 2524,
      "▁rights": 2525,
      "ological": 2526,
      "▁intro": 2527,
      "▁public": 2528,
      "▁took": 2529,
      "▁influence": 2530,
      "viol": 2531,
      "▁partition": 2532,
      "▁acc": 2533,
      "ratic": 2534,
      "▁societ": 2535,
      "▁1951": 2536,
      "▁capit": 2537,
      "▁reduced": 2538,
      "equ": 2539,
      "dit": 2540,
      "▁disput": 2541,
      "▁poll": 2542,
      "ga": 2543,
      "odiversity": 2544,
      "ots": 2545,
      "life": 2546,
      "▁traditionally": 2547,
      "▁der": 2548,
      "medi": 2549,
      "mediately": 2550,
      "▁Gree": 2551,
      "▁extens": 2552,
      "the": 2553,
      "▁name": 2554,
      "sha": 2555,
      "lied": 2556,
      "▁curren": 2557,
      "▁Hindust": 2558,
      "ring": 2559,
      "rial": 2560,
      "▁extant": 2561,
      "etic": 2562,
      "▁However": 2563,
      "▁known": 2564,
      "▁about": 2565,
      "arh": 2566,
      "aro": 2567,
      "avi": 2568,
      "▁features": 2569,
      "dis": 2570,
      "▁ste": 2571,
      "oci": 2572,
      "▁composed": 2573,
      "▁place": 2574,
      "sted": 2575,
      "▁invol": 2576,
      "aving": 2577,
      "▁fam": 2578,
      "▁being": 2579,
      "atical": 2580,
      "▁range": 2581,
      "▁called": 2582,
      "ified": 2583,
      "▁different": 2584,
      "ings": 2585,
      "ured": 2586,
      "▁conducted": 2587,
      "iving": 2588,
      "▁lay": 2589,
      "▁these": 2590,
      "▁history": 2591,
      "▁bri": 2592,
      "ining": 2593,
      "▁speak": 2594,
      "miss": 2595,
      "elf": 2596,
      "▁tax": 2597,
      "▁greater": 2598,
      "▁renew": 2599,
      "otion": 2600,
      "▁Va": 2601,
      "▁six": 2602,
      "ously": 2603,
      "erv": 2604,
      "▁agricult": 2605,
      "▁agricultural": 2606,
      "▁show": 2607,
      "▁Temp": 2608,
      "▁appear": 2609,
      "nam": 2610,
      "ays": 2611,
      "aries": 2612,
      "▁Although": 2613,
      "▁elites": 2614,
      "▁indi": 2615,
      "▁indigen": 2616,
      "▁indigenous": 2617,
      "▁str": 2618,
      "▁bu": 2619,
      "ortion": 2620,
      "▁pract": 2621,
      "ues": 2622,
      "itions": 2623,
      "▁commerc": 2624,
      "▁commercial": 2625,
      "erial": 2626,
      "▁process": 2627,
      "▁European": 2628,
      "ably": 2629,
      "ources": 2630,
      "van": 2631,
      "ely": 2632,
      "▁reform": 2633,
      "ie": 2634,
      "▁can": 2635,
      "▁pr": 2636,
      "▁directly": 2637,
      "▁lim": 2638,
      "▁decad": 2639,
      "▁decades": 2640,
      "struc": 2641,
      "▁gener": 2642,
      "▁consum": 2643,
      "▁relief": 2644,
      "▁War": 2645,
      "operation": 2646,
      "▁enac": 2647,
      "▁enacted": 2648,
      "ip": 2649,
      "▁All": 2650,
      "▁secular": 2651,
      "▁70": 2652,
      "▁Gond": 2653,
      "▁crust": 2654,
      "▁Euras": 2655,
      "▁pil": 2656,
      "one": 2657,
      "▁continu": 2658,
      "▁continued": 2659,
      "▁Tib": 2660,
      "▁Tibet": 2661,
      "akes": 2662,
      "▁Thar": 2663,
      "▁Des": 2664,
      "▁che": 2665,
      "kh": 2666,
      "▁Dec": 2667,
      "▁Gh": 2668,
      "▁Ghats": 2669,
      "▁Constit": 2670,
      "▁equ": 2671,
      "▁Brahmaputra": 2672,
      "reme": 2673,
      "rish": 2674,
      "rishna": 2675,
      "ada": 2676,
      "ann": 2677,
      "▁others": 2678,
      "▁highe": 2679,
      "▁highest": 2680,
      "its": 2681,
      "abh": 2682,
      "▁summer": 2683,
      "▁sim": 2684,
      "ole": 2685,
      "ropical": 2686,
      "▁2018": 2687,
      "▁ret": 2688,
      "arnatak": 2689,
      "arnataka": 2690,
      "ries": 2691,
      "▁fish": 2692,
      "▁nat": 2693,
      "▁exch": 2694,
      "vention": 2695,
      "oor": 2696,
      "▁Kerala": 2697,
      "▁2022": 2698,
      "ched": 2699,
      "ttar": 2700,
      "Government": 2701,
      "▁centre": 2702,
      "▁Sing": 2703,
      "▁Singh": 2704,
      "▁body": 2705,
      "liance": 2706,
      "▁just": 2707,
      "▁single": 2708,
      "▁external": 2709,
      "▁2026": 2710,
      "▁exc": 2711,
      "erc": 2712,
      "▁foreign": 2713,
      "▁head": 2714,
      "▁fund": 2715,
      "▁fundament": 2716,
      "▁fundamental": 2717,
      "▁Union": 2718,
      "▁serv": 2719,
      "▁div": 2720,
      "▁qu": 2721,
      "▁relations": 2722,
      "▁test": 2723,
      "▁addition": 2724,
      "▁Nuclear": 2725,
      "ternational": 2726,
      "tom": 2727,
      "erg": 2728,
      "ergy": 2729,
      "▁2010": 2730,
      "▁nation": 2731,
      "▁global": 2732,
      "▁sect": 2733,
      "▁sector": 2734,
      "▁work": 2735,
      "orter": 2736,
      "ineering": 2737,
      "▁exports": 2738,
      "▁before": 2739,
      "▁estimated": 2740,
      "▁fem": 2741,
      "▁producer": 2742,
      "▁milk": 2743,
      "▁phar": 2744,
      "▁pharm": 2745,
      "▁pharmace": 2746,
      "▁pharmaceut": 2747,
      "▁pharmaceutical": 2748,
      "reasing": 2749,
      "▁cooking": 2750,
      "iqu": 2751,
      "umb": 2752,
      "umbai": 2753,
      "▁tea": 2754,
      "▁important": 2755,
      "abad": 2756,
      "ival": 2757,
      "▁below": 2758,
      "cast": 2759,
      "▁fest": 2760,
      "▁influences": 2761,
      "▁mathematics": 2762,
      "arnatic": 2763,
      "dram": 2764,
      "dramas": 2765,
      "▁sari": 2766,
      "▁wa": 2767,
      "▁waist": 2768,
      "▁commonly": 2769,
      "alw": 2770,
      "amee": 2771,
      "ameez": 2772,
      "▁wear": 2773,
      "▁cooked": 2774,
      "▁veget": 2775,
      "▁meat": 2776,
      "त्य": 2777,
      "42": 2778,
      "▁Pro": 2779,
      "ीव": 2780,
      "▁185": 2781,
      "▁कार्य": 2782,
      "▁इस": 2783,
      "ंत्र": 2784,
      "▁जै": 2785,
      "ोप": 2786,
      "सू": 2787,
      "▁स्थित": 2788,
      "सार": 2789,
      "గ్": 2790,
      "ష్": 2791,
      "▁ऋ": 2792,
      "▁५": 2793,
      "ీర్": 2794,
      "ాల్": 2795,
      "క్క": 2796,
      "धिकारिक": 2797,
      "▁मन": 2798,
      "ूल": 2799,
      "▁వా": 2800,
      "▁మహ": 2801,
      "▁కొ": 2802,
      "రో": 2803,
      "▁ఏర్": 2804,
      "▁किया": 2805,
      "▁బహ": 2806,
      "ీన": 2807,
      "టిక": 2808,
      "▁పాల": 2809,
      "గిన": 2810,
      "ౌక": 2811,
      "तन": 2812,
      "▁కలి": 2813,
      "జ్య": 2814,
      "▁దక్షిణా": 2815,
      "స్తాన్": 2816,
      "▁వంట": 2817,
      "బడ": 2818,
      "ందిన": 2819,
      "కీయ": 2820,
      "▁కాంగ": 2821,
      "▁కాంగ్ర": 2822,
      "▁కాంగ్రె": 2823,
      "గీ": 2824,
      "▁క్రీడ": 2825,
      "ुर": 2826,
      "ृद्ध": 2827,
      "▁కేంద్ర": 2828,
      "▁ఎక్కువ": 2829,
      "▁ముఖ్య": 2830,
      "▁అనే": 2831,
      "▁పాకి": 2832,
      "స్తుత": 2833,
      "▁అయిన": 2834,
      "ప్రదాయ": 2835,
      "200": 2836,
      "▁हिमालय": 2837,
      "▁आधिकारिक": 2838,
      "▁छ": 2839,
      "भाषा": 2840,
      "▁జనాభా": 2841,
      "▁పెద్ద": 2842,
      "▁ఎన్నో": 2843,
      "▁రవాణా": 2844,
      "ष्ण": 2845,
      "र्ष": 2846,
      "री": 2847,
      "वरी": 2848,
      "▁यु": 2849,
      "▁सु": 2850,
      "▁30": 2851,
      "201": 2852,
      "भिन्": 2853,
      "भिन्न": 2854,
      "▁आन्": 2855,
      "▁तक": 2856,
      "ल्ली": 2857,
      "काल": 2858,
      "हि": 2859,
      "▁25": 2860,
      "▁0": 2861,
      "yp": 2862,
      "▁बौ": 2863,
      "▁बौद्ध": 2864,
      "वर्ष": 2865,
      "हित": 2866,
      "▁मूल": 2867,
      "यत": 2868,
      "ष्ठ": 2869,
      "ज्ञान": 2870,
      "▁),": 2871,
      "की": 2872,
      "▁तु": 2873,
      "▁कारण": 2874,
      "▁नव": 2875,
      "पालिका": 2876,
      "थि": 2877,
      "ोत्": 2878,
      "राज": 2879,
      "ेस": 2880,
      "▁दश": 2881,
      "▁ति": 2882,
      "ధి": 2883,
      "▁ట": 2884,
      "▁ध": 2885,
      "▁मत": 2886,
      "धानी": 2887,
      "▁जात": 2888,
      "్యం": 2889,
      "ిత్ర": 2890,
      "ారి": 2891,
      "నాలు": 2892,
      "▁साथ": 2893,
      "ंध": 2894,
      "కుంట": 2895,
      "టం": 2896,
      "▁ఏర్ప": 2897,
      "క్రమ": 2898,
      "▁పర": 2899,
      "▁ప్రతి": 2900,
      "మీ": 2901,
      "సియా": 2902,
      "▁వే": 2903,
      "ంగ్ల": 2904,
      "ండు": 2905,
      "మే": 2906,
      "चि": 2907,
      "ిమ": 2908,
      "దం": 2909,
      "ద్ధి": 2910,
      "పించ": 2911,
      "▁మాత": 2912,
      "▁కార": 2913,
      "పతి": 2914,
      "▁సాధించ": 2915,
      "्रि": 2916,
      "लाल": 2917,
      "११": 2918,
      "దారు": 2919,
      "▁సరి": 2920,
      "▁సరిహ": 2921,
      "▁సరిహద్ద": 2922,
      "ండియా": 2923,
      "ావర": 2924,
      "లోని": 2925,
      "▁శాస్త": 2926,
      "▁రాజకీయ": 2927,
      "త్యధిక": 2928,
      "▁సిని": 2929,
      "▁సంగీ": 2930,
      "▁भरत": 2931,
      "▁स्वतन्त्र": 2932,
      "▁प्रधान": 2933,
      "पुत्र": 2934,
      "ाधिक": 2935,
      "▁सदन": 2936,
      "▁రాష్ట్రాల": 2937,
      "▁గల": 2938,
      "▁ఇది": 2939,
      "▁కాలంలో": 2940,
      "▁ప్రస్తుత": 2941,
      "▁చిన్న": 2942,
      "ిస్తారు": 2943,
      "▁తరువాత": 2944,
      "▁భారత్": 2945,
      "▁జాతీయ": 2946,
      "▁36": 2947,
      "64": 2948,
      "21": 2949,
      "टि": 2950,
      "पुरा": 2951,
      "निक": 2952,
      "ृह": 2953,
      "मार्": 2954,
      "ब्र": 2955,
      "▁उल्": 2956,
      "▁वेद": 2957,
      "पद": 2958,
      "ट्": 2959,
      "ितम्": 2960,
      "मिन्": 2961,
      "▁विध": 2962,
      "▁विधा": 2963,
      "विधा": 2964,
      "मित": 2965,
      "▁आर्य": 2966,
      "▁Rep": 2967,
      "▁300": 2968,
      "▁42": 2969,
      "▁सर": 2970,
      "न्थ": 2971,
      "मी": 2972,
      "ोष": 2973,
      "▁बृह": 2974,
      "भागः": 2975,
      "▁अष्ट": 2976,
      "ब्ध": 2977,
      "ेऽ": 2978,
      "्यम्": 2979,
      "ध्वज": 2980,
      "▁पुण": 2981,
      "चार्य": 2982,
      "योजन": 2983,
      "र्ग": 2984,
      "दं": 2985,
      "सङ्": 2986,
      "सङ्ख्या": 2987,
      "नाना": 2988,
      "▁उद्": 2989,
      "द्वार": 2990,
      "वन्": 2991,
      "▁तम": 2992,
      "▁तेन": 2993,
      "दम्": 2994,
      "▁लिखित": 2995,
      "ानु": 2996,
      "शाला": 2997,
      "पङ्क": 2998,
      "नु": 2999,
      "कारः": 3000,
      "▁सङ्": 3001,
      "▁सङ्घ": 3002,
      "िणी": 3003,
      "पतिः": 3004,
      "▁आपरा": 3005,
      "▁आपराधिक": 3006,
      "▁नद": 3007,
      "गस्": 3008,
      "महो": 3009,
      "महोद": 3010,
      "महोदयः": 3011,
      "गीतम्": 3012,
      "▁अद्": 3013,
      "▁सम्प्र": 3014,
      "▁populous": 3015,
      "▁independence": 3016,
      "racy": 3017,
      "cean": 3018,
      "▁Arabian": 3019,
      "▁Bay": 3020,
      "▁borders": 3021,
      "▁Myan": 3022,
      "▁Myanmar": 3023,
      "▁Lank": 3024,
      "▁share": 3025,
      "ime": 3026,
      "▁Indones": 3027,
      "▁Indonesia": 3028,
      "▁predomin": 3029,
      "▁isol": 3030,
      "▁marg": 3031,
      "▁margins": 3032,
      "▁basin": 3033,
      "▁gradually": 3034,
      "▁Civilisation": 3035,
      "aic": 3036,
      "Eur": 3037,
      "European": 3038,
      "▁northwest": 3039,
      "▁hy": 3040,
      "nings": 3041,
      "▁suppl": 3042,
      "▁400": 3043,
      "isen": 3044,
      "arly": 3045,
      "▁gave": 3046,
      "▁loose": 3047,
      "kn": 3048,
      "▁Maurya": 3049,
      "▁Gupta": 3050,
      "ivity": 3051,
      "▁architecture": 3052,
      "▁status": 3053,
      "touchability": 3054,
      "▁organ": 3055,
      "▁belief": 3056,
      "▁Mid": 3057,
      "▁Middle": 3058,
      "▁export": 3059,
      "pts": 3060,
      "▁cultures": 3061,
      "rist": 3062,
      "Zor": 3063,
      "Zoro": 3064,
      "Zoroastri": 3065,
      "Zoroastrian": 3066,
      "nd": 3067,
      "▁armies": 3068,
      "ran": 3069,
      "▁plains": 3070,
      "▁cos": 3071,
      "olit": 3072,
      "die": 3073,
      "dieval": 3074,
      "▁Sikhism": 3075,
      "ject": 3076,
      "▁institution": 3077,
      "▁expans": 3078,
      "▁relative": 3079,
      "▁rich": 3080,
      "onial": 3081,
      "▁sover": 3082,
      "▁sovere": 3083,
      "▁sovereign": 3084,
      "▁sovereignty": 3085,
      "▁slow": 3086,
      "▁introduced": 3087,
      "oted": 3088,
      "▁primary": 3089,
      "▁fact": 3090,
      "▁loss": 3091,
      "▁mig": 3092,
      "▁society": 3093,
      "▁nomin": 3094,
      "▁capita": 3095,
      "▁hub": 3096,
      "▁inform": 3097,
      "▁information": 3098,
      "▁pover": 3099,
      "▁poverty": 3100,
      "▁inequ": 3101,
      "▁inequality": 3102,
      "▁disputes": 3103,
      "ours": 3104,
      "onom": 3105,
      "▁child": 3106,
      "▁level": 3107,
      "▁wildlife": 3108,
      "▁supported": 3109,
      "▁protected": 3110,
      "▁hab": 3111,
      "▁habit": 3112,
      "▁prop": 3113,
      "▁immediately": 3114,
      "▁refer": 3115,
      "▁historical": 3116,
      "▁Greek": 3117,
      "rat": 3118,
      "pic": 3119,
      "▁originally": 3120,
      "▁North": 3121,
      "▁currency": 3122,
      "com": 3123,
      "pass": 3124,
      "passing": 3125,
      "resent": 3126,
      "esc": 3127,
      "▁reac": 3128,
      "▁reached": 3129,
      "▁lik": 3130,
      "▁init": 3131,
      "garh": 3132,
      "omest": 3133,
      "omestic": 3134,
      "▁animals": 3135,
      "eb": 3136,
      "▁catt": 3137,
      "▁cattle": 3138,
      "urred": 3139,
      "▁Mohen": 3140,
      "▁Mohenj": 3141,
      "▁Mohenjo": 3142,
      "daro": 3143,
      "hol": 3144,
      "eri": 3145,
      "ala": 3146,
      "▁charac": 3147,
      "▁character": 3148,
      "▁seals": 3149,
      "▁written": 3150,
      "▁script": 3151,
      "▁arts": 3152,
      "rac": 3153,
      "▁town": 3154,
      "▁past": 3155,
      "▁today": 3156,
      "▁associ": 3157,
      "Ary": 3158,
      "Aryan": 3159,
      "▁across": 3160,
      "▁sett": 3161,
      "ling": 3162,
      "▁setting": 3163,
      "▁ir": 3164,
      "lement": 3165,
      "▁dri": 3166,
      "▁bro": 3167,
      "▁broad": 3168,
      "▁parts": 3169,
      "▁would": 3170,
      "▁urbanisation": 3171,
      "▁varn": 3172,
      "▁those": 3173,
      "▁Buddha": 3174,
      "ressed": 3175,
      "▁could": 3176,
      "▁back": 3177,
      "▁Ash": 3178,
      "▁Ashok": 3179,
      "▁Ashoka": 3180,
      "▁texts": 3181,
      "▁Kal": 3182,
      "ense": 3183,
      "▁adop": 3184,
      "▁dh": 3185,
      "▁forests": 3186,
      "By": 3187,
      "▁administration": 3188,
      "▁devotion": 3189,
      "▁rather": 3190,
      "▁assert": 3191,
      "▁Pall": 3192,
      "▁Pallav": 3193,
      "aced": 3194,
      "▁god": 3195,
      "▁partic": 3196,
      "Me": 3197,
      "▁age": 3198,
      "▁cultural": 3199,
      "▁much": 3200,
      "▁cle": 3201,
      "▁classes": 3202,
      "itated": 3203,
      "▁pat": 3204,
      "▁Temple": 3205,
      "▁siz": 3206,
      "▁anot": 3207,
      "▁another": 3208,
      "▁eff": 3209,
      "une": 3210,
      "▁mer": 3211,
      "▁merch": 3212,
      "▁somet": 3213,
      "▁sometim": 3214,
      "▁sometimes": 3215,
      "After": 3216,
      "▁law": 3217,
      "▁laws": 3218,
      "▁sav": 3219,
      "▁vis": 3220,
      "ening": 3221,
      "▁strong": 3222,
      "▁came": 3223,
      "wards": 3224,
      "▁then": 3225,
      "▁practices": 3226,
      "▁tribal": 3227,
      "onds": 3228,
      "▁Ak": 3229,
      "lung": 3230,
      "ms": 3231,
      "▁policies": 3232,
      "▁reven": 3233,
      "▁revenues": 3234,
      "▁pa": 3235,
      "reg": 3236,
      "▁sil": 3237,
      "▁enter": 3238,
      "ger": 3239,
      "▁maint": 3240,
      "▁Marat": 3241,
      "has": 3242,
      "▁coll": 3243,
      "▁recog": 3244,
      "▁recogn": 3245,
      "▁fra": 3246,
      "▁increasingly": 3247,
      "▁compan": 3248,
      "▁companies": 3249,
      "oli": 3250,
      "▁stren": 3251,
      "▁streng": 3252,
      "▁strength": 3253,
      "▁att": 3254,
      "▁cruc": 3255,
      "▁crucial": 3256,
      "▁subsequent": 3257,
      "▁good": 3258,
      "▁goods": 3259,
      "▁inst": 3260,
      "▁Many": 3261,
      "▁consider": 3262,
      "▁having": 3263,
      "▁rail": 3264,
      "▁railw": 3265,
      "▁Europe": 3266,
      "ellion": 3267,
      "▁safe": 3268,
      "guard": 3269,
      "▁against": 3270,
      "ush": 3271,
      "▁marked": 3272,
      "▁dep": 3273,
      "ture": 3274,
      "pay": 3275,
      "ption": 3276,
      "▁provided": 3277,
      "▁crit": 3278,
      "rid": 3279,
      "alls": 3280,
      "ma": 3281,
      "▁vic": 3282,
      "▁vict": 3283,
      "▁decade": 3284,
      "ises": 3285,
      "▁fin": 3286,
      "▁lib": 3287,
      "▁liberal": 3288,
      "form": 3289,
      "▁pers": 3290,
      "▁viol": 3291,
      "▁sep": 3292,
      "ammu": 3293,
      "Geograph": 3294,
      "ulk": 3295,
      "af": 3296,
      "idly": 3297,
      "illed": 3298,
      "orn": 3299,
      "utes": 3300,
      "▁makes": 3301,
      "▁abo": 3302,
      "▁above": 3303,
      "▁lies": 3304,
      "▁Desert": 3305,
      "▁remaining": 3306,
      "pura": 3307,
      "harkh": 3308,
      "harkhand": 3309,
      "▁Deccan": 3310,
      "▁contains": 3311,
      "itud": 3312,
      "▁Himalayan": 3313,
      "▁rivers": 3314,
      "▁drain": 3315,
      "dient": 3316,
      "▁Krishna": 3317,
      "▁kil": 3318,
      "▁kilomet": 3319,
      "▁kilometres": 3320,
      "▁mi": 3321,
      "400": 3322,
      "▁bel": 3323,
      "▁belong": 3324,
      "akshad": 3325,
      "akshadwe": 3326,
      "akshadweep": 3327,
      "land": 3328,
      "▁consists": 3329,
      "▁43": 3330,
      "arb": 3331,
      "▁latter": 3332,
      "▁coral": 3333,
      "oram": 3334,
      "▁surround": 3335,
      "anda": 3336,
      "ind": 3337,
      "▁do": 3338,
      "yth": 3339,
      "▁tree": 3340,
      "▁clim": 3341,
      "ds": 3342,
      "▁simil": 3343,
      "▁similar": 3344,
      "▁moist": 3345,
      "▁tropical": 3346,
      "▁cause": 3347,
      "ections": 3348,
      "Indian": 3349,
      "▁Karnataka": 3350,
      "achal": 3351,
      "Bi": 3352,
      "▁contain": 3353,
      "▁endemic": 3354,
      "▁mamm": 3355,
      "▁mammals": 3356,
      "▁displ": 3357,
      "uous": 3358,
      "▁exchange": 3359,
      "▁extin": 3360,
      "▁threat": 3361,
      "ened": 3362,
      "tre": 3363,
      "▁op": 3364,
      "▁black": 3365,
      "▁blackb": 3366,
      "▁recent": 3367,
      "▁1935": 3368,
      "▁1980": 3369,
      "mend": 3370,
      "▁added": 3371,
      "▁eight": 3372,
      "▁Bi": 3373,
      "▁Ram": 3374,
      "sar": 3375,
      "▁pur": 3376,
      "▁Park": 3377,
      "▁Mad": 3378,
      "arty": 3379,
      "▁Janata": 3380,
      "ahar": 3381,
      "▁office": 3382,
      "▁1962": 3383,
      "▁chos": 3384,
      "▁chosen": 3385,
      "▁Indira": 3386,
      "▁She": 3387,
      "▁defe": 3388,
      "iber": 3389,
      "▁decla": 3390,
      "ency": 3391,
      "▁opp": 3392,
      "▁oppos": 3393,
      "▁ministers": 3394,
      "▁return": 3395,
      "▁31": 3396,
      "▁Fron": 3397,
      "▁Front": 3398,
      "▁Chand": 3399,
      "▁min": 3400,
      "▁governments": 3401,
      "▁follow": 3402,
      "▁due": 3403,
      "▁Democ": 3404,
      "DA": 3405,
      "PA": 3406,
      "resident": 3407,
      "▁abs": 3408,
      "ute": 3409,
      "▁2019": 3410,
      "▁2024": 3411,
      "Dem": 3412,
      "▁Constitu": 3413,
      "▁Constituent": 3414,
      "▁Assem": 3415,
      "▁Assemb": 3416,
      "▁Assembly": 3417,
      "▁constitutional": 3418,
      "▁elected": 3419,
      "ees": 3420,
      "Ar": 3421,
      "▁Common": 3422,
      "▁coun": 3423,
      "▁jur": 3424,
      "uduc": 3425,
      "uducher": 3426,
      "uducherry": 3427,
      "ital": 3428,
      "▁Ter": 3429,
      "anipur": 3430,
      "kim": 3431,
      "▁becom": 3432,
      "▁becoming": 3433,
      "▁Non": 3434,
      "Al": 3435,
      "▁went": 3436,
      "▁1960": 3437,
      "▁weap": 3438,
      "▁weapons": 3439,
      "▁signed": 3440,
      "ither": 3441,
      "▁Treat": 3442,
      "▁Treaty": 3443,
      "crimin": 3444,
      "▁use": 3445,
      "ble": 3446,
      "eter": 3447,
      "▁2008": 3448,
      "▁energy": 3449,
      "▁aver": 3450,
      "▁average": 3451,
      "ographics": 3452,
      "▁trade": 3453,
      "▁eng": 3454,
      "▁engineering": 3455,
      "▁2013": 3456,
      "▁cal": 3457,
      "force": 3458,
      "▁garlic": 3459,
      "▁top": 3460,
      "reen": 3461,
      "▁gas": 3462,
      "▁Bangal": 3463,
      "▁Bangalore": 3464,
      "▁colleg": 3465,
      "▁colleges": 3466,
      "▁resident": 3467,
      "▁residents": 3468,
      "edic": 3469,
      "91": 3470,
      "▁Mumbai": 3471,
      "▁speakers": 3472,
      "▁comprom": 3473,
      "▁compromise": 3474,
      "ii": 3475,
      "▁formal": 3476,
      "hedul": 3477,
      "heduled": 3478,
      "▁Ur": 3479,
      "▁Urdu": 3480,
      "riya": 3481,
      "▁Punjabi": 3482,
      "▁Tel": 3483,
      "▁promin": 3484,
      "▁bot": 3485,
      "▁bottom": 3486,
      "after": 3487,
      "▁(\"": 3488,
      "▁express": 3489,
      "hip": 3490,
      "▁impro": 3491,
      "▁schools": 3492,
      "HO": 3493,
      "reath": 3494,
      "ables": 3495,
      "▁very": 3496,
      "▁marriages": 3497,
      "anged": 3498,
      "rents": 3499,
      "▁natal": 3500,
      "▁band": 3501,
      "▁festival": 3502,
      "irt": 3503,
      "▁style": 3504,
      "▁Shiv": 3505,
      "▁Shiva": 3506,
      "▁sites": 3507,
      "anta": 3508,
      "▁bron": 3509,
      "▁bronz": 3510,
      "▁manus": 3511,
      "▁manuscri": 3512,
      "ov": 3513,
      "▁folk": 3514,
      "▁Yaksh": 3515,
      "angra": 3516,
      "▁mathematical": 3517,
      "▁transmit": 3518,
      "▁transmitted": 3519,
      "▁contributions": 3520,
      "▁conce": 3521,
      "▁examp": 3522,
      "▁example": 3523,
      "▁Hindustani": 3524,
      "▁Carnatic": 3525,
      "▁player": 3526,
      "▁Shank": 3527,
      "▁Shankar": 3528,
      "uk": 3529,
      "asi": 3530,
      "▁For": 3531,
      "oulder": 3532,
      "body": 3533,
      "▁garment": 3534,
      "▁shalw": 3535,
      "▁kameez": 3536,
      "▁cu": 3537,
      "▁chur": 3538,
      "▁churid": 3539,
      "▁churidars": 3540,
      "▁dishes": 3541,
      "▁eat": 3542,
      "▁eaten": 3543,
      "hess": 3544,
      "▁cricket": 3545,
      "▁Oly": 3546,
      "▁Olymp": 3547,
      "▁portal": 3548,
      "▁78": 3549,
      "▁﻿": 3550,
      "▁सरकार": 3551,
      "30": 3552,
      "▁काल": 3553,
      "धार": 3554,
      "book": 3555,
      "▁गा": 3556,
      "▁अनु": 3557,
      "▁यह": 3558,
      "ओं": 3559,
      "▁एवं": 3560,
      "स्ल": 3561,
      "▁सेना": 3562,
      "▁दे": 3563,
      "चल": 3564,
      "▁వర్": 3565,
      "▁నె": 3566,
      "▁सब": 3567,
      "▁सबसे": 3568,
      "▁१९": 3569,
      "కోవ": 3570,
      "▁ఆధ": 3571,
      "యో": 3572,
      "▁సమా": 3573,
      "ిక్": 3574,
      "ాతి": 3575,
      "గం": 3576,
      "▁బ్రి": 3577,
      "ంధ": 3578,
      "రణ": 3579,
      "▁సంస్కృ": 3580,
      "▁జన": 3581,
      "▁ఉప": 3582,
      "▁నే": 3583,
      "▁సిం": 3584,
      "▁బహు": 3585,
      "తంత్ర": 3586,
      "పూ": 3587,
      "ప్పటిక": 3588,
      "డ్డ": 3589,
      "తిక": 3590,
      "▁మొదల": 3591,
      "ాత్ర": 3592,
      "మంత": 3593,
      "ెలు": 3594,
      "▁మూడ": 3595,
      "▁సౌక": 3596,
      "▁సౌకర్య": 3597,
      "▁వె": 3598,
      "मत": 3599,
      "▁సామ": 3600,
      "ైనా": 3601,
      "▁పట్టణ": 3602,
      "ఢిల్ల": 3603,
      "ఢిల్లీ": 3604,
      "ాన్ని": 3605,
      "▁నడి": 3606,
      "▁ప్రాంతాలు": 3607,
      "▁రహ": 3608,
      "▁రహదారు": 3609,
      "▁రహదారుల": 3610,
      "▁వివి": 3611,
      "▁వివిధ": 3612,
      "▁ఇండియా": 3613,
      "▁రెండు": 3614,
      "▁ప్రము": 3615,
      "▁ప్రముఖ": 3616,
      "▁అత్యధిక": 3617,
      "చే": 3618,
      "▁22": 3619,
      "शी": 3620,
      "स्त्र": 3621,
      "म्ब": 3622,
      "▁उप": 3623,
      "दान": 3624,
      "टी": 3625,
      "ंग्र": 3626,
      "▁Arch": 3627,
      "▁Archived": 3628,
      "▁वा": 3629,
      "35": 3630,
      "▁कु": 3631,
      "मो": 3632,
      "गम": 3633,
      "पाद": 3634,
      "फल": 3635,
      "▁थ": 3636,
      "▁बाद": 3637,
      "▁Way": 3638,
      "▁Wayback": 3639,
      "▁Mach": 3640,
      "▁Machine": 3641,
      "▁पार": 3642,
      "ंश": 3643,
      "ाधिकार": 3644,
      "श्र": 3645,
      "01": 3646,
      "80": 3647,
      "▁report": 3648,
      "anguages": 3649,
      "तिक": 3650,
      "▁उच्च": 3651,
      "ची": 3652,
      "▁१५": 3653,
      "रप": 3654,
      "लु": 3655,
      "▁);": 3656,
      "▁साम": 3657,
      "▁गया": 3658,
      "ीं": 3659,
      "▁कि": 3660,
      "बंध": 3661,
      "▁पुरा": 3662,
      "वे": 3663,
      "न्तर": 3664,
      "▁इस्ल": 3665,
      "▁इस्लाम": 3666,
      "ोल": 3667,
      "जित": 3668,
      "▁या": 3669,
      "▁अधिक": 3670,
      "िर": 3671,
      "▁नागर": 3672,
      "▁फ": 3673,
      "▁दो": 3674,
      "ించి": 3675,
      "వర్": 3676,
      "▁యు": 3677,
      "▁పో": 3678,
      "వే": 3679,
      "యం": 3680,
      "ూప": 3681,
      "పో": 3682,
      "డం": 3683,
      "▁అను": 3684,
      "సర": 3685,
      "▁పేర్": 3686,
      "▁పూ": 3687,
      "వల": 3688,
      "వు": 3689,
      "వత్": 3690,
      "▁సమ": 3691,
      "▁ఖ": 3692,
      "చు": 3693,
      "▁ఐ": 3694,
      "బా": 3695,
      "ంగం": 3696,
      "▁పద్ధ": 3697,
      "మించ": 3698,
      "ల్ప": 3699,
      "▁మన": 3700,
      "స్వా": 3701,
      "ముద": 3702,
      "ణి": 3703,
      "▁భూ": 3704,
      "▁పుట్ట": 3705,
      "▁దా": 3706,
      "▁గా": 3707,
      "షు": 3708,
      "రిత్ర": 3709,
      "▁సార": 3710,
      "హించ": 3711,
      "రాష్ట్ర": 3712,
      "▁ఎన్ను": 3713,
      "▁చేయ": 3714,
      "దేశాల": 3715,
      "▁తమి": 3716,
      "▁తమిళ": 3717,
      "१९४७": 3718,
      "▁७": 3719,
      "▁మొదటి": 3720,
      "▁ప్రజా": 3721,
      "▁సింధ": 3722,
      "నీ": 3723,
      "▁అభ": 3724,
      "▁అభి": 3725,
      "▁చెంద": 3726,
      "ళ్ల": 3727,
      "▁పండు": 3728,
      "నుక": 3729,
      "చీన": 3730,
      "▁సర్వ": 3731,
      "మంత్రి": 3732,
      "▁నిర్వ": 3733,
      "కారం": 3734,
      "▁కోర్": 3735,
      "▁పరిశ": 3736,
      "▁బె": 3737,
      "▁जैन": 3738,
      "▁जन्": 3739,
      "▁जन्म": 3740,
      "ाली": 3741,
      "हिं": 3742,
      "▁प्रति": 3743,
      "गति": 3744,
      "त्त": 3745,
      "▁प्रकाश": 3746,
      "▁प्रचल": 3747,
      "▁विक": 3748,
      "▁विज्ञान": 3749,
      "▁ये": 3750,
      "निरप": 3751,
      "यन": 3752,
      "जि": 3753,
      "▁सौ": 3754,
      "हार्": 3755,
      "हार्द": 3756,
      "▁ఒకటి": 3757,
      "▁అనేక": 3758,
      "▁చైనా": 3759,
      "▁సరిహద్దు": 3760,
      "▁శతా": 3761,
      "▁శతాబ్": 3762,
      "▁శతాబ్దం": 3763,
      "▁నుండి": 3764,
      "▁స్వాత": 3765,
      "▁స్వాతంత్ర": 3766,
      "▁స్వాతంత్ర్య": 3767,
      "▁జరిగిన": 3768,
      "▁మొత్": 3769,
      "▁మొత్తం": 3770,
      "▁ఉంటాయి": 3771,
      "▁కూడిన": 3772,
      "▁తన": 3773,
      "▁ఆర్ధిక": 3774,
      "▁రాష్ట్రపతి": 3775,
      "▁ప్రభుత్వం": 3776,
      "▁కాంగ్రెసు": 3777,
      "▁వాత": 3778,
      "▁వాతావర": 3779,
      "▁వాతావరణం": 3780,
      "▁జాబ": 3781,
      "▁జాబిత": 3782,
      "▁జాబితా": 3783,
      "▁పట్టణాల": 3784,
      "▁నగర": 3785,
      "▁నగరాల": 3786,
      "▁రైల": 3787,
      "▁రైల్వ": 3788,
      "▁రైల్వే": 3789,
      "▁నడిపించ": 3790,
      "▁సంగీతం": 3791,
      "soon": 3792,
      "नगर": 3793,
      "▁ग्र": 3794,
      "▁अध": 3795,
      "खण्ड": 3796,
      "▁गो": 3797,
      "स्तु": 3798,
      "ग्": 3799,
      "▁गु": 3800,
      "स्कृ": 3801,
      "क्ति": 3802,
      "जीव": 3803,
      "▁नदी": 3804,
      "▁प्रमाण": 3805,
      "हिंसा": 3806,
      "बोध": 3807,
      "▁जल": 3808,
      "ात्म": 3809,
      "ात्मक": 3810,
      "▁वर्षा": 3811,
      "नव": 3812,
      "योग": 3813,
      "क्षे": 3814,
      "सूची": 3815,
      "▁दिव": 3816,
      "▁दिवस": 3817,
      "▁अप": 3818,
      "▁जो": 3819,
      "▁ज्ञ": 3820,
      "▁ज्ञा": 3821,
      "रम्": 3822,
      "म्प": 3823,
      "▁निक": 3824,
      "मन्त्र": 3825,
      "पुर": 3826,
      "ाव": 3827,
      "िष्ठ": 3828,
      "▁भौगोलिक": 3829,
      "▁विस्त": 3830,
      "ितीय": 3831,
      "ाचार": 3832,
      "▁जग": 3833,
      "पुराण": 3834,
      "▁चि": 3835,
      "इति": 3836,
      "रण": 3837,
      "▁अश": 3838,
      "▁अशोक": 3839,
      "▁पार्थ": 3840,
      "▁रो": 3841,
      "भेद": 3842,
      "तृ": 3843,
      "खर": 3844,
      "ार्म": 3845,
      "ार्मिक": 3846,
      "▁आर्थ": 3847,
      "▁आर्थिक": 3848,
      "हिमालय": 3849,
      "▁पत्": 3850,
      "ध्र": 3851,
      "लिखित": 3852,
      "हरु": 3853,
      "▁२८": 3854,
      "शक्त": 3855,
      "▁विद्यमान": 3856,
      "▁शाखा": 3857,
      "फे": 3858,
      "मुद्रा": 3859,
      "▁धर्": 3860,
      "▁धर्मा": 3861,
      "▁पथ": 3862,
      "▁छा": 3863,
      "▁डा": 3864,
      "नं": 3865,
      "▁राम": 3866,
      "प्रकाश": 3867,
      "▁Republic": 3868,
      "▁74": 3869,
      "mers": 3870,
      "ustral": 3871,
      "▁Am": 3872,
      "▁24": 3873,
      "24": 3874,
      "▁500": 3875,
      "ढ़": 3876,
      "▁रूप": 3877,
      "▁घ": 3878,
      "राज्यम्": 3879,
      "्याम": 3880,
      "दृ": 3881,
      "िमा": 3882,
      "ोब": 3883,
      "ोबार": 3884,
      "ङ्गा": 3885,
      "▁ष": 3886,
      "थः": 3887,
      "तमेन": 3888,
      "शोध": 3889,
      "मन्": 3890,
      "विंश": 3891,
      "विंशति": 3892,
      "कर्ण": 3893,
      "ारः": 3894,
      "व्या": 3895,
      "▁ग्रन्थ": 3896,
      "ेसेण्": 3897,
      "ेसेण्ट": 3898,
      "ेसेण्टथि": 3899,
      "ेसेण्टथियो": 3900,
      "ेसेण्टथियोस": 3901,
      "ेसेण्टथियोसफ": 3902,
      "ेसेण्टथियोसफिक": 3903,
      "ेसेण्टथियोसफिकल": 3904,
      "१९४८": 3905,
      "▁वन्": 3906,
      "रच": 3907,
      "▁100": 3908,
      "र्माण": 3909,
      "▁बृहत्": 3910,
      "सीमा": 3911,
      "▁समीप": 3912,
      "▁समुद्र": 3913,
      "कुर": 3914,
      "युत": 3915,
      "मुखा": 3916,
      "स्थानम्": 3917,
      "दस्": 3918,
      "शासनम्": 3919,
      "▁अष्टा": 3920,
      "पर्य": 3921,
      "मान्": 3922,
      "▁तृत": 3923,
      "▁तृतीय": 3924,
      "नमस्": 3925,
      "विष": 3926,
      "िनः": 3927,
      "्ना": 3928,
      "भरत": 3929,
      "यन्": 3930,
      "रब्ध": 3931,
      "▁तन्": 3932,
      "▁५०००": 3933,
      "▁५०००वर्": 3934,
      "▁५०००वर्षे": 3935,
      "▁५०००वर्षेभ": 3936,
      "▁५०००वर्षेभ्यः": 3937,
      "ख्रि": 3938,
      "धौ": 3939,
      "तद्": 3940,
      "भौगोलिक": 3941,
      "▁माला": 3942,
      "द्वीपः": 3943,
      "भूता": 3944,
      "▁बर": 3945,
      "्मा": 3946,
      "भृत": 3947,
      "समृद्ध": 3948,
      "ेऽपि": 3949,
      "क्षेत्र": 3950,
      "शाखा": 3951,
      "न्याय": 3952,
      "संह": 3953,
      "संहिता": 3954,
      "बद्ध": 3955,
      "दधि": 3956,
      "▁स्वा": 3957,
      "हरलाल": 3958,
      "हरलालने": 3959,
      "हरलालनेहरु": 3960,
      "ीत्या": 3961,
      "क्षः": 3962,
      "▁प्रजा": 3963,
      "मेव": 3964,
      "▁शासनम्": 3965,
      "▁श्व": 3966,
      "▁श्वे": 3967,
      "▁श्वेत": 3968,
      "तस्": 3969,
      "िरः": 3970,
      "काः": 3971,
      "भव": 3972,
      "षय": 3973,
      "ख्यात": 3974,
      "▁पुण्य": 3975,
      "१९११": 3976,
      "१९११तमे": 3977,
      "समाज": 3978,
      "थम्": 3979,
      "तिप": 3980,
      "१९१९": 3981,
      "१९१९तमे": 3982,
      "▁कविः": 3983,
      "विद्य": 3984,
      "विद्यालय": 3985,
      "▁आह": 3986,
      "▁आह्व": 3987,
      "▁आह्वान": 3988,
      "▁चित्त": 3989,
      "▁मदन": 3990,
      "पल्ली": 3991,
      "▁सः": 3992,
      "ाचार्यः": 3993,
      "कविः": 3994,
      "▁जे": 3995,
      "नामा": 3996,
      "▁पत्नी": 3997,
      "चन": 3998,
      "▁छात्र": 3999,
      "र्तु": 4000,
      "शय": 4001,
      "▁अन्ति": 4002,
      "▁अन्तिम": 4003,
      "▁गी": 4004,
      "▁गीता": 4005,
      "▁रोमा": 4006,
      "▁ऐक": 4007,
      "कण्": 4008,
      "कण्ठ": 4009,
      "गायन": 4010,
      "मदन": 4011,
      "षित": 4012,
      "ग्ल": 4013,
      "ग्लान": 4014,
      "वादः": 4015,
      "रवी": 4016,
      "▁द्वितीय": 4017,
      "पुस्त": 4018,
      "पुस्तक": 4019,
      "▁रक्त": 4020,
      "दुर्ग": 4021,
      "डाय": 4022,
      "मेण्": 4023,
      "▁गीतम्": 4024,
      "▁रागः": 4025,
      "योजित": 4026,
      "▁जननी": 4027,
      "मय": 4028,
      "निः": 4029,
      "▁अनन्य": 4030,
      "चरण": 4031,
      "भावः": 4032,
      "▁धार्मिक": 4033,
      "▁यव": 4034,
      "▁democracy": 4035,
      "▁Ocean": 4036,
      "▁southwest": 4037,
      "▁Nepal": 4038,
      "▁Thail": 4039,
      "▁Thailand": 4040,
      "Mo": 4041,
      "Modern": 4042,
      "▁humans": 4043,
      "▁occupation": 4044,
      "▁isolation": 4045,
      "▁hun": 4046,
      "▁hunter": 4047,
      "gather": 4048,
      "gatherers": 4049,
      "▁highly": 4050,
      "ettled": 4051,
      "▁evol": 4052,
      "▁archaic": 4053,
      "▁diffused": 4054,
      "▁hym": 4055,
      "▁hymn": 4056,
      "▁hymns": 4057,
      "isting": 4058,
      "▁supplanted": 4059,
      "▁arisen": 4060,
      "laim": 4061,
      "laiming": 4062,
      "▁Early": 4063,
      "knit": 4064,
      "ires": 4065,
      "▁flour": 4066,
      "ishing": 4067,
      "▁creativity": 4068,
      "▁decl": 4069,
      "▁untouchability": 4070,
      "▁exported": 4071,
      "▁Christ": 4072,
      "▁Christian": 4073,
      "▁Christianity": 4074,
      "▁Jud": 4075,
      "aism": 4076,
      "▁Zoroastrian": 4077,
      "▁Zoroastrianism": 4078,
      "▁coasts": 4079,
      "▁overran": 4080,
      "▁Sultanate": 4081,
      "▁drew": 4082,
      "▁network": 4083,
      "▁medieval": 4084,
      "▁Vi": 4085,
      "▁Vij": 4086,
      "▁Vijay": 4087,
      "▁Vijayan": 4088,
      "▁Vijayanag": 4089,
      "▁Vijayanagara": 4090,
      "hered": 4091,
      "▁expansion": 4092,
      "▁peace": 4093,
      "▁expanding": 4094,
      "▁turned": 4095,
      "▁colonial": 4096,
      "▁1858": 4097,
      "▁ide": 4098,
      "▁ro": 4099,
      "▁nationalist": 4100,
      "▁nonviol": 4101,
      "▁nonviolent": 4102,
      "▁factor": 4103,
      "▁ending": 4104,
      "▁independent": 4105,
      "major": 4106,
      "majority": 4107,
      "▁dominion": 4108,
      "scale": 4109,
      "▁migration": 4110,
      "▁accom": 4111,
      "▁govern": 4112,
      "▁democratic": 4113,
      "▁multi": 4114,
      "eth": 4115,
      "nic": 4116,
      "▁361": 4117,
      "▁nominal": 4118,
      "▁income": 4119,
      "▁annually": 4120,
      "grow": 4121,
      "growing": 4122,
      "▁cost": 4123,
      "▁neigh": 4124,
      "▁neighb": 4125,
      "▁unres": 4126,
      "▁unresol": 4127,
      "▁unresolved": 4128,
      "econom": 4129,
      "economic": 4130,
      "▁fac": 4131,
      "▁gender": 4132,
      "▁rising": 4133,
      "▁levels": 4134,
      "▁pollution": 4135,
      "▁mega": 4136,
      "▁megadi": 4137,
      "▁megadiverse": 4138,
      "▁biodiversity": 4139,
      "▁hots": 4140,
      "▁hotsp": 4141,
      "▁hotspots": 4142,
      "▁view": 4143,
      "Ety": 4144,
      "Etym": 4145,
      "Etymology": 4146,
      "tionary": 4147,
      "▁Cl": 4148,
      "▁Class": 4149,
      "▁Classical": 4150,
      "▁Lat": 4151,
      "ret": 4152,
      "▁Ἰ": 4153,
      "▁Ἰν": 4154,
      "▁Ἰνδ": 4155,
      "▁Ancient": 4156,
      "▁Ri": 4157,
      "▁River": 4158,
      "▁Ach": 4159,
      "▁Acha": 4160,
      "▁Achaem": 4161,
      "▁Achaemen": 4162,
      "▁Old": 4163,
      "indh": 4164,
      ",\"": 4165,
      "▁Asians": 4166,
      "▁[": 4167,
      "aː": 4168,
      "▁]": 4169,
      "▁applied": 4170,
      "▁gained": 4171,
      "▁mean": 4172,
      "▁meaning": 4173,
      "▁entire": 4174,
      "Hist": 4175,
      "History": 4176,
      "Ancient": 4177,
      "ased": 4178,
      "och": 4179,
      "▁data": 4180,
      "▁anat": 4181,
      "▁anatom": 4182,
      "▁80": 4183,
      "ih": 4184,
      "▁vary": 4185,
      "▁only": 4186,
      "ils": 4187,
      "vid": 4188,
      "vidence": 4189,
      "▁Bal": 4190,
      "pro": 4191,
      "includ": 4192,
      "including": 4193,
      "▁bar": 4194,
      "▁occurred": 4195,
      "app": 4196,
      "avira": 4197,
      "▁characteristic": 4198,
      "▁included": 4199,
      "▁stand": 4200,
      "▁standar": 4201,
      "▁standardis": 4202,
      "▁standardised": 4203,
      "▁works": 4204,
      "▁pot": 4205,
      "▁terrac": 4206,
      "▁terracot": 4207,
      "▁terracotta": 4208,
      "▁Network": 4209,
      "▁towns": 4210,
      "▁villages": 4211,
      "▁pastor": 4212,
      "▁pastoral": 4213,
      "etween": 4214,
      "▁associated": 4215,
      "▁what": 4216,
      "sp": 4217,
      "▁nex": 4218,
      "▁next": 4219,
      "▁sw": 4220,
      "lements": 4221,
      "▁settlement": 4222,
      "▁may": 4223,
      "▁involved": 4224,
      "▁creating": 4225,
      "▁fami": 4226,
      "▁family": 4227,
      "▁mainly": 4228,
      "dif": 4229,
      "dified": 4230,
      "▁chap": 4231,
      "tell": 4232,
      "▁regist": 4233,
      "▁tak": 4234,
      "▁fort": 4235,
      "▁fortified": 4236,
      "▁varna": 4237,
      "millennium": 4238,
      "▁ethical": 4239,
      "▁systems": 4240,
      "violence": 4241,
      "ixed": 4242,
      "▁heredit": 4243,
      "▁hereditary": 4244,
      "▁living": 4245,
      "ronic": 4246,
      "▁beg": 4247,
      "▁begin": 4248,
      "▁beginnings": 4249,
      "▁geograph": 4250,
      "▁brief": 4251,
      "▁briefly": 4252,
      "▁hubs": 4253,
      "▁exce": 4254,
      "▁notable": 4255,
      "▁ins": 4256,
      "ptions": 4257,
      "▁produced": 4258,
      "ream": 4259,
      "▁Fol": 4260,
      "▁Following": 4261,
      "▁adopted": 4262,
      "▁subsequently": 4263,
      "▁policy": 4264,
      "mission": 4265,
      "erous": 4266,
      "▁edic": 4267,
      "▁edicts": 4268,
      "ote": 4269,
      "▁welf": 4270,
      "▁welfare": 4271,
      "illing": 4272,
      "▁dest": 4273,
      "mental": 4274,
      "▁historians": 4275,
      "▁emb": 4276,
      "▁complex": 4277,
      "▁Plain": 4278,
      "▁mod": 4279,
      "▁model": 4280,
      "upt": 4281,
      "sel": 4282,
      "▁refl": 4283,
      "▁flowering": 4284,
      "▁literature": 4285,
      "▁sci": 4286,
      "▁science": 4287,
      "▁Sang": 4288,
      "▁ruled": 4289,
      "▁Chol": 4290,
      "▁respect": 4291,
      "▁Ka": 4292,
      "▁Kaver": 4293,
      "▁Kaveri": 4294,
      "▁valley": 4295,
      "andy": 4296,
      "▁Pallavas": 4297,
      "▁Sim": 4298,
      "▁Simultan": 4299,
      "▁Simultane": 4300,
      "▁Simultaneously": 4301,
      "▁fav": 4302,
      "▁gods": 4303,
      "▁particular": 4304,
      "▁extensively": 4305,
      "▁able": 4306,
      "▁lands": 4307,
      "▁cleared": 4308,
      "▁make": 4309,
      "▁way": 4310,
      "tra": 4311,
      "▁ruling": 4312,
      "ences": 4313,
      "▁They": 4314,
      "yal": 4315,
      "yalty": 4316,
      "▁temples": 4317,
      "▁patron": 4318,
      "▁cit": 4319,
      "▁citiz": 4320,
      "▁citizens": 4321,
      "▁various": 4322,
      "where": 4323,
      "ili": 4324,
      "▁merchants": 4325,
      "▁initi": 4326,
      "orse": 4327,
      "aval": 4328,
      "▁united": 4329,
      "▁repe": 4330,
      "▁repeated": 4331,
      "▁repeatedly": 4332,
      "western": 4333,
      "▁event": 4334,
      "▁eventually": 4335,
      "▁Islamic": 4336,
      "▁largely": 4337,
      "▁own": 4338,
      "▁cust": 4339,
      "uls": 4340,
      "▁raid": 4341,
      "▁devast": 4342,
      "▁scen": 4343,
      "▁artists": 4344,
      "▁artis": 4345,
      "▁artisans": 4346,
      "▁syn": 4347,
      "▁build": 4348,
      "▁building": 4349,
      "▁portion": 4350,
      "▁rulers": 4351,
      "▁warri": 4352,
      "▁warriors": 4353,
      "▁did": 4354,
      "ead": 4355,
      "▁bal": 4356,
      "rative": 4357,
      "lus": 4358,
      "wing": 4359,
      "▁bonds": 4360,
      "▁Akbar": 4361,
      "▁emper": 4362,
      "▁emperor": 4363,
      "▁mand": 4364,
      "▁taxes": 4365,
      "▁lar": 4366,
      "▁larger": 4367,
      "▁markets": 4368,
      "▁literary": 4369,
      "▁textil": 4370,
      "▁New": 4371,
      "rent": 4372,
      "▁groups": 4373,
      "▁Rajput": 4374,
      "▁Rajputs": 4375,
      "▁Sikhs": 4376,
      "oration": 4377,
      "▁Ex": 4378,
      "▁commerce": 4379,
      "▁imperial": 4380,
      "ority": 4381,
      "▁late": 4382,
      "▁enab": 4383,
      "▁aut": 4384,
      "▁affa": 4385,
      "▁affair": 4386,
      "▁affairs": 4387,
      "▁presence": 4388,
      "▁coastal": 4389,
      "osts": 4390,
      "▁resources": 4391,
      "▁advan": 4392,
      "▁advanced": 4393,
      "▁attract": 4394,
      "▁company": 4395,
      "idel": 4396,
      "▁access": 4397,
      "▁size": 4398,
      "▁manu": 4399,
      "▁manuf": 4400,
      "▁manufact": 4401,
      "▁mat": 4402,
      "▁material": 4403,
      "▁materials": 4404,
      "▁ons": 4405,
      "▁onset": 4406,
      "▁severely": 4407,
      "▁effect": 4408,
      "▁appoin": 4409,
      "▁184": 4410,
      "eneral": 4411,
      "▁ess": 4412,
      "▁essent": 4413,
      "▁essential": 4414,
      "▁dem": 4415,
      "▁railways": 4416,
      "duction": 4417,
      "▁Dis": 4418,
      "vas": 4419,
      "vasive": 4420,
      "sty": 4421,
      "style": 4422,
      "▁reforms": 4423,
      "▁har": 4424,
      "▁prin": 4425,
      "▁princes": 4426,
      "▁reb": 4427,
      "▁rebellion": 4428,
      "anded": 4429,
      "▁unitary": 4430,
      "▁limited": 4431,
      "▁safeguard": 4432,
      "uture": 4433,
      "▁188": 4434,
      "▁hal": 4435,
      "▁half": 4436,
      "▁farmers": 4437,
      "▁depend": 4438,
      "▁dependent": 4439,
      "espite": 4440,
      "▁industrial": 4441,
      "▁generated": 4442,
      "ropp": 4443,
      "▁food": 4444,
      "▁consumption": 4445,
      "ressive": 4446,
      "▁self": 4447,
      "ule": 4448,
      "co": 4449,
      "▁1930": 4450,
      "▁victories": 4451,
      "▁II": 4452,
      "▁push": 4453,
      "▁advent": 4454,
      "▁liberalisation": 4455,
      "▁transform": 4456,
      "▁transformed": 4457,
      "▁persist": 4458,
      "▁violence": 4459,
      "▁Na": 4460,
      "▁separat": 4461,
      "▁Jammu": 4462,
      "▁Nort": 4463,
      "▁Northeast": 4464,
      "▁territor": 4465,
      "▁territorial": 4466,
      "Geography": 4467,
      "▁bulk": 4468,
      "ying": 4469,
      "onic": 4470,
      "▁ge": 4471,
      "▁geolog": 4472,
      "▁super": 4473,
      "▁supercontinent": 4474,
      "▁Gondw": 4475,
      "▁Gondwana": 4476,
      "east": 4477,
      "▁spreading": 4478,
      "▁Eurasian": 4479,
      "▁obstruc": 4480,
      "▁she": 4481,
      "▁layer": 4482,
      "ets": 4483,
      "head": 4484,
      "▁zone": 4485,
      "▁mount": 4486,
      "▁stif": 4487,
      "▁stiff": 4488,
      "ick": 4489,
      "▁Tibetan": 4490,
      "▁rap": 4491,
      "▁rapidly": 4492,
      "▁sedi": 4493,
      "▁sediment": 4494,
      "stitutes": 4495,
      "Gange": 4496,
      "Gangetic": 4497,
      "▁original": 4498,
      "▁extend": 4499,
      "▁extends": 4500,
      "▁direc": 4501,
      "▁To": 4502,
      "▁survives": 4503,
      "▁Sat": 4504,
      "▁Satpura": 4505,
      "▁ranges": 4506,
      "▁chains": 4507,
      "▁run": 4508,
      "▁Nag": 4509,
      "▁Jharkhand": 4510,
      "▁flank": 4511,
      "▁Eastern": 4512,
      "uted": 4513,
      "▁fash": 4514,
      "▁latitud": 4515,
      "▁subst": 4516,
      "▁substant": 4517,
      "▁substantially": 4518,
      "▁Kos": 4519,
      "▁Kosi": 4520,
      "▁extreme": 4521,
      "▁extremely": 4522,
      "▁gradient": 4523,
      "▁flo": 4524,
      "▁flood": 4525,
      "▁prevent": 4526,
      "▁Nar": 4527,
      "▁coastline": 4528,
      "▁meas": 4529,
      "▁leng": 4530,
      "▁length": 4531,
      "94": 4532,
      "▁Lakshadweep": 4533,
      "▁rocky": 4534,
      "▁sho": 4535,
      "▁shores": 4536,
      "▁marsh": 4537,
      "▁marshy": 4538,
      "▁Sund": 4539,
      "▁Sundarb": 4540,
      "▁Sundarbans": 4541,
      "▁shared": 4542,
      "elag": 4543,
      "ls": 4544,
      "▁vol": 4545,
      "▁volcan": 4546,
      "▁panoram": 4547,
      "▁Tr": 4548,
      "▁Nanda": 4549,
      "▁Devi": 4550,
      "▁peak": 4551,
      "▁beh": 4552,
      "▁behind": 4553,
      "arlung": 4554,
      "▁Man": 4555,
      "adra": 4556,
      "▁Have": 4557,
      "limate": 4558,
      "▁strongly": 4559,
      "▁winds": 4560,
      "▁role": 4561,
      "▁June": 4562,
      "▁Oct": 4563,
      "▁Octo": 4564,
      "▁October": 4565,
      "▁climatic": 4566,
      "▁wet": 4567,
      "▁dry": 4568,
      "atures": 4569,
      "▁°": 4570,
      "▁proj": 4571,
      "▁present": 4572,
      "imachal": 4573,
      "Biodiversity": 4574,
      "▁countries": 4575,
      "▁habitat": 4576,
      "▁reptil": 4577,
      "▁amp": 4578,
      "▁amphi": 4579,
      "▁plant": 4580,
      "aps": 4581,
      "▁34": 4582,
      "▁display": 4583,
      "▁endemism": 4584,
      "▁dense": 4585,
      "▁decid": 4586,
      "▁deciduous": 4587,
      "▁sal": 4588,
      "▁thorn": 4589,
      "ible": 4590,
      "string": 4591,
      "▁medic": 4592,
      "iant": 4593,
      "osa": 4594,
      "ought": 4595,
      "▁desc": 4596,
      "ision": 4597,
      "▁Eurasia": 4598,
      "▁Still": 4599,
      "oo": 4600,
      "▁pass": 4601,
      "▁contra": 4602,
      "▁vul": 4603,
      "▁vuln": 4604,
      "▁vulner": 4605,
      "▁vulnerable": 4606,
      "▁threatened": 4607,
      "edd": 4608,
      "des": 4609,
      "▁tig": 4610,
      "▁croc": 4611,
      "▁crocodi": 4612,
      "▁nearly": 4613,
      "▁extinct": 4614,
      "▁open": 4615,
      "lands": 4616,
      "zed": 4617,
      "▁blackbuc": 4618,
      "▁blackbuck": 4619,
      "▁cheet": 4620,
      "▁cheetah": 4621,
      "▁respon": 4622,
      "▁response": 4623,
      "▁1972": 4624,
      "▁Fore": 4625,
      "▁amend": 4626,
      "▁amendments": 4627,
      "osp": 4628,
      "osphere": 4629,
      "erves": 4630,
      "ple": 4631,
      "orb": 4632,
      "▁Uttar": 4633,
      "akhand": 4634,
      "▁Cre": 4635,
      "▁gard": 4636,
      "▁garden": 4637,
      "▁Madh": 4638,
      "Polit": 4639,
      "Politics": 4640,
      "▁parties": 4641,
      "erally": 4642,
      "\")": 4643,
      "▁Party": 4644,
      "▁Jaw": 4645,
      "▁Jawahar": 4646,
      "▁Jawaharl": 4647,
      "▁Jawaharlal": 4648,
      "▁remained": 4649,
      "▁comf": 4650,
      "▁comfort": 4651,
      "▁comfortable": 4652,
      "▁died": 4653,
      "▁1964": 4654,
      "▁Bah": 4655,
      "▁Shastri": 4656,
      "▁soon": 4657,
      "▁chose": 4658,
      "▁1967": 4659,
      "▁1971": 4660,
      "▁declared": 4661,
      "ending": 4662,
      "▁liber": 4663,
      "▁Emerg": 4664,
      "▁Emergency": 4665,
      "▁voted": 4666,
      "▁lasted": 4667,
      "aran": 4668,
      "▁returned": 4669,
      "▁Gold": 4670,
      "▁Golden": 4671,
      "▁Amrit": 4672,
      "▁Amritsar": 4673,
      "▁assass": 4674,
      "▁assassin": 4675,
      "▁assassinated": 4676,
      "▁1984": 4677,
      "▁suc": 4678,
      "▁Rajiv": 4679,
      "▁alliance": 4680,
      "▁Lankan": 4681,
      "▁organisation": 4682,
      "ek": 4683,
      "▁intervention": 4684,
      "▁Ra": 4685,
      "year": 4686,
      "▁winning": 4687,
      "▁followed": 4688,
      "▁1998": 4689,
      "▁Bihar": 4690,
      "▁Vaj": 4691,
      "▁Vajpay": 4692,
      "▁Vajpayee": 4693,
      "▁short": 4694,
      "▁El": 4695,
      "▁1999": 4696,
      "▁Democratic": 4697,
      "▁Alliance": 4698,
      "Congress": 4699,
      "te": 4700,
      "▁NDA": 4701,
      "▁defeated": 4702,
      "▁President": 4703,
      "▁UPA": 4704,
      "▁2009": 4705,
      "▁Modi": 4706,
      "ser": 4707,
      "▁uncom": 4708,
      "▁uncommon": 4709,
      "▁spe": 4710,
      "▁1949": 4711,
      "▁Government": 4712,
      "▁frame": 4713,
      "▁framework": 4714,
      "▁exerc": 4715,
      "▁reser": 4716,
      "▁legislature": 4717,
      "▁hous": 4718,
      "▁houses": 4719,
      "▁Sabh": 4720,
      "▁Sabha": 4721,
      "▁deleg": 4722,
      "▁delegates": 4723,
      "▁members": 4724,
      "▁represent": 4725,
      "atives": 4726,
      "▁defin": 4727,
      "▁committ": 4728,
      "Artic": 4729,
      "▁Commonwe": 4730,
      "▁Commonwealth": 4731,
      "▁president": 4732,
      "▁seats": 4733,
      "▁house": 4734,
      "cil": 4735,
      "▁decis": 4736,
      "▁compr": 4737,
      "▁comprising": 4738,
      "▁supreme": 4739,
      "▁juris": 4740,
      "▁jurisdic": 4741,
      "▁jurisdiction": 4742,
      "▁involving": 4743,
      "ke": 4744,
      "▁down": 4745,
      "vene": 4746,
      "▁any": 4747,
      "▁action": 4748,
      "▁Puducherry": 4749,
      "▁Cap": 4750,
      "▁Capital": 4751,
      "▁Territ": 4752,
      "▁Territory": 4753,
      "▁Re": 4754,
      "organ": 4755,
      "▁ling": 4756,
      "▁bodi": 4757,
      "▁bodies": 4758,
      "▁city": 4759,
      "Ch": 4760,
      "disha": 4761,
      "angana": 4762,
      "Uttar": 4763,
      "Un": 4764,
      "Fore": 4765,
      "Foreign": 4766,
      "▁played": 4767,
      "▁Chinese": 4768,
      "▁Sikkim": 4769,
      "eas": 4770,
      "▁wars": 4771,
      "▁close": 4772,
      "▁So": 4773,
      "▁Sovi": 4774,
      "▁Soviet": 4775,
      "▁arms": 4776,
      "▁produ": 4777,
      "▁produce": 4778,
      "▁additional": 4779,
      "ground": 4780,
      "Prol": 4781,
      "Prolif": 4782,
      "Proliferation": 4783,
      "▁discrimin": 4784,
      "atory": 4785,
      "▁doc": 4786,
      "tr": 4787,
      "▁civilian": 4788,
      "▁agree": 4789,
      "▁rece": 4790,
      "▁International": 4791,
      "▁Agen": 4792,
      "▁Agency": 4793,
      "▁rest": 4794,
      "sia": 4795,
      "▁Can": 4796,
      "Econom": 4797,
      "Economy": 4798,
      "▁ten": 4799,
      "▁economies": 4800,
      "▁domestic": 4801,
      "▁output": 4802,
      "PP": 4803,
      "▁annual": 4804,
      "▁Dem": 4805,
      "▁historically": 4806,
      "▁fall": 4807,
      "idesp": 4808,
      "idespread": 4809,
      "side": 4810,
      "▁emphas": 4811,
      "lows": 4812,
      "▁Or": 4813,
      "▁Organ": 4814,
      "▁Organiz": 4815,
      "▁Organization": 4816,
      "▁lab": 4817,
      "▁2017": 4818,
      "▁service": 4819,
      "100": 4820,
      "▁contributed": 4821,
      "▁1985": 4822,
      "▁2021": 4823,
      "▁nin": 4824,
      "▁ninth": 4825,
      "▁exporter": 4826,
      "▁pet": 4827,
      "▁calend": 4828,
      "▁several": 4829,
      "▁2007": 4830,
      "▁Some": 4831,
      "▁workforce": 4832,
      "▁female": 4833,
      "fast": 4834,
      "▁At": 4835,
      "▁includes": 4836,
      "▁biot": 4837,
      "▁biotech": 4838,
      "▁₹": 4839,
      "▁elect": 4840,
      "rical": 4841,
      "▁gig": 4842,
      "▁gigaw": 4843,
      "▁gigawat": 4844,
      "▁gigawatts": 4845,
      "▁renewable": 4846,
      "▁green": 4847,
      "▁greenh": 4848,
      "▁greenhouse": 4849,
      "▁emiss": 4850,
      "▁emissions": 4851,
      "▁Inc": 4852,
      "▁Increasing": 4853,
      "▁contributes": 4854,
      "▁Pal": 4855,
      "rin": 4856,
      "aus": 4857,
      "ause": 4858,
      "▁comm": 4859,
      "▁commun": 4860,
      "▁communities": 4861,
      "Demographics": 4862,
      "▁brough": 4863,
      "▁brought": 4864,
      "▁decreasing": 4865,
      "▁expect": 4866,
      "▁expectan": 4867,
      "▁expectancy": 4868,
      "75": 4869,
      "▁mort": 4870,
      "▁mortality": 4871,
      "▁live": 4872,
      "▁births": 4873,
      "▁whe": 4874,
      "▁whereas": 4875,
      "▁41": 4876,
      "▁sex": 4877,
      "▁rati": 4878,
      "▁according": 4879,
      "▁females": 4880,
      "▁males": 4881,
      "emale": 4882,
      "▁fo": 4883,
      "▁foetic": 4884,
      "▁foeticide": 4885,
      "▁63": 4886,
      "▁stud": 4887,
      "▁study": 4888,
      "▁dy": 4889,
      "▁27": 4890,
      "▁53": 4891,
      "▁Kol": 4892,
      "▁Kolk": 4893,
      "▁Kolkata": 4894,
      "▁Ahm": 4895,
      "▁Ahmed": 4896,
      "▁Ahmedabad": 4897,
      "Languages": 4898,
      "▁bre": 4899,
      "▁break": 4900,
      "down": 4901,
      "▁sole": 4902,
      "fficial": 4903,
      "▁international": 4904,
      "▁numeral": 4905,
      "▁numerals": 4906,
      "▁artic": 4907,
      "efin": 4908,
      "\".": 4909,
      "▁list": 4910,
      "▁scheduled": 4911,
      "▁Assam": 4912,
      "▁Assamese": 4913,
      "▁Bengali": 4914,
      "▁Gujarati": 4915,
      "▁Kann": 4916,
      "▁Kannada": 4917,
      "▁Kashmi": 4918,
      "▁Kashmiri": 4919,
      "▁Malay": 4920,
      "▁Malayal": 4921,
      "▁Malayalam": 4922,
      "▁Marathi": 4923,
      "▁Oriya": 4924,
      "▁Telu": 4925,
      "▁Telugu": 4926,
      "▁Nepali": 4927,
      "▁Manipur": 4928,
      "▁Kon": 4929,
      "▁Konk": 4930,
      "▁Konkani": 4931,
      "▁Sant": 4932,
      "▁each": 4933,
      "▁pap": 4934,
      "▁paper": 4935,
      "Rel": 4936,
      "Relig": 4937,
      "Religion": 4938,
      "▁Hind": 4939,
      "▁Hindus": 4940,
      "▁Muslims": 4941,
      "aith": 4942,
      "▁expression": 4943,
      "▁wors": 4944,
      "▁worship": 4945,
      "everal": 4946,
      "▁San": 4947,
      "▁Sarn": 4948,
      "▁pilg": 4949,
      "▁pilgri": 4950,
      "▁pilgrim": 4951,
      "teri": 4952,
      "terior": 4953,
      "athur": 4954,
      "▁percent": 4955,
      "▁percentage": 4956,
      "▁poin": 4957,
      "▁points": 4958,
      "ika": 4959,
      "▁affir": 4960,
      "▁affirm": 4961,
      "▁hon": 4962,
      "▁Dalit": 4963,
      "que": 4964,
      "▁former": 4965,
      "▁formerly": 4966,
      "▁Col": 4967,
      "lege": 4968,
      "▁founded": 4969,
      "ealth": 4970,
      "den": 4971,
      "▁tub": 4972,
      "▁tuberc": 4973,
      "▁tubercul": 4974,
      "▁tuberculos": 4975,
      "▁tuberculosis": 4976,
      "▁dise": 4977,
      "▁diseas": 4978,
      "▁disease": 4979,
      "▁breath": 4980,
      "▁breathing": 4981,
      "▁WHO": 4982,
      "ety": 4983,
      "Culture": 4984,
      "▁therefore": 4985,
      "castes": 4986,
      "ogam": 4987,
      "ogamy": 4988,
      "▁marry": 4989,
      "▁formally": 4990,
      "▁related": 4991,
      "▁parents": 4992,
      "▁divorce": 4993,
      "▁less": 4994,
      "▁bride": 4995,
      "▁married": 4996,
      "▁usually": 4997,
      "▁carved": 4998,
      "▁seal": 4999,
      "▁excav": 5000,
      "▁excavated": 5001,
      "▁best": 5002,
      "▁thereafter": 5003,
      "▁prob": 5004,
      "▁probably": 5005,
      "Over": 5006,
      "▁distin": 5007,
      "▁distinct": 5008,
      "▁figure": 5009,
      "▁give": 5010,
      "vara": 5011,
      "▁either": 5012,
      "▁cut": 5013,
      "▁reliefs": 5014,
      "▁Aj": 5015,
      "▁Ajanta": 5016,
      "▁generally": 5017,
      "▁artistic": 5018,
      "▁–": 5019,
      "▁saw": 5020,
      "▁dominance": 5021,
      "▁Cav": 5022,
      "▁Caves": 5023,
      "▁Ac": 5024,
      "▁bronze": 5025,
      "▁Nat": 5026,
      "▁Natar": 5027,
      "▁Nataraj": 5028,
      "▁Nataraja": 5029,
      "▁paintings": 5030,
      "▁ple": 5031,
      "▁inn": 5032,
      "▁innov": 5033,
      "▁everyday": 5034,
      "Bh": 5035,
      "▁Dance": 5036,
      "lit": 5037,
      "▁Vedic": 5038,
      "▁orally": 5039,
      "▁manuscript": 5040,
      "▁mathematicians": 5041,
      "rigon": 5042,
      "rigonomet": 5043,
      "▁cosine": 5044,
      "▁series": 5045,
      "▁sit": 5046,
      "▁sitar": 5047,
      "▁fil": 5048,
      "▁cin": 5049,
      "▁Sub": 5050,
      "athan": 5051,
      "▁sar": 5052,
      "▁playing": 5053,
      "Dance": 5054,
      "exts": 5055,
      "adem": 5056,
      "ademi": 5057,
      "aty": 5058,
      "atyam": 5059,
      "▁Chh": 5060,
      "▁Chhau": 5061,
      "▁Yakshag": 5062,
      "▁Yakshagana": 5063,
      "centur": 5064,
      "century": 5065,
      "cover": 5066,
      "▁Kath": 5067,
      "▁Kathak": 5068,
      "▁cloth": 5069,
      "▁shoulder": 5070,
      "▁dhot": 5071,
      "▁dhoti": 5072,
      "▁tun": 5073,
      "▁kur": 5074,
      "▁kurta": 5075,
      "ypically": 5076,
      "▁nar": 5077,
      "▁narrow": 5078,
      "▁pants": 5079,
      "ams": 5080,
      "▁occas": 5081,
      "▁occasions": 5082,
      "▁shalwar": 5083,
      "▁sports": 5084,
      "▁jac": 5085,
      "▁jacket": 5086,
      "▁jackets": 5087,
      "▁gro": 5088,
      "▁sport": 5089,
      "wan": 5090,
      "▁shaw": 5091,
      "▁shawl": 5092,
      "isine": 5093,
      "▁cere": 5094,
      "▁cereal": 5095,
      "▁savour": 5096,
      "▁savoury": 5097,
      "▁steam": 5098,
      "▁steamed": 5099,
      "▁bread": 5100,
      "▁spic": 5101,
      "▁vegetar": 5102,
      "▁vegetarian": 5103,
      "▁feature": 5104,
      "▁techni": 5105,
      "▁partially": 5106,
      "▁tand": 5107,
      "▁tandoor": 5108,
      "▁kh": 5109,
      "▁kho": 5110,
      "▁Chess": 5111,
      "▁Champ": 5112,
      "▁Cup": 5113,
      "▁Cups": 5114,
      "▁hock": 5115,
      "▁hockey": 5116,
      "▁gold": 5117,
      "▁Olympics": 5118,
      "dia": 5119,
      "▁web": 5120,
      "▁/": 5121,
      "▁बड़": 5122,
      "▁चु": 5123,
      "▁जिस": 5124,
      "ोग": 5125,
      "...": 5126,
      "46": 5127,
      "ile": 5128,
      "▁29": 5129,
      "▁Fact": 5130,
      "▁Factbook": 5131,
      "पू": 5132,
      "▁समाज": 5133,
      "▁अन्त": 5134,
      "▁व्य": 5135,
      "▁अभ": 5136,
      "▁व्या": 5137,
      "ंड": 5138,
      "्रा": 5139,
      "▁मि": 5140,
      "ोड़": 5141,
      "ఖండ": 5142,
      "వుల": 5143,
      "ెట్": 5144,
      "హార": 5145,
      "▁మే": 5146,
      "▁గో": 5147,
      "▁దీ": 5148,
      "▁విశ": 5149,
      "ోళ": 5150,
      "▁సు": 5151,
      "▁ఫ": 5152,
      "మన": 5153,
      "▁ఆక్రమ": 5154,
      "▁లక్ష": 5155,
      "్యాయ": 5156,
      "తులు": 5157,
      "▁ఘ": 5158,
      "సా": 5159,
      "▁వై": 5160,
      "మె": 5161,
      "నిక": 5162,
      "ీర": 5163,
      "ిత్రక": 5164,
      "యాల": 5165,
      "ాస": 5166,
      "ాఖ": 5167,
      "న్మ": 5168,
      "▁ద్వీ": 5169,
      "▁ద్వీప": 5170,
      "▁సంఘ": 5171,
      "▁ఆధార": 5172,
      "ుతున్న": 5173,
      "రాస": 5174,
      "ంటే": 5175,
      "టీ": 5176,
      "▁వల": 5177,
      "▁గు": 5178,
      "▁సంవత్": 5179,
      "ాల్లో": 5180,
      "ాప": 5181,
      "ుకు": 5182,
      "త్వం": 5183,
      "వరి": 5184,
      "ద్య": 5185,
      "▁సభ్య": 5186,
      "లే": 5187,
      "ోర": 5188,
      "▁సంఖ్య": 5189,
      "▁సంక": 5190,
      "ూచ": 5191,
      "▁మా": 5192,
      "డే": 5193,
      "్లో": 5194,
      "మై": 5195,
      "మ్మ": 5196,
      "గే": 5197,
      "ెల": 5198,
      "స్వామ": 5199,
      "స్వామ్య": 5200,
      "▁కి": 5201,
      "దేశ్": 5202,
      "▁ఆఫ": 5203,
      "▁ఆఫ్": 5204,
      "▁నా": 5205,
      "ికత": 5206,
      "▁బ్రిటి": 5207,
      "ంప": 5208,
      "గంగా": 5209,
      "ట్లు": 5210,
      "ప్పటికీ": 5211,
      "▁లే": 5212,
      "▁పొ": 5213,
      "▁వార": 5214,
      "▁వారస": 5215,
      "▁చేస": 5216,
      "▁కార్య": 5217,
      "▁చరిత్ర": 5218,
      "ంచి": 5219,
      "దన": 5220,
      "వె": 5221,
      "▁కుటు": 5222,
      "▁కుటుంబ": 5223,
      "డ్డు": 5224,
      "▁రో": 5225,
      "ాలా": 5226,
      "▁పత": 5227,
      "▁క్య": 5228,
      "సై": 5229,
      "▁स्थाप": 5230,
      "दोल": 5231,
      "दोलन": 5232,
      "ेष": 5233,
      "▁२००": 5234,
      "▁పై": 5235,
      "▁పైగా": 5236,
      "▁ప్రపంచంలో": 5237,
      "పాలిత": 5238,
      "▁కలిగి": 5239,
      "▁పశ": 5240,
      "▁పశ్చ": 5241,
      "▁పశ్చిమ": 5242,
      "▁పాకిస్తాన్": 5243,
      "▁సామ్రా": 5244,
      "▁సామ్రాజ్య": 5245,
      "ుగా": 5246,
      "▁ఆర్థ": 5247,
      "▁ఆర్థిక": 5248,
      "▁అభివ": 5249,
      "▁అభివృ": 5250,
      "▁అభివృద్ధి": 5251,
      "▁వంటి": 5252,
      "లలో": 5253,
      "▁దక్షిణ": 5254,
      "▁ఉత్తర": 5255,
      "▁వచ్చిన": 5256,
      "▁శాస్త్రం": 5257,
      "▁ఢిల్లీ": 5258,
      "▁ప్రధానమంత్రి": 5259,
      "▁ప్రకారం": 5260,
      "మైనది": 5261,
      "▁అని": 5262,
      "▁కోర్టు": 5263,
      "▁మాత్రం": 5264,
      "▁సంప్రదాయ": 5265,
      "▁సంప్రదాయాల": 5266,
      "స్థాన్": 5267,
      "▁ప్రజల": 5268,
      "▁పాత్ర": 5269,
      "▁పరిశ్రమ": 5270,
      "▁మూడు": 5271,
      "▁ఉన్నారు": 5272,
      "%),": 5273,
      "▁భాషల": 5274,
      "▁అధికారిక": 5275,
      "▁రకాల": 5276,
      "▁సర్వీ": 5277,
      "▁సర్వీసు": 5278,
      "▁రైళ్ల": 5279,
      "▁పాక్": 5280,
      "▁సాంప్రదాయ": 5281,
      "▁చెందిన": 5282,
      "▁సినిమా": 5283,
      "▁బెంగా": 5284,
      "▁लि": 5285,
      "▁हुआ": 5286,
      "पूर्ण": 5287,
      "▁सिं": 5288,
      "धुनिक": 5289,
      "▁सह": 5290,
      "र्म": 5291,
      "युक्त": 5292,
      "▁हुई": 5293,
      "ंद्र": 5294,
      "न्न": 5295,
      "करण": 5296,
      "▁अर्थ": 5297,
      "प्": 5298,
      "▁युग": 5299,
      "▁शा": 5300,
      "ूर": 5301,
      "ेज": 5302,
      "▁रह": 5303,
      "▁केंद्र": 5304,
      "ँच": 5305,
      "▁ड": 5306,
      "07": 5307,
      "62": 5308,
      "04": 5309,
      "14": 5310,
      "▁).": 5311,
      "▁सी": 5312,
      "वादी": 5313,
      "▁सू": 5314,
      "▁आधुनिक": 5315,
      "▁कृ": 5316,
      "▁नी": 5317,
      "▁प्राप्त": 5318,
      "▁शक्ति": 5319,
      "▁सर्वो": 5320,
      "▁सर्वोच्च": 5321,
      "▁थी": 5322,
      "▁समय": 5323,
      "▁दिया": 5324,
      "▁बना": 5325,
      "▁लिए": 5326,
      "▁हिन्दी": 5327,
      "पा": 5328,
      "हीं": 5329,
      "नाव": 5330,
      "23": 5331,
      "517": 5332,
      "▁32": 5333,
      "63": 5334,
      "422": 5335,
      "40": 5336,
      "16": 5337,
      "199": 5338,
      "▁82": 5339,
      "87": 5340,
      "▁700": 5341,
      "\",": 5342,
      "Count": 5343,
      "▁BB": 5344,
      "▁BBC": 5345,
      "धी": 5346,
      "▁समा": 5347,
      "▁आधार": 5348,
      "श्मी": 5349,
      "श्मीर": 5350,
      "▁जीव": 5351,
      "▁उभ": 5352,
      "▁कृष": 5353,
      "▁वाल": 5354,
      "बा": 5355,
      "▁सार": 5356,
      "▁रू": 5357,
      "हिन्": 5358,
      "ंग्रेज": 5359,
      "स्तान": 5360,
      "▁बढ़": 5361,
      "ारा": 5362,
      "▁విస్త": 5363,
      "ీర్ణం": 5364,
      "స్థాన": 5365,
      "▁పార్": 5366,
      "బి": 5367,
      "▁పంచ": 5368,
      "▁శ్రీ": 5369,
      "టే": 5370,
      "టె": 5371,
      "మ్": 5372,
      "▁నాయ": 5373,
      "సం": 5374,
      "దర": 5375,
      "▁అవ": 5376,
      "ముఖ్య": 5377,
      "▁ఇవ": 5378,
      "రత": 5379,
      "మారు": 5380,
      "ర్ష": 5381,
      "లిచ": 5382,
      "తుల": 5383,
      "క్య": 5384,
      "గోళ": 5385,
      "బె": 5386,
      "న్నాయి": 5387,
      "సీ": 5388,
      "ద్ధం": 5389,
      "జి": 5390,
      "▁న్యాయ": 5391,
      "్యవస్థ": 5392,
      "ుతుంది": 5393,
      "క్షం": 5394,
      "ళ్": 5395,
      "ళ్ళ": 5396,
      "▁పేర్కొ": 5397,
      "▁మై": 5398,
      "ష్ణ": 5399,
      "▁కాశ": 5400,
      "▁కాశ్మ": 5401,
      "ూల": 5402,
      "ళి": 5403,
      "▁రంగ": 5404,
      "▁డ": 5405,
      "టా": 5406,
      "▁బా": 5407,
      "▁కల": 5408,
      "ందు": 5409,
      "గణ": 5410,
      "▁సంబ": 5411,
      "ూరు": 5412,
      "▁లా": 5413,
      "మతి": 5414,
      "కర": 5415,
      "స్తున్న": 5416,
      "▁నిర్": 5417,
      "మాన": 5418,
      "▁చి": 5419,
      "▁కథ": 5420,
      "▁టై": 5421,
      "ంటి": 5422,
      "ంక": 5423,
      "ట్ల": 5424,
      "▁సై": 5425,
      "క్తి": 5426,
      "టర్": 5427,
      "టర్ల": 5428,
      "▁సముద": 5429,
      "ారిత్రక": 5430,
      "▁ఉత్త": 5431,
      "▁ఉత్తరా": 5432,
      "▁హిమ": 5433,
      "▁హిమాల": 5434,
      "రే": 5435,
      "▁జన్మ": 5436,
      "ప్రా": 5437,
      "▁వైవి": 5438,
      "▁వైవిధ్య": 5439,
      "యింది": 5440,
      "కోవడం": 5441,
      "▁పరిపాల": 5442,
      "ాత్మ": 5443,
      "క్షరాస": 5444,
      "క్షరాస్య": 5445,
      "ినీ": 5446,
      "తరాల": 5447,
      "చ్చు": 5448,
      "భాగ": 5449,
      "నది": 5450,
      "▁గుర్": 5451,
      "▁గుర్త": 5452,
      "స్వ": 5453,
      "▁గణ": 5454,
      "▁సహ": 5455,
      "▁ఇంగ్ల": 5456,
      "▁వ్యాప": 5457,
      "▁తి": 5458,
      "భిన్న": 5459,
      "▁రాజ్యా": 5460,
      "▁పద": 5461,
      "▁పద్ధతి": 5462,
      "▁సంవత్సర": 5463,
      "ాక": 5464,
      "బడ్డ": 5465,
      "▁సూచ": 5466,
      "▁వహించ": 5467,
      "ుత్": 5468,
      "▁ఎన్ని": 5469,
      "▁ఎన్నిక": 5470,
      "డిన": 5471,
      "▁కుల": 5472,
      "▁పీ": 5473,
      "▁పీఠ": 5474,
      "▁ఉండ": 5475,
      "దాయం": 5476,
      "▁తక్కువ": 5477,
      "ికా": 5478,
      "▁భిన్న": 5479,
      "▁ముంబ": 5480,
      "▁పురు": 5481,
      "▁పురుష": 5482,
      "లిం": 5483,
      "▁జరు": 5484,
      "▁జరుపు": 5485,
      "▁కన్న": 5486,
      "శాఖ": 5487,
      "▁ప్రారం": 5488,
      "▁ప్రారంభ": 5489,
      "ోర్": 5490,
      "▁మనదేశం": 5491,
      "పిక్": 5492,
      "ెలవు": 5493,
      "దినాలు": 5494,
      "▁पुरु": 5495,
      "▁भूमि": 5496,
      "▁सभ्य": 5497,
      "वै": 5498,
      "शा": 5499,
      "दर्": 5500,
      "वंश": 5501,
      "णाली": 5502,
      "▁सां": 5503,
      "स्कृतिक": 5504,
      "सर": 5505,
      "▁कृषि": 5506,
      "▁हर": 5507,
      "▁सिंह": 5508,
      "५०": 5509,
      "ुष्": 5510,
      "▁३": 5511,
      "रं": 5512,
      "▁ना": 5513,
      "टर": 5514,
      "▁८": 5515,
      "▁प्रत्य": 5516,
      "▁माध्य": 5517,
      "ण्डल": 5518,
      "▁झ": 5519,
      "षी": 5520,
      "▁స్థానంలో": 5521,
      "▁ప్రజాస్వామ్య": 5522,
      "▁పాలన": 5523,
      "▁సమాఖ్య": 5524,
      "▁ముఖ్యమైన": 5525,
      "▁వాణి": 5526,
      "▁వాణిజ్య": 5527,
      "▁బంగ్ల": 5528,
      "▁బంగ్లా": 5529,
      "▁ఆఫ్ఘ": 5530,
      "నిస్తాన్": 5531,
      "▁సింధు": 5532,
      "▁నాగర": 5533,
      "▁నాగరికత": 5534,
      "▁బహుళ": 5535,
      "▁జాతి": 5536,
      "▁ప్రాంతాల": 5537,
      "▁ఒకే": 5538,
      "▁రాజ్యాల": 5539,
      "▁కంప": 5540,
      "▁కంపె": 5541,
      "▁కంపెనీ": 5542,
      "▁గాంధ": 5543,
      "▁గాంధీ": 5544,
      "▁స్వతంత్ర": 5545,
      "▁వేగంగా": 5546,
      "▁నాలు": 5547,
      "▁నాలుగు": 5548,
      "▁వీ": 5549,
      "▁వీటి": 5550,
      "▁జంబ": 5551,
      "▁జంబూ": 5552,
      "బడిన": 5553,
      "▁లేదా": 5554,
      "▁రాజు": 5555,
      "▁పొందిన": 5556,
      "▁ప్రాచీన": 5557,
      "▁మొట్ట": 5558,
      "▁మొట్టమ": 5559,
      "▁మొట్టమొ": 5560,
      "▁మొట్టమొద": 5561,
      "▁మొట్టమొదటి": 5562,
      "▁ఏర్పడ్డ": 5563,
      "▁సంస్కృతి": 5564,
      "▁సాంస్కృ": 5565,
      "▁సాంస్కృతిక": 5566,
      "▁వారసత్వ": 5567,
      "▁చేసింది": 5568,
      "బడింది": 5569,
      "▁మొదలైన": 5570,
      "పై": 5571,
      "▁భాగం": 5572,
      "▁మతాల": 5573,
      "▁దేశానికి": 5574,
      "▁కారణ": 5575,
      "▁కారణంగా": 5576,
      "లోను": 5577,
      "▁అధికారం": 5578,
      "▁నిర్వహ": 5579,
      "▁నిర్వహణ": 5580,
      "▁ద్వార": 5581,
      "▁ద్వారా": 5582,
      "▁ఉంటుంది": 5583,
      "కుంటారు": 5584,
      "▁ఇవి": 5585,
      "▁దాదా": 5586,
      "▁దాదాపు": 5587,
      "▁కలిసి": 5588,
      "ల్లో": 5589,
      "▁నుంచి": 5590,
      "▁కొన్ని": 5591,
      "రాష్ట్రాల": 5592,
      "▁శాస్త్ర": 5593,
      "▁శాస్త్రీయ": 5594,
      "▁సినిమ": 5595,
      "▁సినిమాలు": 5596,
      "▁మంది": 5597,
      "జనాభా": 5598,
      "వెనుక": 5599,
      "వెనుకటి": 5600,
      "▁కార్యక్రమ": 5601,
      "▁కార్యక్రమాల": 5602,
      "▁పండుగ": 5603,
      "▁హిందీ": 5604,
      "▁తెలు": 5605,
      "▁తెలుగు": 5606,
      "▁తమిళం": 5607,
      "▁ఇస్": 5608,
      "▁ఇస్లా": 5609,
      "ాబా": 5610,
      "ాబాద్": 5611,
      "▁దక్షిణాసియా": 5612,
      "▁ప్రతిపా": 5613,
      "▁ప్రతిపాదన": 5614,
      "▁శాఖ": 5615,
      "▁మార్గాల": 5616,
      "▁రోడ్డు": 5617,
      "▁కేవ": 5618,
      "▁కేవలం": 5619,
      "▁చాలా": 5620,
      "▁పరంగా": 5621,
      "▁క్రీడల": 5622,
      "▁పతకాల": 5623,
      "▁క్యాల": 5624,
      "▁క్యాలెండ": 5625,
      "▁క్యాలెండర్": 5626,
      "▁IS": 5627,
      "▁ISB": 5628,
      "▁ISBN": 5629,
      "సైటు": 5630,
      "▁अंग्रेज": 5631,
      "▁एश": 5632,
      "▁एशिया": 5633,
      "ंग": 5634,
      "▁हुए": 5635,
      "▁मै": 5636,
      "तंत्र": 5637,
      "▁संघ": 5638,
      "▁रहा": 5639,
      "▁कई": 5640,
      "ियों": 5641,
      "▁होता": 5642,
      "▁देशों": 5643,
      "िये": 5644,
      "▁चुनाव": 5645,
      "ोन": 5646,
      "▁सीमा": 5647,
      "तार": 5648,
      "भु": 5649,
      "▁वै": 5650,
      "देव": 5651,
      "ामि": 5652,
      "शेष": 5653,
      "दिक": 5654,
      "पश्चिम": 5655,
      "दर्श": 5656,
      "चा": 5657,
      "▁१२": 5658,
      "▁शास": 5659,
      "▁शासक": 5660,
      "▁क्रम": 5661,
      "▁विशाल": 5662,
      "▁१९४७": 5663,
      "टा": 5664,
      "▁निम्": 5665,
      "▁निम्न": 5666,
      "▁ठ": 5667,
      "डु": 5668,
      "▁क्रय": 5669,
      "ूह": 5670,
      "▁इसके": 5671,
      "▁साम्रा": 5672,
      "▁साम्राज्य": 5673,
      "▁करने": 5674,
      "▁प्रमुख": 5675,
      "▁बन": 5676,
      "▁करोड़": 5677,
      "▁अनुसार": 5678,
      "टे": 5679,
      "समें": 5680,
      "▁मान": 5681,
      "▁ख": 5682,
      "▁ऊ": 5683,
      "ड़ा": 5684,
      "▁नहीं": 5685,
      "क्षा": 5686,
      "ंत्री": 5687,
      "▁त्रि": 5688,
      "वर्त": 5689,
      "▁अत्य": 5690,
      "▁चर": 5691,
      "वैदिक": 5692,
      "▁गौ": 5693,
      "क्रम": 5694,
      "▁प्राय": 5695,
      "▁चे": 5696,
      "▁शास्त्र": 5697,
      "नो": 5698,
      "▁भो": 5699,
      "▁प्राप्": 5700,
      "माता": 5701,
      "ेल": 5702,
      "ब्ब": 5703,
      "▁द्र": 5704,
      "श्रेण": 5705,
      "▁२९": 5706,
      "▁अन्तर्": 5707,
      "त्तर": 5708,
      "▁नर्म": 5709,
      "▁मुम्ब": 5710,
      "▁मुम्बई": 5711,
      "▁जवा": 5712,
      "▁विधि": 5713,
      "पति": 5714,
      "▁न्य": 5715,
      "त्री": 5716,
      "मन": 5717,
      "▁द्वीप": 5718,
      "क्षि": 5719,
      "पक्ष": 5720,
      "जना": 5721,
      "कु": 5722,
      "सां": 5723,
      "स्व": 5724,
      "▁समान": 5725,
      "भाषी": 5726,
      "▁मैदान": 5727,
      "▁स्वतंत्र": 5728,
      "▁पह": 5729,
      "▁संबंध": 5730,
      "▁द्वारा": 5731,
      "▁ओ": 5732,
      "▁भाषाओं": 5733,
      "▁भा": 5734,
      "▁राष्ट्रीय": 5735,
      "ंग्रेस": 5736,
      "▁संविधान": 5737,
      "▁पार्": 5738,
      "युग": 5739,
      "लेख": 5740,
      "नौ": 5741,
      "▁वन्य": 5742,
      "ष्णु": 5743,
      "▁कथा": 5744,
      "▁ऋष": 5745,
      "▁ऋषभ": 5746,
      "▁आर": 5747,
      "प्राचीन": 5748,
      "▁ज्ञात": 5749,
      "वीर": 5750,
      "▁गौतम": 5751,
      "▁बु": 5752,
      "▁बुद्ध": 5753,
      "पदा": 5754,
      "▁उन्न": 5755,
      "▁मुक्त": 5756,
      "▁शक": 5757,
      "मध्य": 5758,
      "▁पुन": 5759,
      "लीप": 5760,
      "▁१२०": 5761,
      "ैव": 5762,
      "तं": 5763,
      "पिता": 5764,
      "▁संस्था": 5765,
      "ब्बत": 5766,
      "५००": 5767,
      "कीर्ण": 5768,
      "उत्तर": 5769,
      "▁स्थल": 5770,
      "▁श्र": 5771,
      "▁यमु": 5772,
      "▁यमुना": 5773,
      "▁गोदा": 5774,
      "▁सार्व": 5775,
      "▁कोल": 5776,
      "▁रूढ": 5777,
      "ेय": 5778,
      "सम्": 5779,
      "तान्त्र": 5780,
      "तान्त्रिक": 5781,
      "▁शासित": 5782,
      "तौ": 5783,
      "▁प्रत्यक्ष": 5784,
      "मन्त्री": 5785,
      "प्रधान": 5786,
      "रू": 5787,
      "▁युध": 5788,
      "▁सन्": 5789,
      "▁लक्ष": 5790,
      "१६": 5791,
      "अर्थ": 5792,
      "सव": 5793,
      "चित्र": 5794,
      "▁२००५": 5795,
      "रस": 5796,
      "▁७४": 5797,
      "सूचित": 5798,
      "भूमि": 5799,
      "१९५०": 5800,
      "नागर": 5801,
      "वह": 5802,
      "▁पारि": 5803,
      "▁पारिवार": 5804,
      "▁पारिवारिक": 5805,
      "वन": 5806,
      "▁कथ": 5807,
      "हू": 5808,
      "▁गर": 5809,
      "▁अभि": 5810,
      "▁ध्य": 5811,
      "▁कीर्": 5812,
      "▁शत": 5813,
      "▁यत्": 5814,
      "▁वर": 5815,
      "▁वरिष्ठ": 5816,
      "बल": 5817,
      "शै": 5818,
      "ैक": 5819,
      "ters": 5820,
      "Austral": 5821,
      "Australian": 5822,
      "▁Mon": 5823,
      "▁Monsoon": 5824,
      "22": 5825,
      "500": 5826,
      "▁72": 5827,
      "67": 5828,
      "▁900": 5829,
      "wa": 5830,
      "▁140": 5831,
      "▁Post": 5832,
      "▁Sum": 5833,
      "▁पाकिस्तान": 5834,
      "▁राजन": 5835,
      "द्योग": 5836,
      "ियाँ": 5837,
      "▁बहुत": 5838,
      "▁प्रदेश": 5839,
      "ाने": 5840,
      "▁नेतृ": 5841,
      "▁नेतृत्व": 5842,
      "▁ही": 5843,
      "मंत्री": 5844,
      "▁दशक": 5845,
      "ख्य": 5846,
      "ॉंग्रेस": 5847,
      "▁जनजा": 5848,
      "▁जनजाति": 5849,
      "उप": 5850,
      "श्चन": 5851,
      "गणराज्यम्": 5852,
      "तमो": 5853,
      "▁वङ्ग": 5854,
      "ान्त": 5855,
      "▁वङ": 5856,
      "▁वङग": 5857,
      "▁नार": 5858,
      "▁नारिक": 5859,
      "▁नारिकेल": 5860,
      "▁श्याम": 5861,
      "ब्रह्म": 5862,
      "श्या": 5863,
      "▁अङ्ग": 5864,
      "जम्ब": 5865,
      "जम्बु": 5866,
      "दृष्ट": 5867,
      "एष": 5868,
      "सिन्धु": 5869,
      "सभ्य": 5870,
      "▁मातृ": 5871,
      "▁चतु": 5872,
      "▁चतुर्": 5873,
      "▁तत्त्व": 5874,
      "विष्ट": 5875,
      "▁झर": 5876,
      "तुष्ट": 5877,
      "रै": 5878,
      "मतम्": 5879,
      "ष्टु": 5880,
      "तेन": 5881,
      "साम": 5882,
      "▁भव": 5883,
      "कम्प": 5884,
      "▁अधु": 5885,
      "▁अधुना": 5886,
      "वृद्ध": 5887,
      "पथ": 5888,
      "वस्त्र": 5889,
      "▁व्यय": 5890,
      "▁दशम": 5891,
      "द्वय": 5892,
      "केन्द्र": 5893,
      "पुरो": 5894,
      "गामि": 5895,
      "पञ्च": 5896,
      "यम": 5897,
      "▁वस": 5898,
      "▁वसन्त": 5899,
      "खण्डः": 5900,
      "कथा": 5901,
      "▁दुष्": 5902,
      "पालित": 5903,
      "▁चक्र": 5904,
      "वर्ती": 5905,
      "न्या": 5906,
      "▁विष्णु": 5907,
      "▁उक्त": 5908,
      "▁यथा": 5909,
      "....": 5910,
      "इत्": 5911,
      "▁हिमा": 5912,
      "चै": 5913,
      "▁तद्": 5914,
      "▁भारती": 5915,
      "ततिः": 5916,
      "मानव": 5917,
      "▁पुरातत्त्व": 5918,
      "▁३४": 5919,
      "▁३४०००": 5920,
      "▁इदान": 5921,
      "▁इदानी": 5922,
      "▁इदानीन्त": 5923,
      "▁इदानीन्तन": 5924,
      "तान": 5925,
      "▁भूता": 5926,
      "भूत": 5927,
      "▁अत्यन्त": 5928,
      "▁पुरातन": 5929,
      "▁२०००": 5930,
      "वेद": 5931,
      "लब्ध": 5932,
      "▁५००": 5933,
      "▁उभय": 5934,
      "विस्त": 5935,
      "विस्ती": 5936,
      "विस्तीर्ण": 5937,
      "स्थाने": 5938,
      "▁ईश": 5939,
      "▁ईशान": 5940,
      "वृत": 5941,
      "दिशा": 5942,
      "▁बङ्ग": 5943,
      "लोप": 5944,
      "▁अण्ड": 5945,
      "निकोबार": 5946,
      "समु": 5947,
      "दायः": 5948,
      "यै": 5949,
      "▁प्रदेशः": 5950,
      "▁वाय": 5951,
      "पर्वत": 5952,
      "्रः": 5953,
      "▁पङ्क": 5954,
      "न्तरे": 5955,
      "▁काश्मीर": 5956,
      "र्यः": 5957,
      "▁पुष्": 5958,
      "▁पुष्प": 5959,
      "▁शो": 5960,
      "▁शोभ": 5961,
      "▁शोभन": 5962,
      "ोन्": 5963,
      "▁गङ्गा": 5964,
      "नद्": 5965,
      "ावली": 5966,
      "विन्": 5967,
      "विन्ध्य": 5968,
      "सात्": 5969,
      "श्रेण्यः": 5970,
      "नीतिः": 5971,
      "मानस": 5972,
      "▁षष्ठ": 5973,
      "च्य": 5974,
      "स्थाप": 5975,
      "स्थापित": 5976,
      "▁अस्त": 5977,
      "ाधि": 5978,
      "करणम्": 5979,
      "हत": 5980,
      "▁उच्": 5981,
      "स्थि": 5982,
      "स्थितिः": 5983,
      "दिल्ली": 5984,
      "स्र": 5985,
      "मुखः": 5986,
      "▁स्वक": 5987,
      "▁स्वकीय": 5988,
      "तया": 5989,
      "▁अधीन": 5990,
      "योजय": 5991,
      "सदः": 5992,
      "ालयः": 5993,
      "▁शी": 5994,
      "▁शीर्ष": 5995,
      "स्थः": 5996,
      "हवः": 5997,
      "नागरिक": 5998,
      "निर्माण": 5999,
      "▁स्थाप्य": 6000,
      "चित्": 6001,
      "▁एता": 6002,
      "▁एतादृ": 6003,
      "▁एतादृश": 6004,
      "जर": 6005,
      "दण्ड": 6006,
      "क्रिया": 6007,
      "ेऽथ": 6008,
      "▁७३": 6009,
      "▁७३तमेन": 6010,
      "▁७४तमेन": 6011,
      "प्रणाली": 6012,
      "ीकृ": 6013,
      "सना": 6014,
      "सनातन": 6015,
      "वास्तु": 6016,
      "योगः": 6017,
      "वेदा": 6018,
      "वेदान्त": 6019,
      "हिन्दु": 6020,
      "मन्दि": 6021,
      "मन्दिरम्": 6022,
      "शोधनम्": 6023,
      "िणः": 6024,
      "पत": 6025,
      "क्री": 6026,
      "क्रीडा": 6027,
      "▁सूर्य": 6028,
      "मन्द": 6029,
      "िरा": 6030,
      "▁मण्डल": 6031,
      "स्वा": 6032,
      "त्वम्": 6033,
      "सप्त": 6034,
      "चत्": 6035,
      "वारि": 6036,
      "शततम": 6037,
      "मास": 6038,
      "दिन": 6039,
      "लभ": 6040,
      "जवा": 6041,
      "▁पञ्चा": 6042,
      "▁पञ्चाश": 6043,
      "▁षड्": 6044,
      "विंशतितम": 6045,
      "भौ": 6046,
      "भौम": 6047,
      "घोष": 6048,
      "ेन्द्र": 6049,
      "▁अध्य": 6050,
      "▁पुनर्": 6051,
      "विभागः": 6052,
      "धानम्": 6053,
      "▁बृहद्": 6054,
      "गात्र": 6055,
      "कम्": 6056,
      "कारा": 6057,
      "भूय": 6058,
      "▁कुर": 6059,
      "ाधिकारः": 6060,
      "▁न्यस्त": 6061,
      "▁देह": 6062,
      "नगरम्": 6063,
      "ध्वजः": 6064,
      "ङ्कित": 6065,
      "त्रो": 6066,
      "ध्वं": 6067,
      "▁केसर": 6068,
      "वर्णः": 6069,
      "▁हरित": 6070,
      "▁नील": 6071,
      "चक्र": 6072,
      "शीर्ष": 6073,
      "चिह्": 6074,
      "चिह्नम्": 6075,
      "सत्य": 6076,
      "वाक": 6077,
      "वाक्यम्": 6078,
      "प्राण": 6079,
      "▁व्याघ": 6080,
      "▁व्याघ्र": 6081,
      "पक्षी": 6082,
      "▁मय": 6083,
      "▁मयूर": 6084,
      "नद": 6085,
      "▁गङ": 6086,
      "▁गङगा": 6087,
      "धू": 6088,
      "▁गोदावरी": 6089,
      "कपि": 6090,
      "कपिल": 6091,
      "▁गज": 6092,
      "कर्णिका": 6093,
      "▁कावे": 6094,
      "▁कावेरी": 6095,
      "जला": 6096,
      "फला": 6097,
      "▁सस्य": 6098,
      "श्याम": 6099,
      "श्यामल": 6100,
      "▁दिलीप": 6101,
      "रथः": 6102,
      "▁पौ": 6103,
      "▁पौरा": 6104,
      "▁पौराण": 6105,
      "▁पौराणिक": 6106,
      "चिन्": 6107,
      "चिन्त": 6108,
      "चिन्तक": 6109,
      "▁कीर्तिः": 6110,
      "▁समु": 6111,
      "नय": 6112,
      "▁मन्त्र": 6113,
      "▁परम": 6114,
      "▁ज्ञान": 6115,
      "्मी": 6116,
      "व्यास": 6117,
      "नयः": 6118,
      "दीन": 6119,
      "कृष्ण": 6120,
      "▁अवतार": 6121,
      "पुरु": 6122,
      "पुरुष": 6123,
      "▁शङ्क": 6124,
      "▁शङ्कर": 6125,
      "राम": 6126,
      "ेश्व": 6127,
      "ेश्वर": 6128,
      "मध्व": 6129,
      "▁आचार्य": 6130,
      "त्रै": 6131,
      "तत्त्वम्": 6132,
      "ादि": 6133,
      "ात्मा": 6134,
      "गान्": 6135,
      "गान्धी": 6136,
      "मार्ग": 6137,
      "ेणैव": 6138,
      "पय": 6139,
      "▁काशी": 6140,
      "▁उडु": 6141,
      "▁तिरु": 6142,
      "बेसेण्टथियोसफिकल": 6143,
      "शता": 6144,
      "ोत्स": 6145,
      "ोत्सवः": 6146,
      "▁बेसेण्टथियोसफिकल": 6147,
      "▁तान": 6148,
      "१९४८तमे": 6149,
      "▁आचार": 6150,
      "▁वय": 6151,
      "▁वसा": 6152,
      "मः": 6153,
      "ञ्चन": 6154,
      "▁पोष": 6155,
      "ित्री": 6156,
      "वाङ्": 6157,
      "▁रम": 6158,
      "▁रम्य": 6159,
      "पूर्वा": 6160,
      "▁जैमि": 6161,
      "▁पाणि": 6162,
      "वयः": 6163,
      "▁कणा": 6164,
      "कः": 6165,
      "▁वरा": 6166,
      "▁वराह": 6167,
      "मिह": 6168,
      "भट": 6169,
      "भटः": 6170,
      "पुण": 6171,
      "पुण्य": 6172,
      "सम्प": 6173,
      "सम्पत्": 6174,
      "▁स्वर्ग": 6175,
      "▁वन्दन": 6176,
      "▁वन्दनीय": 6177,
      "▁पन्": 6178,
      "तन्त्रम्": 6179,
      "▁कोटि": 6180,
      "राजः": 6181,
      "सागरः": 6182,
      "तिब्बत": 6183,
      "▁निकोबार": 6184,
      "▁निकट": 6185,
      "देह": 6186,
      "मुख्य": 6187,
      "▁कोलक": 6188,
      "▁पुणे": 6189,
      "पुरातन": 6190,
      "रचना": 6191,
      "समूह": 6192,
      "▁उत्सव": 6193,
      "▁नैक": 6194,
      "परम्": 6195,
      "परम्परा": 6196,
      "▁विष": 6197,
      "रचय": 6198,
      "लेखनी": 6199,
      "यम्": 6200,
      "खात": 6201,
      "काले": 6202,
      "सिता": 6203,
      "▁उन्नत": 6204,
      "अवन": 6205,
      "अवनति": 6206,
      "▁सुवर्ण": 6207,
      "देशीय": 6208,
      "▁काले": 6209,
      "▁विस्तारः": 6210,
      "▁पद्": 6211,
      "धत": 6212,
      "▁गत": 6213,
      "यान": 6214,
      "योजनम्": 6215,
      "▁उपरि": 6216,
      "स्प": 6217,
      "▁गुरु": 6218,
      "▁मात": 6219,
      "गङ्गा": 6220,
      "नदी": 6221,
      "आधार": 6222,
      "ग्रन्थ": 6223,
      "समा": 6224,
      "▁ग्रन्थिः": 6225,
      "२७": 6226,
      "उल्": 6227,
      "लेखा": 6228,
      "▁offic": 6229,
      "▁officially": 6230,
      "▁sevent": 6231,
      "▁seventh": 6232,
      "▁Bound": 6233,
      "▁Bounded": 6234,
      "▁southeast": 6235,
      "▁sha": 6236,
      "▁shares": 6237,
      "▁Bhut": 6238,
      "▁Bhutan": 6239,
      "▁Lanka": 6240,
      "▁Maldiv": 6241,
      "▁Maldives": 6242,
      "▁marit": 6243,
      "▁maritime": 6244,
      "▁border": 6245,
      "▁arri": 6246,
      "▁arrived": 6247,
      "▁predominant": 6248,
      "▁predominantly": 6249,
      "▁Settled": 6250,
      "▁evolving": 6251,
      "▁daw": 6252,
      "▁dawnings": 6253,
      "existing": 6254,
      "▁proc": 6255,
      "▁proclaiming": 6256,
      "▁orders": 6257,
      "▁unl": 6258,
      "▁unlin": 6259,
      "▁unlinked": 6260,
      "▁heredi": 6261,
      "▁heredity": 6262,
      "▁consolidations": 6263,
      "▁Emp": 6264,
      "▁Empires": 6265,
      "▁flourishing": 6266,
      "▁writing": 6267,
      "▁declined": 6268,
      "▁organised": 6269,
      "▁scripts": 6270,
      "▁Judaism": 6271,
      "▁intermitt": 6272,
      "▁intermittently": 6273,
      "▁cosm": 6274,
      "▁cosmop": 6275,
      "▁cosmopolit": 6276,
      "▁cosmopolitan": 6277,
      "▁networks": 6278,
      "last": 6279,
      "lasting": 6280,
      "▁composite": 6281,
      "▁reject": 6282,
      "▁rejecting": 6283,
      "▁institutional": 6284,
      "▁institutionalised": 6285,
      "▁ushered": 6286,
      "▁architectural": 6287,
      "▁legacy": 6288,
      "▁Gra": 6289,
      "▁Gradu": 6290,
      "▁Gradually": 6291,
      "▁consolidated": 6292,
      "▁Crow": 6293,
      "▁Crown": 6294,
      "▁promised": 6295,
      "▁granted": 6296,
      "▁slowly": 6297,
      "▁technological": 6298,
      "▁ideas": 6299,
      "▁root": 6300,
      "▁movements": 6301,
      "▁Noted": 6302,
      "▁resist": 6303,
      "▁resistance": 6304,
      "▁1920": 6305,
      "▁partitioned": 6306,
      "▁dominions": 6307,
      "▁unp": 6308,
      "▁unpre": 6309,
      "▁unpreced": 6310,
      "▁unprecedent": 6311,
      "▁unprecedented": 6312,
      "▁accomp": 6313,
      "▁accompani": 6314,
      "▁accompanied": 6315,
      "▁governed": 6316,
      "▁plural": 6317,
      "▁pluralistic": 6318,
      "▁multil": 6319,
      "▁multiling": 6320,
      "▁multilingual": 6321,
      "ethnic": 6322,
      "601": 6323,
      "weap": 6324,
      "weapon": 6325,
      "▁rank": 6326,
      "▁ranks": 6327,
      "▁expen": 6328,
      "▁expendit": 6329,
      "▁expenditure": 6330,
      "▁neighbours": 6331,
      "▁soci": 6332,
      "▁socio": 6333,
      "▁chall": 6334,
      "▁challeng": 6335,
      "▁challenges": 6336,
      "▁faces": 6337,
      "▁mal": 6338,
      "▁maln": 6339,
      "▁malnut": 6340,
      "▁malnutrit": 6341,
      "▁malnutrition": 6342,
      "▁viewed": 6343,
      "▁tol": 6344,
      "▁toler": 6345,
      "▁tolerance": 6346,
      "▁habitats": 6347,
      "According": 6348,
      "▁Ox": 6349,
      "▁Oxf": 6350,
      "▁Oxford": 6351,
      "▁Dic": 6352,
      "▁Dictionary": 6353,
      "▁proper": 6354,
      "▁noun": 6355,
      "▁derives": 6356,
      "▁Latin": 6357,
      "▁reference": 6358,
      "▁loosely": 6359,
      "def": 6360,
      "defined": 6361,
      "▁stret": 6362,
      "▁stretch": 6363,
      "▁stretching": 6364,
      "▁Further": 6365,
      "▁ety": 6366,
      "▁etymon": 6367,
      "▁etymons": 6368,
      "▁Hell": 6369,
      "▁Hellen": 6370,
      "▁Hellenistic": 6371,
      "▁Ἰνδί": 6372,
      "▁Ἰνδία": 6373,
      "▁Indos": 6374,
      "▁Ἰνδό": 6375,
      "▁Ἰνδός": 6376,
      "▁Achaemenian": 6377,
      "▁province": 6378,
      "▁Achaemenid": 6379,
      "▁Sindh": 6380,
      "▁Sindhu": 6381,
      "river": 6382,
      "▁specif": 6383,
      "▁specifically": 6384,
      "▁extension": 6385,
      "settled": 6386,
      "▁Greeks": 6387,
      "▁referred": 6388,
      "▁Indoi": 6389,
      "'.": 6390,
      "▁Bhā": 6391,
      "▁Bhārat": 6392,
      "▁pron": 6393,
      "▁pronoun": 6394,
      "▁pronounced": 6395,
      "▁ˈ": 6396,
      "▁ˈb": 6397,
      "▁ˈbɦ": 6398,
      "▁ˈbɦaː": 6399,
      "▁ˈbɦaːɾ": 6400,
      "▁ˈbɦaːɾə": 6401,
      "▁ˈbɦaːɾət": 6402,
      "▁ment": 6403,
      "▁mention": 6404,
      "▁mentioned": 6405,
      "▁epic": 6406,
      "▁po": 6407,
      "▁poet": 6408,
      "▁poetry": 6409,
      "▁variations": 6410,
      "▁render": 6411,
      "▁rendering": 6412,
      "▁Bharatav": 6413,
      "▁Bharatavar": 6414,
      "▁Bharatavarsha": 6415,
      "▁native": 6416,
      "Hin": 6417,
      "Hindust": 6418,
      "Hindustan": 6419,
      "▁ɦ": 6420,
      "▁ɦɪ": 6421,
      "▁ɦɪnd": 6422,
      "▁ɦɪndʊ": 6423,
      "▁ɦɪndʊˈ": 6424,
      "▁ɦɪndʊˈst": 6425,
      "▁ɦɪndʊˈstaː": 6426,
      "▁ɦɪndʊˈstaːn": 6427,
      "▁Hindustan": 6428,
      "▁varied": 6429,
      "▁referring": 6430,
      "▁encom": 6431,
      "▁encompassing": 6432,
      "present": 6433,
      "▁entirety": 6434,
      "Based": 6435,
      "▁coalesc": 6436,
      "▁coalescence": 6437,
      "▁Mit": 6438,
      "▁Mitoch": 6439,
      "▁Mitochond": 6440,
      "▁Mitochondrial": 6441,
      "▁DN": 6442,
      "▁DNA": 6443,
      "▁Chrom": 6444,
      "▁Chromos": 6445,
      "▁Chromosome": 6446,
      "▁line": 6447,
      "▁lineages": 6448,
      "▁anatomically": 6449,
      "▁Hom": 6450,
      "▁Homo": 6451,
      "▁sap": 6452,
      "▁sapi": 6453,
      "▁sapiens": 6454,
      "▁likel": 6455,
      "▁likelih": 6456,
      "▁likelihood": 6457,
      "▁initially": 6458,
      "▁varying": 6459,
      "▁genetic": 6460,
      "▁foss": 6461,
      "▁fossils": 6462,
      "▁date": 6463,
      "▁Evidence": 6464,
      "▁neol": 6465,
      "▁neolith": 6466,
      "▁neolithic": 6467,
      "▁Meh": 6468,
      "▁Mehr": 6469,
      "▁Mehrgarh": 6470,
      "▁Baloch": 6471,
      "▁Balochistan": 6472,
      "▁dates": 6473,
      "▁7000": 6474,
      "▁Domestic": 6475,
      "▁Domestication": 6476,
      "▁grain": 6477,
      "produc": 6478,
      "producing": 6479,
      "▁plants": 6480,
      "▁barle": 6481,
      "▁barley": 6482,
      "▁humped": 6483,
      "▁zeb": 6484,
      "▁zebu": 6485,
      "▁evolved": 6486,
      "▁flourished": 6487,
      "▁2500": 6488,
      "1900": 6489,
      "▁Centred": 6490,
      "▁Har": 6491,
      "▁Harapp": 6492,
      "▁Harappa": 6493,
      "▁Dhol": 6494,
      "▁Dholavira": 6495,
      "▁Gan": 6496,
      "▁Ganw": 6497,
      "▁Ganweri": 6498,
      "▁Ganweriw": 6499,
      "▁Ganweriwala": 6500,
      "▁Rakh": 6501,
      "▁Rakhig": 6502,
      "▁Rakhigar": 6503,
      "▁Rakhigarhi": 6504,
      "▁weigh": 6505,
      "▁weights": 6506,
      "▁steat": 6507,
      "▁steatite": 6508,
      "▁plan": 6509,
      "▁planning": 6510,
      "▁cra": 6511,
      "▁craf": 6512,
      "▁crafts": 6513,
      "▁potter": 6514,
      "▁pottery": 6515,
      "▁statu": 6516,
      "▁statuett": 6517,
      "▁statuettes": 6518,
      "▁Networks": 6519,
      "▁agro": 6520,
      "Between": 6521,
      "▁1500": 6522,
      "▁evidence": 6523,
      "▁Rig": 6524,
      "▁Ved": 6525,
      "▁Veda": 6526,
      "▁scripture": 6527,
      "wh": 6528,
      "which": 6529,
      "speak": 6530,
      "speaking": 6531,
      "▁tribes": 6532,
      "▁migr": 6533,
      "▁migrating": 6534,
      "▁Afgh": 6535,
      "▁Afghan": 6536,
      "▁Afghanistan": 6537,
      "▁settling": 6538,
      "▁swathe": 6539,
      "▁swathes": 6540,
      "▁adj": 6541,
      "▁adjoin": 6542,
      "▁adjoining": 6543,
      "▁defore": 6544,
      "▁deforested": 6545,
      "▁fires": 6546,
      "▁employing": 6547,
      "▁iron": 6548,
      "▁implements": 6549,
      "▁prep": 6550,
      "▁prepared": 6551,
      "▁driving": 6552,
      "▁pree": 6553,
      "▁preex": 6554,
      "▁preexisting": 6555,
      "▁ens": 6556,
      "▁ensl": 6557,
      "▁enslaving": 6558,
      "divide": 6559,
      "▁spok": 6560,
      "▁spoken": 6561,
      "▁refined": 6562,
      "▁gram": 6563,
      "▁gramm": 6564,
      "▁grammatical": 6565,
      "▁emer": 6566,
      "▁emerge": 6567,
      "▁codified": 6568,
      "▁Aṣ": 6569,
      "▁Aṣṭ": 6570,
      "▁Aṣṭā": 6571,
      "▁Aṣṭādh": 6572,
      "▁Aṣṭādhy": 6573,
      "▁Aṣṭādhyā": 6574,
      "▁Aṣṭādhyāy": 6575,
      "▁Aṣṭādhyāyī": 6576,
      "▁('": 6577,
      "Eight": 6578,
      "▁chapters": 6579,
      "')": 6580,
      "▁Pā": 6581,
      "▁Pāṇ": 6582,
      "▁Pāṇin": 6583,
      "▁Pāṇini": 6584,
      "▁ep": 6585,
      "▁epics": 6586,
      "▁Mahā": 6587,
      "▁Mahāb": 6588,
      "▁Mahābh": 6589,
      "▁Mahābhā": 6590,
      "▁Mahābhār": 6591,
      "▁Mahābhārata": 6592,
      "▁Rā": 6593,
      "▁Rām": 6594,
      "▁Rāmā": 6595,
      "▁Rāmāya": 6596,
      "▁Rāmāyaṇ": 6597,
      "▁Rāmāyaṇa": 6598,
      "▁oral": 6599,
      "▁story": 6600,
      "▁storytell": 6601,
      "▁storytelling": 6602,
      "▁registers": 6603,
      "▁Epic": 6604,
      "▁rough": 6605,
      "▁roughly": 6606,
      "▁contemp": 6607,
      "▁contempor": 6608,
      "▁contemporary": 6609,
      "▁taken": 6610,
      "▁differenti": 6611,
      "▁differentiation": 6612,
      "▁teach": 6613,
      "▁teachings": 6614,
      "▁Mahavira": 6615,
      "▁Both": 6616,
      "▁stressed": 6617,
      "▁abj": 6618,
      "▁abjured": 6619,
      "▁sac": 6620,
      "▁sacri": 6621,
      "▁sacrif": 6622,
      "▁sacrifices": 6623,
      "▁Brahman": 6624,
      "▁Brahmanism": 6625,
      "▁fixed": 6626,
      "▁ethically": 6627,
      "▁socially": 6628,
      "▁mor": 6629,
      "▁morally": 6630,
      "▁Chronic": 6631,
      "▁Chronicling": 6632,
      "▁backd": 6633,
      "▁backdrop": 6634,
      "▁emergence": 6635,
      "▁geographically": 6636,
      "▁extensive": 6637,
      "▁foun": 6638,
      "▁founder": 6639,
      "▁grands": 6640,
      "▁grandson": 6641,
      "ca": 6642,
      "▁268": 6643,
      "232": 6644,
      "▁controlled": 6645,
      "▁arter": 6646,
      "▁arteries": 6647,
      "▁except": 6648,
      "▁deep": 6649,
      "▁inscri": 6650,
      "▁inscriptions": 6651,
      "▁declining": 6652,
      "▁mainst": 6653,
      "▁mainstream": 6654,
      "▁speaking": 6655,
      "▁conqu": 6656,
      "▁conquest": 6657,
      "▁Kaling": 6658,
      "▁Kalinga": 6659,
      "▁forces": 6660,
      "▁imm": 6661,
      "▁immense": 6662,
      "▁adopting": 6663,
      "▁dhamm": 6664,
      "▁dhamma": 6665,
      "▁commission": 6666,
      "▁commissioning": 6667,
      "▁numerous": 6668,
      "▁pill": 6669,
      "▁pillar": 6670,
      "▁throughout": 6671,
      "▁promote": 6672,
      "▁conduct": 6673,
      "▁forb": 6674,
      "▁forbade": 6675,
      "▁killing": 6676,
      "▁destruc": 6677,
      "▁destruction": 6678,
      "▁seen": 6679,
      "▁env": 6680,
      "▁envir": 6681,
      "▁environ": 6682,
      "▁environmental": 6683,
      "▁embodi": 6684,
      "▁embodiment": 6685,
      "▁ethos": 6686,
      "▁taxation": 6687,
      "▁Under": 6688,
      "▁Gupt": 6689,
      "▁Guptas": 6690,
      "▁renewed": 6691,
      "▁manage": 6692,
      "▁management": 6693,
      "▁rit": 6694,
      "▁ritual": 6695,
      "▁itsel": 6696,
      "▁itself": 6697,
      "▁renewal": 6698,
      "▁reflected": 6699,
      "▁Sangam": 6700,
      "▁reve": 6701,
      "▁reveals": 6702,
      "▁peninsul": 6703,
      "▁peninsula": 6704,
      "▁Cher": 6705,
      "▁Cheras": 6706,
      "▁Cholas": 6707,
      "▁respectively": 6708,
      "▁Pandy": 6709,
      "▁Pandyas": 6710,
      "▁fart": 6711,
      "▁farther": 6712,
      "▁Vaig": 6713,
      "▁Vaigai": 6714,
      "▁sixth": 6715,
      "▁grown": 6716,
      "▁favou": 6717,
      "▁favoured": 6718,
      "▁conserv": 6719,
      "▁conservative": 6720,
      "▁transac": 6721,
      "▁transaction": 6722,
      "▁transactional": 6723,
      "▁transactionalism": 6724,
      "▁repl": 6725,
      "▁replaced": 6726,
      "▁kingly": 6727,
      "▁plac": 6728,
      "▁places": 6729,
      "▁Bhak": 6730,
      "▁Bhakti": 6731,
      "▁traded": 6732,
      "▁Rom": 6733,
      "▁Roman": 6734,
      "Medieval": 6735,
      "▁600": 6736,
      "▁defined": 6737,
      "▁No": 6738,
      "▁ruler": 6739,
      "▁create": 6740,
      "▁consist": 6741,
      "▁consistently": 6742,
      "▁bey": 6743,
      "▁beyond": 6744,
      "▁core": 6745,
      "▁peoples": 6746,
      "▁accomm": 6747,
      "▁accommod": 6748,
      "▁accommodated": 6749,
      "tradition": 6750,
      "traditional": 6751,
      "▁consequ": 6752,
      "▁consequently": 6753,
      "▁differences": 6754,
      "▁devotional": 6755,
      "▁imitated": 6756,
      "▁resur": 6757,
      "▁resurg": 6758,
      "▁resurgence": 6759,
      "▁royalty": 6760,
      "▁big": 6761,
      "▁patronised": 6762,
      "▁capital": 6763,
      "▁sizes": 6764,
      "▁everywhere": 6765,
      "▁underw": 6766,
      "▁underwent": 6767,
      "▁effec": 6768,
      "▁effects": 6769,
      "▁fel": 6770,
      "▁felt": 6771,
      "▁La": 6772,
      "▁Laos": 6773,
      "▁Br": 6774,
      "▁Brune": 6775,
      "▁Brunei": 6776,
      "▁Cam": 6777,
      "▁Camb": 6778,
      "▁Cambodi": 6779,
      "▁Cambodia": 6780,
      "▁Viet": 6781,
      "▁Vietnam": 6782,
      "▁Ph": 6783,
      "▁Phili": 6784,
      "▁Philipp": 6785,
      "▁Philippines": 6786,
      "▁Malays": 6787,
      "▁Malaysia": 6788,
      "▁schol": 6789,
      "▁scholars": 6790,
      "▁transmission": 6791,
      "▁initiative": 6792,
      "▁soj": 6793,
      "▁sojour": 6794,
      "▁sojourning": 6795,
      "▁sem": 6796,
      "▁semin": 6797,
      "▁seminaries": 6798,
      "▁transl": 6799,
      "▁translating": 6800,
      "▁nom": 6801,
      "▁noma": 6802,
      "▁nomadic": 6803,
      "▁clans": 6804,
      "▁using": 6805,
      "▁swif": 6806,
      "▁swift": 6807,
      "horse": 6808,
      "▁caval": 6809,
      "▁cavalry": 6810,
      "▁raising": 6811,
      "▁ethnic": 6812,
      "▁ethnicity": 6813,
      "▁establish": 6814,
      "▁establishment": 6815,
      "▁120": 6816,
      "▁1206": 6817,
      "▁forays": 6818,
      "▁disr": 6819,
      "▁disrupt": 6820,
      "▁disruptive": 6821,
      "Muslim": 6822,
      "▁subject": 6823,
      "▁customs": 6824,
      "▁repuls": 6825,
      "▁repulsing": 6826,
      "▁Mong": 6827,
      "▁Mongol": 6828,
      "▁raiders": 6829,
      "▁saved": 6830,
      "▁devastation": 6831,
      "▁visited": 6832,
      "▁scene": 6833,
      "▁fle": 6834,
      "▁flee": 6835,
      "▁fleeing": 6836,
      "▁sol": 6837,
      "▁soldi": 6838,
      "▁soldiers": 6839,
      "▁lear": 6840,
      "▁learn": 6841,
      "▁learned": 6842,
      "▁my": 6843,
      "▁myst": 6844,
      "▁mystics": 6845,
      "▁traders": 6846,
      "▁thereb": 6847,
      "▁thereby": 6848,
      "▁sync": 6849,
      "▁syncre": 6850,
      "▁syncretic": 6851,
      "Isl": 6852,
      "Islam": 6853,
      "Islamic": 6854,
      "▁raiding": 6855,
      "▁weak": 6856,
      "▁weakening": 6857,
      "▁pav": 6858,
      "▁paved": 6859,
      "▁Emb": 6860,
      "▁Embrac": 6861,
      "▁Embracing": 6862,
      "▁Sha": 6863,
      "▁Shaiv": 6864,
      "▁Shaivite": 6865,
      "▁upon": 6866,
      "▁afterwards": 6867,
      "Early": 6868,
      "▁fell": 6869,
      "▁superi": 6870,
      "▁superior": 6871,
      "▁mob": 6872,
      "▁mobil": 6873,
      "▁mobility": 6874,
      "▁fire": 6875,
      "▁firep": 6876,
      "▁firepower": 6877,
      "▁generation": 6878,
      "▁stamp": 6879,
      "▁societies": 6880,
      "▁Inst": 6881,
      "▁Instead": 6882,
      "▁balan": 6883,
      "▁balanced": 6884,
      "▁pac": 6885,
      "▁pacified": 6886,
      "▁administrative": 6887,
      "▁inclus": 6888,
      "▁inclusive": 6889,
      "▁systematic": 6890,
      "▁centralised": 6891,
      "▁unif": 6892,
      "▁uniform": 6893,
      "▁Esc": 6894,
      "▁Esche": 6895,
      "▁Eschewing": 6896,
      "▁ident": 6897,
      "▁identity": 6898,
      "▁Mughals": 6899,
      "flung": 6900,
      "▁real": 6901,
      "▁realms": 6902,
      "▁loyalty": 6903,
      "exp": 6904,
      "expressed": 6905,
      "▁Persianised": 6906,
      "to": 6907,
      "divine": 6908,
      "▁deriving": 6909,
      "▁mandating": 6910,
      "▁paid": 6911,
      "regul": 6912,
      "regulated": 6913,
      "▁silver": 6914,
      "▁peas": 6915,
      "▁peasants": 6916,
      "▁maintained": 6917,
      "▁patronage": 6918,
      "▁textiles": 6919,
      "▁Newly": 6920,
      "▁cohe": 6921,
      "▁coherent": 6922,
      "▁Marathas": 6923,
      "▁governing": 6924,
      "▁amb": 6925,
      "▁ambitions": 6926,
      "▁collab": 6927,
      "▁collaboration": 6928,
      "▁adversity": 6929,
      "▁recognition": 6930,
      "▁experi": 6931,
      "▁experience": 6932,
      "▁Exp": 6933,
      "▁Expanding": 6934,
      "▁incre": 6935,
      "▁incremental": 6936,
      "▁frag": 6937,
      "▁fragment": 6938,
      "▁fragmentation": 6939,
      "▁au": 6940,
      "▁auth": 6941,
      "▁authority": 6942,
      "▁facil": 6943,
      "▁facilitated": 6944,
      "▁decent": 6945,
      "▁decentral": 6946,
      "▁decentralisation": 6947,
      "▁enabling": 6948,
      "▁provinc": 6949,
      "▁provincial": 6950,
      "▁localised": 6951,
      "▁autonom": 6952,
      "▁autonomy": 6953,
      "▁consolidate": 6954,
      "▁lines": 6955,
      "▁enterp": 6956,
      "▁enterpr": 6957,
      "▁enterprise": 6958,
      "▁blurred": 6959,
      "▁charter": 6960,
      "▁chartered": 6961,
      "not": 6962,
      "notably": 6963,
      "soli": 6964,
      "solidified": 6965,
      "▁outp": 6966,
      "▁outposts": 6967,
      "▁seas": 6968,
      "▁training": 6969,
      "▁attractive": 6970,
      "▁elite": 6971,
      "▁factors": 6972,
      "▁allowing": 6973,
      "▁gain": 6974,
      "▁176": 6975,
      "▁1765": 6976,
      "▁sidel": 6977,
      "▁sideline": 6978,
      "▁ric": 6979,
      "▁riches": 6980,
      "▁army": 6981,
      "▁enabled": 6982,
      "▁annex": 6983,
      "▁annexe": 6984,
      "▁subdu": 6985,
      "▁subdue": 6986,
      "▁1820": 6987,
      "▁exporting": 6988,
      "▁manufactured": 6989,
      "▁instead": 6990,
      "▁supply": 6991,
      "▁supplying": 6992,
      "▁raw": 6993,
      "▁curta": 6994,
      "▁curtail": 6995,
      "▁curtailed": 6996,
      "▁effectively": 6997,
      "▁consci": 6998,
      "▁consciously": 6999,
      "▁aren": 7000,
      "▁arenas": 7001,
      "▁appoint": 7002,
      "▁appointment": 7003,
      "▁1848": 7004,
      "▁Lord": 7005,
      "▁Dalh": 7006,
      "▁Dalhous": 7007,
      "▁Dalhousie": 7008,
      "▁Govern": 7009,
      "▁Governor": 7010,
      "▁General": 7011,
      "▁stage": 7012,
      "▁consolidation": 7013,
      "▁demar": 7014,
      "▁demarc": 7015,
      "▁demarcation": 7016,
      "▁surve": 7017,
      "▁surveill": 7018,
      "▁surveillance": 7019,
      "▁Tech": 7020,
      "▁Techn": 7021,
      "▁Technological": 7022,
      "among": 7023,
      "▁canals": 7024,
      "▁teleg": 7025,
      "▁telegraph": 7026,
      "were": 7027,
      "▁introduction": 7028,
      "▁Disa": 7029,
      "▁Disaff": 7030,
      "▁Disaffection": 7031,
      "▁Reb": 7032,
      "▁Rebellion": 7033,
      "▁1857": 7034,
      "▁Fed": 7035,
      "▁resent": 7036,
      "▁resentments": 7037,
      "▁perce": 7038,
      "▁perceptions": 7039,
      "▁invasive": 7040,
      "▁harsh": 7041,
      "▁summary": 7042,
      "▁treat": 7043,
      "▁treatment": 7044,
      "▁wealth": 7045,
      "▁wealthy": 7046,
      "▁landown": 7047,
      "▁landowners": 7048,
      "▁rocked": 7049,
      "▁shook": 7050,
      "▁foundations": 7051,
      "▁suppressed": 7052,
      "▁disb": 7053,
      "▁disbanded": 7054,
      "▁administer": 7055,
      "▁Proc": 7056,
      "▁Proclaiming": 7057,
      "▁gradual": 7058,
      "▁landed": 7059,
      "▁gent": 7060,
      "▁gentry": 7061,
      "▁feud": 7062,
      "▁feudal": 7063,
      "▁future": 7064,
      "▁unre": 7065,
      "▁unrest": 7066,
      "▁founding": 7067,
      "▁1885": 7068,
      "▁rush": 7069,
      "▁commercialisation": 7070,
      "▁setback": 7071,
      "▁setbacks": 7072,
      "▁whim": 7073,
      "▁whims": 7074,
      "▁faraw": 7075,
      "▁faraway": 7076,
      "▁increase": 7077,
      "▁famines": 7078,
      "▁despite": 7079,
      "▁ris": 7080,
      "▁risks": 7081,
      "▁infra": 7082,
      "▁infrastruc": 7083,
      "▁infrastructure": 7084,
      "▁born": 7085,
      "▁borne": 7086,
      "▁taxpay": 7087,
      "▁taxpayers": 7088,
      "▁litt": 7089,
      "▁little": 7090,
      "▁employment": 7091,
      "▁cropp": 7092,
      "▁cropping": 7093,
      "▁newly": 7094,
      "▁canalled": 7095,
      "▁production": 7096,
      "▁internal": 7097,
      "▁railway": 7098,
      "▁critical": 7099,
      "▁famine": 7100,
      "▁notably": 7101,
      "▁moving": 7102,
      "▁hel": 7103,
      "▁helped": 7104,
      "▁nas": 7105,
      "▁nascent": 7106,
      "owned": 7107,
      "▁Gandhian": 7108,
      "▁repressive": 7109,
      "▁legislation": 7110,
      "▁strid": 7111,
      "▁strident": 7112,
      "▁calls": 7113,
      "rule": 7114,
      "▁Mahat": 7115,
      "▁Mahatma": 7116,
      "▁legislative": 7117,
      "▁bes": 7118,
      "▁beset": 7119,
      "▁crises": 7120,
      "▁particip": 7121,
      "▁participation": 7122,
      "▁final": 7123,
      "▁ups": 7124,
      "▁upsur": 7125,
      "▁upsurge": 7126,
      "▁nationalism": 7127,
      "▁capped": 7128,
      "▁tempered": 7129,
      "▁Econom": 7130,
      "▁Economic": 7131,
      "▁ham": 7132,
      "▁hamst": 7133,
      "▁hamstr": 7134,
      "▁hamstrung": 7135,
      "▁persistent": 7136,
      "rel": 7137,
      "related": 7138,
      "▁Mao": 7139,
      "▁Maoist": 7140,
      "insp": 7141,
      "inspi": 7142,
      "inspired": 7143,
      "▁Nax": 7144,
      "▁Naxal": 7145,
      "▁Naxalite": 7146,
      "▁insur": 7147,
      "▁insurgen": 7148,
      "▁insurgenc": 7149,
      "▁insurgencies": 7150,
      "▁separatism": 7151,
      "▁accoun": 7152,
      "▁accounts": 7153,
      "▁lying": 7154,
      "▁atop": 7155,
      "▁tect": 7156,
      "▁tectonic": 7157,
      "▁defining": 7158,
      "▁geologic": 7159,
      "▁processes": 7160,
      "eastw": 7161,
      "eastward": 7162,
      "▁drift": 7163,
      "▁seaf": 7164,
      "▁seaflo": 7165,
      "▁seafloor": 7166,
      "▁Teth": 7167,
      "▁Tethyan": 7168,
      "▁ocean": 7169,
      "▁oceanic": 7170,
      "▁northeast": 7171,
      "▁subduc": 7172,
      "▁subduct": 7173,
      "▁continent": 7174,
      "▁continental": 7175,
      "▁obstructed": 7176,
      "▁sheared": 7177,
      "▁hor": 7178,
      "▁horiz": 7179,
      "▁horizon": 7180,
      "▁horizont": 7181,
      "▁horizontally": 7182,
      "▁mant": 7183,
      "▁mantle": 7184,
      "▁sl": 7185,
      "▁slid": 7186,
      "▁piled": 7187,
      "▁sheets": 7188,
      "▁napp": 7189,
      "▁nappes": 7190,
      "▁ahead": 7191,
      "▁subduction": 7192,
      "▁oro": 7193,
      "▁orogen": 7194,
      "▁orogeny": 7195,
      "▁mountain": 7196,
      "▁stiffer": 7197,
      "▁causing": 7198,
      "▁crustal": 7199,
      "▁thick": 7200,
      "▁thickening": 7201,
      "▁Im": 7202,
      "▁Immediately": 7203,
      "▁emerging": 7204,
      "▁cres": 7205,
      "▁crescent": 7206,
      "shap": 7207,
      "shaped": 7208,
      "▁trough": 7209,
      "▁filled": 7210,
      "born": 7211,
      "borne": 7212,
      "▁constitutes": 7213,
      "▁appearance": 7214,
      "▁Araval": 7215,
      "▁Aravalli": 7216,
      "▁Rid": 7217,
      "▁Ridge": 7218,
      "▁southwester": 7219,
      "▁southwesterly": 7220,
      "▁direction": 7221,
      "▁chec": 7222,
      "▁checked": 7223,
      "▁Arav": 7224,
      "▁Aravall": 7225,
      "▁Aravallis": 7226,
      "▁geologically": 7227,
      "▁stable": 7228,
      "▁Vindh": 7229,
      "▁Vindhya": 7230,
      "▁paralle": 7231,
      "▁parallel": 7232,
      "rich": 7233,
      "▁Chot": 7234,
      "▁Chota": 7235,
      "▁Nagpur": 7236,
      "▁landm": 7237,
      "▁landmass": 7238,
      "▁flanked": 7239,
      "▁plateau": 7240,
      "▁formations": 7241,
      "▁Constituted": 7242,
      "▁fashion": 7243,
      "▁equat": 7244,
      "▁equator": 7245,
      "▁44": 7246,
      "▁35": 7247,
      "▁latitude": 7248,
      "▁68": 7249,
      "▁97": 7250,
      "▁longitud": 7251,
      "▁longitude": 7252,
      "Major": 7253,
      "orig": 7254,
      "origin": 7255,
      "▁Imp": 7256,
      "▁Important": 7257,
      "▁tribut": 7258,
      "▁tributaries": 7259,
      "▁Yam": 7260,
      "▁Yamun": 7261,
      "▁Yamuna": 7262,
      "term": 7263,
      "▁silt": 7264,
      "▁depos": 7265,
      "▁deposition": 7266,
      "▁leads": 7267,
      "▁severe": 7268,
      "▁floods": 7269,
      "▁course": 7270,
      "▁Major": 7271,
      "▁steep": 7272,
      "▁steeper": 7273,
      "▁gradients": 7274,
      "▁wat": 7275,
      "▁waters": 7276,
      "▁flooding": 7277,
      "▁God": 7278,
      "▁Godav": 7279,
      "▁Godavari": 7280,
      "▁Mahana": 7281,
      "▁Mahanadi": 7282,
      "▁Narm": 7283,
      "▁Narmada": 7284,
      "▁Tap": 7285,
      "▁Tapti": 7286,
      "▁measures": 7287,
      "700": 7288,
      "▁distance": 7289,
      "423": 7290,
      "094": 7291,
      "300": 7292,
      "▁island": 7293,
      "▁naval": 7294,
      "▁hyd": 7295,
      "▁hydro": 7296,
      "▁hydrog": 7297,
      "▁hydrograph": 7298,
      "▁hydrographic": 7299,
      "▁charts": 7300,
      "▁mainland": 7301,
      "▁sandy": 7302,
      "▁beac": 7303,
      "▁beaches": 7304,
      "▁cli": 7305,
      "▁cliff": 7306,
      "▁cliffs": 7307,
      "▁46": 7308,
      "▁mud": 7309,
      "▁mudf": 7310,
      "▁mudfl": 7311,
      "▁mudflats": 7312,
      "▁Co": 7313,
      "▁Coast": 7314,
      "▁Coastal": 7315,
      "▁Rann": 7316,
      "▁Kut": 7317,
      "▁Kutch": 7318,
      "▁allu": 7319,
      "▁alluv": 7320,
      "▁alluvial": 7321,
      "▁del": 7322,
      "▁delta": 7323,
      "▁archip": 7324,
      "▁archipelag": 7325,
      "▁archipelagos": 7326,
      "▁atol": 7327,
      "▁atolls": 7328,
      "▁volcanic": 7329,
      "▁chain": 7330,
      "▁panoramic": 7331,
      "▁Garh": 7332,
      "▁Garhw": 7333,
      "▁Garhwal": 7334,
      "▁Kum": 7335,
      "▁Kuma": 7336,
      "▁Kumaon": 7337,
      "▁Peak": 7338,
      "▁Peaks": 7339,
      "▁surroundings": 7340,
      "▁Tris": 7341,
      "▁Trisul": 7342,
      "▁entirely": 7343,
      "▁Kot": 7344,
      "▁mountains": 7345,
      "▁does": 7346,
      "Yarlung": 7347,
      "▁suture": 7348,
      "▁contour": 7349,
      "▁weld": 7350,
      "▁welded": 7351,
      "▁Mount": 7352,
      "▁Kail": 7353,
      "▁Kailash": 7354,
      "▁Lake": 7355,
      "▁Manas": 7356,
      "▁Manasaro": 7357,
      "▁Manasarov": 7358,
      "▁Manasarovar": 7359,
      "▁Trans": 7360,
      "Himalay": 7361,
      "Himalaya": 7362,
      "sac": 7363,
      "sacred": 7364,
      "▁myth": 7365,
      "▁mythology": 7366,
      "lie": 7367,
      "▁Yarlung": 7368,
      "▁Ts": 7369,
      "▁Tsang": 7370,
      "▁Tsangp": 7371,
      "▁Tsangpo": 7372,
      "▁mark": 7373,
      "▁limits": 7374,
      "▁Himalaya": 7375,
      "▁lake": 7376,
      "▁Tung": 7377,
      "▁Tungabh": 7378,
      "▁Tungabhadra": 7379,
      "▁outc": 7380,
      "▁outcrop": 7381,
      "▁outcrops": 7382,
      "▁flows": 7383,
      "Brahm": 7384,
      "Brahmaputra": 7385,
      "▁Delta": 7386,
      "▁Sent": 7387,
      "▁Sentin": 7388,
      "▁Sentinel": 7389,
      "▁image": 7390,
      "▁mang": 7391,
      "▁mangro": 7392,
      "▁mangrove": 7393,
      "▁beach": 7394,
      "▁Havel": 7395,
      "▁Havelock": 7396,
      "▁Island": 7397,
      "Climate": 7398,
      "▁climate": 7399,
      "▁drive": 7400,
      "▁economically": 7401,
      "▁cultur": 7402,
      "▁culturally": 7403,
      "▁piv": 7404,
      "▁pivot": 7405,
      "▁pivotal": 7406,
      "▁winter": 7407,
      "▁monso": 7408,
      "▁monsoons": 7409,
      "▁cold": 7410,
      "▁kat": 7411,
      "▁katab": 7412,
      "▁katabatic": 7413,
      "▁blowing": 7414,
      "▁ke": 7415,
      "▁keep": 7416,
      "▁keeping": 7417,
      "▁warmer": 7418,
      "▁loc": 7419,
      "▁locations": 7420,
      "▁latitudes": 7421,
      "▁plays": 7422,
      "▁attracting": 7423,
      "▁moisture": 7424,
      "laden": 7425,
      "▁monsoon": 7426,
      "▁provide": 7427,
      "▁rain": 7428,
      "▁rainf": 7429,
      "▁rainfall": 7430,
      "Four": 7431,
      "▁groupings": 7432,
      "▁predominate": 7433,
      "▁subt": 7434,
      "▁subtropical": 7435,
      "▁humid": 7436,
      "▁mont": 7437,
      "▁montan": 7438,
      "▁montane": 7439,
      "▁Temper": 7440,
      "▁Temperatures": 7441,
      "▁risen": 7442,
      "▁1901": 7443,
      "▁Climate": 7444,
      "▁change": 7445,
      "▁retreat": 7446,
      "▁gl": 7447,
      "▁glac": 7448,
      "▁glaci": 7449,
      "▁glaciers": 7450,
      "▁adverse": 7451,
      "▁adversely": 7452,
      "▁affected": 7453,
      "▁current": 7454,
      "▁projections": 7455,
      "▁severity": 7456,
      "▁drough": 7457,
      "▁droughts": 7458,
      "▁will": 7459,
      "▁markedly": 7460,
      "▁blo": 7461,
      "▁bloom": 7462,
      "▁mist": 7463,
      "▁Southwest": 7464,
      "▁Mall": 7465,
      "▁Mallal": 7466,
      "▁Mallalli": 7467,
      "▁Falls": 7468,
      "▁Hass": 7469,
      "▁Hassan": 7470,
      "▁drom": 7471,
      "▁dromed": 7472,
      "▁dromedary": 7473,
      "▁des": 7474,
      "▁desert": 7475,
      "New": 7476,
      "▁sn": 7477,
      "▁snow": 7478,
      "▁Bas": 7479,
      "▁Basp": 7480,
      "▁Baspa": 7481,
      "▁Sangla": 7482,
      "▁Himachal": 7483,
      "▁host": 7484,
      "▁biological": 7485,
      "▁bird": 7486,
      "▁reptile": 7487,
      "▁amphibian": 7488,
      "▁Ful": 7489,
      "▁Fully": 7490,
      "▁overl": 7491,
      "▁overlaps": 7492,
      "▁occupy": 7493,
      "▁Moder": 7494,
      "▁Moderately": 7495,
      "▁canop": 7496,
      "▁canopy": 7497,
      "▁dens": 7498,
      "▁density": 7499,
      "▁occupies": 7500,
      "39": 7501,
      "▁predominates": 7502,
      "▁temper": 7503,
      "▁temperate": 7504,
      "▁conif": 7505,
      "▁coniferous": 7506,
      "▁teak": 7507,
      "▁natural": 7508,
      "▁zones": 7509,
      "▁irrig": 7510,
      "▁irrigation": 7511,
      "▁visible": 7512,
      "▁tre": 7513,
      "▁trees": 7514,
      "▁astring": 7515,
      "▁astringent": 7516,
      "▁Az": 7517,
      "▁Aza": 7518,
      "▁Azadi": 7519,
      "▁Azadira": 7520,
      "▁Azadirach": 7521,
      "▁Azadirachta": 7522,
      "▁indic": 7523,
      "▁indica": 7524,
      "▁neem": 7525,
      "▁herbal": 7526,
      "▁medicine": 7527,
      "▁lu": 7528,
      "▁lux": 7529,
      "▁luxur": 7530,
      "▁luxuriant": 7531,
      "▁Fic": 7532,
      "▁Ficus": 7533,
      "▁religiosa": 7534,
      "▁peep": 7535,
      "▁peepul": 7536,
      "▁displayed": 7537,
      "▁Pali": 7538,
      "▁canon": 7539,
      "▁sought": 7540,
      "▁enl": 7541,
      "▁enligh": 7542,
      "▁enlighten": 7543,
      "▁enlightenment": 7544,
      "Many": 7545,
      "▁descend": 7546,
      "▁descended": 7547,
      "▁separ": 7548,
      "▁separated": 7549,
      "▁collision": 7550,
      "▁mass": 7551,
      "▁volcanism": 7552,
      "▁extinc": 7553,
      "▁extinction": 7554,
      "▁entered": 7555,
      "▁zoo": 7556,
      "▁zooge": 7557,
      "▁zoogeograph": 7558,
      "▁zoogeographic": 7559,
      "▁passes": 7560,
      "▁flanking": 7561,
      "▁lowered": 7562,
      "▁stands": 7563,
      "▁contrast": 7564,
      "▁contrasting": 7565,
      "▁45": 7566,
      "▁reptiles": 7567,
      "▁amphib": 7568,
      "▁amphibians": 7569,
      "▁endemics": 7570,
      "▁hood": 7571,
      "▁hooded": 7572,
      "▁leaf": 7573,
      "▁monk": 7574,
      "▁monkey": 7575,
      "▁Bedd": 7576,
      "▁Beddome": 7577,
      "▁toad": 7578,
      "▁172": 7579,
      "▁IU": 7580,
      "▁IUC": 7581,
      "▁IUCN": 7582,
      "design": 7583,
      "designated": 7584,
      "▁tiger": 7585,
      "▁dol": 7586,
      "▁dolph": 7587,
      "▁dolphin": 7588,
      "▁Crit": 7589,
      "▁Critically": 7590,
      "▁ghar": 7591,
      "▁gharial": 7592,
      "▁crocodili": 7593,
      "▁crocodilian": 7594,
      "▁bust": 7595,
      "▁bustard": 7596,
      "▁white": 7597,
      "rum": 7598,
      "rumped": 7599,
      "▁vulture": 7600,
      "▁inge": 7601,
      "▁ingested": 7602,
      "▁carr": 7603,
      "▁carrion": 7604,
      "▁dic": 7605,
      "▁diclo": 7606,
      "▁diclof": 7607,
      "▁diclofen": 7608,
      "▁diclofenac": 7609,
      "treated": 7610,
      "▁Bef": 7611,
      "▁Before": 7612,
      "▁ming": 7613,
      "▁mingled": 7614,
      "▁interv": 7615,
      "▁intervals": 7616,
      "▁grass": 7617,
      "▁grasslands": 7618,
      "▁grazed": 7619,
      "▁herds": 7620,
      "▁prey": 7621,
      "▁preyed": 7622,
      "▁Asi": 7623,
      "▁Asiatic": 7624,
      "▁pervasive": 7625,
      "▁ec": 7626,
      "▁ecolog": 7627,
      "▁ecologically": 7628,
      "▁devastating": 7629,
      "▁enc": 7630,
      "▁encro": 7631,
      "▁encroach": 7632,
      "▁encroachment": 7633,
      "▁critically": 7634,
      "▁parks": 7635,
      "▁expanded": 7636,
      "▁Wild": 7637,
      "▁Wildlife": 7638,
      "▁Prot": 7639,
      "▁Protection": 7640,
      "▁Project": 7641,
      "▁Tig": 7642,
      "▁Tiger": 7643,
      "▁wil": 7644,
      "▁wildern": 7645,
      "▁wilderness": 7646,
      "▁Forest": 7647,
      "▁Cons": 7648,
      "▁Conserv": 7649,
      "▁Conservation": 7650,
      "▁1988": 7651,
      "▁hosts": 7652,
      "▁hund": 7653,
      "▁hundred": 7654,
      "▁san": 7655,
      "▁sanct": 7656,
      "▁sanctu": 7657,
      "▁sanctuaries": 7658,
      "▁eighte": 7659,
      "▁eighteen": 7660,
      "▁biosphere": 7661,
      "▁reserves": 7662,
      "▁Biosphere": 7663,
      "▁Res": 7664,
      "▁Reserves": 7665,
      "▁eigh": 7666,
      "▁eighty": 7667,
      "nine": 7668,
      "▁wetlands": 7669,
      "▁registered": 7670,
      "▁Ramsar": 7671,
      "▁Convention": 7672,
      "▁Att": 7673,
      "▁Attac": 7674,
      "▁Attacus": 7675,
      "▁tap": 7676,
      "▁tapro": 7677,
      "▁taproban": 7678,
      "▁taprobanis": 7679,
      "▁moth": 7680,
      "▁Kad": 7681,
      "▁Kadav": 7682,
      "▁Kadavoor": 7683,
      "▁tigers": 7684,
      "170": 7685,
      "▁purple": 7686,
      "▁sun": 7687,
      "▁sunb": 7688,
      "▁sunbird": 7689,
      "▁perched": 7690,
      "▁Jim": 7691,
      "▁Corb": 7692,
      "▁Corbett": 7693,
      "▁Uttarakhand": 7694,
      "▁Crested": 7695,
      "▁haw": 7696,
      "▁hawk": 7697,
      "eag": 7698,
      "eagle": 7699,
      "▁liz": 7700,
      "▁lizard": 7701,
      "▁Madhya": 7702,
      "Sal": 7703,
      "Salt": 7704,
      "Saltw": 7705,
      "Saltwat": 7706,
      "Saltwater": 7707,
      "▁crocodile": 7708,
      "▁politics": 7709,
      "party": 7710,
      "▁recognised": 7711,
      "generally": 7712,
      "▁Bharati": 7713,
      "▁Bharatiya": 7714,
      "BJP": 7715,
      ");": 7716,
      "▁considered": 7717,
      "▁ideological": 7718,
      "righ": 7719,
      "right": 7720,
      "▁Au": 7721,
      "▁Aug": 7722,
      "▁August": 7723,
      "▁Domin": 7724,
      "▁Dominion": 7725,
      "▁caret": 7726,
      "▁caretak": 7727,
      "▁caretaker": 7728,
      "▁1957": 7729,
      "▁May": 7730,
      "▁Lal": 7731,
      "▁Bahad": 7732,
      "▁Bahadur": 7733,
      "▁unan": 7734,
      "▁unanim": 7735,
      "▁unanimously": 7736,
      "▁thus": 7737,
      "Pakistan": 7738,
      "▁1966": 7739,
      "▁signing": 7740,
      "▁Tash": 7741,
      "▁Tashk": 7742,
      "▁Tashkent": 7743,
      "▁Pe": 7744,
      "▁Peace": 7745,
      "▁Decl": 7746,
      "▁Declar": 7747,
      "▁Declaration": 7748,
      "▁landsl": 7749,
      "▁landslide": 7750,
      "▁defeat": 7751,
      "▁Liber": 7752,
      "▁Liberation": 7753,
      "▁1975": 7754,
      "▁emergency": 7755,
      "▁sus": 7756,
      "▁susp": 7757,
      "▁suspending": 7758,
      "▁libert": 7759,
      "▁liberties": 7760,
      "▁discon": 7761,
      "▁discont": 7762,
      "▁discontent": 7763,
      "▁1977": 7764,
      "▁opposed": 7765,
      "▁Mor": 7766,
      "▁Morar": 7767,
      "▁Morarj": 7768,
      "▁Morarji": 7769,
      "▁Desai": 7770,
      "▁Charan": 7771,
      "▁operation": 7772,
      "▁milit": 7773,
      "▁militants": 7774,
      "▁occupying": 7775,
      "▁bodyguard": 7776,
      "▁succe": 7777,
      "▁succeed": 7778,
      "▁succeeded": 7779,
      "▁victory": 7780,
      "▁1989": 7781,
      "▁Lef": 7782,
      "▁Left": 7783,
      "▁Chandra": 7784,
      "▁Shek": 7785,
      "▁Shekhar": 7786,
      "▁round": 7787,
      "▁polling": 7788,
      "▁separatist": 7789,
      "▁seek": 7790,
      "▁seeking": 7791,
      "▁aven": 7792,
      "▁avenge": 7793,
      "▁Naras": 7794,
      "▁Narasim": 7795,
      "▁Narasimh": 7796,
      "▁Narasimha": 7797,
      "▁Rao": 7798,
      "▁minority": 7799,
      "▁ful": 7800,
      "▁full": 7801,
      "▁1996": 7802,
      "▁relied": 7803,
      "▁Deve": 7804,
      "▁Gow": 7805,
      "▁Gowd": 7806,
      "▁Gowda": 7807,
      "▁Gujral": 7808,
      "▁serving": 7809,
      "▁Atal": 7810,
      "▁Bihari": 7811,
      "lived": 7812,
      "▁lack": 7813,
      "▁mandate": 7814,
      "▁Elections": 7815,
      "NDA": 7816,
      "▁complete": 7817,
      "▁2004": 7818,
      "▁Prog": 7819,
      "▁Progressive": 7820,
      "UPA": 7821,
      "▁Manm": 7822,
      "▁Manmo": 7823,
      "▁Manmohan": 7824,
      "▁propos": 7825,
      "▁proposed": 7826,
      "▁Son": 7827,
      "▁Sonia": 7828,
      "elected": 7829,
      "▁2014": 7830,
      "▁Naren": 7831,
      "▁Narendra": 7832,
      "▁absol": 7833,
      "▁absolute": 7834,
      "▁los": 7835,
      "▁losing": 7836,
      "▁partn": 7837,
      "▁partners": 7838,
      "▁lon": 7839,
      "▁longe": 7840,
      "▁longest": 7841,
      "serving": 7842,
      "▁backsl": 7843,
      "▁backslid": 7844,
      "▁backsliding": 7845,
      "▁Democracy": 7846,
      "▁Report": 7847,
      "▁draf": 7848,
      "▁drafted": 7849,
      "▁speed": 7850,
      "▁absence": 7851,
      "▁irreg": 7852,
      "▁irregular": 7853,
      "▁irregularities": 7854,
      "▁1946": 7855,
      "▁Long": 7856,
      "▁passages": 7857,
      "▁describ": 7858,
      "▁describes": 7859,
      "▁struc": 7860,
      "▁structure": 7861,
      "▁conspic": 7862,
      "▁conspicuous": 7863,
      "▁exclus": 7864,
      "▁exclusively": 7865,
      "▁exercised": 7866,
      "▁defence": 7867,
      "▁ports": 7868,
      "▁reserve": 7869,
      "▁pow": 7870,
      "▁powers": 7871,
      "▁taking": 7872,
      "▁Lok": 7873,
      "▁Rajya": 7874,
      "▁nominated": 7875,
      "▁representatives": 7876,
      "▁definition": 7877,
      "▁directives": 7878,
      "▁go": 7879,
      "▁goals": 7880,
      "▁ende": 7881,
      "▁endeav": 7882,
      "▁endeavor": 7883,
      "▁Ire": 7884,
      "▁Ireland": 7885,
      "▁recom": 7886,
      "▁recommend": 7887,
      "▁recommended": 7888,
      "▁panch": 7889,
      "▁panchay": 7890,
      "▁panchayat": 7891,
      "▁committees": 7892,
      "▁Untouchability": 7893,
      "▁il": 7894,
      "▁illeg": 7895,
      "▁illegal": 7896,
      "Article": 7897,
      "▁distinc": 7898,
      "▁distinctions": 7899,
      "▁derec": 7900,
      "▁derecog": 7901,
      "▁derecogni": 7902,
      "▁derecognized": 7903,
      "Articles": 7904,
      ")).": 7905,
      "▁promul": 7906,
      "▁promulg": 7907,
      "▁promulgation": 7908,
      "▁exercises": 7909,
      "▁App": 7910,
      "▁Appoin": 7911,
      "▁Appointed": 7912,
      "▁vice": 7913,
      "president": 7914,
      "▁Coun": 7915,
      "▁Council": 7916,
      "▁Minist": 7917,
      "▁Ministers": 7918,
      "with": 7919,
      "▁cab": 7920,
      "▁cabin": 7921,
      "▁cabinet": 7922,
      "▁committee": 7923,
      "headed": 7924,
      "▁Any": 7925,
      "▁hold": 7926,
      "▁holding": 7927,
      "▁portf": 7928,
      "▁portfoli": 7929,
      "▁portfolio": 7930,
      "▁must": 7931,
      "▁subord": 7932,
      "▁subordin": 7933,
      "▁subordinate": 7934,
      "▁council": 7935,
      "▁respons": 7936,
      "▁responsible": 7937,
      "▁servants": 7938,
      "▁act": 7939,
      "▁perm": 7940,
      "▁perman": 7941,
      "▁permanent": 7942,
      "▁executives": 7943,
      "▁decisions": 7944,
      "▁implement": 7945,
      "▁implemented": 7946,
      "tier": 7947,
      "▁ju": 7948,
      "▁judi": 7949,
      "▁judici": 7950,
      "▁judiciary": 7951,
      "▁headed": 7952,
      "▁Chi": 7953,
      "▁Chief": 7954,
      "▁Just": 7955,
      "▁Justice": 7956,
      "▁trial": 7957,
      "▁cas": 7958,
      "▁cases": 7959,
      "▁appell": 7960,
      "▁appellate": 7961,
      "▁stri": 7962,
      "▁strike": 7963,
      "▁contravene": 7964,
      "▁inval": 7965,
      "▁invalid": 7966,
      "▁invalidate": 7967,
      "▁deem": 7968,
      "▁deems": 7969,
      "▁uncon": 7970,
      "▁unconstitution": 7971,
      "▁unconstitutional": 7972,
      "Ad": 7973,
      "Administ": 7974,
      "Administrative": 7975,
      "▁divis": 7976,
      "▁divisions": 7977,
      "▁legislatures": 7978,
      "▁Westmin": 7979,
      "▁Westminst": 7980,
      "▁Westminster": 7981,
      "▁appointed": 7982,
      "▁administrat": 7983,
      "▁administrators": 7984,
      "▁1956": 7985,
      "▁Reorgan": 7986,
      "▁Reorganisation": 7987,
      "▁reorgan": 7988,
      "▁reorganised": 7989,
      "▁lingu": 7990,
      "▁linguistic": 7991,
      "▁basis": 7992,
      "▁quar": 7993,
      "▁quarter": 7994,
      "▁distric": 7995,
      "▁district": 7996,
      "▁block": 7997,
      "St": 7998,
      "States": 7999,
      "Andh": 8000,
      "Andhra": 8001,
      "Arun": 8002,
      "Arunachal": 8003,
      "Ass": 8004,
      "Assam": 8005,
      "Bihar": 8006,
      "Chh": 8007,
      "Chhatt": 8008,
      "Chhattis": 8009,
      "Chhattisgarh": 8010,
      "Go": 8011,
      "Goa": 8012,
      "Guj": 8013,
      "Gujarat": 8014,
      "Hary": 8015,
      "Haryana": 8016,
      "Himachal": 8017,
      "Jharkhand": 8018,
      "Karnataka": 8019,
      "Kerala": 8020,
      "Mad": 8021,
      "Madh": 8022,
      "Madhya": 8023,
      "Mahar": 8024,
      "Maharash": 8025,
      "Maharashtra": 8026,
      "Manipur": 8027,
      "Megh": 8028,
      "Meghal": 8029,
      "Meghalay": 8030,
      "Meghalaya": 8031,
      "Miz": 8032,
      "Mizoram": 8033,
      "Nag": 8034,
      "Nagal": 8035,
      "Nagaland": 8036,
      "Odisha": 8037,
      "Punjab": 8038,
      "Raj": 8039,
      "Rajast": 8040,
      "Rajasthan": 8041,
      "Sik": 8042,
      "Sikkim": 8043,
      "Tamil": 8044,
      "Tel": 8045,
      "Telangana": 8046,
      "Tri": 8047,
      "Tripura": 8048,
      "Uttarakhand": 8049,
      "West": 8050,
      "Union": 8051,
      "Andaman": 8052,
      "Chan": 8053,
      "Chandi": 8054,
      "Chandigarh": 8055,
      "Dadra": 8056,
      "▁Nagar": 8057,
      "▁Haveli": 8058,
      "▁Daman": 8059,
      "▁Di": 8060,
      "▁Diu": 8061,
      "Jammu": 8062,
      "Lad": 8063,
      "Ladakh": 8064,
      "Lakshadweep": 8065,
      "National": 8066,
      "Puducherry": 8067,
      "▁Nations": 8068,
      "▁decol": 8069,
      "▁decolon": 8070,
      "▁decolonisation": 8071,
      "Align": 8072,
      "Aligned": 8073,
      "▁Movement": 8074,
      "▁cordi": 8075,
      "▁cordial": 8076,
      "▁decisively": 8077,
      "▁fend": 8078,
      "▁excur": 8079,
      "▁excurs": 8080,
      "▁excursions": 8081,
      "▁uneas": 8082,
      "▁uneasy": 8083,
      "▁neighbour": 8084,
      "▁Three": 8085,
      "▁fought": 8086,
      "▁disputed": 8087,
      "▁territory": 8088,
      "▁purs": 8089,
      "▁pursue": 8090,
      "▁ties": 8091,
      "▁suppli": 8092,
      "▁supplier": 8093,
      "▁59": 8094,
      "▁596": 8095,
      "▁threats": 8096,
      "▁intervene": 8097,
      "▁1974": 8098,
      "▁carri": 8099,
      "▁carried": 8100,
      "▁underground": 8101,
      "▁testing": 8102,
      "▁neither": 8103,
      "▁Compre": 8104,
      "▁Comprehen": 8105,
      "▁Comprehens": 8106,
      "▁Comprehensive": 8107,
      "Test": 8108,
      "Ban": 8109,
      "▁nor": 8110,
      "▁considering": 8111,
      "▁flaw": 8112,
      "▁flawed": 8113,
      "▁discriminatory": 8114,
      "▁maintains": 8115,
      "▁developing": 8116,
      "▁tri": 8117,
      "▁triad": 8118,
      "▁capability": 8119,
      "▁Min": 8120,
      "▁Minim": 8121,
      "▁Minimum": 8122,
      "▁Credi": 8123,
      "▁Credible": 8124,
      "▁Deter": 8125,
      "▁Deterren": 8126,
      "▁Deterrence": 8127,
      "▁doctr": 8128,
      "▁doctrine": 8129,
      "Since": 8130,
      "▁Cold": 8131,
      "▁strate": 8132,
      "▁strateg": 8133,
      "▁strategic": 8134,
      "▁cooperation": 8135,
      "▁agreement": 8136,
      "▁poss": 8137,
      "▁possess": 8138,
      "▁possessed": 8139,
      "▁received": 8140,
      "▁wai": 8141,
      "▁waivers": 8142,
      "▁Atom": 8143,
      "▁Atomic": 8144,
      "▁Energy": 8145,
      "▁Supp": 8146,
      "▁Suppli": 8147,
      "▁Suppliers": 8148,
      "▁Gr": 8149,
      "▁Group": 8150,
      "▁earlier": 8151,
      "▁restric": 8152,
      "▁restrictions": 8153,
      "▁agreements": 8154,
      "▁Rus": 8155,
      "▁Russia": 8156,
      "▁Fr": 8157,
      "▁France": 8158,
      "▁King": 8159,
      "▁Kingd": 8160,
      "▁Kingdom": 8161,
      "▁Canada": 8162,
      "▁gross": 8163,
      "GDP": 8164,
      "▁placed": 8165,
      "▁Meas": 8166,
      "▁Measured": 8167,
      "▁purch": 8168,
      "▁purchas": 8169,
      "▁purchasing": 8170,
      "▁parity": 8171,
      "PPP": 8172,
      "▁fastest": 8173,
      "▁exceed": 8174,
      "▁exceeding": 8175,
      "▁1990": 8176,
      "▁Demographics": 8177,
      "▁stra": 8178,
      "▁strain": 8179,
      "▁maintain": 8180,
      "▁maintaining": 8181,
      "▁regionally": 8182,
      "▁measured": 8183,
      "▁glob": 8184,
      "▁globally": 8185,
      "income": 8186,
      "▁dai": 8187,
      "▁daily": 8188,
      "Until": 8189,
      "▁protection": 8190,
      "▁protectionist": 8191,
      "▁socialist": 8192,
      "▁economics": 8193,
      "▁Widespread": 8194,
      "▁regul": 8195,
      "▁regulation": 8196,
      "▁walled": 8197,
      "▁outside": 8198,
      "▁acute": 8199,
      "▁balance": 8200,
      "▁pay": 8201,
      "▁payments": 8202,
      "▁cris": 8203,
      "▁crisis": 8204,
      "▁forced": 8205,
      "▁liberalise": 8206,
      "▁moved": 8207,
      "▁towards": 8208,
      "▁free": 8209,
      "market": 8210,
      "▁emphasising": 8211,
      "▁inve": 8212,
      "▁invest": 8213,
      "▁investment": 8214,
      "▁inflows": 8215,
      "▁Trad": 8216,
      "▁Trade": 8217,
      "▁1995": 8218,
      "▁522": 8219,
      "million": 8220,
      "worker": 8221,
      "▁labour": 8222,
      "▁force": 8223,
      "▁remitt": 8224,
      "▁remittances": 8225,
      "▁working": 8226,
      "▁2006": 8227,
      "▁stood": 8228,
      "%;": 8229,
      "▁importer": 8230,
      "▁sixte": 8231,
      "▁sixteent": 8232,
      "▁sixteenth": 8233,
      "▁Between": 8234,
      "▁contrib": 8235,
      "▁contribution": 8236,
      "▁petroc": 8237,
      "▁petroche": 8238,
      "▁petrochem": 8239,
      "▁petrochemical": 8240,
      "▁textile": 8241,
      "▁calendar": 8242,
      "Aver": 8243,
      "Averag": 8244,
      "Averaging": 8245,
      "▁dou": 8246,
      "▁doub": 8247,
      "▁doubled": 8248,
      "▁hour": 8249,
      "▁hourly": 8250,
      "▁wage": 8251,
      "▁431": 8252,
      "▁projected": 8253,
      "▁580": 8254,
      "▁2030": 8255,
      "▁consumer": 8256,
      "▁stea": 8257,
      "▁steadi": 8258,
      "▁steadily": 8259,
      "308": 8260,
      "380": 8261,
      "73": 8262,
      "731": 8263,
      "▁expected": 8264,
      "264": 8265,
      "▁woman": 8266,
      "▁radi": 8267,
      "▁radish": 8268,
      "▁foreground": 8269,
      "▁Nil": 8270,
      "▁Nilg": 8271,
      "▁Nilgir": 8272,
      "▁Nilgiris": 8273,
      "▁sour": 8274,
      "▁sourced": 8275,
      "▁farms": 8276,
      "▁herd": 8277,
      "▁harve": 8278,
      "▁harvested": 8279,
      "▁hand": 8280,
      "▁milking": 8281,
      "Indust": 8282,
      "Industries": 8283,
      "▁autom": 8284,
      "▁automot": 8285,
      "▁automotive": 8286,
      "fastest": 8287,
      "▁sales": 8288,
      "2010": 8289,
      "2009": 8290,
      "▁veh": 8291,
      "▁vehic": 8292,
      "▁vehicle": 8293,
      "▁surpassing": 8294,
      "▁Jap": 8295,
      "▁Japan": 8296,
      "▁IT": 8297,
      "▁prof": 8298,
      "▁profess": 8299,
      "▁profession": 8300,
      "▁professionals": 8301,
      "▁equall": 8302,
      "▁equalling": 8303,
      "▁merchan": 8304,
      "▁merchandi": 8305,
      "▁merchandise": 8306,
      "▁manufacturing": 8307,
      "▁units": 8308,
      "▁generic": 8309,
      "▁medicines": 8310,
      "▁supplies": 8311,
      "60": 8312,
      "▁vac": 8313,
      "▁vacc": 8314,
      "▁vaccines": 8315,
      "▁demand": 8316,
      "▁contributing": 8317,
      "44": 8318,
      "▁destin": 8319,
      "▁destinations": 8320,
      "▁2012": 8321,
      "2013": 8322,
      "▁204": 8323,
      "▁rup": 8324,
      "▁rupees": 8325,
      "▁235": 8326,
      "US": 8327,
      "▁capac": 8328,
      "▁capacity": 8329,
      "▁generate": 8330,
      "▁electrical": 8331,
      "▁usage": 8332,
      "▁emit": 8333,
      "▁emits": 8334,
      "▁equates": 8335,
      "▁tons": 8336,
      "▁carb": 8337,
      "▁carbon": 8338,
      "▁dio": 8339,
      "▁diox": 8340,
      "▁dioxide": 8341,
      "▁person": 8342,
      "▁electric": 8343,
      "▁electricity": 8344,
      "▁clean": 8345,
      "▁liqu": 8346,
      "▁liquef": 8347,
      "▁liquefied": 8348,
      "▁petrol": 8349,
      "▁petrole": 8350,
      "▁petroleum": 8351,
      "▁prior": 8352,
      "▁priorities": 8353,
      "Mumbai": 8354,
      "▁terti": 8355,
      "▁tertiary": 8356,
      "▁finance": 8357,
      "▁tour": 8358,
      "▁tourism": 8359,
      "▁Shown": 8360,
      "▁Taj": 8361,
      "▁Mahal": 8362,
      "▁Palace": 8363,
      "▁Hot": 8364,
      "▁Hotel": 8365,
      "▁Gate": 8366,
      "▁Gatew": 8367,
      "▁Gateway": 8368,
      "▁drin": 8369,
      "▁drink": 8370,
      "▁drinkers": 8371,
      "▁consume": 8372,
      "▁panorama": 8373,
      "▁soft": 8374,
      "▁softw": 8375,
      "▁software": 8376,
      "▁multin": 8377,
      "▁multinational": 8378,
      "▁corp": 8379,
      "▁corpor": 8380,
      "▁corporations": 8381,
      "▁centres": 8382,
      "▁because": 8383,
      "▁pool": 8384,
      "▁sk": 8385,
      "▁skilled": 8386,
      "▁graduates": 8387,
      "▁surrounding": 8388,
      "▁fishing": 8389,
      "▁net": 8390,
      "▁raised": 8391,
      "▁Koc": 8392,
      "▁Kochi": 8393,
      "▁Fishing": 8394,
      "▁supports": 8395,
      "With": 8396,
      "428": 8397,
      "627": 8398,
      "663": 8399,
      "210": 8400,
      "193": 8401,
      "▁reported": 8402,
      "▁provision": 8403,
      "▁provisional": 8404,
      "▁median": 8405,
      "▁2020": 8406,
      "▁Medic": 8407,
      "▁Medical": 8408,
      "▁adv": 8409,
      "▁advances": 8410,
      "▁product": 8411,
      "▁productivity": 8412,
      "▁Green": 8413,
      "▁Revol": 8414,
      "▁Revolution": 8415,
      "▁decen": 8416,
      "▁decenn": 8417,
      "▁decennial": 8418,
      "▁compared": 8419,
      "54": 8420,
      "▁previ": 8421,
      "▁previous": 8422,
      "1991": 8423,
      "2001": 8424,
      "▁post": 8425,
      "col": 8426,
      "colonial": 8427,
      "▁counted": 8428,
      "▁49": 8429,
      "▁1970": 8430,
      "1975": 8431,
      "five": 8432,
      "▁113": 8433,
      "▁1994": 8434,
      "▁ratio": 8435,
      "▁940": 8436,
      "▁Female": 8437,
      "▁infant": 8438,
      "▁infantic": 8439,
      "▁infanticide": 8440,
      "▁lately": 8441,
      "▁lop": 8442,
      "sided": 8443,
      "▁ratios": 8444,
      "▁miss": 8445,
      "▁missing": 8446,
      "▁quad": 8447,
      "▁quadr": 8448,
      "▁quadrup": 8449,
      "▁quadrupled": 8450,
      "2014": 8451,
      "▁faster": 8452,
      "▁same": 8453,
      "▁gir": 8454,
      "▁girls": 8455,
      "▁unw": 8456,
      "▁unwanted": 8457,
      "▁receive": 8458,
      "▁adequ": 8459,
      "▁adequate": 8460,
      "▁care": 8461,
      "▁Despite": 8462,
      "▁ban": 8463,
      "select": 8464,
      "selective": 8465,
      "▁practice": 8466,
      "▁stop": 8467,
      "▁stopped": 8468,
      "Mig": 8469,
      "Migration": 8470,
      "▁dynam": 8471,
      "▁dynamic": 8472,
      "▁lived": 8473,
      "81": 8474,
      "▁slowing": 8475,
      "▁overall": 8476,
      "▁shar": 8477,
      "▁sharp": 8478,
      "▁decline": 8479,
      "plus": 8480,
      "▁agg": 8481,
      "▁aggl": 8482,
      "▁agglom": 8483,
      "▁agglomer": 8484,
      "▁agglomerations": 8485,
      "▁Chen": 8486,
      "▁Chenn": 8487,
      "▁Chennai": 8488,
      "▁Bengalur": 8489,
      "▁Bengaluru": 8490,
      "▁Hy": 8491,
      "▁Hyder": 8492,
      "▁Hyderabad": 8493,
      "▁order": 8494,
      "▁1881": 8495,
      "▁Census": 8496,
      "▁gives": 8497,
      "▁breakdown": 8498,
      "There": 8499,
      "▁Tai": 8500,
      "Kad": 8501,
      "Kadai": 8502,
      "▁Andamanese": 8503,
      "▁minor": 8504,
      "▁isolates": 8505,
      "▁Sep": 8506,
      "▁Sept": 8507,
      "▁Septem": 8508,
      "▁September": 8509,
      "▁deb": 8510,
      "▁debate": 8511,
      "▁opposing": 8512,
      "▁camp": 8513,
      "▁camps": 8514,
      "▁protag": 8515,
      "▁protagon": 8516,
      "▁protagonists": 8517,
      "▁wanted": 8518,
      "▁Devan": 8519,
      "▁Devanag": 8520,
      "▁Devanagari": 8521,
      "national": 8522,
      "▁pref": 8523,
      "▁prefer": 8524,
      "▁preferred": 8525,
      "official": 8526,
      "▁associate": 8527,
      "▁lex": 8528,
      "▁lexic": 8529,
      "▁lexicon": 8530,
      "iii": 8531,
      "Ara": 8532,
      "Arab": 8533,
      "Arabic": 8534,
      "▁resol": 8535,
      "▁resolution": 8536,
      "▁articles": 8537,
      "▁343": 8538,
      "351": 8539,
      "▁bit": 8540,
      "▁bitter": 8541,
      "▁opposition": 8542,
      "▁where": 8543,
      "▁continue": 8544,
      "associ": 8545,
      "associate": 8546,
      "▁indefin": 8547,
      "▁indefinite": 8548,
      "▁indefinitely": 8549,
      "▁Eigh": 8550,
      "▁Eighth": 8551,
      "▁Sched": 8552,
      "▁Schedule": 8553,
      "▁recognises": 8554,
      "▁obl": 8555,
      "▁oblig": 8556,
      "▁obligated": 8557,
      "scheduled": 8558,
      "such": 8559,
      "spec": 8560,
      "specific": 8561,
      "bec": 8562,
      "because": 8563,
      "▁val": 8564,
      "▁value": 8565,
      "▁herit": 8566,
      "▁heritage": 8567,
      "▁Sind": 8568,
      "▁Sindhi": 8569,
      "1967": 8570,
      "▁Manipuri": 8571,
      "1992": 8572,
      "▁Maith": 8573,
      "▁Maithili": 8574,
      "▁Dog": 8575,
      "▁Dogri": 8576,
      "▁Santali": 8577,
      "▁Bod": 8578,
      "▁Bodo": 8579,
      "2004": 8580,
      "langu": 8581,
      "language": 8582,
      "▁speech": 8583,
      "On": 8584,
      "▁reverse": 8585,
      "▁money": 8586,
      "▁notes": 8587,
      "▁den": 8588,
      "▁denomin": 8589,
      "▁denomination": 8590,
      "▁listed": 8591,
      "▁panel": 8592,
      "▁prominently": 8593,
      "▁else": 8594,
      "▁elsewhere": 8595,
      "▁characterised": 8596,
      "▁beliefs": 8597,
      "▁Through": 8598,
      "▁Throughout": 8599,
      "▁birthpl": 8600,
      "▁birthplace": 8601,
      "▁Jains": 8602,
      "▁Buddhists": 8603,
      "▁adher": 8604,
      "▁adhering": 8605,
      "▁Pars": 8606,
      "▁Parsis": 8607,
      "▁Iran": 8608,
      "▁Iranis": 8609,
      "▁Bahá": 8610,
      "▁Faith": 8611,
      "▁Pream": 8612,
      "▁Preamble": 8613,
      "▁declares": 8614,
      "▁fre": 8615,
      "▁freed": 8616,
      "▁freedom": 8617,
      "▁(\"...": 8618,
      "▁liberty": 8619,
      "▁faith": 8620,
      ".\")": 8621,
      "▁79": 8622,
      "▁follows": 8623,
      "▁Several": 8624,
      "▁Don": 8625,
      "▁Dony": 8626,
      "▁Donyi": 8627,
      "Pol": 8628,
      "Polo": 8629,
      "▁Sanam": 8630,
      "▁Sanamah": 8631,
      "▁Sanamahism": 8632,
      "▁Sarnaism": 8633,
      "▁Ni": 8634,
      "▁Niam": 8635,
      "▁Niamtre": 8636,
      "Jain": 8637,
      "▁Shra": 8638,
      "▁Shravan": 8639,
      "▁Shravanab": 8640,
      "▁Shravanabelag": 8641,
      "▁Shravanabelagol": 8642,
      "▁Shravanabelagola": 8643,
      "▁exterior": 8644,
      "▁Judes": 8645,
      "▁Chur": 8646,
      "▁Church": 8647,
      "▁Chinn": 8648,
      "▁Chinnathur": 8649,
      "▁Chinnathurai": 8650,
      "▁agi": 8651,
      "▁agiary": 8652,
      "Interior": 8653,
      "▁Mag": 8654,
      "▁Magen": 8655,
      "▁Dav": 8656,
      "▁David": 8657,
      "▁Sy": 8658,
      "▁Syn": 8659,
      "▁Synag": 8660,
      "▁Synagog": 8661,
      "▁Synagogue": 8662,
      "Educ": 8663,
      "Education": 8664,
      "%:": 8665,
      "▁65": 8666,
      "▁gap": 8667,
      "▁dropp": 8668,
      "▁dropped": 8669,
      "▁improvement": 8670,
      "▁twice": 8671,
      "▁93": 8672,
      "▁lowest": 8673,
      "82": 8674,
      "▁1981": 8675,
      "▁respective": 8676,
      "▁1921": 8677,
      "▁1891": 8678,
      "▁Latika": 8679,
      "▁Cha": 8680,
      "▁Chaud": 8681,
      "▁Chaudh": 8682,
      "▁Chaudhary": 8683,
      "▁191": 8684,
      "▁1911": 8685,
      "▁Stat": 8686,
      "▁Statist": 8687,
      "▁Statistically": 8688,
      "▁priv": 8689,
      "▁private": 8690,
      "▁spending": 8691,
      "▁Pri": 8692,
      "▁Primary": 8693,
      "▁taugh": 8694,
      "▁taught": 8695,
      "▁uni": 8696,
      "▁univers": 8697,
      "▁universities": 8698,
      "▁higher": 8699,
      "▁reserved": 8700,
      "▁affirmative": 8701,
      "▁disad": 8702,
      "▁disadv": 8703,
      "▁disadvant": 8704,
      "▁disadvantag": 8705,
      "▁disadvantaged": 8706,
      "▁improved": 8707,
      "▁cited": 8708,
      "▁contributors": 8709,
      "Child": 8710,
      "Children": 8711,
      "▁awa": 8712,
      "▁await": 8713,
      "▁lun": 8714,
      "▁lunch": 8715,
      "▁Ray": 8716,
      "▁Rayk": 8717,
      "▁Rayka": 8718,
      "also": 8719,
      "▁Raika": 8720,
      "▁salut": 8721,
      "▁salutation": 8722,
      "▁Jai": 8723,
      "▁Bhim": 8724,
      "▁blackbo": 8725,
      "▁blackboard": 8726,
      "▁honours": 8727,
      "▁jurist": 8728,
      "▁refor": 8729,
      "▁reformer": 8730,
      "▁Amb": 8731,
      "▁Ambed": 8732,
      "▁Ambedk": 8733,
      "▁Ambedkar": 8734,
      "▁Madr": 8735,
      "▁Madras": 8736,
      "▁Madrasah": 8737,
      "▁Mas": 8738,
      "▁Masj": 8739,
      "▁Masjid": 8740,
      "Ala": 8741,
      "▁mos": 8742,
      "▁mosque": 8743,
      "▁Srir": 8744,
      "▁Srirang": 8745,
      "▁Srirangap": 8746,
      "▁Srirangapat": 8747,
      "▁Srirangapatna": 8748,
      "▁buil": 8749,
      "▁built": 8750,
      "▁178": 8751,
      "▁1786": 8752,
      "▁Tip": 8753,
      "▁Tipu": 8754,
      "▁Sultan": 8755,
      "II": 8756,
      "IIT": 8757,
      "▁Ro": 8758,
      "▁Roork": 8759,
      "▁Roorkee": 8760,
      "▁Thom": 8761,
      "▁Thomas": 8762,
      "▁Thomason": 8763,
      "▁College": 8764,
      "▁Engineering": 8765,
      "▁college": 8766,
      "▁foundedin": 8767,
      "▁1847": 8768,
      "▁train": 8769,
      "▁construc": 8770,
      "▁construction": 8771,
      "▁Canal": 8772,
      "Health": 8773,
      "▁bears": 8774,
      "▁disp": 8775,
      "▁disprop": 8776,
      "▁disproportion": 8777,
      "▁disproportionately": 8778,
      "▁bur": 8779,
      "▁burden": 8780,
      "▁Health": 8781,
      "WHO": 8782,
      "▁statist": 8783,
      "▁statistics": 8784,
      "▁estimating": 8785,
      "▁infections": 8786,
      "▁account": 8787,
      "▁accounting": 8788,
      "▁carry": 8789,
      "▁infection": 8790,
      "▁chronic": 8791,
      "▁obstruct": 8792,
      "▁obstructive": 8793,
      "▁pul": 8794,
      "▁pulmon": 8795,
      "▁pulmonary": 8796,
      "▁death": 8797,
      "▁heart": 8798,
      "▁polluted": 8799,
      "▁limit": 8800,
      "▁quality": 8801,
      "▁reports": 8802,
      "▁meets": 8803,
      "▁saf": 8804,
      "▁safety": 8805,
      "▁gu": 8806,
      "▁guidel": 8807,
      "▁guidelines": 8808,
      "▁like": 8809,
      "▁equival": 8810,
      "▁equivalent": 8811,
      "▁smok": 8812,
      "▁smoking": 8813,
      "▁cig": 8814,
      "▁cigare": 8815,
      "▁cigarett": 8816,
      "▁cigarettes": 8817,
      "▁day": 8818,
      "▁killed": 8819,
      "Soc": 8820,
      "Societ": 8821,
      "Society": 8822,
      "Although": 8823,
      "▁uniqu": 8824,
      "▁uniquely": 8825,
      "▁broadly": 8826,
      "▁castes": 8827,
      "▁varnas": 8828,
      "▁Brahmin": 8829,
      "▁priest": 8830,
      "▁priests": 8831,
      "▁Ksh": 8832,
      "▁Kshat": 8833,
      "▁Kshatriya": 8834,
      "▁Vaish": 8835,
      "▁Vaishya": 8836,
      "▁Shud": 8837,
      "▁Shudra": 8838,
      "▁Out": 8839,
      "▁Outside": 8840,
      "▁lie": 8841,
      "outcastes": 8842,
      "untouch": 8843,
      "untouchables": 8844,
      "descri": 8845,
      "description": 8846,
      "▁pride": 8847,
      "bro": 8848,
      "brok": 8849,
      "broken": 8850,
      "downt": 8851,
      "downtro": 8852,
      "downtrod": 8853,
      "downtrodden": 8854,
      "▁Each": 8855,
      "▁divided": 8856,
      "▁jat": 8857,
      "▁jatis": 8858,
      "▁tied": 8859,
      "▁occupations": 8860,
      "▁custom": 8861,
      "▁endogamy": 8862,
      "▁marrying": 8863,
      "▁subcast": 8864,
      "▁subcaste": 8865,
      "▁label": 8866,
      "▁occupational": 8867,
      "▁cho": 8868,
      "▁choice": 8869,
      "▁entren": 8870,
      "▁entrenched": 8871,
      "▁abol": 8872,
      "▁abolished": 8873,
      "▁anti": 8874,
      "discrimin": 8875,
      "discriminatory": 8876,
      "▁initiatives": 8877,
      "based": 8878,
      "▁discrimination": 8879,
      "▁seg": 8880,
      "▁segreg": 8881,
      "▁segregation": 8882,
      "Mult": 8883,
      "Multi": 8884,
      "gener": 8885,
      "generational": 8886,
      "▁patr": 8887,
      "▁patril": 8888,
      "▁patriline": 8889,
      "▁patrilineal": 8890,
      "▁join": 8891,
      "▁joint": 8892,
      "▁norm": 8893,
      "▁arr": 8894,
      "▁arranged": 8895,
      "▁eld": 8896,
      "▁elders": 8897,
      "▁Mar": 8898,
      "▁Marri": 8899,
      "▁Marriage": 8900,
      "▁thous": 8901,
      "▁thousand": 8902,
      "▁reach": 8903,
      "▁reaching": 8904,
      "▁legal": 8905,
      "▁marriage": 8906,
      "▁marriageable": 8907,
      "▁moreover": 8908,
      "▁exogamy": 8909,
      "▁obser": 8910,
      "▁observed": 8911,
      "▁marries": 8912,
      "▁visit": 8913,
      "▁home": 8914,
      "▁rite": 8915,
      "▁rak": 8916,
      "▁raksha": 8917,
      "▁bandhan": 8918,
      "▁hom": 8919,
      "▁homes": 8920,
      "▁offer": 8921,
      "▁recour": 8922,
      "▁recourse": 8923,
      "▁marital": 8924,
      "▁stress": 8925,
      "▁tribe": 8926,
      "▁Dand": 8927,
      "▁Dandari": 8928,
      "▁Jainoor": 8929,
      "▁Telangana": 8930,
      "▁predates": 8931,
      "▁synt": 8932,
      "▁synthes": 8933,
      "▁synthesis": 8934,
      "first": 8935,
      "▁Ramnam": 8936,
      "▁Ramnami": 8937,
      "▁Sam": 8938,
      "▁Samaj": 8939,
      "▁Dalits": 8940,
      "▁deity": 8941,
      "▁Rama": 8942,
      "▁tatt": 8943,
      "▁tattoo": 8944,
      "Vis": 8945,
      "Visual": 8946,
      "▁exchanged": 8947,
      "▁greatly": 8948,
      "▁Thous": 8949,
      "▁Thousands": 8950,
      "▁civilisation": 8951,
      "▁Pash": 8952,
      "▁Pashup": 8953,
      "▁Pashupati": 8954,
      "▁192": 8955,
      "▁1928": 8956,
      "29": 8957,
      "▁Virt": 8958,
      "▁Virtually": 8959,
      "▁Alm": 8960,
      "▁Almost": 8961,
      "▁surviving": 8962,
      "▁dur": 8963,
      "▁durable": 8964,
      "▁coins": 8965,
      "▁wood": 8966,
      "▁lost": 8967,
      "▁Mauryan": 8968,
      "▁distinctly": 8969,
      "▁sculpting": 8970,
      "▁interest": 8971,
      "▁articul": 8972,
      "▁articulating": 8973,
      "▁prec": 8974,
      "▁precise": 8975,
      "▁anatomy": 8976,
      "▁showing": 8977,
      "▁smo": 8978,
      "▁smooth": 8979,
      "▁smoothly": 8980,
      "▁flowing": 8981,
      "▁expressing": 8982,
      "▁prana": 8983,
      "breath": 8984,
      "▁complic": 8985,
      "▁complicated": 8986,
      "▁need": 8987,
      "▁multip": 8988,
      "▁multiple": 8989,
      "▁heads": 8990,
      "▁genders": 8991,
      "▁Ardh": 8992,
      "▁Ardhan": 8993,
      "▁Ardhanar": 8994,
      "▁Ardhanarish": 8995,
      "▁Ardhanarishvara": 8996,
      "▁Parv": 8997,
      "▁Parvati": 8998,
      "Most": 8999,
      "▁stup": 9000,
      "▁stupas": 9001,
      "▁Sanch": 9002,
      "▁Sanchi": 9003,
      "▁Sarnath": 9004,
      "▁Amar": 9005,
      "▁Amarav": 9006,
      "▁Amaravati": 9007,
      "▁Kar": 9008,
      "▁Karla": 9009,
      "▁Ell": 9010,
      "▁Ellor": 9011,
      "▁Ellora": 9012,
      "▁spite": 9013,
      "▁mix": 9014,
      "▁mixture": 9015,
      "▁prev": 9016,
      "▁prevail": 9017,
      "▁prevailing": 9018,
      "▁sculptors": 9019,
      "▁regard": 9020,
      "▁regarded": 9021,
      "▁lingered": 9022,
      "▁Ele": 9023,
      "▁Eleph": 9024,
      "▁Elephanta": 9025,
      "▁Across": 9026,
      "▁formul": 9027,
      "▁formulaic": 9028,
      "▁800": 9029,
      "▁fine": 9030,
      "▁finely": 9031,
      "▁det": 9032,
      "▁detail": 9033,
      "▁surrounds": 9034,
      "▁statues": 9035,
      "▁But": 9036,
      "▁Pallava": 9037,
      "▁Chola": 9038,
      "▁dyn": 9039,
      "▁dynast": 9040,
      "▁dynasties": 9041,
      "▁stone": 9042,
      "▁sust": 9043,
      "▁sustained": 9044,
      "▁ach": 9045,
      "▁achie": 9046,
      "▁achievement": 9047,
      "▁bronzes": 9048,
      "▁ic": 9049,
      "▁iconic": 9050,
      "▁symb": 9051,
      "▁symbol": 9052,
      "▁survived": 9053,
      "▁few": 9054,
      "▁crow": 9055,
      "▁crowded": 9056,
      "▁scenes": 9057,
      "▁Pain": 9058,
      "▁Painted": 9059,
      "▁manuscripts": 9060,
      "▁survive": 9061,
      "▁onwards": 9062,
      "▁significantly": 9063,
      "derived": 9064,
      "▁start": 9065,
      "▁starting": 9066,
      "▁mini": 9067,
      "▁miniature": 9068,
      "▁emphasis": 9069,
      "▁portra": 9070,
      "▁portraits": 9071,
      "▁recording": 9072,
      "▁prince": 9073,
      "▁princely": 9074,
      "▁pleas": 9075,
      "▁pleasures": 9076,
      "▁variety": 9077,
      "▁smaller": 9078,
      "▁innovative": 9079,
      "▁Nih": 9080,
      "▁Nihâ": 9081,
      "▁Nihâl": 9082,
      "▁Nains": 9083,
      "▁Nainsu": 9084,
      "▁Nainsukh": 9085,
      "▁supplied": 9086,
      "▁considerable": 9087,
      "▁cheap": 9088,
      "▁Kaligh": 9089,
      "▁Kalighat": 9090,
      "▁done": 9091,
      "▁Cal": 9092,
      "▁Calc": 9093,
      "▁Calcut": 9094,
      "▁Calcutta": 9095,
      "▁Sch": 9096,
      "▁School": 9097,
      "▁Art": 9098,
      "▁reflect": 9099,
      "▁reflecting": 9100,
      "Bhutes": 9101,
      "Bhutesvara": 9102,
      "▁Yakshis": 9103,
      "▁Mathur": 9104,
      "▁Mathura": 9105,
      "Gupta": 9106,
      "▁Killing": 9107,
      "▁Horse": 9108,
      "▁Demon": 9109,
      "▁Kes": 9110,
      "▁Keshi": 9111,
      "Krishna": 9112,
      "▁Fl": 9113,
      "▁Flut": 9114,
      "▁Fluting": 9115,
      "▁Mil": 9116,
      "▁Milk": 9117,
      "▁Milkma": 9118,
      "▁Milkmaid": 9119,
      "▁Milkmaids": 9120,
      "▁Kangra": 9121,
      "▁1775": 9122,
      "178": 9123,
      "1785": 9124,
      "Chol": 9125,
      "Chola": 9126,
      "Lord": 9127,
      "\"),": 9128,
      "Mathem": 9129,
      "Mathematic": 9130,
      "Mathematics": 9131,
      "Sign": 9132,
      "Significant": 9133,
      "▁Ś": 9134,
      "▁Śul": 9135,
      "▁Śulb": 9136,
      "▁Śulba": 9137,
      "▁Sū": 9138,
      "▁Sūtr": 9139,
      "▁Sūtras": 9140,
      "literally": 9141,
      "Aph": 9142,
      "Aphor": 9143,
      "Aphorism": 9144,
      "Aphorisms": 9145,
      "▁Chord": 9146,
      "▁Chords": 9147,
      "▁ver": 9148,
      "▁verbal": 9149,
      "▁Pyth": 9150,
      "▁Pythag": 9151,
      "▁Pythagore": 9152,
      "▁Pythagorean": 9153,
      "▁theore": 9154,
      "▁theorem": 9155,
      "although": 9156,
      "▁likely": 9157,
      "▁Bab": 9158,
      "▁Baby": 9159,
      "▁Babyl": 9160,
      "▁Babylon": 9161,
      "▁Babylonians": 9162,
      "▁.)": 9163,
      "▁docu": 9164,
      "▁document": 9165,
      "▁birch": 9166,
      "▁bark": 9167,
      "▁Bakh": 9168,
      "▁Bakhsh": 9169,
      "▁Bakhshali": 9170,
      "▁Ary": 9171,
      "▁Aryabh": 9172,
      "▁Aryabhata": 9173,
      "▁Brahmag": 9174,
      "▁Brahmagupta": 9175,
      "▁Bhas": 9176,
      "▁Bhask": 9177,
      "▁Bhaskara": 9178,
      "▁Var": 9179,
      "▁Varā": 9180,
      "▁Varāh": 9181,
      "▁Varāham": 9182,
      "▁Varāhami": 9183,
      "▁Varāhamihi": 9184,
      "▁Varāhamihira": 9185,
      "▁Madhav": 9186,
      "▁Madhava": 9187,
      "▁decimal": 9188,
      "▁concept": 9189,
      "▁zer": 9190,
      "▁zero": 9191,
      "▁neg": 9192,
      "▁negative": 9193,
      "▁arith": 9194,
      "▁arithm": 9195,
      "▁arithmetic": 9196,
      "▁alge": 9197,
      "▁algeb": 9198,
      "▁algebra": 9199,
      "▁Trigonomet": 9200,
      "▁Trigonometry": 9201,
      "▁definitions": 9202,
      "▁sine": 9203,
      "▁concepts": 9204,
      "▁landmar": 9205,
      "▁landmark": 9206,
      "▁expansions": 9207,
      "▁trigonomet": 9208,
      "▁trigonometric": 9209,
      "▁fun": 9210,
      "▁func": 9211,
      "▁functions": 9212,
      "sine": 9213,
      "▁arc": 9214,
      "▁tang": 9215,
      "▁tangent": 9216,
      "▁completed": 9217,
      "▁invention": 9218,
      "▁calc": 9219,
      "▁calcul": 9220,
      "▁calculus": 9221,
      "▁Srin": 9222,
      "▁Sriniv": 9223,
      "▁Srinivas": 9224,
      "▁Srinivasa": 9225,
      "▁Raman": 9226,
      "▁Ramanuj": 9227,
      "▁Ramanujan": 9228,
      "▁theory": 9229,
      "Mus": 9230,
      "Music": 9231,
      "▁arra": 9232,
      "▁array": 9233,
      "▁musical": 9234,
      "▁musics": 9235,
      "▁origins": 9236,
      "▁split": 9237,
      "▁improv": 9238,
      "▁improvis": 9239,
      "▁improvisational": 9240,
      "▁featuring": 9241,
      "▁instru": 9242,
      "▁instruments": 9243,
      "▁tab": 9244,
      "▁tabla": 9245,
      "▁foc": 9246,
      "▁focused": 9247,
      "▁compositions": 9248,
      "▁krit": 9249,
      "▁kriti": 9250,
      "▁while": 9251,
      "▁elements": 9252,
      "▁raga": 9253,
      "▁mel": 9254,
      "▁melodi": 9255,
      "▁melodic": 9256,
      "▁tala": 9257,
      "▁rh": 9258,
      "▁rhyth": 9259,
      "▁rhythm": 9260,
      "▁rhythmic": 9261,
      "▁meter": 9262,
      "▁genres": 9263,
      "▁ja": 9264,
      "▁jaz": 9265,
      "▁jazz": 9266,
      "▁musicians": 9267,
      "▁counter": 9268,
      "▁counterc": 9269,
      "▁counterculture": 9270,
      "▁film": 9271,
      "▁cinem": 9272,
      "▁cinema": 9273,
      "▁directors": 9274,
      "▁sung": 9275,
      "▁playback": 9276,
      "▁singers": 9277,
      "▁Modern": 9278,
      "▁takes": 9279,
      "▁Subb": 9280,
      "▁Subbul": 9281,
      "▁Subbulak": 9282,
      "▁Subbulaks": 9283,
      "▁Subbulakshm": 9284,
      "▁Subbulakshmi": 9285,
      "▁vocal": 9286,
      "▁vocalist": 9287,
      "Carnatic": 9288,
      "▁mrid": 9289,
      "▁mridang": 9290,
      "▁mridangam": 9291,
      "▁Palgh": 9292,
      "▁Palghat": 9293,
      "▁Mani": 9294,
      "▁Iy": 9295,
      "▁Iyer": 9296,
      "left": 9297,
      "▁violinist": 9298,
      "▁violinists": 9299,
      ".:": 9300,
      "▁Vaid": 9301,
      "▁Vaidyan": 9302,
      "▁Vaidyanathan": 9303,
      "▁Subra": 9304,
      "▁Subram": 9305,
      "▁Subramani": 9306,
      "▁Subramaniam": 9307,
      "Alla": 9308,
      "Allaud": 9309,
      "Allaudd": 9310,
      "Allauddin": 9311,
[...]
