{"vocab": {"\n": 0, " ": 1, "\"": 2, "$": 3, "%": 4, "&": 5, "'": 6, "(": 7, ")": 8, "+": 9, ",": 10, "-": 11, ".": 12, "/": 13, "0": 14, "1": 15, "2": 16, "3": 17, "4": 18, "5": 19, "6": 20, "7": 21, "8": 22, "9": 23, ":": 24, ";": 25, "=": 26, "A": 27, "B": 28, "C": 29, "D": 30, "E": 31, "F": 32, "G": 33, "H": 34, "I": 35, "J": 36, "K": 37, "L": 38, "M": 39, "N": 40, "O": 41, "P": 42, "Q": 43, "R": 44, "S": 45, "T": 46, "U": 47, "V": 48, "W": 49, "Y": 50, "Z": 51, "[": 52, "]": 53, "^": 54, "a": 55, "b": 56, "c": 57, "d": 58, "e": 59, "f": 60, "g": 61, "h": 62, "i": 63, "j": 64, "k": 65, "l": 66, "m": 67, "n": 68, "o": 69, "p": 70, "q": 71, "r": 72, "s": 73, "t": 74, "u": 75, "v": 76, "w": 77, "x": 78, "y": 79, "z": 80, "°": 81, "Ö": 82, "á": 83, "â": 84, "í": 85, "ā": 86, "ī": 87, "Ś": 88, "ū": 89, "ə": 90, "ɦ": 91, "ɪ": 92, "ɾ": 93, "ʊ": 94, "ˈ": 95, "ː": 96, "ί": 97, "α": 98, "δ": 99, "ν": 100, "ς": 101, "ό": 102, "ऀ": 103, "ँ": 104, "ं": 105, "ः": 106, "ऄ": 107, "अ": 108, "आ": 109, "इ": 110, "ई": 111, "उ": 112, "ऊ": 113, "ऋ": 114, "ऌ": 115, "ऍ": 116, "ऎ": 117, "ए": 118, "ऐ": 119, "ऑ": 120, "ऒ": 121, "ओ": 122, "औ": 123, "क": 124, "ख": 125, "ग": 126, "घ": 127, "ङ": 128, "च": 129, "छ": 130, "ज": 131, "झ": 132, "ञ": 133, "ट": 134, "ठ": 135, "ड": 136, "ढ": 137, "ण": 138, "त": 139, "थ": 140, "द": 141, "ध": 142, "न": 143, "ऩ": 144, "प": 145, "फ": 146, "ब": 147, "भ": 148, "म": 149, "य": 150, "र": 151, "ऱ": 152, "ल": 153, "ळ": 154, "ऴ": 155, "व": 156, "श": 157, "ष": 158, "स": 159, "ह": 160, "ऺ": 161, "ऻ": 162, "़": 163, "ऽ": 164, "ा": 165, "ि": 166, "ी": 167, "ु": 168, "ू": 169, "ृ": 170, "ॄ": 171, "ॅ": 172, "ॆ": 173, "े": 174, "ै": 175, "ॉ": 176, "ॊ": 177, "ो": 178, "ौ": 179, "्": 180, "ॎ": 181, "ॏ": 182, "ॐ": 183, "॑": 184, "॒": 185, "॓": 186, "॔": 187, "ॕ": 188, "ॖ": 189, "ॗ": 190, "क़": 191, "ख़": 192, "ग़": 193, "ज़": 194, "ड़": 195, "ढ़": 196, "फ़": 197, "य़": 198, "ॠ": 199, "ॡ": 200, "ॢ": 201, "ॣ": 202, "।": 203, "॥": 204, "०": 205, "१": 206, "२": 207, "३": 208, "४": 209, "५": 210, "६": 211, "७": 212, "८": 213, "९": 214, "॰": 215, "ॱ": 216, "ॲ": 217, "ॳ": 218, "ॴ": 219, "ॵ": 220, "ॶ": 221, "ॷ": 222, "ॸ": 223, "ॹ": 224, "ॺ": 225, "ॻ": 226, "ॼ": 227, "ॽ": 228, "ॾ": 229, "ॿ": 230, "ఀ": 231, "ఁ": 232, "ం": 233, "ః": 234, "ఄ": 235, "అ": 236, "ఆ": 237, "ఇ": 238, "ఈ": 239, "ఉ": 240, "ఊ": 241, "ఋ": 242, "ఌ": 243, "఍": 244, "ఎ": 245, "ఏ": 246, "ఐ": 247, "఑": 248, "ఒ": 249, "ఓ": 250, "ఔ": 251, "క": 252, "ఖ": 253, "గ": 254, "ఘ": 255, "ఙ": 256, "చ": 257, "ఛ": 258, "జ": 259, "ఝ": 260, "ఞ": 261, "ట": 262, "ఠ": 263, "డ": 264, "ఢ": 265, "ణ": 266, "త": 267, "థ": 268, "ద": 269, "ధ": 270, "న": 271, "఩": 272, "ప": 273, "ఫ": 274, "బ": 275, "భ": 276, "మ": 277, "య": 278, "ర": 279, "ఱ": 280, "ల": 281, "ళ": 282, "ఴ": 283, "వ": 284, "శ": 285, "ష": 286, "స": 287, "హ": 288, "఺": 289, "఻": 290, "఼": 291, "ఽ": 292, "ా": 293, "ి": 294, "ీ": 295, "ు": 296, "ూ": 297, "ృ": 298, "ౄ": 299, "౅": 300, "ె": 301, "ే": 302, "ై": 303, "౉": 304, "ొ": 305, "ో": 306, "ౌ": 307, "్": 308, "౎": 309, "౏": 310, "౐": 311, "౑": 312, "౒": 313, "౓": 314, "౔": 315, "ౕ": 316, "ౖ": 317, "౗": 318, "ౘ": 319, "ౙ": 320, "ౚ": 321, "౛": 322, "౜": 323, "ౝ": 324, "౞": 325, "౟": 326, "ౠ": 327, "ౡ": 328, "ౢ": 329, "ౣ": 330, "౤": 331, "౥": 332, "౦": 333, "౧": 334, "౨": 335, "౩": 336, "౪": 337, "౫": 338, "౬": 339, "౭": 340, "౮": 341, "౯": 342, "౰": 343, "౱": 344, "౲": 345, "౳": 346, "౴": 347, "౵": 348, "౶": 349, "౷": 350, "౸": 351, "౹": 352, "౺": 353, "౻": 354, "౼": 355, "౽": 356, "౾": 357, "౿": 358, "ṅ": 359, "ṇ": 360, "ṣ": 361, "ṭ": 362, "Ἰ": 363, "–": 364, "—": 365, "†": 366, "′": 367, "₹": 368, "﻿": 369, " t": 370, "an": 371, "he": 372, "in": 373, " the": 374, "on": 375, "er": 376, "re": 377, "al": 378, " o": 379, "st": 380, "at": 381, "en": 382, "ar": 383, "di": 384, "and": 385, " c": 386, "ed": 387, " I": 388, "्र": 389, " a": 390, " in": 391, " of": 392, " w": 393, "it": 394, " s": 395, "्य": 396, " In": 397, " and": 398, "or": 399, " क": 400, " p": 401, " स": 402, "ion": 403, " b": 404, " ,": 405, "es": 406, " m": 407, " f": 408, "ic": 409, " Indi": 410, "is": 411, " प": 412, "ing": 413, "र्": 414, "as": 415, "om": 416, " l": 417, "ent": 418, "ou": 419, " e": 420, " India": 421, "्त": 422, " to": 423, " म": 424, "ान": 425, " 1": 426, "ार": 427, " व": 428, " d": 429, "ur": 430, "ly": 431, " h": 432, "ec": 433, " T": 434, " re": 435, "il": 436, " n": 437, " ह": 438, " त": 439, " g": 440, "ra": 441, " भ": 442, "th": 443, "ri": 444, "ul": 445, "ol": 446, "ver": 447, "am": 448, " C": 449, " A": 450, " द": 451, " .": 452, "్ర": 453, "ation": 454, " न": 455, " B": 456, " अ": 457, " S": 458, " 2": 459, " च": 460, "रा": 461, "ve": 462, " ప": 463, "्व": 464, "le": 465, "ro": 466, "ित": 467, "ut": 468, "या": 469, "ce": 470, "म्": 471, " The": 472, " is": 473, "ార": 474, "ad": 475, " के": 476, "ist": 477, "et": 478, "im": 479, " Indian": 480, "లు": 481, " by": 482, " प्र": 483, "ని": 484, "ें": 485, "us": 486, "ast": 487, " 19": 488, "ge": 489, " य": 490, " ज": 491, " वि": 492, "त्र": 493, "ig": 494, " స": 495, "स्य": 496, "un": 497, " వ": 498, "'s": 499, "ारत": 500, " th": 501, "id": 502, "ith": 503, "ow": 504, "ir": 505, " P": 506, " క": 507, " ब": 508, " श": 509, "00": 510, " r": 511, " में": 512, " M": 513, "uc": 514, " be": 515, "rom": 516, " है": 517, "िक": 518, " with": 519, "ర్": 520, " for": 521, "ate": 522, "ष्": 523, "ां": 524, " con": 525, "ment": 526, "र्व": 527, "न्": 528, "ास": 529, " (": 530, "ang": 531, " was": 532, "em": 533, "ter": 534, "op": 535, "tion": 536, " wh": 537, "ము": 538, "ies": 539, "्च": 540, " भारत": 541, " mo": 542, "त्": 543, " as": 544, " सं": 545, "్య": 546, "ain": 547, "res": 548, " from": 549, " అ": 550, "ong": 551, " st": 552, "లో": 553, "est": 554, "्ष": 555, "ac": 556, "ిం": 557, "ति": 558, "art": 559, " N": 560, "her": 561, "ना": 562, " ग": 563, "ical": 564, " ex": 565, "ay": 566, " మ": 567, " E": 568, " D": 569, " H": 570, " it": 571, "se": 572, " G": 573, " ర": 574, "ab": 575, "ld": 576, " on": 577, "um": 578, "स्त": 579, "ak": 580, " di": 581, " an": 582, "gh": 583, "था": 584, "ts": 585, "ill": 586, " 20": 587, "मा": 588, "ich": 589, " or": 590, "्या": 591, " has": 592, "ial": 593, "ों": 594, "న్": 595, "డు": 596, "up": 597, "ud": 598, " रा": 599, "ता": 600, "ది": 601, "der": 602, " which": 603, "क्ष": 604, "ity": 605, "दा": 606, " आ": 607, "ive": 608, " are": 609, " औ": 610, "ను": 611, "ాల": 612, "श्च": 613, " और": 614, "oc": 615, "ult": 616, " un": 617, " का": 618, "ort": 619, "du": 620, "el": 621, "ure": 622, "con": 623, "oun": 624, "ub": 625, " पर": 626, "rit": 627, "స్": 628, "स्": 629, "न्त": 630, "li": 631, " की": 632, "ः।": 633, "క్": 634, "ers": 635, " v": 636, "ot": 637, " K": 638, "ष्ट": 639, "ृत": 640, "iv": 641, "ary": 642, "గా": 643, "द्": 644, " inc": 645, "ीय": 646, " al": 647, "ेश": 648, "ते": 649, " com": 650, "over": 651, " its": 652, " cent": 653, "ere": 654, " इ": 655, " उ": 656, "ans": 657, " ल": 658, "ः॥": 659, " wor": 660, "end": 661, "हा": 662, " de": 663, "ch": 664, " W": 665, " ।": 666, "ag": 667, " భ": 668, "arge": 669, "ear": 670, " र": 671, "od": 672, " were": 673, "ించ": 674, "కు": 675, " ए": 676, "ाल": 677, "our": 678, "mp": 679, "ated": 680, " ప్ర": 681, "वि": 682, " ध": 683, "In": 684, " है।": 685, "म्।": 686, " చ": 687, " से": 688, "os": 689, " Hin": 690, "The": 691, "वा": 692, "ారత": 693, " राज": 694, "ाम": 695, "ान्": 696, "ेन": 697, " As": 698, " cont": 699, "ap": 700, "ted": 701, "ism": 702, " ch": 703, "ish": 704, " sp": 705, "age": 706, " ద": 707, " at": 708, " pro": 709, "ance": 710, " రా": 711, " पा": 712, "ry": 713, "og": 714, "ాయ": 715, "ions": 716, " part": 717, "ous": 718, "overn": 719, "uring": 720, "outh": 721, " int": 722, " pl": 723, "ough": 724, "fter": 725, "aj": 726, "प्र": 727, " 201": 728, " R": 729, "av": 730, "eral": 731, "ame": 732, "conom": 733, "ass": 734, "న్న": 735, "ोक": 736, "ुर": 737, " త": 738, "ాలు": 739, " ఉ": 740, "low": 741, " U": 742, "ore": 743, " Ch": 744, "म्॥": 745, "िया": 746, "ేశ": 747, "र्म": 748, "से": 749, "angu": 750, "ern": 751, " le": 752, " J": 753, "overnment": 754, " co": 755, "ant": 756, "if": 757, " bec": 758, "ిక": 759, "र्थ": 760, "ిన": 761, " नि": 762, "ैव": 763, "illion": 764, "any": 765, " into": 766, " reg": 767, " large": 768, " form": 769, "hi": 770, " econom": 771, " centur": 772, "ण्": 773, " rel": 774, "ates": 775, " mar": 776, "ress": 777, "द्ध": 778, "ने": 779, " ఆ": 780, "र्ष": 781, "త్ర": 782, " world": 783, " langu": 784, "dia": 785, "पा": 786, "न्द": 787, " ar": 788, "ces": 789, " per": 790, " ad": 791, "mer": 792, "ct": 793, " cl": 794, "ia": 795, "తు": 796, "క్ష": 797, "ण्ड": 798, "्ञ": 799, " \"": 800, " 7": 801, " sub": 802, "ally": 803, " pop": 804, " ag": 805, " k": 806, " Hindu": 807, "me": 808, "inist": 809, " se": 810, "త్": 811, "stit": 812, "ంలో": 813, " सम": 814, "తి": 815, "har": 816, " y": 817, " पर्व": 818, "ational": 819, "ution": 820, "ence": 821, "irst": 822, " el": 823, "qu": 824, "ine": 825, " 5": 826, "नं": 827, "so": 828, " 3": 829, "त्त": 830, " V": 831, " న": 832, "ian": 833, " हैं": 834, "िय": 835, "श्र": 836, " Ind": 837, "duc": 838, "all": 839, "red": 840, " art": 841, "ave": 842, " popul": 843, " government": 844, "ik": 845, " first": 846, " గ": 847, " during": 848, "India": 849, " तथा": 850, "ेष": 851, "ర్వ": 852, "मि": 853, "जय": 854, " भी": 855, " को": 856, " -": 857, "ండ": 858, "lud": 859, " dec": 860, " జ": 861, " sy": 862, "reas": 863, " pri": 864, " sh": 865, "pp": 866, "ire": 867, "भा": 868, " ri": 869, "రి": 870, " tra": 871, "రు": 872, " 4": 873, "ok": 874, "ानां": 875, " ना": 876, "ुन": 877, " exp": 878, "we": 879, "cc": 880, "reat": 881, " year": 882, "ther": 883, "ect": 884, " comp": 885, "ber": 886, "ric": 887, " gen": 888, "र्त": 889, "ome": 890, "dition": 891, " శ": 892, "क्त": 893, "ाप": 894, "्रा": 895, " F": 896, " ने": 897, "ेव": 898, "ages": 899, "ide": 900, "row": 901, "dh": 902, "dern": 903, "ff": 904, " end": 905, " includ": 906, "ew": 907, "ection": 908, "ाद": 909, "uch": 910, "oth": 911, "ved": 912, "ign": 913, "gan": 914, "िण": 915, "ound": 916, " over": 917, " यत्र": 918, " ఇ": 919, "ral": 920, " कर": 921, "ड़": 922, "तः": 923, "వా": 924, "ద్": 925, "upp": 926, " res": 927, " cons": 928, "estern": 929, "used": 930, " syst": 931, " system": 932, " inf": 933, "igh": 934, " also": 935, " century": 936, "stitution": 937, " became": 938, "ajor": 939, "सं": 940, " स्": 941, "ष्ट्र": 942, " 202": 943, "్ట": 944, "मु": 945, "ep": 946, " సం": 947, " had": 948, " been": 949, " rul": 950, " relig": 951, "దేశ": 952, " వి": 953, "atic": 954, " have": 955, "imal": 956, " but": 957, "्वा": 958, " pe": 959, "mpire": 960, " more": 961, " )": 962, "ారు": 963, " 200": 964, "त्य": 965, " सा": 966, " सर्व": 967, "तं": 968, "न्य": 969, "भि": 970, "కి": 971, " L": 972, "వి": 973, "ాన": 974, " million": 975, "ानि": 976, "vers": 977, "mong": 978, " देश": 979, " विज": 980, " South": 981, "ural": 982, " im": 983, " num": 984, "ord": 985, " after": 986, "णि": 987, "ongress": 988, " class": 989, " tw": 990, "eng": 991, " me": 992, "ల్": 993, " भा": 994, " संजय": 995, "ख्य": 996, "का": 997, " 196": 998, " భారత": 999, "భారత": 1000, " rep": 1001, "vel": 1002, "lo": 1003, " modern": 1004, " most": 1005, " years": 1006, "द्य": 1007, "ose": 1008, "्ल": 1009, " increas": 1010, "sh": 1011, " such": 1012, " pol": 1013, " that": 1014, " minist": 1015, "ulture": 1016, " lat": 1017, " he": 1018, " region": 1019, "ens": 1020, " two": 1021, " their": 1022, " O": 1023, "ond": 1024, "ower": 1025, "ంది": 1026, "రా": 1027, "शं": 1028, " महा": 1029, "ైన": 1030, "ంట": 1031, "र्ण": 1032, "कार": 1033, "ount": 1034, " 195": 1035, "ust": 1036, "याय": 1037, "CE": 1038, "హా": 1039, "rib": 1040, " BCE": 1041, "inent": 1042, " dance": 1043, "etwe": 1044, "etween": 1045, "ef": 1046, " sc": 1047, "ren": 1048, " ;": 1049, " prime": 1050, "orth": 1051, " dis": 1052, " both": 1053, "ban": 1054, " long": 1055, "ग्र": 1056, " ca": 1057, " Congress": 1058, "ures": 1059, "arli": 1060, "ree": 1061, "hm": 1062, " Bud": 1063, " Buddh": 1064, " soc": 1065, " major": 1066, " tradition": 1067, "मे": 1068, "anges": 1069, " ల": 1070, "ाः": 1071, "भारत": 1072, " यदा": 1073, " पु": 1074, " यु": 1075, "री": 1076, " तदा": 1077, "यो": 1078, " 18": 1079, " नाशं": 1080, " नाशंसे": 1081, " विजयाय": 1082, "lic": 1083, " हि": 1084, " मह": 1085, " १": 1086, "ాడు": 1087, "les": 1088, " population": 1089, "hed": 1090, "ीन": 1091, " एक": 1092, " not": 1093, " under": 1094, "धिक": 1095, "ङ्": 1096, "श्व": 1097, " ser": 1098, "urban": 1099, "ations": 1100, "धान": 1101, " grow": 1102, "istan": 1103, " cast": 1104, "ard": 1105, "ంద": 1106, " Asia": 1107, " ter": 1108, "ph": 1109, " भारतीय": 1110, "amil": 1111, "र्ज": 1112, "్మ": 1113, " 199": 1114, "తో": 1115, " संजय॥": 1116, "त्म": 1117, " हैं।": 1118, "्म": 1119, "के": 1120, "िव": 1121, " जा": 1122, "000": 1123, "ला": 1124, " स्व": 1125, "ौष": 1126, "नी": 1127, "नु": 1128, " सु": 1129, "olog": 1130, " te": 1131, " supp": 1132, " mus": 1133, "ती": 1134, "పు": 1135, " nort": 1136, "aw": 1137, " this": 1138, " between": 1139, " many": 1140, "ory": 1141, "rough": 1142, " ext": 1143, " minister": 1144, "ni": 1145, " east": 1146, " Brit": 1147, " British": 1148, " app": 1149, " election": 1150, " Empire": 1151, " urban": 1152, "isation": 1153, "ari": 1154, "cont": 1155, "ince": 1156, "यु": 1157, "ially": 1158, "ty": 1159, "ament": 1160, " j": 1161, " began": 1162, " off": 1163, " language": 1164, " caste": 1165, "ucle": 1166, "uclear": 1167, " mil": 1168, " ra": 1169, "ics": 1170, "తా": 1171, "ach": 1172, "),": 1173, " బ": 1174, " द्र": 1175, "द्र": 1176, "रे": 1177, "ास्त": 1178, "र्य": 1179, " पाण्ड": 1180, " 6": 1181, "ically": 1182, "als": 1183, " It": 1184, " fol": 1185, " norther": 1186, " northern": 1187, " श्र": 1188, "ell": 1189, " धर्म": 1190, "versity": 1191, "pt": 1192, "हु": 1193, "ీయ": 1194, " Con": 1195, " north": 1196, "lu": 1197, "lowing": 1198, " sec": 1199, "ప్": 1200, " land": 1201, " यदाश्र": 1202, " यदाश्रौष": 1203, " south": 1204, "continent": 1205, "ket": 1206, " economy": 1207, "sl": 1208, "क्र": 1209, "velop": 1210, "akistan": 1211, "द्व": 1212, "vi": 1213, " ab": 1214, "ta": 1215, "ोऽ": 1216, "out": 1217, " rec": 1218, "ज्ञ": 1219, " fore": 1220, "ింది": 1221, "ంగా": 1222, " इस": 1223, "प्त": 1224, " कृ": 1225, " हु": 1226, "षा": 1227, " राज्य": 1228, "देश": 1229, "mon": 1230, " हो": 1231, " CE": 1232, "ाय": 1233, "ञ्च": 1234, "ులు": 1235, "ci": 1236, "cy": 1237, "ya": 1238, " music": 1239, " tim": 1240, " languages": 1241, "gen": 1242, "omin": 1243, " Sh": 1244, " among": 1245, "న్ని": 1246, "ade": 1247, "ani": 1248, "ite": 1249, " Com": 1250, " influ": 1251, "ace": 1252, "esh": 1253, "ular": 1254, "राज": 1255, " यदाश्रौषं": 1256, " later": 1257, " imp": 1258, "arn": 1259, "ai": 1260, " develop": 1261, " general": 1262, "ition": 1263, " largest": 1264, " Pakistan": 1265, " rate": 1266, "ugh": 1267, "ately": 1268, " rule": 1269, " western": 1270, " classical": 1271, "ins": 1272, "ited": 1273, " కా": 1274, "ष्ण": 1275, " en": 1276, " Beng": 1277, " Bengal": 1278, " An": 1279, " Un": 1280, " peop": 1281, " Chin": 1282, "ాయి": 1283, "दि": 1284, "ष्ठ": 1285, " द्व": 1286, "ेण": 1287, " क्ष": 1288, " जि": 1289, "టి": 1290, " 194": 1291, "िता": 1292, "नि": 1293, "सा": 1294, " पू": 1295, "ublic": 1296, "पु": 1297, " Pl": 1298, " 8": 1299, "ूप": 1300, " 9": 1301, "able": 1302, "ice": 1303, "ised": 1304, "धि": 1305, " जन": 1306, "ting": 1307, "ise": 1308, "imalay": 1309, "orm": 1310, "odi": 1311, "own": 1312, " Th": 1313, "ib": 1314, " increased": 1315, " hist": 1316, "गम": 1317, "ild": 1318, " mid": 1319, " कि": 1320, "unj": 1321, "unjab": 1322, " hum": 1323, " economic": 1324, "ains": 1325, " subcontinent": 1326, " peri": 1327, " period": 1328, " since": 1329, "esp": 1330, " lit": 1331, " 2011": 1332, " Mugh": 1333, "ative": 1334, "itary": 1335, "ced": 1336, " emp": 1337, "raph": 1338, " spec": 1339, " emer": 1340, "ered": 1341, "arat": 1342, " there": 1343, " lif": 1344, " life": 1345, "్యా": 1346, " count": 1347, " non": 1348, "ech": 1349, " people": 1350, " ఎ": 1351, "ుల": 1352, "िका": 1353, "दी": 1354, "तु": 1355, "िम": 1356, "मान": 1357, "ख्यान": 1358, "की": 1359, " स्थ": 1360, " 12": 1361, "ాగ": 1362, "ोध": 1363, "क्षिण": 1364, "पर्व": 1365, "ah": 1366, "ron": 1367, " लोक": 1368, "ध्य": 1369, "वान्": 1370, "कि": 1371, "पि": 1372, "్రీ": 1373, " హ": 1374, "్చ": 1375, " set": 1376, " mat": 1377, "hem": 1378, " Himalay": 1379, " ref": 1380, "व्य": 1381, " occ": 1382, " స్": 1383, "ected": 1384, "ird": 1385, " one": 1386, "ultan": 1387, " new": 1388, " cour": 1389, "illen": 1390, "illenni": 1391, "illennium": 1392, " Punjab": 1393, "ft": 1394, " number": 1395, " East": 1396, "vement": 1397, " main": 1398, "hen": 1399, " Isl": 1400, " Sik": 1401, " రామ": 1402, " war": 1403, "cient": 1404, " liter": 1405, " ఉన్న": 1406, " lead": 1407, " parli": 1408, " parliament": 1409, " Mughal": 1410, "dic": 1411, "ాని": 1412, "roc": 1413, "hes": 1414, " nuclear": 1415, " social": 1416, "vent": 1417, " species": 1418, " state": 1419, "lim": 1420, " Al": 1421, "rol": 1422, " राष्ट्र": 1423, "ities": 1424, "ood": 1425, " ఒ": 1426, "tern": 1427, "ever": 1428, " Sans": 1429, " Sansk": 1430, " Sanskrit": 1431, " than": 1432, " power": 1433, " Eur": 1434, " Indus": 1435, " 15": 1436, "ack": 1437, "रं": 1438, "णं": 1439, "ण्य": 1440, " दक्षिण": 1441, "जा": 1442, " 198": 1443, "स्थ": 1444, " ని": 1445, " भू": 1446, " बहु": 1447, "च्च": 1448, "वी": 1449, "ख्या": 1450, "सी": 1451, "లి": 1452, "ద్ధ": 1453, "ంత": 1454, "ेषु": 1455, " व्य": 1456, " मा": 1457, " किया": 1458, " च।": 1459, "ुत": 1460, " Plate": 1461, " Indo": 1462, " చె": 1463, "ीप": 1464, " contrib": 1465, " US": 1466, "large": 1467, "largest": 1468, " gra": 1469, "ank": 1470, "til": 1471, " including": 1472, "ple": 1473, "la": 1474, "ands": 1475, "rig": 1476, " out": 1477, " Cent": 1478, " through": 1479, "भू": 1480, " Comp": 1481, " bas": 1482, " though": 1483, " other": 1484, " గు": 1485, " అన": 1486, "dust": 1487, "arly": 1488, " sur": 1489, "ivil": 1490, " righ": 1491, " billion": 1492, "fe": 1493, "ten": 1494, " చే": 1495, " them": 1496, " military": 1497, " En": 1498, " 1950": 1499, " col": 1500, " who": 1501, " Del": 1502, "मं": 1503, "ograph": 1504, " emerg": 1505, " तक": 1506, "्यते": 1507, " est": 1508, " river": 1509, "स्क": 1510, "iz": 1511, " constitution": 1512, " Tamil": 1513, " Ganges": 1514, " up": 1515, "orts": 1516, "ope": 1517, " caused": 1518, " country": 1519, "aman": 1520, " agric": 1521, " China": 1522, "ీత": 1523, "ార్": 1524, "ासन": 1525, " विश्व": 1526, " 197": 1527, " ब्र": 1528, " ఈ": 1529, " య": 1530, "సు": 1531, "ట్ట": 1532, "्छ": 1533, "ोग": 1534, "णा": 1535, "19": 1536, " सर": 1537, "देव": 1538, " वै": 1539, " २": 1540, "ह्म": 1541, "ितं": 1542, " 17": 1543, " పా": 1544, "మా": 1545, "ంగ": 1546, " దేశ": 1547, "ంచ": 1548, " च॥": 1549, "तो": 1550, "ली": 1551, "ेय": 1552, "ारा": 1553, "ुरु": 1554, " सह": 1555, "ीत": 1556, "न्ति": 1557, "ोप": 1558, "भ्य": 1559, "न्ध": 1560, " था": 1561, "స్తు": 1562, "స్త": 1563, " Wor": 1564, " World": 1565, "డి": 1566, " ఒక": 1567, "గు": 1568, "ata": 1569, " contribut": 1570, " pre": 1571, " religi": 1572, " mathem": 1573, " St": 1574, "ocal": 1575, " National": 1576, " led": 1577, " Central": 1578, "ana": 1579, " third": 1580, "ments": 1581, "put": 1582, " dire": 1583, " tr": 1584, " Company": 1585, " millennium": 1586, " we": 1587, " rural": 1588, "rad": 1589, " cr": 1590, " served": 1591, " all": 1592, "heast": 1593, "ould": 1594, " After": 1595, "ाच": 1596, " मु": 1597, " sign": 1598, "न्द्र": 1599, " Sikh": 1600, "నా": 1601, "माण": 1602, " మహా": 1603, "ians": 1604, "gl": 1605, " play": 1606, " gre": 1607, " far": 1608, " wom": 1609, " Delhi": 1610, "uslim": 1611, " कृष्ण": 1612, " wide": 1613, " some": 1614, " found": 1615, " By": 1616, "duced": 1617, "ange": 1618, " कृत": 1619, "uj": 1620, " influen": 1621, " साथ": 1622, "read": 1623, "ident": 1624, "owever": 1625, " centuries": 1626, " ne": 1627, " sty": 1628, "ording": 1629, " forest": 1630, " no": 1631, " gr": 1632, "ru": 1633, " polit": 1634, " second": 1635, "చ్చ": 1636, " १९": 1637, "ेद": 1638, "20": 1639, " घ": 1640, " 10": 1641, "వు": 1642, " भाषा": 1643, "ोक्त": 1644, " चा": 1645, "ंध": 1646, " हिन्द": 1647, "ब्": 1648, "न्न": 1649, " वर्ष": 1650, " कार": 1651, "ेत्र": 1652, "भव": 1653, " समा": 1654, " यह": 1655, "राष्ट्र": 1656, "దు": 1657, " సా": 1658, " రాజ": 1659, "ప్ర": 1660, " तु": 1661, " चैव": 1662, "ङ्ग": 1663, "ृष्ट": 1664, "ान्त": 1665, " सरकार": 1666, "ost": 1667, "%.": 1668, "పర్వ": 1669, " కూ": 1670, "ప్ప": 1671, " 26": 1672, " her": 1673, "च्छ": 1674, " फ": 1675, " religious": 1676, "ool": 1677, " time": 1678, "ंश": 1679, "ork": 1680, " areas": 1681, " used": 1682, " great": 1683, "omet": 1684, "ath": 1685, "und": 1686, "led": 1687, " regions": 1688, " central": 1689, "ultanate": 1690, " —": 1691, " made": 1692, " Hinduism": 1693, "acy": 1694, " trans": 1695, "mit": 1696, "eat": 1697, " cook": 1698, " Jain": 1699, " culture": 1700, " eastern": 1701, "west": 1702, " Prad": 1703, " Pradesh": 1704, " left": 1705, " human": 1706, " पूर्व": 1707, "ances": 1708, "ories": 1709, "day": 1710, " movement": 1711, "cri": 1712, " वा": 1713, "ats": 1714, " coal": 1715, "dian": 1716, " cap": 1717, "eration": 1718, "alle": 1719, " Hindi": 1720, "ensus": 1721, " Indians": 1722, "au": 1723, " Buddhist": 1724, "त्।": 1725, "ives": 1726, " Engl": 1727, " English": 1728, " women": 1729, "dle": 1730, " territ": 1731, " ass": 1732, "rahm": 1733, " emplo": 1734, " employ": 1735, " us": 1736, " mem": 1737, " emerged": 1738, "त्रैव": 1739, " Muslim": 1740, " ent": 1741, " growth": 1742, "తం": 1743, " indust": 1744, "००": 1745, "ars": 1746, " ac": 1747, " high": 1748, "very": 1749, " control": 1750, "ओं": 1751, " majority": 1752, " 1947": 1753, "ants": 1754, " Gand": 1755, " Gandhi": 1756, " जिस": 1757, " following": 1758, " coast": 1759, "daman": 1760, " esp": 1761, " espec": 1762, " especially": 1763, "ors": 1764, "are": 1765, " tech": 1766, " Jan": 1767, "verse": 1768, "ology": 1769, "ccording": 1770, "ied": 1771, " they": 1772, " include": 1773, "eh": 1774, " political": 1775, "ati": 1776, " pain": 1777, " painting": 1778, "र्जुन": 1779, "యా": 1780, "ించి": 1781, " '": 1782, "ములు": 1783, " ఏ": 1784, "ష్ట": 1785, "ैः": 1786, " सब": 1787, " सबसे": 1788, "ाव": 1789, "र्श": 1790, " एव": 1791, "हर": 1792, "स्मि": 1793, "यः": 1794, " इति": 1795, "్యం": 1796, " భారతదేశ": 1797, " పర్వ": 1798, "కా": 1799, "రణ": 1800, " 21": 1801, "िल": 1802, "कर": 1803, " क्र": 1804, " पाण्डव": 1805, " कु": 1806, " सि": 1807, "మైన": 1808, "%,": 1809, "ीं": 1810, "याः": 1811, "ंग": 1812, " अधिक": 1813, " ततः": 1814, "िर": 1815, "त्स": 1816, " पञ्च": 1817, "मह": 1818, "ढ़": 1819, "ग्रे": 1820, " क्षेत्र": 1821, " सौ": 1822, "మి": 1823, "ue": 1824, "బడ": 1825, "ాయణ": 1826, " కాల": 1827, "ived": 1828, "emoc": 1829, " support": 1830, "amm": 1831, "ared": 1832, " భా": 1833, " cre": 1834, "work": 1835, " These": 1836, "istic": 1837, " Himalayas": 1838, " diff": 1839, " ago": 1840, " local": 1841, " occup": 1842, " scul": 1843, " sculpt": 1844, "str": 1845, " animal": 1846, "ale": 1847, "ాత": 1848, " Bang": 1849, "aksh": 1850, " fed": 1851, "oms": 1852, "ले": 1853, " gar": 1854, " leg": 1855, "ecut": 1856, " dra": 1857, " marri": 1858, "ధ్య": 1859, "DP": 1860, "ites": 1861, "ाप्त": 1862, " Pers": 1863, "ked": 1864, " man": 1865, " साम": 1866, "ज्य": 1867, "ific": 1868, "ons": 1869, "यं": 1870, " last": 1871, " ancient": 1872, " histor": 1873, " literacy": 1874, " rem": 1875, " remain": 1876, " cult": 1877, "bers": 1878, "alley": 1879, " feat": 1880, " Kas": 1881, " Kashm": 1882, " parliamentary": 1883, " census": 1884, "ధిక": 1885, "mar": 1886, " Constitution": 1887, "ning": 1888, "ually": 1889, " roc": 1890, ").": 1891, " grew": 1892, " orig": 1893, " vill": 1894, " prom": 1895, "lief": 1896, "leg": 1897, " Brahm": 1898, "urn": 1899, "र्ग": 1900, "ారం": 1901, "ering": 1902, "पू": 1903, "oin": 1904, "rop": 1905, " widely": 1906, "cess": 1907, " states": 1908, " dev": 1909, " sm": 1910, "ert": 1911, " arm": 1912, "ix": 1913, " diversity": 1914, " party": 1915, "स्ति": 1916, "ష్": 1917, "ंग्रे": 1918, " fig": 1919, "ody": 1920, " whose": 1921, "yan": 1922, " Its": 1923, "bar": 1924, " बाद": 1925, " Guj": 1926, "opean": 1927, " direct": 1928, " national": 1929, "icial": 1930, " rates": 1931, " Andaman": 1932, " arch": 1933, " लि": 1934, "fore": 1935, "सि": 1936, " bir": 1937, "ali": 1938, "vid": 1939, "ving": 1940, "vol": 1941, " United": 1942, "minist": 1943, " bi": 1944, " religions": 1945, "ven": 1946, " Neh": 1947, " Nehru": 1948, "ess": 1949, " pen": 1950, " penins": 1951, "pur": 1952, " थ": 1953, "ines": 1954, " early": 1955, "JP": 1956, "ितम्॥": 1957, " సీత": 1958, "tt": 1959, "ానికి": 1960, "ట్": 1961, " ఉప": 1962, "ध्या": 1963, "ानु": 1964, " त्र": 1965, "बंध": 1966, "दान": 1967, "ुद्ध": 1968, " अनु": 1969, "विधान": 1970, "न्त्र": 1971, "स्या": 1972, "ल्": 1973, " दो": 1974, " भीम": 1975, " उत्त": 1976, " दु": 1977, " गया": 1978, "లా": 1979, "ిత": 1980, " పే": 1981, " काल": 1982, " दश": 1983, "मत": 1984, " अप": 1985, "ाने": 1986, "सू": 1987, "े।": 1988, " स्त": 1989, "चित": 1990, "पाल": 1991, "त्रा": 1992, "णां": 1993, "विध": 1994, " श्ल": 1995, "ान्य": 1996, "रि": 1997, " नाम": 1998, "ोल": 1999, " 13": 2000, " మొ": 2001, "ద్ద": 2002, "act": 2003, " పు": 2004, "ించిన": 2005, "ेख": 2006, " वास": 2007, " 193": 2008, " अन्य": 2009, " कर्ण": 2010, "मुख": 2011, " युद्ध": 2012, "मास": 2013, "जन": 2014, "स्कृत": 2015, "टि": 2016, " +": 2017, "म्ब": 2018, "ండి": 2019, "ారి": 2020, "ణు": 2021, "క్క": 2022, " 14": 2023, "bal": 2024, " produc": 2025, "ists": 2026, " sch": 2027, " z": 2028, " Western": 2029, "ృత": 2030, "cent": 2031, " 2001": 2032, " mathematic": 2033, "mb": 2034, " won": 2035, "స్థ": 2036, " cor": 2037, "urther": 2038, " During": 2039, "ुर्य": 2040, " Y": 2041, " federal": 2042, " sultanate": 2043, "etic": 2044, " king": 2045, "wn": 2046, "సి": 2047, " ed": 2048, " educ": 2049, " education": 2050, "old": 2051, " endem": 2052, " కూడ": 2053, " execut": 2054, " within": 2055, " spe": 2056, "స్క": 2057, "ung": 2058, "oup": 2059, "ight": 2060, " trib": 2061, " Persian": 2062, "ively": 2063, "रिक": 2064, " longer": 2065, " work": 2066, "ificant": 2067, " development": 2068, "दु": 2069, " right": 2070, " car": 2071, " commer": 2072, " विस्त": 2073, "amp": 2074, " often": 2075, " Act": 2076, " become": 2077, "ual": 2078, " rock": 2079, " stat": 2080, " old": 2081, "स्त्र": 2082, "ating": 2083, "att": 2084, " mon": 2085, " ई": 2086, " employed": 2087, "ex": 2088, "ract": 2089, "alled": 2090, " వే": 2091, " member": 2092, " union": 2093, "outheast": 2094, " market": 2095, " men": 2096, "च्यते": 2097, " industry": 2098, " cur": 2099, "abl": 2100, "iet": 2101, "sequ": 2102, "sequent": 2103, " near": 2104, " based": 2105, "सार": 2106, " cities": 2107, " common": 2108, "min": 2109, " elections": 2110, "ising": 2111, "ped": 2112, " low": 2113, " well": 2114, "తర": 2115, " air": 2116, "रु": 2117, " win": 2118, "ternal": 2119, "ico": 2120, " sever": 2121, " Gujarat": 2122, " along": 2123, " ind": 2124, " Wik": 2125, "धर्म": 2126, " Ma": 2127, "భి": 2128, "ished": 2129, "han": 2130, " inter": 2131, " Bhar": 2132, "ality": 2133, " popular": 2134, " earli": 2135, "de": 2136, "tions": 2137, " administ": 2138, "though": 2139, " agriculture": 2140, "ration": 2141, "ders": 2142, " rise": 2143, " techn": 2144, " styles": 2145, "ake": 2146, "ss": 2147, " created": 2148, " lower": 2149, "्यं": 2150, " forms": 2151, "inc": 2152, " compos": 2153, " महात्म": 2154, " GDP": 2155, "emp": 2156, " regional": 2157, " Mo": 2158, " 1991": 2159, " వె": 2160, " pres": 2161, " peninsular": 2162, " origin": 2163, " republic": 2164, "हास": 2165, " There": 2166, "round": 2167, " BJP": 2168, " def": 2169, " Buddhism": 2170, "ash": 2171, " bl": 2172, "tal": 2173, " sou": 2174, " souther": 2175, " southern": 2176, " Bh": 2177, "్రా": 2178, " ప్రా": 2179, " ము": 2180, "్వ": 2181, " లో": 2182, " అని": 2183, "ब्र": 2184, "ानं": 2185, " निर्": 2186, "दे": 2187, " धी": 2188, " मो": 2189, "ख्यानम": 2190, " ब्रह्म": 2191, "ाना": 2192, " ख": 2193, " गु": 2194, " रूप": 2195, " या": 2196, " जो": 2197, "लय": 2198, "जी": 2199, " 11": 2200, "త్వ": 2201, "పా": 2202, " అయ": 2203, "గి": 2204, "ల్ల": 2205, " ज्ञ": 2206, " राज्ञ": 2207, "ील": 2208, "स्व": 2209, " पार्थ": 2210, " बड़": 2211, " पुन": 2212, " दि": 2213, "वध": 2214, " उत्तर": 2215, "मो": 2216, " छ": 2217, "स्मिन्": 2218, " 55": 2219, "ियों": 2220, "ఖ్య": 2221, "ర్ష": 2222, " రామాయణ": 2223, " వా": 2224, "ర్య": 2225, "ook": 2226, " కో": 2227, " కథ": 2228, " అనే": 2229, " లక్ష": 2230, " వచ్చ": 2231, " రాము": 2232, " ते": 2233, "स्था": 2234, " गण": 2235, " ऊ": 2236, "टी": 2237, " सै": 2238, " उप": 2239, "म्भ": 2240, "हि": 2241, "क्षा": 2242, " शासन": 2243, " ड": 2244, "सह": 2245, " जाता": 2246, " तस्य": 2247, " ऋ": 2248, "ोक्तं": 2249, "మే": 2250, "భారతదేశ": 2251, "కొ": 2252, " 50": 2253, " Ar": 2254, " Mah": 2255, " glo": 2256, " Asian": 2257, " resp": 2258, " school": 2259, " five": 2260, " हुआ": 2261, "ail": 2262, " States": 2263, " Nad": 2264, " Nadu": 2265, " indi": 2266, "sc": 2267, " ta": 2268, " ren": 2269, " further": 2270, "ee": 2271, " sculpture": 2272, "భా": 2273, " kn": 2274, "dra": 2275, " plain": 2276, " increasing": 2277, " prot": 2278, " रह": 2279, " kingd": 2280, " kingdoms": 2281, "यां": 2282, " सू": 2283, "वाद": 2284, "An": 2285, "महा": 2286, " executive": 2287, " domin": 2288, " Jainism": 2289, "can": 2290, "ोड़": 2291, " This": 2292, "ृति": 2293, "ales": 2294, "में": 2295, " thought": 2296, " his": 2297, " here": 2298, " dances": 2299, "akh": 2300, " west": 2301, "abil": 2302, " mult": 2303, " Dal": 2304, "atak": 2305, "pl": 2306, " hig": 2307, "ricket": 2308, "शि": 2309, "orce": 2310, " when": 2311, " significant": 2312, " Islands": 2313, " held": 2314, " surv": 2315, " wild": 2316, "ंद्र": 2317, " civil": 2318, "त्या": 2319, " coalition": 2320, " समय": 2321, "ea": 2322, "get": 2323, " leading": 2324, " numbers": 2325, " 2023": 2326, " Valley": 2327, " Ara": 2328, "ौप": 2329, " Kashmir": 2330, "na": 2331, " West": 2332, "line": 2333, " formed": 2334, " 1965": 2335, " fast": 2336, " ann": 2337, "ock": 2338, "ey": 2339, " Islam": 2340, " oldest": 2341, " village": 2342, "anted": 2343, "upta": 2344, " अन्त": 2345, " differ": 2346, " around": 2347, "ded": 2348, " vari": 2349, " so": 2350, " growing": 2351, "वे": 2352, "कं": 2353, "aput": 2354, "aputra": 2355, " traditions": 2356, " fl": 2357, " contin": 2358, "్రమ": 2359, "eograph": 2360, "ोण": 2361, " ob": 2362, " Southeast": 2363, " सन्ति": 2364, "पाय": 2365, "use": 2366, " empire": 2367, " times": 2368, "mary": 2369, "ark": 2370, "astri": 2371, " establ": 2372, " every": 2373, " small": 2374, " subsequent": 2375, "श्चिम": 2376, " worn": 2377, " polic": 2378, " three": 2379, " endang": 2380, " endangered": 2381, " port": 2382, " appro": 2383, " approx": 2384, " approxim": 2385, " approximately": 2386, " sa": 2387, " figures": 2388, " term": 2389, " ve": 2390, " estim": 2391, " record": 2392, " Plateau": 2393, " Nico": 2394, " Nicobar": 2395, " indep": 2396, " independ": 2397, " traditional": 2398, " Civil": 2399, "gency": 2400, "ices": 2401, " De": 2402, " spread": 2403, " శా": 2404, " however": 2405, " Among": 2406, " tex": 2407, " plate": 2408, "ined": 2409, "ather": 2410, " legis": 2411, " legisl": 2412, " संविधान": 2413, " Bharat": 2414, " देव": 2415, " import": 2416, " comple": 2417, "ouse": 2418, "त्॥": 2419, " birth": 2420, " sum": 2421, " earliest": 2422, " consid": 2423, "ికి": 2424, "ese": 2425, " conduc": 2426, "ett": 2427, "gu": 2428, " eth": 2429, "alth": 2430, " technology": 2431, " According": 2432, " gradu": 2433, "్మణ": 2434, " bor": 2435, " influenced": 2436, "oss": 2437, "ross": 2438, " group": 2439, " Janu": 2440, " January": 2441, " సు": 2442, "ti": 2443, " vi": 2444, " court": 2445, "धार": 2446, " Raj": 2447, " official": 2448, "लो": 2449, "iss": 2450, "ara": 2451, "lad": 2452, " Af": 2453, " sup": 2454, " चु": 2455, " sing": 2456, "ards": 2457, " धृत": 2458, "ature": 2459, "erala": 2460, " courts": 2461, " until": 2462, " aff": 2463, " changes": 2464, "here": 2465, "ained": 2466, " developed": 2467, "ంప": 2468, " dist": 2469, " Ass": 2470, "ిణ": 2471, "िकी": 2472, " territories": 2473, " again": 2474, " flow": 2475, " middle": 2476, " upp": 2477, " upper": 2478, " total": 2479, " str": 2480, " famil": 2481, " families": 2482, " four": 2483, " pan": 2484, " vast": 2485, "val": 2486, " leader": 2487, " now": 2488, " 16": 2489, " యు": 2490, "టు": 2491, "దా": 2492, "ిని": 2493, "ర్ణ": 2494, " రచ": 2495, "ింద": 2496, " మహాభారత": 2497, "ంలోని": 2498, " కొ": 2499, "ష్ట్ర": 2500, "ంబ": 2501, "ुर्योध": 2502, "्न": 2503, " मध्य": 2504, "काल": 2505, "र्ध": 2506, "ात": 2507, " तत": 2508, " सद": 2509, "ृत्त": 2510, "कीर्त": 2511, "ष्य": 2512, " अस्ति": 2513, " हुई": 2514, "युक्त": 2515, "ंड": 2516, "्राणि": 2517, " ती": 2518, "दर्श": 2519, "रूप": 2520, " भारतस्य": 2521, "ाचीन": 2522, "లను": 2523, " కూడా": 2524, "ాలను": 2525, " ఉన్నాయి": 2526, " సంస్క": 2527, "మం": 2528, "వ్య": 2529, "బ్": 2530, "్లో": 2531, "..": 2532, "ृद्ध": 2533, " युधि": 2534, "ाली": 2535, "शासन": 2536, "धिकार": 2537, "राज्य": 2538, "गत": 2539, " राज्यों": 2540, " केंद्र": 2541, "भाग": 2542, "मित": 2543, " एत": 2544, "द्भ": 2545, "नाव": 2546, " वेद": 2547, " विविध": 2548, "र्मा": 2549, " शत": 2550, "गमनं": 2551, " शु": 2552, "ँच": 2553, "धी": 2554, " धृतराष्ट्र": 2555, "गर": 2556, "ृह": 2557, "ुदेव": 2558, "वाच": 2559, " పర్వము": 2560, "మహా": 2561, " గుర": 2562, " మహ": 2563, "ర్ప": 2564, " 70": 2565, " తె": 2566, "ించాడు": 2567, "నే": 2568, " ఉంది": 2569, " కు": 2570, "ధాన": 2571, " :": 2572, " परं": 2573, "द्योग": 2574, "वस्था": 2575, " दुर्योध": 2576, "हीं": 2577, " सम्": 2578, " दिव": 2579, " हिन्दी": 2580, " पुण्य": 2581, "स्तथा": 2582, "ुं": 2583, " बना": 2584, " कारण": 2585, "सु": 2586, "पुत्र": 2587, " 28": 2588, "स्तु": 2589, " दिया": 2590, "क्": 2591, " कथ": 2592, "ोष": 2593, " लिए": 2594, "ल्ल": 2595, "त्री": 2596, "षि": 2597, " चाप": 2598, " पुरा": 2599, " इतिहास": 2600, " थी": 2601, "ाह": 2602, " पाकि": 2603, "स्तान": 2604, " शि": 2605, " मे": 2606, "भाव": 2607, "ాతీయ": 2608, " చెప్ప": 2609, " మా": 2610, "రువా": 2611, " మార్": 2612, " పరి": 2613, "మ్": 2614, " మూ": 2615, " రై": 2616, "21": 2617, "200": 2618, " 36": 2619, " global": 2620, " tea": 2621, " producer": 2622, " భాష": 2623, " Sing": 2624, " Singh": 2625, "one": 2626, "arh": 2627, "etwork": 2628, " mathematics": 2629, " Sri": 2630, " reform": 2631, " indigen": 2632, " indigenous": 2633, "hedul": 2634, " tax": 2635, " pred": 2636, "odiversity": 2637, " greater": 2638, " renew": 2639, " known": 2640, " sect": 2641, " sector": 2642, " fem": 2643, "rin": 2644, "erv": 2645, "ास्त्र": 2646, " fam": 2647, " history": 2648, " disput": 2649, "नः।": 2650, " consol": 2651, " consolid": 2652, " Mal": 2653, " War": 2654, " Hindust": 2655, " poll": 2656, " cooked": 2657, " extant": 2658, " influence": 2659, " phar": 2660, " pharm": 2661, " pharmace": 2662, " pharmaceut": 2663, " pharmaceutical": 2664, "కో": 2665, " Dec": 2666, " lay": 2667, "uk": 2668, " secular": 2669, "ortion": 2670, " crust": 2671, " speak": 2672, " elites": 2673, "sted": 2674, "स्र": 2675, " che": 2676, "dit": 2677, " others": 2678, " democ": 2679, "ttar": 2680, "the": 2681, "its": 2682, "anding": 2683, " show": 2684, "van": 2685, " Thar": 2686, "ries": 2687, "క్కు": 2688, "umb": 2689, "umbai": 2690, " lim": 2691, "तम": 2692, " public": 2693, " fund": 2694, " fundament": 2695, " fundamental": 2696, " Gh": 2697, " Ghats": 2698, " just": 2699, " being": 2700, " Their": 2701, " Dra": 2702, " Dravi": 2703, " Dravidian": 2704, "ining": 2705, " एश": 2706, " एशिया": 2707, " fest": 2708, "ival": 2709, " सैन्य": 2710, " area": 2711, "ability": 2712, " took": 2713, " highe": 2714, " highest": 2715, "operation": 2716, " commerc": 2717, " commercial": 2718, "div": 2719, " Gree": 2720, " Greek": 2721, "life": 2722, "bian": 2723, "ov": 2724, " features": 2725, "rish": 2726, "rishna": 2727, "medi": 2728, "mediately": 2729, "arnatic": 2730, "या।": 2731, "ots": 2732, " bri": 2733, "ूल": 2734, "दं": 2735, "द्वीप": 2736, "itions": 2737, " result": 2738, " resulting": 2739, "atical": 2740, " Nep": 2741, "ably": 2742, " scri": 2743, " gener": 2744, "ित्वा": 2745, "ratic": 2746, " विक": 2747, "నకు": 2748, " different": 2749, "sha": 2750, " head": 2751, "ందు": 2752, "ie": 2753, " relief": 2754, "lied": 2755, "వర": 2756, "ources": 2757, " Brahmaputra": 2758, " exc": 2759, " turn": 2760, " continu": 2761, " continued": 2762, " pract": 2763, " can": 2764, " rights": 2765, "struc": 2766, " writ": 2767, "पायन": 2768, " All": 2769, "erc": 2770, "शेष": 2771, "elf": 2772, "ineering": 2773, "way": 2774, " Tib": 2775, " Tibet": 2776, "డ్": 2777, " centre": 2778, " pil": 2779, " curren": 2780, "nam": 2781, " name": 2782, " बढ़": 2783, " Constit": 2784, " cooking": 2785, " wa": 2786, " waist": 2787, "ुनि": 2788, " Des": 2789, " commonly": 2790, " equ": 2791, " पश्चिम": 2792, " सप्त": 2793, "abad": 2794, " Nuclear": 2795, "ues": 2796, "erial": 2797, "amee": 2798, "ameez": 2799, " reduced": 2800, "ropical": 2801, "ान्।": 2802, "oci": 2803, " body": 2804, " 1200": 2805, "ings": 2806, " veget": 2807, "cast": 2808, "iving": 2809, "iety": 2810, "mitt": 2811, " estimated": 2812, " range": 2813, " religion": 2814, " influences": 2815, "otion": 2816, " exch": 2817, "dram": 2818, "dramas": 2819, " consum": 2820, " Maur": 2821, " directly": 2822, "inct": 2823, " fish": 2824, "aries": 2825, " addition": 2826, " However": 2827, " before": 2828, "reasing": 2829, " Union": 2830, " मै": 2831, "vention": 2832, " exports": 2833, " appear": 2834, "equ": 2835, " था।": 2836, " important": 2837, " foreign": 2838, " test": 2839, " 2022": 2840, " summer": 2841, "तां": 2842, " Gond": 2843, "ोद": 2844, " these": 2845, " invol": 2846, " der": 2847, " six": 2848, " agricult": 2849, " agricultural": 2850, "oor": 2851, " nation": 2852, "ग्रह": 2853, "erg": 2854, "ergy": 2855, "emple": 2856, " Although": 2857, " Euras": 2858, " conducted": 2859, "avi": 2860, " below": 2861, "ga": 2862, " creat": 2863, "rial": 2864, "ternational": 2865, " er": 2866, " era": 2867, "aving": 2868, " recorded": 2869, "ones": 2870, "ified": 2871, " archit": 2872, " architect": 2873, " sari": 2874, " wear": 2875, "సం": 2876, "తుడు": 2877, " established": 2878, " ततो": 2879, "abh": 2880, "ological": 2881, " 1951": 2882, " European": 2883, " sim": 2884, " prov": 2885, "olence": 2886, " composed": 2887, " महात्मना": 2888, " temp": 2889, " called": 2890, "liance": 2891, " char": 2892, "tou": 2893, "touch": 2894, "म्य": 2895, "षु": 2896, " partition": 2897, " diverse": 2898, "miss": 2899, " Banglad": 2900, " Bangladesh": 2901, " Afric": 2902, " Africa": 2903, " about": 2904, "ely": 2905, " decad": 2906, " decades": 2907, "iqu": 2908, "reme": 2909, " Va": 2910, " single": 2911, " Kerala": 2912, "ously": 2913, " acc": 2914, " serv": 2915, "arnatak": 2916, "arnataka": 2917, " वे": 2918, "orter": 2919, "alw": 2920, "ital": 2921, " extens": 2922, " relations": 2923, " Sea": 2924, " 2026": 2925, "ott": 2926, "ann": 2927, " process": 2928, "dis": 2929, "vided": 2930, "ada": 2931, " place": 2932, " वासुदेव": 2933, " qu": 2934, " intro": 2935, " 2010": 2936, " meat": 2937, "ured": 2938, "िये": 2939, " milk": 2940, "ये": 2941, "Government": 2942, " वर्त": 2943, "ole": 2944, " 2018": 2945, "ख्यानं": 2946, "నం": 2947, " external": 2948, " enac": 2949, " enacted": 2950, "akes": 2951, " lo": 2952, " ret": 2953, " traditionally": 2954, " bu": 2955, " nat": 2956, " 40": 2957, "back": 2958, " నా": 2959, "ములో": 2960, " స్థ": 2961, "మహాభారత": 2962, "ెను": 2963, " అధిక": 2964, " తరువా": 2965, " ఉపపర్వ": 2966, " ప్రధాన": 2967, "17": 2968, "परा": 2969, " पुत्र": 2970, "ज़": 2971, "तिः": 2972, " देशों": 2973, "श्चैव": 2974, " दुर्योधन": 2975, "धा": 2976, "ेषां": 2977, " रहा": 2978, "ूर": 2979, "नम्॥": 2980, "ेट": 2981, "शत": 2982, "ोत्": 2983, "न्म": 2984, "वास": 2985, " कई": 2986, "योग": 2987, "सद": 2988, "तंत्र": 2989, " ओ": 2990, " नव": 2991, "र्थं": 2992, " सेना": 2993, "रथ": 2994, "ारी": 2995, "शास": 2996, "र्द": 2997, "ीक": 2998, "१९": 2999, " होता": 3000, " संघ": 3001, " हुए": 3002, " चुनाव": 3003, " यथा": 3004, "ितम्।": 3005, "ितः।": 3006, " अंग्रे": 3007, " नाग": 3008, "्याः": 3009, "तर": 3010, "64": 3011, "ధి": 3012, "లలో": 3013, "ణా": 3014, " క్రీ": 3015, "ళ్": 3016, " మొద": 3017, " పర్వముః": 3018, "ంశ": 3019, "ారా": 3020, " వాల": 3021, "్మీ": 3022, "ప్పు": 3023, "పంచ": 3024, " వ్య": 3025, "లం": 3026, "ధు": 3027, " భారతీయ": 3028, "త్య": 3029, "డం": 3030, " లే": 3031, " పేరు": 3032, "వత్": 3033, " స్వ": 3034, "్రి": 3035, " युधिष्ठ": 3036, " इत्य": 3037, " पह": 3038, " पित": 3039, " इसके": 3040, " करोड़": 3041, " नहीं": 3042, "ृत्य": 3043, " प्रमुख": 3044, " साम्रा": 3045, " साम्राज्य": 3046, " अन": 3047, "पर": 3048, " प्रति": 3049, " भाग": 3050, "ैत": 3051, "यामास": 3052, "ितः": 3053, " बन": 3054, "वेश": 3055, " ऐ": 3056, "जाति": 3057, " भीष्": 3058, "ाख": 3059, " अव": 3060, " अनुसार": 3061, " पुर": 3062, "प्रति": 3063, " करने": 3064, "ड़ा": 3065, " उत्": 3066, "मुच्यते": 3067, " न्या": 3068, " दृष्ट": 3069, "न्ह": 3070, "िकं": 3071, "चि": 3072, "सेन": 3073, "ुम": 3074, "वान": 3075, "ोर": 3076, "ुप": 3077, " प्राचीन": 3078, " पार्": 3079, " 24": 3080, " 300": 3081, "201": 3082, " 30": 3083, "ర్గ": 3084, "కాల": 3085, " యుద్ధ": 3086, " అనగా": 3087, " Pro": 3088, " జరి": 3089, " 185": 3090, " X": 3091, "లే": 3092, " 400": 3093, " పూ": 3094, "వస్థ": 3095, "మని": 3096, " పె": 3097, "ండు": 3098, " 25": 3099, " రాష్ట్ర": 3100, "గిన": 3101, " చి": 3102, " देख": 3103, " अष्ट": 3104, " स्म": 3105, " संबंध": 3106, "त्वा": 3107, "र्या": 3108, "क्तं": 3109, "त्व": 3110, "टे": 3111, " लग": 3112, "ोह": 3113, "संख्या": 3114, " Rep": 3115, "ौह": 3116, " परम": 3117, " मन": 3118, " एवं": 3119, "ेत": 3120, "दन": 3121, " स्वतंत्र": 3122, "िणा": 3123, " राष्ट्रीय": 3124, " भाषाओं": 3125, " धर्मराज": 3126, " अर": 3127, " देशः": 3128, "ौर": 3129, " तत्र": 3130, " मैदान": 3131, " शास": 3132, " द्वारा": 3133, " पर्वत": 3134, "स्राणि": 3135, " जग": 3136, " केन्द्र": 3137, " आर्थ": 3138, " आर्थिक": 3139, " चुनावों": 3140, " तेन": 3141, "स्कृति": 3142, " पाकिस्तान": 3143, "सम": 3144, " परिकी": 3145, " परिकीर्त": 3146, "र्थे": 3147, " );": 3148, "श्चा": 3149, "राट": 3150, "स्थान": 3151, "ित्य": 3152, " प्रधान": 3153, "पाख्यानम": 3154, "वृत्त": 3155, " 42": 3156, " नार": 3157, " जय": 3158, " जी": 3159, "పూ": 3160, "ానం": 3161, "పో": 3162, " మధ్య": 3163, " 0": 3164, "91": 3165, "ంటి": 3166, " గా": 3167, "డానికి": 3168, " వేద": 3169, "దం": 3170, "చి": 3171, " జా": 3172, " దీ": 3173, "ద్య": 3174, "omest": 3175, "యం": 3176, " ఇది": 3177, "com": 3178, "42": 3179, "ణము": 3180, " కలి": 3181, " 78": 3182, "యో": 3183, "yp": 3184, " జన": 3185, " పొ": 3186, "ర్త": 3187, "వే": 3188, " ను": 3189, "24": 3190, " Democ": 3191, "racy": 3192, " level": 3193, " contributions": 3194, " mamm": 3195, " mammals": 3196, " fall": 3197, "क्ति": 3198, "क्य": 3199, " pat": 3200, " then": 3201, " follow": 3202, " consists": 3203, " schools": 3204, " expans": 3205, "DA": 3206, " dh": 3207, " setting": 3208, " Lank": 3209, " top": 3210, " She": 3211, " बी": 3212, "ush": 3213, "heduled": 3214, "pay": 3215, " predomin": 3216, "Ary": 3217, "Aryan": 3218, "Bi": 3219, " exam": 3220, " example": 3221, " decla": 3222, " coral": 3223, " those": 3224, " vis": 3225, "aren": 3226, "ections": 3227, "arb": 3228, " ﻿": 3229, " Bangal": 3230, " Bangalore": 3231, " Yaksh": 3232, " protected": 3233, " due": 3234, "rid": 3235, "mend": 3236, " Fron": 3237, " Front": 3238, " disputes": 3239, " దక్ష": 3240, " बहुत": 3241, " Malay": 3242, " garlic": 3243, " god": 3244, " Shiv": 3245, " Shiva": 3246, " transmit": 3247, " transmitted": 3248, " Hindustani": 3249, " arts": 3250, " endemic": 3251, " basin": 3252, " child": 3253, "ime": 3254, " Deccan": 3255, "ేవ": 3256, " marriages": 3257, " Ter": 3258, " cu": 3259, "erly": 3260, " speakers": 3261, " Punjabi": 3262, " impro": 3263, "प्राप्त": 3264, " refer": 3265, "lung": 3266, "hip": 3267, "త్రి": 3268, " suppl": 3269, "After": 3270, " eight": 3271, " మత": 3272, " vic": 3273, " vict": 3274, " export": 3275, " Ak": 3276, "itated": 3277, " would": 3278, " urbanisation": 3279, " Kal": 3280, " marked": 3281, " manus": 3282, " manuscri": 3283, " governments": 3284, "ola": 3285, "ened": 3286, " varn": 3287, " maint": 3288, " displ": 3289, "ret": 3290, " Shank": 3291, " Shankar": 3292, " cricket": 3293, " जाती": 3294, " inform": 3295, " information": 3296, " ధ": 3297, "force": 3298, "ject": 3299, "ियाँ": 3300, " stren": 3301, " streng": 3302, " strength": 3303, " slow": 3304, " weap": 3305, " weapons": 3306, "क्रम": 3307, " sover": 3308, " sovere": 3309, " sovereign": 3310, " sovereignty": 3311, "By": 3312, " hub": 3313, " dep": 3314, " Many": 3315, " div": 3316, " garment": 3317, " वी": 3318, " festival": 3319, "ोका": 3320, " remaining": 3321, " For": 3322, " cultures": 3323, " cruc": 3324, " crucial": 3325, " rich": 3326, " dri": 3327, " అను": 3328, "र्ह": 3329, " wildlife": 3330, " Arabian": 3331, "ble": 3332, " elected": 3333, " Krishna": 3334, " immediately": 3335, " nomin": 3336, " Carnatic": 3337, "rac": 3338, " much": 3339, "ాగం": 3340, " player": 3341, " rivers": 3342, " Bay": 3343, " jur": 3344, "aced": 3345, "ద్ర": 3346, " ministers": 3347, " abo": 3348, " above": 3349, " init": 3350, "nings": 3351, "pts": 3352, " status": 3353, " relative": 3354, " prop": 3355, " विद": 3356, "hess": 3357, "oted": 3358, " age": 3359, " cos": 3360, "olit": 3361, "ంధ": 3362, "itud": 3363, "Indian": 3364, " Gupta": 3365, "బా": 3366, "onial": 3367, " Mid": 3368, " Middle": 3369, "ూప": 3370, " colleg": 3371, " colleges": 3372, " multi": 3373, "बल": 3374, "Al": 3375, " स्था": 3376, "eb": 3377, "idly": 3378, " op": 3379, " पाण्डवानां": 3380, " Ash": 3381, " Ashok": 3382, " Ashoka": 3383, " ప్రపంచ": 3384, " जनजाति": 3385, " animals": 3386, "erable": 3387, "ैपायन": 3388, "resent": 3389, " sep": 3390, " organ": 3391, " contains": 3392, " rail": 3393, " railway": 3394, " Marat": 3395, "has": 3396, " ste": 3397, "స్తా": 3398, " hab": 3399, " habit": 3400, " catt": 3401, " cattle": 3402, "Me": 3403, "une": 3404, "eter": 3405, " currency": 3406, " తరువాత": 3407, " chur": 3408, " churid": 3409, " churidars": 3410, " primary": 3411, " ir": 3412, "Zor": 3413, "Zoro": 3414, "Zoroastri": 3415, "Zoroastrian": 3416, "ित्र": 3417, " populous": 3418, "र्षिणा": 3419, " అయిన": 3420, " Constitu": 3421, " Constituent": 3422, "ior": 3423, "ండవ": 3424, " కల": 3425, "ించారు": 3426, " threat": 3427, " Desert": 3428, " northwest": 3429, " policies": 3430, " Oly": 3431, " Olymp": 3432, " isol": 3433, "ture": 3434, " kameez": 3435, " tropical": 3436, " associ": 3437, "గాలు": 3438, "ॉंग्रे": 3439, "ॉंग्रेस": 3440, "నికి": 3441, " fact": 3442, "angra": 3443, " mathematical": 3444, " pur": 3445, " coun": 3446, "ees": 3447, " constitutional": 3448, "Dem": 3449, "ographics": 3450, " chos": 3451, " chosen": 3452, " independence": 3453, " devotion": 3454, " classes": 3455, " society": 3456, " added": 3457, "ధార": 3458, "anged": 3459, " Civilisation": 3460, " practices": 3461, "धर्मः": 3462, "ip": 3463, "Eur": 3464, "European": 3465, " cle": 3466, " Maurya": 3467, " రాక్ష": 3468, " అభి": 3469, "onom": 3470, " compan": 3471, " companies": 3472, "सभा": 3473, " texts": 3474, "kn": 3475, "मिल": 3476, " Park": 3477, " siz": 3478, " script": 3479, " safe": 3480, "PA": 3481, "avour": 3482, " rather": 3483, " sil": 3484, "षे": 3485, " 43": 3486, " bro": 3487, " broad": 3488, " 2024": 3489, " gas": 3490, " share": 3491, " folk": 3492, " inequ": 3493, " inequality": 3494, " Treat": 3495, " Treaty": 3496, " Myan": 3497, " Myanmar": 3498, " 2008": 3499, " 1960": 3500, "ma": 3501, " came": 3502, "kim": 3503, "urred": 3504, " 1935": 3505, " cultural": 3506, " tribal": 3507, " express": 3508, "after": 3509, " style": 3510, " Indira": 3511, " संस्कृत": 3512, " दशक": 3513, " Janata": 3514, " supported": 3515, "ellion": 3516, " lik": 3517, " energy": 3518, " North": 3519, " kil": 3520, " kilomet": 3521, " kilometres": 3522, " Temple": 3523, " past": 3524, "ind": 3525, " administration": 3526, "onds": 3527, " स्थित": 3528, "aking": 3529, "न्तं": 3530, "body": 3531, " assert": 3532, " Tel": 3533, " conce": 3534, " resident": 3535, " residents": 3536, " fin": 3537, "reg": 3538, " fra": 3539, "ivity": 3540, "ई।": 3541, " dishes": 3542, " Common": 3543, " gave": 3544, "ched": 3545, "ాలలో": 3546, " Mumbai": 3547, "oulder": 3548, " having": 3549, "uduc": 3550, "uducher": 3551, "uducherry": 3552, " प्रदेश": 3553, " architecture": 3554, " loss": 3555, " कार्य": 3556, " recent": 3557, " Mad": 3558, "ran": 3559, "ds": 3560, "ించబడ": 3561, " bron": 3562, " bronz": 3563, "omestic": 3564, " belief": 3565, "form": 3566, "isen": 3567, " cal": 3568, "తులు": 3569, " marg": 3570, " margins": 3571, " eng": 3572, " engineering": 3573, " simil": 3574, " similar": 3575, " pers": 3576, " Pall": 3577, " Pallav": 3578, " drain": 3579, " ఉంట": 3580, " min": 3581, " do": 3582, " coll": 3583, " कुल": 3584, "रण": 3585, " ही": 3586, "akshad": 3587, "akshadwe": 3588, "akshadweep": 3589, "pass": 3590, "passing": 3591, "ither": 3592, " somet": 3593, " sometim": 3594, " sometimes": 3595, " charac": 3596, " character": 3597, " mer": 3598, " merch": 3599, "ables": 3600, " seals": 3601, " opp": 3602, " oppos": 3603, "illed": 3604, " =": 3605, "ressed": 3606, " जै": 3607, " mi": 3608, " sites": 3609, " originally": 3610, "igration": 3611, " moist": 3612, "land": 3613, " farm": 3614, "ute": 3615, " forests": 3616, " surround": 3617, " lies": 3618, " contain": 3619, "edic": 3620, "rist": 3621, " రథ": 3622, "garh": 3623, "pic": 3624, "resident": 3625, "ening": 3626, " 1962": 3627, " sett": 3628, "lement": 3629, " den": 3630, "wards": 3631, " formal": 3632, " exchange": 3633, " 1980": 3634, " హింద": 3635, " super": 3636, " युग": 3637, " Mohen": 3638, " Mohenj": 3639, " Mohenjo": 3640, " Karnataka": 3641, " 2013": 3642, " abs": 3643, " adop": 3644, " portal": 3645, " shalw": 3646, "anipur": 3647, " समाज": 3648, "yth": 3649, " hy": 3650, " gradually": 3651, "ii": 3652, " reac": 3653, " reached": 3654, "aic": 3655, " latter": 3656, " band": 3657, "ala": 3658, " Chand": 3659, " across": 3660, "orn": 3661, "ulk": 3662, "Geograph": 3663, " capit": 3664, " capita": 3665, " Buddha": 3666, "nd": 3667, " Assem": 3668, " Assemb": 3669, " Assembly": 3670, " Ur": 3671, " Urdu": 3672, " pover": 3673, " poverty": 3674, " ఉపపర్వాలు": 3675, " partic": 3676, " bott": 3677, " bottom": 3678, " trade": 3679, " black": 3680, " blackb": 3681, " తన": 3682, "గ్": 3683, " Non": 3684, "क्षण": 3685, "crimin": 3686, "uous": 3687, " defe": 3688, " मान": 3689, "guard": 3690, " comprom": 3691, " compromise": 3692, " tree": 3693, " historical": 3694, "riya": 3695, " provided": 3696, " today": 3697, " becom": 3698, " becoming": 3699, " against": 3700, " back": 3701, " very": 3702, " aver": 3703, " average": 3704, " des": 3705, "ption": 3706, " lib": 3707, " liberal": 3708, "ger": 3709, " introduced": 3710, " could": 3711, "HO": 3712, "ams": 3713, " written": 3714, " पुरु": 3715, " anot": 3716, " another": 3717, " crit": 3718, "iber": 3719, "hark": 3720, "harkh": 3721, "harkhand": 3722, " borders": 3723, "touchability": 3724, " strong": 3725, " signed": 3726, " (\"": 3727, "ammu": 3728, "मंत्री": 3729, " 2019": 3730, "sia": 3731, " recog": 3732, " recogn": 3733, "ises": 3734, "దాయ": 3735, " plains": 3736, "त्तम": 3737, " institution": 3738, " Sikhism": 3739, " reven": 3740, " revenues": 3741, " decade": 3742, " clim": 3743, "Ar": 3744, " cause": 3745, "irt": 3746, " town": 3747, "ून": 3748, "बी": 3749, "pura": 3750, "oram": 3751, " att": 3752, " eff": 3753, " bel": 3754, " belong": 3755, " Europe": 3756, " office": 3757, "die": 3758, "dieval": 3759, "ుడు": 3760, " increasingly": 3761, " good": 3762, " goods": 3763, " went": 3764, " Bi": 3765, "dar": 3766, "daro": 3767, "ान्व": 3768, "ours": 3769, " नेत": 3770, " नेतृत": 3771, " नेतृत्व": 3772, "dient": 3773, "मम": 3774, " inst": 3775, "arty": 3776, "ahar": 3777, " न्य": 3778, " At": 3779, " पौ": 3780, " 31": 3781, " వ్యా": 3782, " use": 3783, "cean": 3784, "tre": 3785, "anda": 3786, " समु": 3787, "asi": 3788, "ience": 3789, "utes": 3790, " loose": 3791, " makes": 3792, " return": 3793, " law": 3794, " laws": 3795, " parts": 3796, " enter": 3797, "achal": 3798, " आसी": 3799, "नम्।": 3800, " Indones": 3801, " Indonesia": 3802, "oli": 3803, "rat": 3804, "Ch": 3805, " eat": 3806, " eaten": 3807, " natal": 3808, "af": 3809, " armies": 3810, " Himalayan": 3811, "400": 3812, "भारतस्य": 3813, "anta": 3814, "reath": 3815, "35": 3816, " భారతదేశం": 3817, "జా": 3818, "ల్ప": 3819, "రిత్ర": 3820, " చేస": 3821, " చేయ": 3822, " తీ": 3823, "సా": 3824, "జాతీయ": 3825, "స్త్ర": 3826, "ారంభ": 3827, "తున్న": 3828, "నీ": 3829, " లక్ష్మణ": 3830, "ంక": 3831, "80": 3832, " దక్షిణ": 3833, " సంవత్": 3834, " సంవత్స": 3835, "టిక": 3836, " మూడు": 3837, " ప్రాంత": 3838, " కాండ": 3839, "वर्ष": 3840, " मिल": 3841, "हो": 3842, "धिकारिक": 3843, "िक्ष": 3844, " चतु": 3845, " भग": 3846, "स्ल": 3847, "ुण": 3848, "वंश": 3849, " हिमा": 3850, "काश": 3851, " शता": 3852, "नः॥": 3853, " सत्य": 3854, " अग": 3855, " २००": 3856, "भी": 3857, " काम": 3858, "तन्त्र": 3859, " धा": 3860, " रक्षा": 3861, " ५": 3862, "ेभ्य": 3863, "द्यु": 3864, "म्न": 3865, " अस्य": 3866, " कॉंग्रेस": 3867, "द्रा": 3868, " बुद्ध": 3869, "श्य": 3870, "त्त्व": 3871, " धीमत": 3872, "ीति": 3873, " किया।": 3874, " मौ": 3875, " न्याया": 3876, " हाल": 3877, "लग": 3878, " परमाण": 3879, " परमाणु": 3880, " घोष": 3881, " थी।": 3882, " भर": 3883, " कास": 3884, "स्ट": 3885, "क्षौह": 3886, "क्षौहिण": 3887, "र्जुनेन": 3888, "ंगा": 3889, " मुख्य": 3890, "धनं": 3891, "र्थव्य": 3892, " उन": 3893, "ानाम": 3894, "ैः।": 3895, " अम": 3896, "soon": 3897, "्री": 3898, "षः": 3899, " तं": 3900, "णे": 3901, "र्येण": 3902, " मि": 3903, " ग्र": 3904, " ईसा": 3905, " युधिष्ठिर": 3906, " आसीत्": 3907, " निर्माण": 3908, "ీక": 3909, " మహర్ష": 3910, "్మీకి": 3911, "శర": 3912, "ళ్ళ": 3913, "మె": 3914, "పి": 3915, " విశ": 3916, "శా": 3917, " వ్యవస్థ": 3918, "రణం": 3919, " ),": 3920, " శతా": 3921, " శతాబ్": 3922, "ర్మ": 3923, " మహాభారతం": 3924, " సూ": 3925, " పర": 3926, "ంద్ర": 3927, "్లు": 3928, "చు": 3929, "్రాలు": 3930, "ించు": 3931, " రాజ్య": 3932, "ముఖ": 3933, " ఏను": 3934, " రె": 3935, "ించింది": 3936, "రామ": 3937, "స్తుంది": 3938, " ఇతి": 3939, " తి": 3940, "రం": 3941, "పాల": 3942, "వాడు": 3943, "ంటే": 3944, " శ్రీ": 3945, " उद्योग": 3946, " व्या": 3947, " आधिकारिक": 3948, "ेष्व": 3949, " जन्म": 3950, "ितो": 3951, " विकास": 3952, " कीर्त": 3953, "मन": 3954, " स्थाप": 3955, " शताब्": 3956, " शताब्दी": 3957, " संसद": 3958, "वान्।": 3959, " संख्या": 3960, "यात्रा": 3961, " ओर": 3962, "भाषा": 3963, " विचित": 3964, "पर्वणि": 3965, " मं": 3966, "पुर": 3967, " अरब": 3968, " चर": 3969, "ठा": 3970, "ार्य": 3971, "ारम्भ": 3972, "द्या": 3973, "लि": 3974, "त्मा": 3975, " सुर": 3976, "गीत": 3977, " तप": 3978, "यम्।": 3979, " शक": 3980, " भारतं": 3981, " जल": 3982, "पूर्ण": 3983, "रीटि": 3984, " ह्र": 3985, "ाँ": 3986, " मूल": 3987, "ुः": 3988, "प्रा": 3989, "द्भुत": 3990, " विज्ञ": 3991, " गी": 3992, "ीर": 3993, "फ़": 3994, "भूमि": 3995, " कासि": 3996, " कासिन्": 3997, " कासिन्स": 3998, "मिका": 3999, "चल": 4000, " चै": 4001, "बर": 4002, "पूर्व": 4003, " जिसमें": 4004, "न्तु": 4005, "थिय": 4006, " लिये": 4007, " वध": 4008, "पालिका": 4009, " प्रधानमंत्री": 4010, "ितस्य": 4011, "ांड": 4012, "ुक्त": 4013, "ण्डव": 4014, " बह": 4015, "ते।": 4016, "ते॥": 4017, "ांश्च": 4018, "िस्त": 4019, " गीत": 4020, "नों": 4021, "र्थव्यवस्था": 4022, " सदस्य": 4023, " सक": 4024, "्राह्म": 4025, "व्र": 4026, "पे": 4027, " 500": 4028, " 74": 4029, "స్తారు": 4030, "81": 4031, "ర్శ": 4032, " చరిత్ర": 4033, "లకు": 4034, "book": 4035, "కూ": 4036, "తంత్ర": 4037, "కం": 4038, " పాల": 4039, " ఇతర": 4040, " కార": 4041, " శ్లో": 4042, "ుని": 4043, "న్నో": 4044, "కము": 4045, "భారతీయ": 4046, " భారతదేశంలో": 4047, " పేర్": 4048, "త్తర": 4049, "లతో": 4050, "మూ": 4051, " పెద్ద": 4052, "60": 4053, " కాలి": 4054, " కాలిబ": 4055, " కాలిబంట": 4056, " కాలిబంట్లు": 4057, "స్తున్న": 4058, "30": 4059, " గుర్రాలు": 4060, " ప్రభ": 4061, " మన": 4062, " భర": 4063, " పట్ట": 4064, "త్త": 4065, " 27": 4066, "ంతో": 4067, "ందిన": 4068, " పార": 4069, " పార్ట": 4070, " పార్టీ": 4071, " రైలు": 4072, " వై": 4073, "సుడు": 4074, " రాముని": 4075, " హిందూ": 4076, " हुआ।": 4077, "वरी": 4078, "गमन": 4079, " नद": 4080, "को": 4081, "पद": 4082, "त्प्र": 4083, " इन": 4084, " सर्वं": 4085, " Republic": 4086, "ब्रवी": 4087, " वन": 4088, "न्ते": 4089, " साल": 4090, " पृ": 4091, " पृथ": 4092, " तथ": 4093, " स्वतंत्रता": 4094, "ाप्य": 4095, "र्षिणा।": 4096, " पार": 4097, "ustral": 4098, " अने": 4099, " अतः": 4100, " मय": 4101, " राम": 4102, "ल्य": 4103, " सुभ": 4104, " शान्त": 4105, "त्ति": 4106, "ड़ी": 4107, "र्भ": 4108, " संयुक्त": 4109, " हर": 4110, " क्षेत्रीय": 4111, " विवाद": 4112, " जब": 4113, " गठ": 4114, "बंधन": 4115, "पाद": 4116, " कुरु": 4117, "वन": 4118, " द्य": 4119, " किरीटि": 4120, " निभा": 4121, "चार": 4122, "सहस्राणि": 4123, "पञ्च": 4124, "ताः": 4125, "शील": 4126, "मन्य": 4127, " वृ": 4128, "प्रदेश": 4129, "णी": 4130, " बीच": 4131, "तिक": 4132, " संभव": 4133, " मत": 4134, "पुरा": 4135, " लोग": 4136, " यत्रा": 4137, "धुन": 4138, "धुनिक": 4139, " अत्र": 4140, " सभा": 4141, "हाँ": 4142, "स्मा": 4143, "ुता": 4144, " भीमसेन": 4145, "न्धु": 4146, "शु": 4147, " संस्कृति": 4148, " वर्ण": 4149, "ुत्वा": 4150, "एँ": 4151, " पुरुष": 4152, " राष्ट्रप": 4153, "तः।": 4154, " सौति": 4155, " सौतिरु": 4156, " सौतिरुवाच": 4157, " चो": 4158, "ेप": 4159, " ष": 4160, "ुरू": 4161, "हात्म": 4162, "ोन": 4163, " वर्षों": 4164, " बा": 4165, "ची": 4166, "ापि": 4167, " वाल": 4168, "मेव": 4169, "दार": 4170, "ौणि": 4171, " जनसंख्या": 4172, "थम": 4173, "िज": 4174, " चीन": 4175, " जाते": 4176, "न्हें": 4177, " मोक्ष": 4178, " ब्राह्म": 4179, "ेयं": 4180, "ौपदी": 4181, " स्थान": 4182, "ैर": 4183, " विद्य": 4184, "ोलन": 4185, " Am": 4186, "చే": 4187, " ఆర్": 4188, "వాస": 4189, "క్కువ": 4190, " భూ": 4191, "ింప": 4192, " వాల్మీకి": 4193, "డైన": 4194, " సిం": 4195, "రిక": 4196, " రో": 4197, "నుమం": 4198, " పూర్వ": 4199, "ులకు": 4200, "లుగు": 4201, " report": 4202, "\".": 4203, " ప్రారంభ": 4204, " శతాబ్దం": 4205, "వరి": 4206, " ఎన్నో": 4207, "హిత": 4208, "ష్య": 4209, "నాభా": 4210, "85": 4211, "తుంది": 4212, " వచ్చింది": 4213, "icles": 4214, "ead": 4215, " వార": 4216, " వీ": 4217, "ls": 4218, " భీ": 4219, "పర్వం": 4220, "జు": 4221, "ప్పటిక": 4222, "75": 4223, "anguages": 4224, "పై": 4225, " ఆధార": 4226, "yn": 4227, " 53": 4228, "100": 4229, "ప్పుడు": 4230, "ణి": 4231, "కీ": 4232, "మ్మ": 4233, " మీ": 4234, " అతి": 4235, "ాలా": 4236, "వధ": 4237, " Arch": 4238, " Archived": 4239, "40": 4240, " 100": 4241, "ologically": 4242, " comf": 4243, " comfort": 4244, " comfortable": 4245, "indh": 4246, " levels": 4247, "ణం": 4248, " late": 4249, " respon": 4250, " response": 4251, " subduc": 4252, " ruling": 4253, " patron": 4254, " followed": 4255, " expansion": 4256, " NDA": 4257, "ज़ी": 4258, " zone": 4259, " నార": 4260, " Network": 4261, " 1949": 4262, "zed": 4263, " gig": 4264, " gigaw": 4265, " gigawat": 4266, " gigawatts": 4267, "app": 4268, "pro": 4269, " Lankan": 4270, " pul": 4271, " diffused": 4272, " reforms": 4273, " ruled": 4274, " only": 4275, "यत": 4276, "Un": 4277, "Biodiversity": 4278, " renewable": 4279, "rigon": 4280, "rigonomet": 4281, "string": 4282, "ible": 4283, "side": 4284, " female": 4285, " Fore": 4286, " company": 4287, " El": 4288, "athur": 4289, " Sund": 4290, " Sundarb": 4291, " Sundarbans": 4292, " Jud": 4293, " Yakshag": 4294, " Yakshagana": 4295, " amend": 4296, " amendments": 4297, " direc": 4298, "Gang": 4299, "Gangetic": 4300, " own": 4301, "श्म": 4302, " Malayal": 4303, " Malayalam": 4304, " Gold": 4305, " Golden": 4306, " gods": 4307, "uture": 4308, " pollution": 4309, " 2017": 4310, " dominion": 4311, " Pal": 4312, ",\"": 4313, "भारतीय": 4314, " Fol": 4315, " Following": 4316, "जपा": 4317, "కులు": 4318, " chap": 4319, "lus": 4320, " 184": 4321, " sho": 4322, " shores": 4323, " Territ": 4324, " Territory": 4325, " web": 4326, " portion": 4327, " cuis": 4328, " बे": 4329, " southwest": 4330, " formally": 4331, " females": 4332, "या॥": 4333, " nin": 4334, " ninth": 4335, "वादी": 4336, " సాం": 4337, "ring": 4338, "प्रभ": 4339, "erally": 4340, "arlung": 4341, " wors": 4342, " worship": 4343, " cheet": 4344, " cheetah": 4345, " heredit": 4346, " hereditary": 4347, "तिः।": 4348, " भूमि": 4349, " victories": 4350, " democracy": 4351, " Uttar": 4352, "akhand": 4353, "adem": 4354, "ademi": 4355, " Nar": 4356, " ₹": 4357, " sar": 4358, " decis": 4359, " Ex": 4360, " manuscript": 4361, " प्ल": 4362, " प्लेट": 4363, "abel": 4364, " ]": 4365, " वर": 4366, " 1930": 4367, " display": 4368, " syn": 4369, " workforce": 4370, " plant": 4371, " extend": 4372, " extends": 4373, "espite": 4374, " Ach": 4375, " Acha": 4376, " Achaem": 4377, " Achaemen": 4378, " partially": 4379, " sedi": 4380, " sediment": 4381, " సిని": 4382, " hubs": 4383, "త్మ": 4384, " wars": 4385, "anch": 4386, " divorce": 4387, "र्ध्व": 4388, "र्थन": 4389, "र्षे": 4390, "wing": 4391, "erous": 4392, " unres": 4393, " unresol": 4394, " unresolved": 4395, " రచన": 4396, " Asians": 4397, " historians": 4398, " gold": 4399, " ge": 4400, " subst": 4401, " substant": 4402, " substantially": 4403, " push": 4404, " मन्त्र": 4405, " inn": 4406, " innov": 4407, " परि": 4408, " nominal": 4409, " short": 4410, " विभि": 4411, " hots": 4412, " hotsp": 4413, " hotspots": 4414, " orally": 4415, " అధికార": 4416, " brief": 4417, " briefly": 4418, " विदेश": 4419, "aved": 4420, "न्।": 4421, "idel": 4422, "efin": 4423, "ंस": 4424, " Chh": 4425, " Chhau": 4426, " juris": 4427, " jurisdic": 4428, " jurisdiction": 4429, " Nepal": 4430, " वाक्य": 4431, " 1972": 4432, " annually": 4433, " down": 4434, " rocky": 4435, " hock": 4436, " hockey": 4437, "millennium": 4438, " included": 4439, " depend": 4440, " dependent": 4441, " विदुर": 4442, "east": 4443, "angam": 4444, " Chess": 4445, " gard": 4446, " garden": 4447, " govern": 4448, " democratic": 4449, " supplanted": 4450, "षी": 4451, " Nat": 4452, " Natar": 4453, " Nataraj": 4454, " Nataraja": 4455, " $": 4456, "्यम": 4457, " survives": 4458, " latitud": 4459, "त्न": 4460, " Tr": 4461, " various": 4462, " soon": 4463, " villages": 4464, " systems": 4465, " contra": 4466, " colonial": 4467, " अह": 4468, " applied": 4469, " mand": 4470, " kur": 4471, " kurta": 4472, " राग": 4473, " territor": 4474, " territorial": 4475, " scheduled": 4476, " assass": 4477, " assassin": 4478, " assassinated": 4479, "oo": 4480, " excav": 4481, " excavated": 4482, " leng": 4483, " length": 4484, " regist": 4485, " prevent": 4486, " flank": 4487, "షే": 4488, "Tex": 4489, " united": 4490, "శ్రమ": 4491, "aith": 4492, " geograph": 4493, " बड़ा": 4494, " rap": 4495, " rapidly": 4496, " open": 4497, " pap": 4498, " paper": 4499, " obstruc": 4500, "tive": 4501, " पहले": 4502, " run": 4503, " II": 4504, " dry": 4505, " 1999": 4506, " vul": 4507, " vuln": 4508, " vulnerable": 4509, "ause": 4510, " represent": 4511, " సంస్కృత": 4512, " any": 4513, " cut": 4514, " exerc": 4515, " self": 4516, " railways": 4517, " steam": 4518, " steamed": 4519, " poin": 4520, " points": 4521, " members": 4522, " Tibetan": 4523, "నలు": 4524, "sel": 4525, " habitat": 4526, " network": 4527, "Fore": 4528, "Foreign": 4529, " give": 4530, " पै": 4531, " pilg": 4532, " pilgri": 4533, " pilgrim": 4534, " access": 4535, " गन्ध": 4536, " Ri": 4537, " River": 4538, "ृतम्।": 4539, " Zoroastrian": 4540, " Zoroastrianism": 4541, " event": 4542, " eventually": 4543, " devast": 4544, " Plain": 4545, "ल्प": 4546, " subsequently": 4547, "terior": 4548, " nearly": 4549, "Culture": 4550, " Dalit": 4551, " largely": 4552, "ितः॥": 4553, "दश": 4554, " threatened": 4555, " host": 4556, " gender": 4557, " expanding": 4558, "Dance": 4559, " countries": 4560, " 1998": 4561, " able": 4562, "నాలు": 4563, " కావ్య": 4564, " everyday": 4565, " Muslims": 4566, " Ahm": 4567, " Ahmed": 4568, " Ahmedabad": 4569, " compr": 4570, " comprising": 4571, " Olympics": 4572, " hun": 4573, " hunter": 4574, "wat": 4575, " Dem": 4576, "వ్యా": 4577, " isolation": 4578, " mix": 4579, "ety": 4580, " material": 4581, " materials": 4582, " १९९": 4583, " इसी": 4584, " 34": 4585, " gro": 4586, "men": 4587, " Cl": 4588, " Class": 4589, " Classical": 4590, " series": 4591, " associated": 4592, " markets": 4593, " literary": 4594, " Vaj": 4595, " Vajpay": 4596, " Vajpayee": 4597, "disha": 4598, " generally": 4599, " factor": 4600, "Bh": 4601, "des": 4602, " meet": 4603, "edd": 4604, " output": 4605, " vegetar": 4606, " vegetarian": 4607, " spic": 4608, " living": 4609, " Dh": 4610, "osa": 4611, " terrac": 4612, " terracot": 4613, " terracotta": 4614, " डॉ": 4615, "cil": 4616, " committ": 4617, " humans": 4618, " includes": 4619, " annual": 4620, " बनी": 4621, " several": 4622, " brough": 4623, " brought": 4624, "्मा": 4625, " jac": 4626, " jacket": 4627, " jackets": 4628, " exce": 4629, "Demographics": 4630, " amp": 4631, " amphi": 4632, "ణంగా": 4633, " works": 4634, " Agency": 4635, "शासित": 4636, " Can": 4637, " Devi": 4638, " हिन्दु": 4639, " °": 4640, " sports": 4641, " spreading": 4642, " cleared": 4643, " marry": 4644, " resources": 4645, "युद्ध": 4646, "मतः": 4647, " Sub": 4648, " adhe": 4649, " चार": 4650, " bread": 4651, " రాక్షస": 4652, " anat": 4653, " anatom": 4654, " aut": 4655, "ought": 4656, " extinct": 4657, " अस": 4658, " action": 4659, "tionary": 4660, " artistic": 4661, " declared": 4662, "knit": 4663, "fficial": 4664, " contributed": 4665, "దే": 4666, " additional": 4667, "ying": 4668, " seal": 4669, " flour": 4670, "ires": 4671, "ందర": 4672, " prin": 4673, " princes": 4674, " UPA": 4675, " decreasing": 4676, " 1985": 4677, " caus": 4678, " Sarn": 4679, "aism": 4680, " Thail": 4681, " Thailand": 4682, "ంచి": 4683, " निर्ज": 4684, "यित्वा": 4685, " దేశం": 4686, " intervention": 4687, "मप": 4688, "illing": 4689, " rece": 4690, "िताम्॥": 4691, " Islamic": 4692, "te": 4693, " green": 4694, " greenh": 4695, " greenhouse": 4696, "Over": 4697, " scen": 4698, " occurred": 4699, "Hist": 4700, "History": 4701, " Kath": 4702, " Kathak": 4703, " 1971": 4704, " बौ": 4705, " बौद्ध": 4706, " Nort": 4707, " Northeast": 4708, " expression": 4709, "vidence": 4710, "andy": 4711, " lasted": 4712, " thereafter": 4713, " गठबंधन": 4714, " independent": 4715, " bride": 4716, "gather": 4717, "gatherers": 4718, " rest": 4719, " రావ": 4720, "ణుడు": 4721, " males": 4722, " founded": 4723, "ser": 4724, " Democratic": 4725, "angana": 4726, " techni": 4727, " techniqu": 4728, " coastline": 4729, " involving": 4730, " usually": 4731, " Shastri": 4732, " food": 4733, " సంగ": 4734, " dem": 4735, "arc": 4736, "రకు": 4737, " June": 4738, "ih": 4739, " आस": 4740, " bodi": 4741, " bodies": 4742, " artists": 4743, " produced": 4744, "ान्ये": 4745, " each": 4746, "rative": 4747, " whe": 4748, " whereas": 4749, " sport": 4750, " Chinese": 4751, " bonds": 4752, " Eurasia": 4753, "दल": 4754, " [": 4755, "wan": 4756, "athan": 4757, " biot": 4758, " biotech": 4759, " decl": 4760, " saw": 4761, "ettled": 4762, " Telu": 4763, " Telugu": 4764, " mega": 4765, " megadi": 4766, " megadiverse": 4767, "ना॥": 4768, " pot": 4769, "मुच्यते॥": 4770, " coasts": 4771, " creativity": 4772, " industrial": 4773, " prominent": 4774, " So": 4775, " Sovi": 4776, " Soviet": 4777, " अमे": 4778, " Commonwe": 4779, " Commonwealth": 4780, " international": 4781, " 63": 4782, " 41": 4783, "lege": 4784, " प्राप्त": 4785, "aty": 4786, "atyam": 4787, " entire": 4788, " shoulder": 4789, "everal": 4790, " Puducherry": 4791, " layer": 4792, " dhot": 4793, " dhoti": 4794, " emphas": 4795, " Cup": 4796, " Cups": 4797, " stif": 4798, " stiff": 4799, " Still": 4800, "స్య": 4801, " pants": 4802, "ras": 4803, " dise": 4804, " diseas": 4805, " disease": 4806, "icon": 4807, " overran": 4808, " Ac": 4809, " winds": 4810, " comm": 4811, " commun": 4812, " communities": 4813, " bronze": 4814, " groups": 4815, "adra": 4816, "tell": 4817, " Old": 4818, "Rel": 4819, "Relig": 4820, "Religion": 4821, " arisen": 4822, " calend": 4823, " shaw": 4824, " shawl": 4825, " involved": 4826, " 1967": 4827, " दुः": 4828, " Sikkim": 4829, " Dance": 4830, "ట్లు": 4831, " persist": 4832, " Pallavas": 4833, " violence": 4834, " cit": 4835, " citiz": 4836, " citizens": 4837, " 80": 4838, " 1964": 4839, " related": 4840, "aval": 4841, "vene": 4842, " temples": 4843, " nonvi": 4844, " nonviol": 4845, " nonviolent": 4846, " reptil": 4847, " minor": 4848, "ronic": 4849, " fort": 4850, " fortified": 4851, "Econom": 4852, "Economy": 4853, " reliefs": 4854, " Nepali": 4855, "కాలు": 4856, " house": 4857, " Akbar": 4858, " तीर्थ": 4859, " cloth": 4860, "Congress": 4861, "ke": 4862, " సమ": 4863, "Mo": 4864, "Modern": 4865, " Ἰ": 4866, " Ἰν": 4867, " Ἰνδ": 4868, " income": 4869, "ogam": 4870, "ogamy": 4871, " Some": 4872, " either": 4873, "\")": 4874, " alliance": 4875, "lows": 4876, " సభ": 4877, " she": 4878, " characteristic": 4879, " agree": 4880, " merchants": 4881, " Rajiv": 4882, "lements": 4883, " जिन": 4884, " pet": 4885, " present": 4886, " ess": 4887, " essent": 4888, " essential": 4889, " ह्य": 4890, " Nag": 4891, " contributes": 4892, " Have": 4893, "ాన్ని": 4894, " Government": 4895, " taxes": 4896, " exported": 4897, " Dis": 4898, "cover": 4899, " original": 4900, "vas": 4901, "vasive": 4902, " farmers": 4903, "ks": 4904, " rati": 4905, "ek": 4906, "sp": 4907, " गीतं": 4908, "oration": 4909, " notable": 4910, " hon": 4911, " emiss": 4912, " emissions": 4913, " Vi": 4914, " Vij": 4915, " Vijay": 4916, " Vijayan": 4917, " Vijayanag": 4918, " Vijayanagara": 4919, " percent": 4920, " percentage": 4921, " Inc": 4922, " Increasing": 4923, "ishing": 4924, " mount": 4925, " severely": 4926, " supreme": 4927, " Vedic": 4928, " numeral": 4929, " numerals": 4930, "भग": 4931, "ili": 4932, " Christ": 4933, " Christian": 4934, " Christianity": 4935, "ressive": 4936, "ream": 4937, " రథములు": 4938, "castes": 4939, "ased": 4940, " President": 4941, " ple": 4942, "asures": 4943, " legislature": 4944, " settlement": 4945, " Sim": 4946, " Simultan": 4947, " Simultane": 4948, " Simultaneously": 4949, " appoin": 4950, " accom": 4951, " dense": 4952, " Kon": 4953, " Konk": 4954, " Konkani": 4955, " service": 4956, "భారతదేశం": 4957, " International": 4958, " pr": 4959, " cin": 4960, " supercontinent": 4961, "ूस": 4962, " 1984": 4963, " mort": 4964, " mortality": 4965, " Or": 4966, " Organ": 4967, " Organiz": 4968, " Organization": 4969, " Kashmi": 4970, " Kashmiri": 4971, " 361": 4972, " पर्वण्य": 4973, " Oct": 4974, " Octo": 4975, " October": 4976, " affir": 4977, " affirm": 4978, " exporter": 4979, " ide": 4980, " marsh": 4981, " marshy": 4982, " shalwar": 4983, " data": 4984, " Cap": 4985, " Capital": 4986, " ఆది": 4987, "Uttar": 4988, " hym": 4989, " hymn": 4990, " hymns": 4991, " tub": 4992, " tuberc": 4993, " tubercul": 4994, " tuberculos": 4995, " tuberculosis": 4996, " highly": 4997, " advent": 4998, "ిమ": 4999, " शल्य": 5000, " Madh": 5001, "गोल": 5002, "aran": 5003, "year": 5004, " 2009": 5005, "erves": 5006, " పో": 5007, " extensively": 5008, " married": 5009, "षां": 5010, " archaic": 5011, " died": 5012, "ealth": 5013, " /": 5014, " lands": 5015, " fac": 5016, "94": 5017, " ప్రభు": 5018, "atures": 5019, " bulk": 5020, "Geography": 5021, " निधनं": 5022, " mathematicians": 5023, "ञ्": 5024, " vol": 5025, " volcan": 5026, " cosine": 5027, " तत्": 5028, " prob": 5029, " probably": 5030, " Sultanate": 5031, " hous": 5032, " houses": 5033, " నే": 5034, "गण": 5035, "ptions": 5036, " करना": 5037, "క్కడ": 5038, " frame": 5039, " framework": 5040, "osp": 5041, "osphere": 5042, " births": 5043, " pass": 5044, " unitary": 5045, " imperial": 5046, " played": 5047, " generated": 5048, "बुद्ध": 5049, "ling": 5050, "pped": 5051, " ethical": 5052, " Kol": 5053, " Kolk": 5054, " Kolkata": 5055, " refl": 5056, " विदु": 5057, " view": 5058, " suc": 5059, " Emer": 5060, " Emergency": 5061, " croc": 5062, " crocodi": 5063, " Bengali": 5064, "ground": 5065, "గ్రీ": 5066, "గ్రీవు": 5067, " chose": 5068, " rulers": 5069, "criminat": 5070, "criminatory": 5071, " mainly": 5072, "laim": 5073, "laiming": 5074, "గులు": 5075, " seats": 5076, " decid": 5077, " deciduous": 5078, "विष्ट": 5079, "तः॥": 5080, "మారు": 5081, " policy": 5082, " बृह": 5083, " make": 5084, " peak": 5085, " safeguard": 5086, " ending": 5087, " गति": 5088, " गां": 5089, " fo": 5090, " foetic": 5091, " foeticide": 5092, " varna": 5093, " Oriya": 5094, " To": 5095, "ाश्च": 5096, " nationalist": 5097, " సంవత్సర": 5098, "co": 5099, "ences": 5100, " अफ": 5101, " They": 5102, " winning": 5103, " parties": 5104, " uncom": 5105, " uncommon": 5106, " Kann": 5107, " Kannada": 5108, "lands": 5109, "rup": 5110, "centur": 5111, "century": 5112, "Ancient": 5113, " close": 5114, " dominance": 5115, "iding": 5116, " సౌ": 5117, " desc": 5118, "iger": 5119, " creating": 5120, " liberalisation": 5121, " Alliance": 5122, " lar": 5123, " larger": 5124, " hal": 5125, " half": 5126, " sex": 5127, " Early": 5128, " welf": 5129, " welfare": 5130, " migration": 5131, " consumption": 5132, "ypically": 5133, " 2021": 5134, " initi": 5135, "atives": 5136, " WHO": 5137, " domestic": 5138, "Ety": 5139, "Etym": 5140, "Etymology": 5141, "major": 5142, "majority": 5143, "Languages": 5144, " commerce": 5145, "where": 5146, "ंब": 5147, " reb": 5148, " rebellion": 5149, "र्जुनस्य": 5150, " –": 5151, " हथिय": 5152, " हथियार": 5153, " formerly": 5154, " ranges": 5155, "limate": 5156, " blackbuc": 5157, " blackbuck": 5158, " Sabh": 5159, " Sabha": 5160, "े॥": 5161, "isting": 5162, " गणराज्य": 5163, " New": 5164, " राजा": 5165, " tand": 5166, " tandoor": 5167, " emb": 5168, " advan": 5169, " advanced": 5170, " ling": 5171, " adopted": 5172, " coastal": 5173, " beh": 5174, " behind": 5175, " wet": 5176, " neigh": 5177, " neighb": 5178, " paren": 5179, " parents": 5180, "ending": 5181, " Eastern": 5182, " evol": 5183, " Pe": 5184, " particular": 5185, " best": 5186, " sal": 5187, " paintings": 5188, " strongly": 5189, " carved": 5190, " less": 5191, " sole": 5192, " occas": 5193, " occasions": 5194, " produ": 5195, " produce": 5196, " धृतराष्ट्रस्य": 5197, " Jammu": 5198, " emper": 5199, " emperor": 5200, " textil": 5201, " medic": 5202, " Man": 5203, "asar": 5204, " doc": 5205, " fami": 5206, " family": 5207, " 1858": 5208, " valley": 5209, "nic": 5210, "head": 5211, " dest": 5212, " ins": 5213, "ils": 5214, " कम": 5215, "ప్రదాయ": 5216, " गया।": 5217, " reser": 5218, " tun": 5219, "tra": 5220, " climatic": 5221, " deleg": 5222, " delegates": 5223, " civilian": 5224, " transform": 5225, " transformed": 5226, "Art": 5227, " Ancient": 5228, " fil": 5229, " film": 5230, " ro": 5231, " president": 5232, " प्रकार": 5233, " Col": 5234, " limited": 5235, " peace": 5236, " remained": 5237, " Ra": 5238, "ika": 5239, " repe": 5240, " repeated": 5241, " repeatedly": 5242, "aps": 5243, " proj": 5244, " cere": 5245, " cereal": 5246, " presence": 5247, "icle": 5248, " Marathi": 5249, "western": 5250, " arms": 5251, "शः॥": 5252, " extreme": 5253, " extremely": 5254, " beg": 5255, " begin": 5256, " beginnings": 5257, "uted": 5258, " अपनी": 5259, "orse": 5260, " सी": 5261, "emale": 5262, " ons": 5263, " onset": 5264, "iant": 5265, " परम्॥": 5266, " సైన": 5267, " Bah": 5268, " turned": 5269, "वन्त": 5270, " సి": 5271, " separat": 5272, " pastor": 5273, " pastoral": 5274, " mean": 5275, " meaning": 5276, " Sat": 5277, " Satpura": 5278, " voted": 5279, " playing": 5280, " list": 5281, " attract": 5282, " therefore": 5283, "mental": 5284, " effect": 5285, " भूत": 5286, " panoram": 5287, "ङ्क": 5288, " Sikhs": 5289, " चापि": 5290, " way": 5291, " Modi": 5292, "सिद्ध": 5293, " par": 5294, " towns": 5295, " medieval": 5296, " vary": 5297, " Assam": 5298, " Assamese": 5299, " sit": 5300, " sitar": 5301, "ote": 5302, " Ram": 5303, " consider": 5304, " न्यायालय": 5305, " may": 5306, " affa": 5307, " affair": 5308, " affairs": 5309, " shared": 5310, " कवि": 5311, "vara": 5312, " dre": 5313, " drew": 5314, " elect": 5315, "rical": 5316, " gradient": 5317, "ాయు": 5318, "violence": 5319, " Party": 5320, " Rajput": 5321, " Rajputs": 5322, " Jaw": 5323, " Jawahar": 5324, " Jawaharl": 5325, " Jawaharlal": 5326, " flo": 5327, " flood": 5328, " untouchability": 5329, " rising": 5330, " did": 5331, " Gondw": 5332, " Gondwana": 5333, " Bal": 5334, " biodiversity": 5335, "फल": 5336, "िताः।": 5337, " edic": 5338, " edicts": 5339, " Ocean": 5340, " role": 5341, "PP": 5342, " Manipur": 5343, " Cre": 5344, " Bihar": 5345, " Nanda": 5346, " Jharkhand": 5347, " Champ": 5348, " size": 5349, "mission": 5350, " bre": 5351, " break": 5352, "down": 5353, " ద్వ": 5354, " science": 5355, "stitutes": 5356, "Prol": 5357, "Prolif": 5358, "Proliferation": 5359, " bal": 5360, " returned": 5361, "ision": 5362, " feature": 5363, " chains": 5364, " भूमिका": 5365, "sty": 5366, "style": 5367, " यूर": 5368, " cust": 5369, " సీతను": 5370, " artis": 5371, " artisans": 5372, " defin": 5373, " manu": 5374, " manuf": 5375, " manufact": 5376, " पांड": 5377, "eas": 5378, "క్షౌ": 5379, "క్షౌహ": 5380, "క్షౌహిణ": 5381, "పతి": 5382, "नाथ": 5383, " cost": 5384, "ులను": 5385, "క్షర": 5386, " kh": 5387, " kho": 5388, " Lat": 5389, " दोनों": 5390, "dif": 5391, "dified": 5392, "imachal": 5393, "yal": 5394, "yalty": 5395, " Re": 5396, " what": 5397, "anded": 5398, " stand": 5399, " standar": 5400, " standardis": 5401, " standardised": 5402, " Eurasian": 5403, " literature": 5404, " gained": 5405, " हे": 5406, " thorn": 5407, " complex": 5408, " Hind": 5409, " Hindus": 5410, " दे": 5411, " historically": 5412, "ैर्": 5413, "eth": 5414, " ten": 5415, " ఇతిహా": 5416, " city": 5417, "och": 5418, "organ": 5419, "alls": 5420, "lit": 5421, " live": 5422, "खण्ड": 5423, " build": 5424, " building": 5425, " nex": 5426, " next": 5427, " लोके": 5428, "ick": 5429, " Kos": 5430, " Kosi": 5431, " har": 5432, " defeated": 5433, "నులు": 5434, " Cav": 5435, " Caves": 5436, " expect": 5437, " expectan": 5438, " expectancy": 5439, " Lakshadweep": 5440, " stud": 5441, " study": 5442, " liber": 5443, " Ka": 5444, " Kaver": 5445, " Kaveri": 5446, " Sant": 5447, "ently": 5448, "idesp": 5449, "idespread": 5450, "includ": 5451, "including": 5452, " endemism": 5453, " पार्टी": 5454, " प्रभाव": 5455, " according": 5456, "den": 5457, " organisation": 5458, " flowering": 5459, "grow": 5460, "growing": 5461, " distinct": 5462, " mod": 5463, " model": 5464, " 2007": 5465, " warri": 5466, " warriors": 5467, "scale": 5468, " occupation": 5469, " nar": 5470, " narrow": 5471, " respect": 5472, "rent": 5473, " savour": 5474, " savoury": 5475, " fash": 5476, " Amrit": 5477, " Amrits": 5478, " Amritsar": 5479, " economies": 5480, "econom": 5481, "economic": 5482, "Polit": 5483, "Politics": 5484, "aː": 5485, " figure": 5486, " Aj": 5487, " Ajanta": 5488, " సర్వ": 5489, " breath": 5490, " breathing": 5491, "శ్చ": 5492, "fast": 5493, " हिमालय": 5494, "avira": 5495, "orb": 5496, "eneral": 5497, " Gujarati": 5498, "दृ": 5499, "प्य": 5500, " महार": 5501, "లక్ష": 5502, " Way": 5503, " Wayback": 5504, " Mach": 5505, " Machine": 5506, " ప్రతి": 5507, "మైనది": 5508, " మొదటి": 5509, " గురించి": 5510, " జయ": 5511, "క్తి": 5512, " పాత్ర": 5513, "ెట్ట": 5514, "ణాలు": 5515, "మము": 5516, " తెలి": 5517, " దా": 5518, " అయో": 5519, "శ్వ": 5520, " మార్గాలు": 5521, "ముద్ర": 5522, " వ్ర": 5523, " శాస్త్ర": 5524, " బహ": 5525, "కే": 5526, " దీని": 5527, "యిత": 5528, " సహ": 5529, "దీ": 5530, "ష్ణు": 5531, "టిలో": 5532, " కే": 5533, "్రె": 5534, " అన్ని": 5535, " వంటి": 5536, " వెళ్ళ": 5537, "29": 5538, " పంప": 5539, " సుగ్రీవు": 5540, " ఏనుగులు": 5541, "రో": 5542, "టం": 5543, " వచ్చిన": 5544, " రెండు": 5545, " ఎక్కువ": 5546, "ప్పటికీ": 5547, "డూ": 5548, "ీన": 5549, "శో": 5550, " కాలంలో": 5551, " ద్ర": 5552, "తము": 5553, " దు": 5554, "యన": 5555, " అనేక": 5556, " నీ": 5557, " చాలా": 5558, "నుమంతుడు": 5559, "వల": 5560, " గుర్త": 5561, "ల్య": 5562, "వాణా": 5563, "కుంట": 5564, " నుండి": 5565, " परंपरा": 5566, " कालः": 5567, " बार": 5568, "मय": 5569, " बहुमत": 5570, "ीनां": 5571, " व्यवस्था": 5572, " रहे": 5573, "चना": 5574, "हते": 5575, " व्याप": 5576, " पर्य": 5577, " दुर्योधनस्य": 5578, "मी": 5579, "िंश": 5580, "साह": 5581, "िः": 5582, " विश्वे": 5583, "णाम": 5584, " १९८": 5585, "पन्न": 5586, "ैली": 5587, "ित्त": 5588, " अपने": 5589, "एं": 5590, " पञ्चाल": 5591, " विदेशी": 5592, "महाद्वीप": 5593, " की।": 5594, " धीरे": 5595, " सहयोग": 5596, " शृ": 5597, "ट्": 5598, " बड़े": 5599, "द्वैपायन": 5600, " विशेष": 5601, " परम्।": 5602, " नेपाल": 5603, "सः॥": 5604, "महर्ष": 5605, " नर": 5606, " पड़": 5607, " अनेक": 5608, " आदि": 5609, "योः॥": 5610, " धृष्ट": 5611, "िन": 5612, "युग": 5613, " पाण्डवा": 5614, "भ्यां": 5615, "न्तर": 5616, " डॉल": 5617, " डॉलर": 5618, " जिसके": 5619, " सो": 5620, " समृद्ध": 5621, "ग्राम": 5622, " रख": 5623, "जरा": 5624, "्रात": 5625, "०००": 5626, " विश": 5627, " इंड": 5628, " दर": 5629, "ेभ्यः": 5630, "तमे": 5631, " सर्वो": 5632, " सर्वोच्च": 5633, " सूत": 5634, " ये": 5635, "समा": 5636, "णु": 5637, "लं": 5638, "र्प": 5639, " हालाँ": 5640, " हालाँकि": 5641, " महारा": 5642, "देशः": 5643, " १५": 5644, " अभि": 5645, " दृष्ट्वा": 5646, " अलग": 5647, " उभ": 5648, "वर्त": 5649, " लिख": 5650, " पाण्डु": 5651, " तो": 5652, "भूमिः": 5653, " तीस": 5654, "ैः॥": 5655, "भिः": 5656, " आधुनिक": 5657, "ेष्ठ": 5658, " कथा": 5659, "कच": 5660, " लेख": 5661, " विर": 5662, " गंगा": 5663, "गी": 5664, " विस्तार": 5665, "कर्म": 5666, " विस्तृत": 5667, " संक्ष": 5668, " रथ": 5669, " कर्ज": 5670, " पहा": 5671, "कृत": 5672, "दिष्ट": 5673, " बड़ी": 5674, " गांधी": 5675, " वर्षे": 5676, "करण": 5677, "क्रिया": 5678, " कृष्णेन": 5679, "मेत": 5680, " विराट": 5681, " तत्रैव": 5682, " वासुदेवस्य": 5683, "र्च": 5684, " किन्तु": 5685, "ेना": 5686, " अक्षौहिण": 5687, "ेक": 5688, " चक्र": 5689, " तमिल": 5690, "ियन": 5691, "ब्ध": 5692, "िष्ठ": 5693, "त्रे": 5694, "ासा": 5695, "पाख्यानमत्रैव": 5696, " ऊँच": 5697, "लावा": 5698, "लोक": 5699, " राजान": 5700, " ऋष": 5701, " उस": 5702, " स्तर": 5703, "विस्त": 5704, " होती": 5705, " धर्मराजस्य": 5706, " दर्श": 5707, "ोत्त": 5708, "वै": 5709, " अध्या": 5710, "दाय": 5711, "वीन्द्र": 5712, " एषः": 5713, "ंह": 5714, " राजनी": 5715, " पाण्डवान्": 5716, " संश": 5717, " धार्त": 5718, " ब्रि": 5719, " अंग्रेजी": 5720, " संवाद": 5721, " उच्च": 5722, " आन्द": 5723, "वर्येण": 5724, " सेवा": 5725, "रपे": 5726, "रपेक्ष": 5727, " पौलो": 5728, "योः": 5729, "न्थ": 5730, "ैवा": 5731, " रु": 5732, " समीप": 5733, "ज्ञे": 5734, " 22": 5735, "14": 5736, "500": 5737, " విస్త": 5738, " పాకి": 5739, " సంఖ్య": 5740, " క్రీడ": 5741, " వన": 5742, " 29": 5743, " మొదల": 5744, "రించి": 5745, " ఏర్ప": 5746, " ఐ": 5747, "జ్": 5748, " సమా": 5749, " జరిగ": 5750, " సార": 5751, "త్వం": 5752, "నము": 5753, "యు": 5754, "్రహ": 5755, " 65": 5756, "టా": 5757, " సరి": 5758, "డే": 5759, "క్రమ": 5760, " సర్ప": 5761, " అయోధ్య": 5762, "్వా": 5763, "ెల": 5764, "జి": 5765, "ట్టి": 5766, " మంది": 5767, "కల": 5768, "కీయ": 5769, " ఒకటి": 5770, " ముఖ్య": 5771, "బి": 5772, " కవి": 5773, "ముగా": 5774, " దశర": 5775, "ాల్లో": 5776, " ట": 5777, " రచయిత": 5778, "బడింది": 5779, "గర": 5780, " లంక": 5781, "ుంది": 5782, " సంస్కృ": 5783, "87": 5784, "వచ్చ": 5785, "లువ": 5786, "డిన": 5787, " కేంద్ర": 5788, " మాత్ర": 5789, " పేర్కొ": 5790, "ముని": 5791, " వారి": 5792, " కలిగి": 5793, " గల": 5794, " కాంగ": 5795, " కాంగ్రె": 5796, "విధ": 5797, " దేవ": 5798, " యుద్ధం": 5799, "పోయ": 5800, " సంవత్సరాల": 5801, " రామాయణం": 5802, " ఉత్తర": 5803, "ండో": 5804, "వం": 5805, "...": 5806, "నిప": 5807, " జరిగిన": 5808, "కొని": 5809, "సిన": 5810, " పంచ": 5811, "హార": 5812, " జనాభా": 5813, "గం": 5814, " ఆయన": 5815, " మీద": 5816, " రూప": 5817, " అంత": 5818, " వహ": 5819, " ప్రస్తు": 5820, " రవాణా": 5821, "ించే": 5822, " పాండవ": 5823, "స్తాన్": 5824, "ర్తి": 5825, "వృ": 5826, " సీ": 5827, " సీతా": 5828, "ాయక": 5829, "లక్ష్మణ": 5830, " इं": 5831, " तां": 5832, " वृद्ध": 5833, " अब": 5834, " विह": 5835, " दिल": 5836, " पत्र": 5837, " कश्म": 5838, " व्यापार": 5839, "िक्षा": 5840, "ोरं": 5841, "प्रिय": 5842, " भाजपा": 5843, " गत्वा": 5844, "ांति": 5845, "स्ते": 5846, " निर्या": 5847, "यक": 5848, "ग्": 5849, " यच्च": 5850, "त्सु": 5851, " सहा": 5852, "र्ध्वं": 5853, " समर्थन": 5854, " प्रतिशत": 5855, "वीर्य": 5856, " आं": 5857, "गतं": 5858, " मन्य": 5859, " ततः।": 5860, " विभिन्न": 5861, "ुव": 5862, "ानी": 5863, "सून": 5864, " बनाने": 5865, "ूह": 5866, "च्चैव": 5867, "ैश्च": 5868, "न्ना": 5869, "जं": 5870, "ादश": 5871, " भीष्म": 5872, "र्ता": 5873, "टा": 5874, "र्क": 5875, "मश": 5876, " अभी": 5877, "लाल": 5878, " सां": 5879, " मुनि": 5880, " दिया।": 5881, " सम्य": 5882, " यक्ष": 5883, "ण्डल": 5884, " इसकी": 5885, " धृष्टद्यु": 5886, "ष्प": 5887, " इस्ल": 5888, " इस्लाम": 5889, " सुभद्रा": 5890, "काः": 5891, "ख्यं": 5892, " १९६": 5893, "स्तस्य": 5894, " प्रारम्भ": 5895, "वर": 5896, "ात्र": 5897, "पो": 5898, " धर्मा": 5899, " १८": 5900, "वो": 5901, " गत": 5902, " विशाल": 5903, " जबकि": 5904, "४७": 5905, " सर्वा": 5906, "वायु": 5907, "णम्॥": 5908, "गरे": 5909, "गु": 5910, "सित": 5911, " राजधान": 5912, " राजधानी": 5913, " जाना": 5914, "ोसी": 5915, "कु": 5916, "ध्ये": 5917, "च्य": 5918, " लाख": 5919, "रिष्ठ": 5920, " समन्त": 5921, " समन्तपञ्च": 5922, "ृषि": 5923, "हरणं": 5924, " स्थापना": 5925, " आधार": 5926, " तद": 5927, "ारण्य": 5928, "र्ति": 5929, "नात": 5930, "ोः": 5931, " शा": 5932, " अथ": 5933, " ८": 5934, "तेज": 5935, "तिः॥": 5936, "तेषु": 5937, " गुप्त": 5938, "िताः॥": 5939, "वाह": 5940, "मानु": 5941, " २०": 5942, "ह्मा": 5943, " शौ": 5944, " सहस्र": 5945, " खा": 5946, "ूपा": 5947, " होते": 5948, " सिख": 5949, " कर्म": 5950, "टन": 5951, "तेन": 5952, "ंक": 5953, " अंग्रेज़ी": 5954, "हिन्द": 5955, "म्ना": 5956, " अपि": 5957, "ध्व": 5958, " पृथिव": 5959, " सिन्धु": 5960, " जाति": 5961, " मम": 5962, " गो": 5963, "यश्च": 5964, "्यामि": 5965, " जलो": 5966, " जलोढ़": 5967, "चिन्त": 5968, "वधः": 5969, "ान्धार": 5970, "हार": 5971, "ैर्व": 5972, "११": 5973, "र्न": 5974, "पात": 5975, "दिशि": 5976, " विध": 5977, "न्व": 5978, " दृ": 5979, " राजसू": 5980, " अफ्री": 5981, " अफ्रीका": 5982, "ने।": 5983, "गोलिक": 5984, " परी": 5985, "षाः": 5986, "र्जुनेन।": 5987, "तक": 5988, "ध्यम": 5989, " मिला": 5990, "डी": 5991, " दी": 5992, "जो": 5993, "ह्य": 5994, "ाखा": 5995, "नाङ्": 5996, "नाङ्के": 5997, " युद्धं": 5998, " तेनैव": 5999, " १९७": 6000, " गए": 6001, " बल": 6002, " धीमतः॥": 6003, " करता": 6004, " गीतस्य": 6005, "हार्द": 6006, " यथाव": 6007, " नम": 6008, " नृ": 6009, " यूरोप": 6010, " यूरोपीय": 6011, "मुच्यते।": 6012, "ादेश": 6013, "नाथठा": 6014, "नाथठाग": 6015, "नाथठागोर": 6016, " वर्ग": 6017, "बोध": 6018, " तस्मिन्": 6019, "ूढ": 6020, " अर्थव्यवस्था": 6021, "सर्व": 6022, "िना": 6023, " दिव्य": 6024, "ब्द": 6025, " राजनीतिक": 6026, " ब्राह्मण": 6027, " धार्तराष्ट्र": 6028, " ब्रिटि": 6029, " ब्रिटिश": 6030, "पुत्रा": 6031, " इत्या": 6032, " हिन्दू": 6033, " अधिकार": 6034, "कस्य": 6035, " नारद": 6036, " आन्दोलन": 6037, "स्तथा॥": 6038, "द्रथ": 6039, " ति": 6040, " भारती": 6041, "ोक्ष": 6042, "क्षु": 6043, " ऋतु": 6044, "ंजा": 6045, " निह": 6046, "शन": 6047, "ूय": 6048, " अमरी": 6049, " कुछ": 6050, "ज्यो": 6051, " क्रोध": 6052, "04": 6053, "62": 6054, " 190": 6055, " ).": 6056, "67": 6057, "ర్మా": 6058, " ఇండి": 6059, " అవ": 6060, " ప్రదేశ": 6061, "మిళ": 6062, " 45": 6063, " సామ": 6064, "ష్మ": 6065, " జాతీయ": 6066, "సియా": 6067, "యైన": 6068, "వంశ": 6069, "మ్య": 6070, " కను": 6071, " మహర్షి": 6072, "జ్ఞ": 6073, "కున్న": 6074, "ంగ్": 6075, " ఖ": 6076, " సరిహ": 6077, " ప్రక": 6078, " ప్రకారం": 6079, "దారు": 6080, "వులు": 6081, "మిత్ర": 6082, " పూర్వం": 6083, "పార": 6084, "కుడు": 6085, " రాజకీయ": 6086, "ార్థ": 6087, " ఋ": 6088, " పురా": 6089, " Fact": 6090, " Factbook": 6091, " బె": 6092, "25": 6093, " మి": 6094, "ile": 6095, " బహు": 6096, "రాష్ట్ర": 6097, "జయ": 6098, "త్యధిక": 6099, "మున": 6100, " సంగీత": 6101, "199": 6102, "రుగు": 6103, " కాలం": 6104, " వద్ద": 6105, " ఫ": 6106, " విష్ణు": 6107, " శత్ర": 6108, " శత్రు": 6109, " కి": 6110, " రాజు": 6111, "వేశ": 6112, "ద్ధి": 6113, "దని": 6114, " ఘ": 6115, "నని": 6116, "భిషే": 6117, "రామాయణ": 6118, "\",": 6119, "ప్త": 6120, " ఉంటాయి": 6121, "ినీ": 6122, " ఆమె": 6123, " సాధ": 6124, "ిల్ల": 6125, "39": 6126, "46": 6127, "ెక్క": 6128, " భాగ": 6129, "డ్డ": 6130, " వధ": 6131, "మై": 6132, " చెందిన": 6133, " రాముడు": 6134, " ప్రజ": 6135, "వీ": 6136, "ారిలో": 6137, "కావ్య": 6138, "ైనా": 6139, " మం": 6140, "త్వంలో": 6141, " చిన్న": 6142, " ప్రముఖ": 6143, "రించిన": 6144, " దేశాల": 6145, "300": 6146, "ఃఖ": 6147, " శి": 6148, " నిర్వ": 6149, " నిర్వహ": 6150, " స్థాన": 6151, " సాగ": 6152, "कम्॥": 6153, "णाली": 6154, " दिल्ल": 6155, " दिल्ली": 6156, "शासनम्।": 6157, "ोकानां": 6158, "ters": 6159, "वार": 6160, " बेङ्ग": 6161, " महाम": 6162, "स्लिम": 6163, " नदियाँ": 6164, "श्चै": 6165, "क्रमण": 6166, "भु": 6167, "ोटे": 6168, " पार्थस्य": 6169, " वीं": 6170, "स्तथा।": 6171, "मिति": 6172, "ोतु": 6173, " ७": 6174, "मूल": 6175, " उपमहाद्वीप": 6176, "त्प": 6177, " राजवंश": 6178, "ब्रवीत्।": 6179, " राज्ञां": 6180, " जीत": 6181, " अहि": 6182, "ितम्": 6183, " कहते": 6184, " तेषु": 6185, "ास्तव": 6186, " कर्णस्य": 6187, " तथैव": 6188, " लो": 6189, " सभ्य": 6190, "्याश्च": 6191, " परमर्षिणा।": 6192, "हरलाल": 6193, "न्मह": 6194, "स्कृतिक": 6195, "Austral": 6196, "Australian": 6197, "ासे": 6198, " संप्राप्त": 6199, "wa": 6200, " जनमे": 6201, " जनमेजय": 6202, " मंत्र": 6203, " समाप्त": 6204, " धृष्टद्युम्न": 6205, " पी": 6206, "यानं": 6207, "वर्ण": 6208, " शक्त": 6209, " तदन": 6210, " चरितं": 6211, " श्व": 6212, "भर": 6213, "ूट": 6214, " संग्राम": 6215, "तिष्ठ": 6216, "ाचार्य": 6217, " गदा": 6218, " लिया": 6219, " राज्यसभा": 6220, "क्ष्य": 6221, " गई": 6222, "ंप": 6223, " धनं": 6224, " धनंजय": 6225, "द्द": 6226, "भिषे": 6227, "िताः": 6228, "थी": 6229, " भ्रात": 6230, " इंडिया": 6231, " सर्वे": 6232, " प्रया": 6233, " प्रयास": 6234, " ६": 6235, " जलवायु": 6236, " पथ": 6237, " तच्च": 6238, "वेद": 6239, "रह": 6240, " महर्षे": 6241, " धीमतः।": 6242, " पड़ोसी": 6243, " रही": 6244, " अमेर": 6245, " अमेरिका": 6246, " पत": 6247, " अभव": 6248, "ज्ञान": 6249, " कोई": 6250, "चन": 6251, "ासेन": 6252, " सन्": 6253, " संगीत": 6254, " 900": 6255, "भवत्॥": 6256, "स्तेषां": 6257, " सनात": 6258, "क्षर": 6259, "शो": 6260, "श्वत्": 6261, "कृ": 6262, "भारतम्": 6263, "सः।": 6264, " अश": 6265, " जैन": 6266, " घोषणा": 6267, "संस्कृत": 6268, " महात्मना।": 6269, " छोड़": 6270, " भव": 6271, "राणां": 6272, "५०": 6273, " अष्टौ": 6274, " लगभग": 6275, "निष": 6276, " सरकारें": 6277, " यत्रास्य": 6278, "दय": 6279, " विद्व": 6280, " ब्रह्मा": 6281, "वस्य": 6282, " गई।": 6283, " शक्ति": 6284, "तिज्ञ": 6285, " वेदा": 6286, "बा": 6287, "माने": 6288, " संख्य": 6289, "मिच्छ": 6290, " Post": 6291, "यश": 6292, " प्रचल": 6293, " विविधाः": 6294, "कर्मण": 6295, "वं": 6296, " संक्षि": 6297, " बै": 6298, " माल": 6299, " जहाँ": 6300, "योऽ": 6301, " लोगों": 6302, "ेन्द्र": 6303, "लु": 6304, "हिन्दी": 6305, "22": 6306, " गता": 6307, " भवि": 6308, " आया": 6309, "हुः": 6310, "ति।": 6311, " तथा।": 6312, "ूत": 6313, "ेत्य": 6314, " मही": 6315, " भरत": 6316, " सल": 6317, " सल्त": 6318, " सल्तन": 6319, " सल्तनत": 6320, " निर्दिष्ट": 6321, " हिस्": 6322, " ता": 6323, " वनवास": 6324, "वस्थ": 6325, " नै": 6326, " जिसका": 6327, "्यों": 6328, "मार": 6329, "ब्रह्म": 6330, " कथ्यते": 6331, " पुत्रा": 6332, " पूर्वं": 6333, " जरा": 6334, " गान्धार": 6335, "मन्त्र": 6336, "यत्।": 6337, "ोकसहस्राणि": 6338, "ंबे": 6339, " रो": 6340, " Mon": 6341, " Monsoon": 6342, "निक": 6343, " कृतवान्": 6344, "श्चि": 6345, "ञ्चाल": 6346, " वंश": 6347, " मिलियन": 6348, " शतानि": 6349, " बंग": 6350, "मनं": 6351, " थे।": 6352, " दृष्टि": 6353, "मुपा": 6354, "ायिका": 6355, " कृतं": 6356, "नेमा": 6357, "ध्यात्म": 6358, " टे": 6359, "नो": 6360, " माम": 6361, " तट": 6362, " राजन": 6363, " राजनैत": 6364, " राजनैतिक": 6365, " परिव": 6366, " सर्वैः": 6367, "दर्शन": 6368, "ुक्त्वा": 6369, " इदं": 6370, " अलावा": 6371, " नरा": 6372, "ुमर्ह": 6373, "ौगोलिक": 6374, " जून": 6375, " भाषाः": 6376, "निव": 6377, "वीं": 6378, " उसके": 6379, "द्वि": 6380, " माध्यम": 6381, "ष्क": 6382, " वर्तमान": 6383, "हन": 6384, "श्चात्र": 6385, " दिनाङ्के": 6386, "णम": 6387, "्रां": 6388, " पुत्रश": 6389, "यः।": 6390, " ३": 6391, "स्ततः": 6392, "नय": 6393, "धीय": 6394, "षष्ट": 6395, "रण्य": 6396, " पर्वोक्तं": 6397, " आग": 6398, " शुरू": 6399, " Sum": 6400, " मानसून": 6401, " देशे": 6402, " सौहार्द": 6403, "टोत्": 6404, "टोत्कच": 6405, " पूर्वी": 6406, " किये": 6407, " चल": 6408, "तत्त्व": 6409, "डि": 6410, "रक्ष": 6411, "गरं": 6412, "ष्टौ": 6413, " आज": 6414, "वल": 6415, "न्या": 6416, " निभाई": 6417, " मुक्त": 6418, " पहु": 6419, " पहुँच": 6420, " सिंह": 6421, "सर्वकार": 6422, " मुन": 6423, " 140": 6424, " वैराट": 6425, " त्व": 6426, " राज्ञो": 6427, " तुल": 6428, "ामु": 6429, " बने": 6430, "राणि": 6431, " संयुग": 6432, " पाण्डवान्प्रति": 6433, "संह": 6434, " जनता": 6435, " झ": 6436, "ादि": 6437, " आप": 6438, "ेयमतः": 6439, " पार्ट": 6440, " चात्र": 6441, "सहस्र": 6442, "सहस्रं": 6443, "मनु": 6444, " प्रौ": 6445, " प्रौद्योग": 6446, " प्रौद्योगिकी": 6447, "तिहास": 6448, " माना": 6449, "ञ्ज": 6450, "भारतं": 6451, " रवीन्द्र": 6452, "निरपेक्ष": 6453, " घा": 6454, " जयद्रथ": 6455, "त्तमा": 6456, " सह।": 6457, " हतं": 6458, " विधान": 6459, "्यादा": 6460, " पंजा": 6461, "पाण्डव": 6462, "ृतां": 6463, " 72": 6464, "तांत्र": 6465, "तांत्रिक": 6466, "लों": 6467, "ोऽथ": 6468, " %": 6469, " सामा": 6470, " सामाज": 6471, " सामाजिक": 6472, "ाहरी": 6473, "ितीय": 6474, " उवाच": 6475, " कृषि": 6476, " ढ": 6477, " महारथ": 6478, "्वर": 6479, "23": 6480, " ఇండియా": 6481, "న్ను": 6482, " 93": 6483, " వనవాస": 6484, "టలు": 6485, " క్": 6486, " అల": 6487, "ాగే": 6488, " సినిమ": 6489, " సీతారా": 6490, " క్ర": 6491, " అధికారిక": 6492, "్యము": 6493, " దేశంలోని": 6494, " కూడిన": 6495, " స్వా": 6496, "పాద": 6497, "దారులు": 6498, " పద": 6499, "ece": 6500, "స్వ": 6501, " సర్పయ": 6502, " విశ్వా": 6503, " విశ్వామిత్ర": 6504, " 800": 6505, "వుల": 6506, " 32": 6507, " వాడు": 6508, " తెలుగు": 6509, "ాలకు": 6510, "తీ": 6511, "ంగాల": 6512, " వాతా": 6513, " వాతావ": 6514, " వాతావరణం": 6515, "):": 6516, " పీ": 6517, "63": 6518, " గో": 6519, " కై": 6520, "మంత": 6521, " అత్యధిక": 6522, " సాహిత": 6523, "స్తూ": 6524, "శి": 6525, "తుల": 6526, "700": 6527, "జన": 6528, " అయోధ్యకు": 6529, "II": 6530, "మాన": 6531, " రహ": 6532, "rown": 6533, "31": 6534, "లూ": 6535, " 97": 6536, "Count": 6537, " వివిధ": 6538, "ద్ధం": 6539, " అక్కడ": 6540, "సూ": 6541, " ది": 6542, "వాహ": 6543, "నిక": 6544, " సౌక": 6545, " సౌకర్య": 6546, "భవ": 6547, " 82": 6548, " మర": 6549, "517": 6550, "లీ": 6551, "ల్లో": 6552, "ఢిల్ల": 6553, "ఢిల్లీ": 6554, "్డ": 6555, "గణ": 6556, " కనిప": 6557, " సర్గ": 6558, " సర్గలు": 6559, " 700": 6560, " చూ": 6561, " లి": 6562, " పద్ధ": 6563, "16": 6564, " బ్రి": 6565, "షు": 6566, "జ్య": 6567, "్రం": 6568, "్రంథ": 6569, " భారత్": 6570, "మో": 6571, "ww": 6572, " బా": 6573, "త్వా": 6574, "44": 6575, "మీ": 6576, " పక్ష": 6577, " చేసిన": 6578, " లేదా": 6579, " వ్యాసుడు": 6580, " మొత్": 6581, " మొత్తం": 6582, " నడి": 6583, " 49": 6584, "క్షౌహిణి": 6585, " ప్రాంతాలు": 6586, "28": 6587, " కొన్ని": 6588, " వంశ": 6589, " 120": 6590, " వచ్చి": 6591, "ంతి": 6592, "గలు": 6593, " హనుమంతుడు": 6594, "గమ": 6595, "422": 6596, "టీ": 6597, " పున": 6598, "థి": 6599, "త్రక": 6600, "cur": 6601, " పుట్ట": 6602, " ఉండ": 6603, " దుఃఖ": 6604, "lar": 6605, " నాయక": 6606, " BB": 6607, " BBC": 6608, " తిరి": 6609, " పండు": 6610, "ందరి": 6611, " మార్గ": 6612, "07": 6613, " ec": 6614, " ecologically": 6615, " इंदि": 6616, " इंदिरा": 6617, "पय": 6618, " Democracy": 6619, " Vindh": 6620, " Vindhya": 6621, " Mahal": 6622, " भारतवर्ष": 6623, "232": 6624, " subduction": 6625, " prep": 6626, " prepared": 6627, " Just": 6628, " Justice": 6629, " patronised": 6630, " subdu": 6631, " subdue": 6632, " create": 6633, " देखा": 6634, " glob": 6635, " globally": 6636, " దండ": 6637, " हैंः": 6638, " जनवरी": 6639, " dhamm": 6640, " dhamma": 6641, " Garh": 6642, " Garhw": 6643, " Garhwal": 6644, " प्रणाली": 6645, " నారదు": 6646, "विंश": 6647, " Networks": 6648, " settings": 6649, " తమిళ": 6650, " grazed": 6651, " nas": 6652, " nascent": 6653, " Har": 6654, " Harapp": 6655, " Harappa": 6656, " det": 6657, " detail": 6658, " నామ": 6659, " prec": 6660, " precise": 6661, "produc": 6662, "producing": 6663, " continent": 6664, " continental": 6665, " Hell": 6666, " Hellen": 6667, " Hellenistic": 6668, " puls": 6669, " pulses": 6670, " Amb": 6671, " Ambed": 6672, " Ambedk": 6673, " Ambedkar": 6674, " 1921": 6675, " Bef": 6676, " Before": 6677, "Until": 6678, " rush": 6679, "scheduled": 6680, " taxpay": 6681, " taxpayers": 6682, " predominate": 6683, " 1966": 6684, " 1936": 6685, " Shown": 6686, " occupies": 6687, " declares": 6688, " Thous": 6689, " Thousands": 6690, "See": 6691, " Trigonomet": 6692, " Trigonometry": 6693, " astring": 6694, " astringent": 6695, " visible": 6696, " outside": 6697, " patr": 6698, " patril": 6699, " patriline": 6700, " patrilineal": 6701, " Naren": 6702, " Narendra": 6703, "South": 6704, " Forest": 6705, " Elections": 6706, " drin": 6707, " drink": 6708, " drinkers": 6709, " Mathur": 6710, " Mathura": 6711, " Cons": 6712, " Conserv": 6713, " Conservation": 6714, " भील": 6715, " Judes": 6716, " fre": 6717, " freed": 6718, " freedom": 6719, " 46": 6720, "ित्": 6721, " cum": 6722, " cumin": 6723, " grid": 6724, " gridd": 6725, " griddled": 6726, " famine": 6727, " direction": 6728, " అర్": 6729, " newly": 6730, " पत्रिका": 6731, " consolidation": 6732, "Andh": 6733, "Andhra": 6734, "193": 6735, " आगमन": 6736, " suture": 6737, " legacy": 6738, " 176": 6739, " 1765": 6740, " steat": 6741, " steatite": 6742, " underw": 6743, " underwent": 6744, " शिक्षा": 6745, "मासी": 6746, "Wik": 6747, "Wikime": 6748, "Wikimedia": 6749, " sine": 6750, " Palgh": 6751, " Palghat": 6752, " संबंधों": 6753, " लोकप्रिय": 6754, " draf": 6755, " drafted": 6756, " ఎన్ను": 6757, "टक": 6758, "Guk": 6759, "Gukesh": 6760, " Shek": 6761, " Shekhar": 6762, "టులు": 6763, " chapters": 6764, " course": 6765, " inve": 6766, " invest": 6767, " investment": 6768, " inclus": 6769, " inclusive": 6770, " 1848": 6771, " arc": 6772, " stands": 6773, " 1881": 6774, " cuisine": 6775, " tour": 6776, " tourism": 6777, " बेङ्गली": 6778, " appell": 6779, " appellate": 6780, "द्यं": 6781, " southwesterly": 6782, "GDP": 6783, " improv": 6784, " improvis": 6785, " improvisational": 6786, " अधिकृत्य": 6787, " इसमें": 6788, " inge": 6789, " ingested": 6790, " शूर": 6791, " 2012": 6792, " 79": 6793, " referring": 6794, "generally": 6795, " Yarlung": 6796, " supplies": 6797, " Gr": 6798, " Group": 6799, " peep": 6800, " peepul": 6801, " basis": 6802, " Than": 6803, " Thanj": 6804, " Thanjav": 6805, " Thanjavur": 6806, " northeast": 6807, " tribe": 6808, " అలాగే": 6809, " Uttarakhand": 6810, "మహాభారతం": 6811, " exporting": 6812, " Further": 6813, "స్వా": 6814, " Akademi": 6815, " reh": 6816, " rehabil": 6817, " rehabilitated": 6818, " deb": 6819, " debate": 6820, " same": 6821, " multin": 6822, " multinational": 6823, " Naras": 6824, " Narasim": 6825, " Narasimh": 6826, " Narasimha": 6827, " sarong": 6828, " cori": 6829, " coriand": 6830, " coriander": 6831, " Kaling": 6832, " Kalinga": 6833, " मानु": 6834, "्ये": 6835, " Dalits": 6836, " supply": 6837, " supplying": 6838, " decisively": 6839, " markedly": 6840, " God": 6841, " Godav": 6842, " Godavari": 6843, " Exp": 6844, " Expanding": 6845, " sol": 6846, " soldi": 6847, " soldiers": 6848, "ान्तं": 6849, " Shra": 6850, " Shravan": 6851, " Shravanabel": 6852, " Shravanabelag": 6853, " Shravanabelagola": 6854, " unle": 6855, " unleav": 6856, " unleavened": 6857, " varnas": 6858, " hold": 6859, " holding": 6860, "न्द्रा": 6861, " Natak": 6862, " 113": 6863, "Indust": 6864, "Industries": 6865, "కల్ప": 6866, " maintains": 6867, " भग्न": 6868, " Jains": 6869, " sync": 6870, " syncret": 6871, " syncretic": 6872, " occupations": 6873, " higher": 6874, "Since": 6875, " eld": 6876, " elders": 6877, " अति": 6878, " Project": 6879, "ादु": 6880, " मुस्लिम": 6881, "Mumbai": 6882, " care": 6883, " Chord": 6884, " Chords": 6885, " adv": 6886, " advances": 6887, " spring": 6888, " Despite": 6889, "गुण": 6890, " Achaemenid": 6891, "Early": 6892, "ध्यायं": 6893, "कालीन": 6894, " survive": 6895, " limits": 6896, " ruler": 6897, "त्वं": 6898, "210": 6899, " La": 6900, " Laos": 6901, "भागे": 6902, " సినిమాలు": 6903, " chik": 6904, " chikank": 6905, " chikankari": 6906, " theore": 6907, " theorem": 6908, " forb": 6909, " forbade": 6910, " depos": 6911, " deposition": 6912, " नदी": 6913, "संविधान": 6914, " Panch": 6915, " Panchat": 6916, " Panchatant": 6917, " Panchatantra": 6918, " warmer": 6919, " grown": 6920, " फैली": 6921, " carr": 6922, " carrion": 6923, " Fic": 6924, " Ficus": 6925, " mant": 6926, " mantle": 6927, "र्माण": 6928, " ह।": 6929, " Econom": 6930, " Economic": 6931, " ming": 6932, " mingled": 6933, " Esc": 6934, " Esche": 6935, " Eschewing": 6936, " conif": 6937, " coniferous": 6938, " కూడు": 6939, "ैर्म": 6940, " shar": 6941, " sharp": 6942, " ham": 6943, " hamstr": 6944, " hamstrung": 6945, " stea": 6946, " steadi": 6947, " steadily": 6948, " dining": 6949, " aggl": 6950, " agglom": 6951, " agglomer": 6952, " agglomerations": 6953, " golds": 6954, " capability": 6955, " geolog": 6956, " geologic": 6957, " tri": 6958, " triad": 6959, "getter": 6960, " greatly": 6961, " prev": 6962, " prevail": 6963, " prevailing": 6964, " भाषाएं": 6965, " train": 6966, " drive": 6967, " Maldiv": 6968, " Maldives": 6969, " 44": 6970, " arra": 6971, " array": 6972, " innovations": 6973, " महाक्र": 6974, " camp": 6975, " camps": 6976, " consolidate": 6977, " marble": 6978, "द्रोह": 6979, " Chot": 6980, " Chota": 6981, "Mang": 6982, "Mango": 6983, " contribution": 6984, "Cl": 6985, "Cloth": 6986, "Clothing": 6987, " Emb": 6988, " Embrac": 6989, " Embracing": 6990, " चि": 6991, "last": 6992, "lasting": 6993, " decline": 6994, " paved": 6995, " landmar": 6996, " landmark": 6997, " बज": 6998, " बजट": 6999, " पितर": 7000, " sidel": 7001, " sideline": 7002, "Defin": 7003, "Definitions": 7004, " fav": 7005, " favou": 7006, " favoured": 7007, " Arund": 7008, " Arundale": 7009, "National": 7010, " prey": 7011, " preyed": 7012, " gram": 7013, " gramm": 7014, " grammatical": 7015, " repl": 7016, " replaced": 7017, " ప్రమా": 7018, " image": 7019, " notably": 7020, "Vis": 7021, "Visual": 7022, " herit": 7023, " heritage": 7024, " कर्त": 7025, " fastest": 7026, " Indos": 7027, " initially": 7028, " daw": 7029, " dawnings": 7030, " तच्छ": 7031, " scripts": 7032, " proportion": 7033, " proportional": 7034, " generic": 7035, " movements": 7036, " consecut": 7037, " consecutive": 7038, " origins": 7039, "eastw": 7040, "eastward": 7041, " midri": 7042, " midriff": 7043, " mrid": 7044, " mridangam": 7045, " Noted": 7046, " governed": 7047, "योज": 7048, " peh": 7049, " pehl": 7050, " pehlw": 7051, " pehlwani": 7052, " fell": 7053, "Nag": 7054, "Nagal": 7055, "Nagaland": 7056, " aren": 7057, " arenas": 7058, "Gupta": 7059, " cosm": 7060, " cosmop": 7061, " cosmopolit": 7062, " cosmopolitan": 7063, " few": 7064, " शह": 7065, " शहरी": 7066, " గాంధ": 7067, " promul": 7068, " promulg": 7069, " promulgation": 7070, " latitude": 7071, " Bound": 7072, " Bounded": 7073, " pron": 7074, " pronoun": 7075, " pronounced": 7076, " తండ": 7077, " rak": 7078, " raksha": 7079, " Trans": 7080, "सुप्त": 7081, " Srir": 7082, " Srirang": 7083, " Srirangap": 7084, " Srirangapat": 7085, " Srirangapatna": 7086, " crow": 7087, " crowded": 7088, "र्वृत्त": 7089, " governing": 7090, " contrast": 7091, " contrasting": 7092, " చెప్పడానికి": 7093, " निवेश": 7094, "ందులో": 7095, " resol": 7096, " resolution": 7097, " fie": 7098, " field": 7099, " mandating": 7100, " 1857": 7101, " Thom": 7102, " Thomas": 7103, " Thomason": 7104, " thous": 7105, " thousand": 7106, " chall": 7107, " challeng": 7108, " challenges": 7109, " tatt": 7110, " tattoo": 7111, " sources": 7112, " economics": 7113, " bird": 7114, " పఠ": 7115, " లా": 7116, " monk": 7117, " monkey": 7118, " registers": 7119, " carb": 7120, " carbon": 7121, " infections": 7122, "चित्": 7123, "Align": 7124, "Aligned": 7125, " flaw": 7126, " flawed": 7127, " using": 7128, " Persianised": 7129, " अहिं": 7130, " अहिंसा": 7131, " Art": 7132, " musical": 7133, " flanked": 7134, "ण्व": 7135, "देत": 7136, " allu": 7137, " alluv": 7138, " alluvial": 7139, "చార": 7140, "Text": 7141, "Textbook": 7142, "Textbooks": 7143, " zeb": 7144, " zebu": 7145, " practice": 7146, " Faith": 7147, " 600": 7148, " canalled": 7149, " geographical": 7150, " మే": 7151, "यम्॥": 7152, " lie": 7153, " obstructive": 7154, " वास्तव": 7155, " beac": 7156, " beaches": 7157, "ानों": 7158, " usage": 7159, " writing": 7160, " 172": 7161, "Cu": 7162, "Cuis": 7163, "Cuisine": 7164, " cres": 7165, " crescent": 7166, "bec": 7167, "because": 7168, " entered": 7169, "nine": 7170, "तीस": 7171, " separ": 7172, " separated": 7173, " స్వాతంత్ర": 7174, "లేదు": 7175, " exercised": 7176, "Major": 7177, " अगाय": 7178, " organised": 7179, "साद": 7180, " Eng": 7181, " Engineering": 7182, "Tra": 7183, "Travel": 7184, " 1994": 7185, " Marathas": 7186, " amb": 7187, " ambitions": 7188, " उक्त": 7189, " monso": 7190, " monsoons": 7191, " territory": 7192, "तानि": 7193, " itsel": 7194, " itself": 7195, "డ్డు": 7196, " asp": 7197, " aspect": 7198, " notes": 7199, " teleg": 7200, " telegraph": 7201, "gener": 7202, "generational": 7203, " obstructed": 7204, " networks": 7205, " outc": 7206, " outcrop": 7207, " outcrops": 7208, " २००४": 7209, "स्तत्र": 7210, "ाणि": 7211, " सभ्यता": 7212, "Media": 7213, " unl": 7214, " unlin": 7215, " unlinked": 7216, "2001": 7217, " reach": 7218, " reaching": 7219, " Br": 7220, " Brune": 7221, " Brunei": 7222, " meter": 7223, " iron": 7224, " park": 7225, " parks": 7226, " units": 7227, " despite": 7228, " establish": 7229, " establishment": 7230, "वित्र": 7231, "ख्यानमत्रैव": 7232, " Viet": 7233, " Vietnam": 7234, " pi": 7235, " piece": 7236, " 1996": 7237, " సర్పయాగం": 7238, " devastating": 7239, "णम्।": 7240, " Sch": 7241, " School": 7242, "ान्॥": 7243, " बढ़ती": 7244, " Mughals": 7245, " सांस्कृतिक": 7246, "Interior": 7247, " 2020": 7248, " lear": 7249, " learn": 7250, " learned": 7251, "र्वं": 7252, " thereb": 7253, " thereby": 7254, " Web": 7255, "ाश": 7256, " केश": 7257, "national": 7258, " multiple": 7259, "ంతా": 7260, "पश्चिम": 7261, " faster": 7262, " రాజ్యా": 7263, "ంగం": 7264, " hosts": 7265, " विचित्रा": 7266, " deter": 7267, " determin": 7268, " determined": 7269, " endemics": 7270, "divide": 7271, " equall": 7272, " equalling": 7273, " 2006": 7274, " stood": 7275, " Nil": 7276, " Nilg": 7277, " Nilgir": 7278, " Nilgiris": 7279, " धार्म": 7280, " devad": 7281, " devadas": 7282, " devadasis": 7283, " ric": 7284, " riches": 7285, " awa": 7286, " await": 7287, " ep": 7288, " epics": 7289, " playback": 7290, " portra": 7291, " portraits": 7292, " 1500": 7293, " समागम": 7294, "Sal": 7295, "Salt": 7296, "Saltwat": 7297, "Saltwater": 7298, " Demon": 7299, " civilisation": 7300, " statues": 7301, " करती": 7302, " mixture": 7303, " hel": 7304, " helped": 7305, "orig": 7306, "origin": 7307, " मंत्रिम": 7308, " मंत्रिमण्डल": 7309, " saf": 7310, " safety": 7311, " सुत": 7312, " genres": 7313, " supplied": 7314, " 343": 7315, " dates": 7316, " దర్శ": 7317, " grooms": 7318, " groomsmen": 7319, " liz": 7320, " lizard": 7321, " heredi": 7322, " heredity": 7323, " ప్రార్థ": 7324, "eag": 7325, "eagle": 7326, " nom": 7327, " noma": 7328, " nomadic": 7329, " Odisha": 7330, " fel": 7331, " felt": 7332, " spite": 7333, "Bhangra": 7334, "design": 7335, "designated": 7336, " wedd": 7337, " weddings": 7338, " peas": 7339, " peasants": 7340, " spiced": 7341, " dai": 7342, " daily": 7343, " Forecast": 7344, " Forecasts": 7345, " तदनन्तर": 7346, " still": 7347, "Soc": 7348, "Society": 7349, " purple": 7350, " Dhyan": 7351, " dosa": 7352, " decen": 7353, " decenn": 7354, " decennial": 7355, "కోవ": 7356, " worldw": 7357, " worldwide": 7358, " council": 7359, " perm": 7360, " perman": 7361, " permanent": 7362, " Cha": 7363, " Chaud": 7364, " Chaudh": 7365, " Chaudhary": 7366, " winter": 7367, " estimating": 7368, "Ex": 7369, "External": 7370, " సముద్ర": 7371, " committees": 7372, " reported": 7373, " IU": 7374, " IUC": 7375, " IUCN": 7376, "स्त्व": 7377, " 2014": 7378, " वरः।": 7379, " render": 7380, " rendering": 7381, " सोवि": 7382, " सोवियत": 7383, "वाहरलाल": 7384, " walled": 7385, " exceed": 7386, " exceeding": 7387, " బెంగాల": 7388, " Pri": 7389, " Primary": 7390, "నది": 7391, " amphibian": 7392, " uni": 7393, " univers": 7394, " universities": 7395, " beach": 7396, " pa": 7397, " paid": 7398, " devotional": 7399, " regard": 7400, " regarded": 7401, " bes": 7402, " beset": 7403, " 1820": 7404, " exchanged": 7405, " వ్రాత": 7406, " month": 7407, " months": 7408, " Wiki": 7409, " Wikiversity": 7410, " Olympic": 7411, " enabl": 7412, " enabling": 7413, " haw": 7414, " hawk": 7415, " consumer": 7416, " 1977": 7417, " दिश": 7418, " Canal": 7419, "िं": 7420, "351": 7421, " Hass": 7422, " Hassan": 7423, " Tip": 7424, " Tipu": 7425, " upon": 7426, "ిన్న": 7427, "cook": 7428, "cooked": 7429, " socially": 7430, " ident": 7431, " identity": 7432, "दयः": 7433, " marrying": 7434, " गदायुद्ध": 7435, " జాబి": 7436, " జాబితా": 7437, " Subb": 7438, " Subbul": 7439, " Subbulaksh": 7440, " Subbulakshm": 7441, " Subbulakshmi": 7442, "were": 7443, " rit": 7444, " ritual": 7445, " adheren": 7446, " adherents": 7447, " Dire": 7448, " Direct": 7449, " Directory": 7450, " Deve": 7451, " reference": 7452, " anatomically": 7453, " అభిప్ర": 7454, " అభిప్రాయ": 7455, " autonom": 7456, " autonomy": 7457, " fine": 7458, " finely": 7459, " sought": 7460, "ौपद्या": 7461, " దశరథ": 7462, " disp": 7463, " disprop": 7464, " disproportion": 7465, " disproportionately": 7466, "elected": 7467, " Dic": 7468, " Dictionary": 7469, " adhered": 7470, "There": 7471, " Dand": 7472, " Dandari": 7473, "lower": 7474, " गुजरा": 7475, " कौर": 7476, " tribut": 7477, " tributaries": 7478, " పీఠ": 7479, " plat": 7480, " platter": 7481, "official": 7482, " deem": 7483, " deems": 7484, " Lanka": 7485, " while": 7486, " sizes": 7487, "नीष": 7488, "नीषिण": 7489, " Hindustan": 7490, " clot": 7491, " clothes": 7492, " lying": 7493, " sealed": 7494, " flourished": 7495, " Emp": 7496, " Empires": 7497, " Taj": 7498, " refined": 7499, " archip": 7500, " archipel": 7501, " archipelag": 7502, " archipelagos": 7503, " కైకే": 7504, " కైకేయ": 7505, "Raj": 7506, "Rajast": 7507, "Rajasthan": 7508, " favour": 7509, " Ox": 7510, " Oxf": 7511, " Oxford": 7512, "54": 7513, " हॉ": 7514, " हॉकी": 7515, " cuff": 7516, " cuffed": 7517, " पितृ": 7518, "िता॥": 7519, " silver": 7520, " causes": 7521, " marit": 7522, " maritime": 7523, " Sarnaism": 7524, " मैदानी": 7525, "ఒక": 7526, " garments": 7527, " faraw": 7528, " faraway": 7529, " Min": 7530, " Minim": 7531, " Minimum": 7532, " legislation": 7533, " sculptors": 7534, " Bharatav": 7535, " Bharatavar": 7536, " Bharatavarsha": 7537, " दक्षिणे": 7538, "shap": 7539, "shaped": 7540, " Killing": 7541, " received": 7542, " appearance": 7543, " सत": 7544, " rocked": 7545, " 1974": 7546, " canop": 7547, " canopy": 7548, " resist": 7549, " resistance": 7550, " लोकसभा": 7551, " latitudes": 7552, " isolates": 7553, " draped": 7554, " Sha": 7555, " Shaiv": 7556, " Shaivite": 7557, " employing": 7558, " Khan": 7559, " plural": 7560, " pluralistic": 7561, " complete": 7562, " marma": 7563, " chart": 7564, " charts": 7565, "जि": 7566, " foundations": 7567, "Sik": 7568, "Sikkim": 7569, " birthpl": 7570, " birthplace": 7571, " divis": 7572, " divisions": 7573, " scenes": 7574, " fend": 7575, " tang": 7576, " tangent": 7577, ")).": 7578, " Kathakali": 7579, " पुण्यं": 7580, " trous": 7581, " trousers": 7582, " वस": 7583, " neol": 7584, " neolith": 7585, " neolithic": 7586, " enc": 7587, " encro": 7588, " encroach": 7589, " encroachment": 7590, " resur": 7591, " resurg": 7592, " resurgence": 7593, "UPA": 7594, " Rig": 7595, " evidence": 7596, " Pandy": 7597, " Pandyas": 7598, " hund": 7599, " hundred": 7600, " centralised": 7601, " restric": 7602, " restrictions": 7603, " stret": 7604, " stretch": 7605, " stretching": 7606, " వంట": 7607, " Jim": 7608, "weap": 7609, "weapon": 7610, " रथा": 7611, " rice": 7612, " उत्पाद": 7613, "serving": 7614, " Teruk": 7615, " Terukk": 7616, " Terukkut": 7617, " Terukkutt": 7618, " Terukkuttu": 7619, " किए": 7620, " individ": 7621, " individual": 7622, " transac": 7623, " transaction": 7624, " transactional": 7625, " transactionalism": 7626, "Tel": 7627, "Telangana": 7628, " technique": 7629, " deriving": 7630, "Isl": 7631, "Islam": 7632, "Islamic": 7633, " sixte": 7634, " sixteent": 7635, " sixteenth": 7636, "663": 7637, " Kad": 7638, " Kadav": 7639, " Kadavoor": 7640, "ेल": 7641, " flowing": 7642, " considerable": 7643, " grain": 7644, "ग्रहे": 7645, "Local": 7646, " Reb": 7647, " Rebellion": 7648, " demarc": 7649, " demarcation": 7650, " Wikiv": 7651, " Wikivo": 7652, " Wikivoy": 7653, " Wikivoyage": 7654, "sid": 7655, "sided": 7656, "1992": 7657, " landsl": 7658, " landslide": 7659, " likel": 7660, " likelih": 7661, " likelihood": 7662, " 1885": 7663, " arose": 7664, " prior": 7665, " priorities": 7666, " tak": 7667, " taken": 7668, " 1525": 7669, " administrative": 7670, " विकसित": 7671, "स्यं": 7672, "नन्द": 7673, " gap": 7674, "नाग": 7675, " zoo": 7676, " zooge": 7677, " zoogeograph": 7678, " zoogeographic": 7679, " sporting": 7680, " blo": 7681, " bloom": 7682, " pastime": 7683, " directives": 7684, " Sind": 7685, " Sindhi": 7686, " lived": 7687, " offer": 7688, "टल": 7689, " genders": 7690, " Aṣ": 7691, " Aṣṭ": 7692, " Aṣṭā": 7693, " Aṣṭādh": 7694, " Aṣṭādhy": 7695, " Aṣṭādhyā": 7696, " Aṣṭādhyāy": 7697, " Aṣṭādhyāyī": 7698, " occupational": 7699, " baking": 7700, " ఆశ్రమ": 7701, " speed": 7702, " dur": 7703, " durable": 7704, " Vis": 7705, " Viswan": 7706, " Viswanathan": 7707, " silt": 7708, " heavi": 7709, " heavily": 7710, " declined": 7711, " సహస": 7712, "settled": 7713, " हुई।": 7714, " Through": 7715, " Throughout": 7716, " किरीटिना॥": 7717, " drough": 7718, " droughts": 7719, " Mong": 7720, " Mongol": 7721, " King": 7722, " Kingd": 7723, " Kingdom": 7724, " bears": 7725, " concepts": 7726, " finance": 7727, " ethically": 7728, "जों": 7729, " सौप्त": 7730, " canals": 7731, " irreg": 7732, " irregular": 7733, " irregularities": 7734, " frag": 7735, " fragment": 7736, " fragmentation": 7737, " army": 7738, " pulmon": 7739, " pulmonary": 7740, " raising": 7741, "గో": 7742, " .)": 7743, " Fut": 7744, " Futures": 7745, " wealth": 7746, " wealthy": 7747, " college": 7748, " musicians": 7749, " माध": 7750, " कृष्णं": 7751, " ver": 7752, " verbal": 7753, " consequent": 7754, " consequently": 7755, " stit": 7756, " stitched": 7757, "टिबंध": 7758, "टिबंधीय": 7759, " Bharatn": 7760, " Bharatnatyam": 7761, " దేశాలలో": 7762, " entirety": 7763, " भीमेन": 7764, "Several": 7765, " किसी": 7766, " gradual": 7767, " నగర": 7768, " zones": 7769, "पं": 7770, " शृणु": 7771, " border": 7772, " Minist": 7773, " Ministers": 7774, " Austral": 7775, " Australia": 7776, " emphasising": 7777, " pac": 7778, " pacified": 7779, " san": 7780, " sanct": 7781, " sanctu": 7782, " sanctuaries": 7783, " Rakh": 7784, " Rakhig": 7785, " Rakhigar": 7786, " Rakhigarhi": 7787, "ళి": 7788, " ఒకే": 7789, " articles": 7790, " oral": 7791, "ఖ్యా": 7792, " scripture": 7793, " sn": 7794, " snow": 7795, " अभवत्": 7796, " शक्र": 7797, " Lake": 7798, " Madras": 7799, " Madrasah": 7800, " विचित्र": 7801, " respons": 7802, " responsible": 7803, "wh": 7804, "which": 7805, " lex": 7806, " lexicon": 7807, " Cold": 7808, " ghar": 7809, " gharial": 7810, " On": 7811, " Onions": 7812, " heads": 7813, "తను": 7814, " Across": 7815, " Evidence": 7816, " improvement": 7817, " cold": 7818, " obsc": 7819, " obscuring": 7820, "IIT": 7821, " regionally": 7822, "ज्": 7823, " Domestic": 7824, " Domestication": 7825, " beliefs": 7826, " Tung": 7827, " Tungabh": 7828, " Tungabhadra": 7829, " story": 7830, " storytell": 7831, " storytelling": 7832, " Tech": 7833, " Techn": 7834, " Technological": 7835, " भो": 7836, " perform": 7837, " performing": 7838, " ports": 7839, "ించడం": 7840, " calendar": 7841, " nor": 7842, " Inst": 7843, " Instead": 7844, "627": 7845, " geographically": 7846, " Kaligh": 7847, " Kalighat": 7848, "प्रकाश": 7849, "2013": 7850, "Not": 7851, "Notes": 7852, " dan": 7853, " danc": 7854, " dancing": 7855, " కోర్": 7856, " Compre": 7857, " Comprehen": 7858, " Comprehens": 7859, " Comprehensive": 7860, " wood": 7861, " Tap": 7862, " Tapti": 7863, " दुःशासन": 7864, " piled": 7865, " अभिमन्य": 7866, " provinc": 7867, " provincial": 7868, " Ruk": 7869, " Rukmin": 7870, " Rukmini": 7871, " persistent": 7872, " toad": 7873, " del": 7874, " delta": 7875, " suppli": 7876, " supplier": 7877, " taxation": 7878, " emit": 7879, " emits": 7880, " mang": 7881, " mangro": 7882, " mangrove": 7883, "ित्व": 7884, "Bihar": 7885, " courtes": 7886, " courtesans": 7887, " complic": 7888, " complicated": 7889, " काव्य": 7890, " हर्ष": 7891, "भवः।": 7892, " naval": 7893, " faith": 7894, " तीन": 7895, " bark": 7896, " महात्मनाम्।": 7897, " Brahmin": 7898, "Mat": 7899, "Mathem": 7900, "Mathematic": 7901, "Mathematics": 7902, " contravene": 7903, " alm": 7904, " almonds": 7905, " reptiles": 7906, " minority": 7907, " chronic": 7908, "धु": 7909, " subt": 7910, " subtropical": 7911, " fle": 7912, " flee": 7913, " fleeing": 7914, " severe": 7915, "व्यास": 7916, " sap": 7917, " sapi": 7918, " sapiens": 7919, " collar": 7920, " collarles": 7921, " collarless": 7922, " Rice": 7923, " bar": 7924, " barle": 7925, " barley": 7926, " भु": 7927, " unp": 7928, " unpre": 7929, " unpreced": 7930, " unprecedent": 7931, " unprecedented": 7932, " interest": 7933, "रणानि": 7934, "rum": 7935, "rumped": 7936, " కాని": 7937, "Andaman": 7938, " 1975": 7939, "Lakshadweep": 7940, " stri": 7941, " strike": 7942, " Domin": 7943, " Dominion": 7944, " विज्ञान": 7945, " thus": 7946, " moreover": 7947, " शुभा": 7948, " Ἰνδό": 7949, " Ἰνδός": 7950, " encom": 7951, " encompassing": 7952, " endogamy": 7953, " entren": 7954, " entrenched": 7955, " Any": 7956, " grands": 7957, " grandson": 7958, " herds": 7959, " associate": 7960, " Crown": 7961, ".\")": 7962, " bias": 7963, " Movement": 7964, " inflows": 7965, " Rajya": 7966, "428": 7967, " sheared": 7968, " broadly": 7969, "ेषणं": 7970, " देशौ": 7971, "ोणपुत्र": 7972, " Rā": 7973, " Rām": 7974, " Rāmā": 7975, " Rāmāya": 7976, " Rāmāyaṇ": 7977, " Rāmāyaṇa": 7978, " agreement": 7979, " my": 7980, " myst": 7981, " mystics": 7982, " prominently": 7983, "వచ్చు": 7984, "untouch": 7985, "untouchables": 7986, " Parc": 7987, " Parche": 7988, " Parchees": 7989, " Parcheesi": 7990, " ('": 7991, " implements": 7992, " contour": 7993, " Under": 7994, " उसे": 7995, ");": 7996, " जिनमें": 7997, " petroc": 7998, " petrochem": 7999, " petrochemical": 8000, " Lok": 8001, " dio": 8002, " diox": 8003, " dioxide": 8004, " opposing": 8005, " पुराणं": 8006, " jh": 8007, " jhol": 8008, " innovative": 8009, " filled": 8010, "Educ": 8011, "Education": 8012, " Nagpur": 8013, "Ad": 8014, "Administ": 8015, "Administrative": 8016, " Havel": 8017, " Havelock": 8018, " manuscripts": 8019, " अथवा": 8020, " శత్రుఘ": 8021, " శత్రుఘ్": 8022, "731": 8023, " ke": 8024, " keep": 8025, " keeping": 8026, " stressed": 8027, " wanted": 8028, "खित": 8029, " tect": 8030, " tecton": 8031, " tectonic": 8032, " teach": 8033, " teachings": 8034, " smaller": 8035, " foundation": 8036, " sevent": 8037, " seventh": 8038, " stamp": 8039, "Aver": 8040, "Averag": 8041, "Averaging": 8042, " Gate": 8043, " Gateway": 8044, " plainly": 8045, " wil": 8046, " wildern": 8047, " wilderness": 8048, " यो": 8049, " युयु": 8050, " స్త్ర": 8051, " స్త్రీ": 8052, " landown": 8053, " landowners": 8054, " సంఘ": 8055, "Odisha": 8056, " mist": 8057, " foc": 8058, " focused": 8059, "Migration": 8060, " mixed": 8061, " इतिहासः": 8062, " Discover": 8063, " Discovery": 8064, " tied": 8065, " Ire": 8066, " Ireland": 8067, " invasive": 8068, " saute": 8069, " sauteed": 8070, " ris": 8071, " risks": 8072, " expansions": 8073, " ratio": 8074, "వన": 8075, "2014": 8076, " seek": 8077, " seeking": 8078, "spec": 8079, "specific": 8080, "दुः": 8081, "Krishna": 8082, " collab": 8083, " collaboration": 8084, " Mount": 8085, " manage": 8086, " management": 8087, " honour": 8088, " कश्मीर": 8089, " gir": 8090, " girls": 8091, "स्यात्र": 8092, " Increasingly": 8093, " deal": 8094, " Fishing": 8095, " Between": 8096, " surroundings": 8097, "601": 8098, "Most": 8099, " lon": 8100, " longe": 8101, " longest": 8102, " milit": 8103, " militants": 8104, " mountains": 8105, "मानुष": 8106, " ub": 8107, " ubiqu": 8108, " ubiquit": 8109, " ubiquitous": 8110, " 940": 8111, " Vais": 8112, " Vaisak": 8113, " Vaisakhi": 8114, " Palace": 8115, " plan": 8116, " planning": 8117, " teak": 8118, "ండా": 8119, "र्वा": 8120, " Greeks": 8121, " 1901": 8122, " Examp": 8123, " Examples": 8124, " Sach": 8125, " Sachin": 8126, " dou": 8127, " doub": 8128, " doubled": 8129, " Boulder": 8130, " yards": 8131, " Ph": 8132, " Phili": 8133, " Philipp": 8134, " Philippines": 8135, " Prog": 8136, " Progressive": 8137, " mainst": 8138, " mainstream": 8139, "Based": 8140, "Chan": 8141, "Chandi": 8142, "Chandigarh": 8143, " epic": 8144, " Both": 8145, " జన్": 8146, " soft": 8147, " softw": 8148, " software": 8149, " 580": 8150, " killing": 8151, " pleasures": 8152, "covering": 8153, " weak": 8154, " weakening": 8155, "lived": 8156, " recom": 8157, " recommend": 8158, " recommended": 8159, " transl": 8160, " translating": 8161, "रूपेण": 8162, " Gujral": 8163, " working": 8164, " Jai": 8165, " युद्धे": 8166, " appoint": 8167, " appointment": 8168, " accomm": 8169, " accommod": 8170, " accommodated": 8171, " weigh": 8172, " weights": 8173, " But": 8174, " मृ": 8175, " मृग": 8176, " sac": 8177, " sacri": 8178, " sacrif": 8179, " sacrifices": 8180, " tribes": 8181, " तव": 8182, " lake": 8183, " unre": 8184, " unrest": 8185, " sour": 8186, " sourced": 8187, " trial": 8188, " హిం": 8189, " హిందు": 8190, " prana": 8191, " बढ़कर": 8192, " Ved": 8193, " Veda": 8194, " onwards": 8195, " cinnam": 8196, " cinnamon": 8197, " अनुसू": 8198, "मस्ति": 8199, "సింది": 8200, " 2030": 8201, "शः।": 8202, " Son": 8203, " Sonia": 8204, " Mag": 8205, " Magen": 8206, "Hin": 8207, "Hindust": 8208, "Hindustan": 8209, " defence": 8210, " arri": 8211, " arrived": 8212, " gross": 8213, " gill": 8214, " gilli": 8215, "मासस्य": 8216, " canon": 8217, " groupings": 8218, " रूस": 8219, "र्था": 8220, " आय": 8221, " Convention": 8222, "ारोह": 8223, " vac": 8224, " vacc": 8225, " vaccines": 8226, " कार्यकाल": 8227, " soci": 8228, " socio": 8229, " 178": 8230, " 1786": 8231, " flanking": 8232, " absence": 8233, " mel": 8234, " melodi": 8235, " melodic": 8236, " पर्वण्यस्मिन्": 8237, " prince": 8238, " princely": 8239, " reverse": 8240, " adopting": 8241, " Koc": 8242, " Kochi": 8243, "ेर": 8244, " Id": 8245, " Ident": 8246, " Identified": 8247, " plants": 8248, " ideas": 8249, " lun": 8250, " lunch": 8251, "to": 8252, "Manipur": 8253, "्यो": 8254, "ार्थ": 8255, " नेहर": 8256, " decoration": 8257, " appointed": 8258, " contributing": 8259, " rh": 8260, " rhyth": 8261, " rhythm": 8262, " rhythmic": 8263, " considered": 8264, "Uttarakhand": 8265, " Jainoor": 8266, "भिः।": 8267, "संस्कृति": 8268, " Garb": 8269, " Garba": 8270, " वाली": 8271, " gl": 8272, " glac": 8273, " glaci": 8274, " glaciers": 8275, " Pash": 8276, " Pashup": 8277, " Pashupati": 8278, " team": 8279, " towards": 8280, " जगाम": 8281, " Brahman": 8282, " Brahmanism": 8283, " elite": 8284, " తర్వ": 8285, " Madhav": 8286, " Madhava": 8287, "Countries": 8288, " 204": 8289, " trough": 8290, " Charan": 8291, " rite": 8292, " Ro": 8293, " Roork": 8294, " Roorkee": 8295, " longitud": 8296, " longitude": 8297, " Res": 8298, " Reserves": 8299, "market": 8300, " reve": 8301, " reveals": 8302, " రహదారులు": 8303, " सिंध": 8304, " सिंधु": 8305, " కాంగ్రెసు": 8306, " equates": 8307, " where": 8308, " surpassing": 8309, " improved": 8310, "ెలు": 8311, " blowing": 8312, " कृतव": 8313, " fought": 8314, " irrig": 8315, " irrigation": 8316, "Health": 8317, " capt": 8318, " captained": 8319, " mos": 8320, " mosqu": 8321, " mosque": 8322, " bit": 8323, " bitter": 8324, " ప్రజా": 8325, " bandh": 8326, " bandhg": 8327, " bandhgala": 8328, " facil": 8329, " facilitated": 8330, "ारद": 8331, " ideological": 8332, " Demographics": 8333, " Bas": 8334, " Basp": 8335, " Baspa": 8336, " soj": 8337, " sojour": 8338, " sojourning": 8339, " अपना": 8340, "born": 8341, "borne": 8342, " Gre": 8343, " Green": 8344, " legislatures": 8345, " icon": 8346, " iconic": 8347, " trigonomet": 8348, " trigonometric": 8349, " Deter": 8350, " Deterren": 8351, " Deterrence": 8352, " Mao": 8353, " Maoist": 8354, " volcanic": 8355, " block": 8356, " herbal": 8357, " Kar": 8358, " Karla": 8359, " Lef": 8360, " Left": 8361, "రే": 8362, " distance": 8363, " Daman": 8364, " maintained": 8365, "యాత్ర": 8366, " festive": 8367, " लक्ष": 8368, " perce": 8369, " perceptions": 8370, " displayed": 8371, " patronage": 8372, " Chi": 8373, " Chief": 8374, "ोऽपि": 8375, " वच": 8376, " chec": 8377, " checked": 8378, " affected": 8379, " sust": 8380, " sustained": 8381, "కంలో": 8382, " 1920": 8383, " defining": 8384, " पश्चिमी": 8385, " 1847": 8386, " biosphere": 8387, " Pream": 8388, " Preamble": 8389, "According": 8390, " victory": 8391, " agi": 8392, " agiary": 8393, " rup": 8394, " rupees": 8395, " passages": 8396, "स्वि": 8397, "exp": 8398, "expressed": 8399, " distric": 8400, " district": 8401, " 522": 8402, " settling": 8403, "Jain": 8404, " Moder": 8405, " Moderately": 8406, " Shalw": 8407, " Shalwars": 8408, " particip": 8409, " participation": 8410, " wra": 8411, " wrapped": 8412, "तश्च": 8413, "sac": 8414, "sacred": 8415, " gives": 8416, " इव": 8417, " blackbo": 8418, " blackboard": 8419, " person": 8420, " reflect": 8421, " reflecting": 8422, " succe": 8423, " succeed": 8424, " succeeded": 8425, " Rann": 8426, " Var": 8427, " Varā": 8428, " Varāh": 8429, " Varāham": 8430, " Varāhami": 8431, " Varāhamihi": 8432, " Varāhamihira": 8433, " Tro": 8434, " Troph": 8435, " Trophies": 8436, " परिकीर्तितम्॥": 8437, " चला": 8438, " rare": 8439, " rarely": 8440, " crocodili": 8441, " crocodilian": 8442, "ర్చ": 8443, " foreground": 8444, " mal": 8445, " maln": 8446, " malnut": 8447, " malnutrit": 8448, " malnutrition": 8449, "discriminatory": 8450, "ేనా": 8451, "ేనాముఖ": 8452, " మై": 8453, " proc": 8454, " proclaiming": 8455, "col": 8456, "colonial": 8457, " मौर्य": 8458, "Muslim": 8459, " शास्त्र": 8460, " pett": 8461, " pettico": 8462, " petticoat": 8463, " Rid": 8464, " Ridge": 8465, " defeat": 8466, " cott": 8467, " cotton": 8468, ".:": 8469, " विभा": 8470, " musics": 8471, " plac": 8472, " places": 8473, " varied": 8474, " absol": 8475, " absolute": 8476, " start": 8477, " starting": 8478, " faces": 8479, " mountain": 8480, " shorter": 8481, " महाभारत": 8482, " surrounds": 8483, " 59": 8484, " 596": 8485, " ties": 8486, "left": 8487, " relied": 8488, " शासना": 8489, " hyd": 8490, " hydro": 8491, " hydrog": 8492, " hydrograph": 8493, " hydrographic": 8494, "త్తి": 8495, "सन्ध": 8496, " mig": 8497, " migr": 8498, " migrating": 8499, " wat": 8500, " waters": 8501, " sher": 8502, " sherwan": 8503, " sherwanis": 8504, " cordi": 8505, " cordial": 8506, " మో": 8507, " differences": 8508, " mob": 8509, " mobil": 8510, " mobility": 8511, " ja": 8512, " jaz": 8513, " jazz": 8514, " Wood": 8515, " Woodst": 8516, " Woodstock": 8517, " sem": 8518, " semin": 8519, " seminaries": 8520, " Chrom": 8521, " Chromos": 8522, " Chromosome": 8523, "Mult": 8524, "Multi": 8525, " Sent": 8526, " Sentin": 8527, " Sentinel": 8528, " humped": 8529, " Report": 8530, " overall": 8531, "Hary": 8532, "Haryana": 8533, "त्थ": 8534, "regul": 8535, "regulated": 8536, " poss": 8537, " possess": 8538, " possessed": 8539, " synt": 8540, " synthes": 8541, " synthesis": 8542, " ful": 8543, " full": 8544, " उल्ल": 8545, " grass": 8546, " grasslands": 8547, " disrup": 8548, " disruptive": 8549, " 68": 8550, "Eight": 8551, "ीकरण": 8552, " defined": 8553, " stable": 8554, " lack": 8555, " terti": 8556, " tertiary": 8557, " heart": 8558, " कौ": 8559, "क्ष्यामि": 8560, " elements": 8561, " backsl": 8562, " backsliding": 8563, " uncon": 8564, " unconstitution": 8565, " unconstitutional": 8566, "न्तरं": 8567, " కారణంగా": 8568, " exterior": 8569, " quad": 8570, " quadrup": 8571, " quadrupled": 8572, " Census": 8573, "plus": 8574, " descend": 8575, " descended": 8576, " Ś": 8577, " Śul": 8578, " Śulb": 8579, " Śulba": 8580, " 1775": 8581, " reptile": 8582, " changed": 8583, "descri": 8584, "description": 8585, " pride": 8586, "laden": 8587, " Tiger": 8588, " भाषाएँ": 8589, " traded": 8590, "रात": 8591, " Jap": 8592, " Japan": 8593, "based": 8594, "kameez": 8595, "स्तदा": 8596, " వాన": 8597, " drift": 8598, " వివర": 8599, " featuring": 8600, " atypically": 8601, " initiatives": 8602, "బడిన": 8603, " वीर्य": 8604, "नार": 8605, " administer": 8606, " ende": 8607, " endeav": 8608, " endeavor": 8609, "िव्य": 8610, "पुत्रेण": 8611, "ूतम": 8612, "व्यं": 8613, "ीना": 8614, " marriage": 8615, " marriageable": 8616, " tab": 8617, " tabla": 8618, "Carnatic": 8619, " everywhere": 8620, " ging": 8621, " ginger": 8622, " saved": 8623, " पुनः": 8624, " Uni": 8625, " University": 8626, " foray": 8627, " forays": 8628, " लंबे": 8629, " Pyth": 8630, " Pythag": 8631, " Pythagore": 8632, " Pythagorean": 8633, " teams": 8634, " 1957": 8635, " capac": 8636, " capacity": 8637, "ాలతో": 8638, " id": 8639, " idli": 8640, " cooperation": 8641, " Indoi": 8642, "Dadra": 8643, "देक": 8644, "Brahm": 8645, "Brahmaputra": 8646, " pleated": 8647, " petrol": 8648, " petrole": 8649, " petroleum": 8650, "among": 8651, " कृत्": 8652, " कृत्स्": 8653, "Wom": 8654, "Women": 8655, " Atal": 8656, " Climate": 8657, " fastening": 8658, " బయ": 8659, " abj": 8660, " abjured": 8661, " Sarnath": 8662, " order": 8663, " pree": 8664, " preex": 8665, " preexisting": 8666, " priv": 8667, " private": 8668, " island": 8669, " प्रत्य": 8670, " divided": 8671, " criter": 8672, " criteria": 8673, " Liber": 8674, " Liberation": 8675, "ास्तत्र": 8676, " describ": 8677, " describes": 8678, " Academi": 8679, "ందని": 8680, "Jharkhand": 8681, " चक्रे": 8682, " bann": 8683, " banned": 8684, " Energy": 8685, " News": 8686, " tandoori": 8687, "िति": 8688, "र्यत्र": 8689, " autom": 8690, " automot": 8691, " automotive": 8692, " generation": 8693, " internal": 8694, " embro": 8695, " embroid": 8696, " embroidered": 8697, " ratios": 8698, " Lib": 8699, " Libr": 8700, " Libraries": 8701, " occupy": 8702, "श्न": 8703, "घा": 8704, " foundedin": 8705, " lingered": 8706, "ోర": 8707, "Geographic": 8708, "ृता": 8709, " je": 8710, " jeans": 8711, " partitioned": 8712, "ान्महा": 8713, "बला": 8714, " future": 8715, " neighbour": 8716, " Brahmag": 8717, " Brahmagupta": 8718, " లోని": 8719, " Syn": 8720, " Synag": 8721, " Synagog": 8722, " Synagogue": 8723, " Ἰνδί": 8724, " Ἰνδία": 8725, " spending": 8726, "वानृषि": 8727, " evolved": 8728, " Untouchability": 8729, " Peace": 8730, " final": 8731, " subject": 8732, " significantly": 8733, " cho": 8734, " choice": 8735, "outcastes": 8736, " 7000": 8737, " severity": 8738, " twice": 8739, " meal": 8740, " Kum": 8741, " Kuma": 8742, " Kumaon": 8743, " Lal": 8744, "బడ్డ": 8745, " architectural": 8746, " consume": 8747, " visit": 8748, " mass": 8749, " 35": 8750, " Intell": 8751, " Intellig": 8752, " Intelligence": 8753, " testing": 8754, " symb": 8755, " symbol": 8756, " post": 8757, " (\"...": 8758, " showing": 8759, " localised": 8760, " earlier": 8761, " supports": 8762, "ासागर": 8763, " textile": 8764, " करते": 8765, " వెబ్": 8766, " setback": 8767, " setbacks": 8768, " Bengalur": 8769, " Bengaluru": 8770, " expen": 8771, " expendit": 8772, " expenditure": 8773, " medicines": 8774, " Manasar": 8775, " Manasarov": 8776, " Manasarovar": 8777, " doct": 8778, " doctr": 8779, " doctrine": 8780, " seg": 8781, " segreg": 8782, " segregation": 8783, " agro": 8784, " mandate": 8785, " Att": 8786, " Attac": 8787, " Attacus": 8788, "मुपाख्यानं": 8789, " religiosa": 8790, " Ful": 8791, " Fully": 8792, "్యాయ": 8793, "వ్యం": 8794, "२०": 8795, " पार्थेन": 8796, " Mahana": 8797, " Mahanadi": 8798, " consolidated": 8799, " executives": 8800, " विधायिका": 8801, " ethnic": 8802, " ethnicity": 8803, " शिष्य": 8804, "headed": 8805, " Bhut": 8806, " Bhutan": 8807, " Chen": 8808, " Chenn": 8809, " Chennai": 8810, "కవి": 8811, "1900": 8812, " stup": 8813, " stupas": 8814, " destr": 8815, " destruc": 8816, " destruction": 8817, " 1990": 8818, " rain": 8819, " rainf": 8820, " rainfall": 8821, " insur": 8822, " insurgen": 8823, " insurgenc": 8824, " insurgencies": 8825, " lent": 8826, " lentils": 8827, " pool": 8828, " pref": 8829, " prefer": 8830, " preferred": 8831, " Dav": 8832, " David": 8833, " indic": 8834, " indica": 8835, " सिनेमा": 8836, "ियं": 8837, "स्म": 8838, "विनि": 8839, " 1891": 8840, "Asia": 8841, " stage": 8842, " contemp": 8843, " contempor": 8844, " contemporary": 8845, " टेली": 8846, " टेलीवि": 8847, " recognises": 8848, "చీన": 8849, " సాంప్రదాయ": 8850, " संजयं": 8851, " flourishing": 8852, " पाया": 8853, " po": 8854, " poet": 8855, " poetry": 8856, " reserved": 8857, "Aph": 8858, "Aphor": 8859, "Aphorism": 8860, "Aphorisms": 8861, " Tow": 8862, " Towards": 8863, " Meh": 8864, " Mehr": 8865, " Mehrgarh": 8866, " tunics": 8867, "tradition": 8868, "traditional": 8869, " swat": 8870, " swathes": 8871, "क्षस": 8872, "Articles": 8873, " follows": 8874, " App": 8875, " Appoin": 8876, " Appointed": 8877, " affirmative": 8878, "Alla": 8879, "Allaud": 8880, "Allaudd": 8881, "Allauddin": 8882, " అప్పుడు": 8883, " developing": 8884, " sha": 8885, " shares": 8886, "rel": 8887, "related": 8888, " indefin": 8889, " indefinite": 8890, " indefinitely": 8891, " films": 8892, " root": 8893, " ఎక్కువగా": 8894, "such": 8895, " 235": 8896, "పూర్వ": 8897, " Tash": 8898, " Tashk": 8899, " Tashkent": 8900, " Maith": 8901, " Maithili": 8902, "भिश्च": 8903, " Color": 8904, " Colorad": 8905, " Colorado": 8906, "Ass": 8907, "Assam": 8908, " peoples": 8909, " Ts": 8910, " Tsang": 8911, " Tsangp": 8912, " Tsangpo": 8913, " एतत्": 8914, " directors": 8915, " Raika": 8916, "langu": 8917, "language": 8918, "శు": 8919, "రాము": 8920, " Andamanese": 8921, "spe": 8922, "speaking": 8923, "Test": 8924, " foss": 8925, " fossils": 8926, " धीम": 8927, "\"),": 8928, " ushe": 8929, " ushered": 8930, " overl": 8931, " overlaps": 8932, " projected": 8933, " emerging": 8934, " born": 8935, " borne": 8936, " Gow": 8937, " Gowd": 8938, " Gowda": 8939, " founding": 8940, " construc": 8941, " construction": 8942, " occupying": 8943, " pill": 8944, " pillar": 8945, " does": 8946, "Article": 8947, " crocodile": 8948, " వల": 8949, " critical": 8950, "तमा": 8951, " pervasive": 8952, " Virt": 8953, " Virtually": 8954, " Bharatan": 8955, " Bharatanatyam": 8956, " clean": 8957, " Telangana": 8958, " सर्वशः॥": 8959, "president": 8960, " raw": 8961, "మహాభారతంలోని": 8962, " खाण्डव": 8963, " Constituted": 8964, " Nains": 8965, " Nainsuk": 8966, " Nainsukh": 8967, " परीक्षण": 8968, " Mor": 8969, " Morar": 8970, " Morarj": 8971, " Morarji": 8972, " predominant": 8973, " predominantly": 8974, "82": 8975, " Shud": 8976, " Shudra": 8977, " Epic": 8978, " equival": 8979, " equivalent": 8980, "Karnataka": 8981, " Horse": 8982, " सीमा": 8983, " orders": 8984, " coales": 8985, " coalesc": 8986, " coalescence": 8987, " Female": 8988, " likely": 8989, " threats": 8990, "1975": 8991, " training": 8992, " veh": 8993, " vehicle": 8994, " waistline": 8995, " falls": 8996, "West": 8997, " giant": 8998, " राज्ञा": 8999, "'.": 9000, " bandhan": 9001, " sculpting": 9002, " उपयोग": 9003, " Persia": 9004, " polluted": 9005, " Madhya": 9006, " refor": 9007, " reformer": 9008, "ेज": 9009, " reject": 9010, " rejecting": 9011, " leads": 9012, " wai": 9013, " waivers": 9014, " factors": 9015, " Amar": 9016, " Amarav": 9017, " Amaravati": 9018, " यद्य": 9019, " Iy": 9020, " Iyer": 9021, " Bahá": 9022, " నిర్మ": 9023, " measures": 9024, " distinc": 9025, " distinctions": 9026, " reign": 9027, " reigning": 9028, " ४": 9029, " merchan": 9030, " merchandi": 9031, " merchandise": 9032, " enab": 9033, " enabled": 9034, " సిద్ధ": 9035, " separatist": 9036, " centres": 9037, " లెక్క": 9038, " exercises": 9039, " Newly": 9040, " contributors": 9041, "जना": 9042, " विविधानि": 9043, "Miz": 9044, "Mizoram": 9045, " treat": 9046, " treatment": 9047, "WHO": 9048, "रिकी": 9049, "Out": 9050, "Outline": 9051, " attractive": 9052, " multil": 9053, " multiling": 9054, " multilingual": 9055, " Alm": 9056, " Almost": 9057, " equat": 9058, " equator": 9059, "Res": 9060, "Resources": 9061, " wetlands": 9062, " incre": 9063, " incremental": 9064, "स्थं": 9065, " Mas": 9066, " Masj": 9067, " Masjid": 9068, " production": 9069, " ahead": 9070, " knees": 9071, " critically": 9072, " pay": 9073, " payments": 9074, " 268": 9075, " fires": 9076, " ताप": 9077, "ोनेश": 9078, " Pars": 9079, " Parsis": 9080, "ायन": 9081, " emerge": 9082, " appare": 9083, " apparel": 9084, " panoramic": 9085, " napp": 9086, " nappes": 9087, "BJP": 9088, " quite": 9089, " current": 9090, "ించబడింది": 9091, " finals": 9092, " Fr": 9093, " France": 9094, " उनके": 9095, " Govern": 9096, " Governor": 9097, " Bhangra": 9098, " ens": 9099, " ensl": 9100, " enslaving": 9101, " typ": 9102, " typical": 9103, " thin": 9104, " blurred": 9105, "Official": 9106, "2009": 9107, " దాని": 9108, " Pali": 9109, " miss": 9110, " missing": 9111, " Sultan": 9112, " scene": 9113, " perched": 9114, " tunic": 9115, " छोटे": 9116, "ర్పు": 9117, " paralle": 9118, " parallel": 9119, " dress": 9120, " पाल": 9121, " बाल": 9122, " rough": 9123, " roughly": 9124, " గుణ": 9125, " 1981": 9126, "రక్ష": 9127, "ాల్": 9128, " committee": 9129, " dro": 9130, " dropped": 9131, " piv": 9132, " pivot": 9133, " pivotal": 9134, " కల్ప": 9135, " Afgh": 9136, " Afghan": 9137, " Afghanistan": 9138, " change": 9139, " Wikib": 9140, " Wikibook": 9141, " Wikibooks": 9142, " perh": 9143, " perhaps": 9144, " वर्तते।": 9145, " promote": 9146, " गृह": 9147, " Rama": 9148, "2004": 9149, " फ्रां": 9150, " फ्रांस": 9151, "నూ": 9152, " पुत्रशोका": 9153, "Kerala": 9154, " शहर": 9155, "ృతన": 9156, " Mani": 9157, " Several": 9158, " conspic": 9159, " conspicuous": 9160, " viol": 9161, " violinist": 9162, " violinists": 9163, " noun": 9164, "ధ్యా": 9165, "170": 9166, " quar": 9167, " quarter": 9168, " lu": 9169, " lux": 9170, " luxur": 9171, " luxuriant": 9172, " agreements": 9173, " Trad": 9174, " Trade": 9175, " Par": 9176, " Parv": 9177, " Parvati": 9178, " go": 9179, " goals": 9180, " raga": 9181, "Medieval": 9182, " Mil": 9183, " Milk": 9184, " Milkma": 9185, " Milkmaid": 9186, " Milkmaids": 9187, " Nih": 9188, " Nihâ": 9189, " Nihâl": 9190, " quality": 9191, " వైశ": 9192, " decisions": 9193, " Biosphere": 9194, " gu": 9195, " guidel": 9196, " guidelines": 9197, " exogamy": 9198, " stop": 9199, " stopped": 9200, " Im": 9201, " Immediately": 9202, " వేదవ్యా": 9203, "िविध": 9204, "त॥": 9205, " kat": 9206, " katab": 9207, " katabatic": 9208, " rig": 9209, " rigidly": 9210, " contours": 9211, " priest": 9212, " priests": 9213, " Ardh": 9214, " Ardhan": 9215, " Ardhanar": 9216, " Ardhanarish": 9217, " Ardhanarishvara": 9218, " panc": 9219, " pancake": 9220, " decol": 9221, " decolon": 9222, " decolonisation": 9223, " afterwards": 9224, " ఆధారంగా": 9225, " meets": 9226, " माग": 9227, " electrical": 9228, " Asi": 9229, " Asiatic": 9230, " Ksh": 9231, " Kshat": 9232, " Kshatriya": 9233, " eigh": 9234, " eighty": 9235, " death": 9236, " counted": 9237, " hand": 9238, " instead": 9239, " hor": 9240, " horiz": 9241, " horizon": 9242, " horizont": 9243, " horizontally": 9244, " tol": 9245, " toler": 9246, " tolerance": 9247, " geologically": 9248, " अन्तर": 9249, " initiative": 9250, " passes": 9251, " dol": 9252, " dolph": 9253, " dolphin": 9254, " vegetables": 9255, "St": 9256, "States": 9257, " Peak": 9258, " Peaks": 9259, " southeast": 9260, " అనీ": 9261, " polling": 9262, " eighte": 9263, " eighteen": 9264, " introduc": 9265, " introduction": 9266, " operation": 9267, " flooding": 9268, " anatomy": 9269, " takes": 9270, "త్రము": 9271, " Sanch": 9272, " Sanchi": 9273, " समझ": 9274, " recognition": 9275, " mart": 9276, " martial": 9277, " Atom": 9278, " Atomic": 9279, " adequ": 9280, " adequate": 9281, " propos": 9282, " proposed": 9283, " पौरा": 9284, "णिक": 9285, " Bedd": 9286, " Beddome": 9287, " fire": 9288, " firep": 9289, " firepower": 9290, "righ": 9291, "right": 9292, " carri": 9293, " carried": 9294, "Ref": 9295, "Refer": 9296, "References": 9297, " protection": 9298, " protectionist": 9299, " renewed": 9300, " success": 9301, " successf": 9302, " successful": 9303, " continue": 9304, " nationalism": 9305, " Vaish": 9306, " Vaishya": 9307, "Key": 9308, " gain": 9309, " Balasar": 9310, " Balasaras": 9311, " Balasarasw": 9312, " Balasaraswati": 9313, " reflected": 9314, " Bakh": 9315, " Bakhsh": 9316, " Bakhshali": 9317, " smo": 9318, " smooth": 9319, " smoothly": 9320, " ach": 9321, " achie": 9322, " achievement": 9323, " सफल": 9324, "%:": 9325, " underground": 9326, "గడ": 9327, "ణుని": 9328, "संश": 9329, " hood": 9330, " hooded": 9331, " py": 9332, " pyj": 9333, " pyjam": 9334, " pyjamas": 9335, " पठ": 9336, " Proc": 9337, " Proclaiming": 9338, " killed": 9339, " Bharati": 9340, " Bharatiya": 9341, " Ab": 9342, " About": 9343, "మొ": 9344, "మొద": 9345, "మొదటి": 9346, " speaking": 9347, " Tai": 9348, " weld": 9349, " welded": 9350, "్రే": 9351, " lines": 9352, " opposition": 9353, "worker": 9354, "पूज": 9355, " deep": 9356, " unw": 9357, " unwanted": 9358, " genetic": 9359, " सामरिक": 9360, "dates": 9361, "PPP": 9362, "flung": 9363, " Achaemenian": 9364, "treated": 9365, " Credi": 9366, " Credible": 9367, " भारते": 9368, " Summer": 9369, " Yam": 9370, " Yamun": 9371, " Yamuna": 9372, " embodi": 9373, " embodiment": 9374, " College": 9375, "Four": 9376, "ష్ఠ": 9377, " discrimin": 9378, " discrimination": 9379, " teac": 9380, " teacher": 9381, " fables": 9382, " acute": 9383, " Vaig": 9384, " Vaigai": 9385, " lingu": 9386, " linguistic": 9387, " Modern": 9388, " foun": 9389, " founder": 9390, " specif": 9391, " specifically": 9392, " phan": 9393, " phanek": 9394, " Dalh": 9395, " Dalhous": 9396, " Dalhousie": 9397, " concept": 9398, " side": 9399, " Mall": 9400, " Mallal": 9401, " Mallalli": 9402, "Mahar": 9403, "Maharash": 9404, "Maharashtra": 9405, " signing": 9406, " Champions": 9407, " bronzes": 9408, " litt": 9409, " little": 9410, " Dom": 9411, " Dommar": 9412, " Dommaraj": 9413, " Dommaraju": 9414, " separatism": 9415, " consci": 9416, " consciously": 9417, " transmission": 9418, " Varan": 9419, " Varanasi": 9420, " Au": 9421, " Aug": 9422, " August": 9423, " breakdown": 9424, " chain": 9425, " native": 9426, " Disa": 9427, " Disaff": 9428, " Disaffection": 9429, " decent": 9430, " decentral": 9431, " decentralisation": 9432, " invention": 9433, " Gov": 9434, " GovP": 9435, " GovPub": 9436, " GovPubs": 9437, " atop": 9438, " amphib": 9439, " amphibians": 9440, " expressing": 9441, " ఇండో": 9442, " promotion": 9443, " sales": 9444, " Chola": 9445, " constitutes": 9446, "पुराण": 9447, " liberalise": 9448, " tur": 9449, " turmer": 9450, " turmeric": 9451, " 2500": 9452, " No": 9453, " cris": 9454, " crisis": 9455, " Develop": 9456, " Development": 9457, "Mach": 9458, "Machher": 9459, " popularity": 9460, " cro": 9461, " cropp": 9462, " cropping": 9463, "ासस्या": 9464, " shirt": 9465, " immen": 9466, " immense": 9467, "380": 9468, " mini": 9469, " miniature": 9470, " sk": 9471, " skilled": 9472, "मथ": 9473, " balan": 9474, " balanced": 9475, " भविष्य": 9476, " शेष": 9477, " survived": 9478, " provision": 9479, " provisional": 9480, "याल": 9481, "ూరు": 9482, " घटोत्कच": 9483, "वधस्त": 9484, " arter": 9485, " arteries": 9486, " lin": 9487, " links": 9488, " stra": 9489, " strain": 9490, " शाखा": 9491, "दिक": 9492, " Kalari": 9493, " Kalaripp": 9494, " Kalarippay": 9495, " Kalarippayatt": 9496, " Kalarippayattu": 9497, " भीमसेनेन": 9498, " Tris": 9499, " Trisul": 9500, " hom": 9501, " homes": 9502, " opposed": 9503, " krit": 9504, " kriti": 9505, "यानां": 9506, " varying": 9507, " 1946": 9508, "Mad": 9509, "Madh": 9510, "Madhya": 9511, " big": 9512, " customs": 9513, "with": 9514, " Kangra": 9515, " calc": 9516, " calcul": 9517, " calculus": 9518, " सहायक": 9519, " definition": 9520, " Vaid": 9521, " Vaidyan": 9522, " Vaidyanathan": 9523, "On": 9524, " chat": 9525, " chatur": 9526, " chatura": 9527, " chaturaṅ": 9528, " chaturaṅga": 9529, " attain": 9530, " traders": 9531, " manufactured": 9532, " Mahat": 9533, " Mahatma": 9534, " Narm": 9535, " Narmada": 9536, "Ravi": 9537, " uneas": 9538, " uneasy": 9539, "म्प": 9540, " मद्र": 9541, " sl": 9542, " slid": 9543, " सुख": 9544, " lowest": 9545, " Cricket": 9546, "द्यापि": 9547, " 1988": 9548, " technological": 9549, " Fl": 9550, " Flut": 9551, " Fluting": 9552, " effec": 9553, " effects": 9554, " Rus": 9555, " Russia": 9556, "Between": 9557, " speech": 9558, " संघीय": 9559, " Bhak": 9560, " Bhakti": 9561, " San": 9562, " Sanam": 9563, " Sanamah": 9564, " Sanamahism": 9565, " Srin": 9566, " Sriniv": 9567, " Srinivas": 9568, " Srinivasa": 9569, " corp": 9570, " corpor": 9571, " corporations": 9572, " castes": 9573, " reserves": 9574, "Bib": 9575, "Bibli": 9576, "Bibliograph": 9577, "Bibliography": 9578, " drawn": 9579, " DN": 9580, " DNA": 9581, "ाद्व": 9582, "five": 9583, "iii": 9584, " infra": 9585, " infrastruc": 9586, " infrastructure": 9587, " draw": 9588, " drawstring": 9589, " subord": 9590, " subordin": 9591, " subordinate": 9592, "కాండ": 9593, " balance": 9594, " Latika": 9595, " arr": 9596, " arranged": 9597, "Himalay": 9598, "Himalaya": 9599, " extension": 9600, "डिम्ब": 9601, " Sep": 9602, " Sept": 9603, " Septem": 9604, " September": 9605, " counter": 9606, " counterc": 9607, " counterculture": 9608, "Jammu": 9609, " Na": 9610, " Nax": 9611, " Naxal": 9612, " Naxalite": 9613, " 1928": 9614, " दत्त": 9615, "ीर्ण": 9616, " enterp": 9617, " enterpr": 9618, " enterprise": 9619, " Mauryan": 9620, "not": 9621, "notably": 9622, " imitated": 9623, "Many": 9624, " risen": 9625, " conceal": 9626, " concealed": 9627, " codified": 9628, " spicy": 9629, " enl": 9630, " enligh": 9631, " enlighten": 9632, " enlightenment": 9633, " Himachal": 9634, " loyalty": 9635, " समुद": 9636, " ఆర్ధిక": 9637, " reserve": 9638, " Revol": 9639, " Revolution": 9640, "first": 9641, " disb": 9642, " disbanded": 9643, " temple": 9644, " fe": 9645, " feud": 9646, " feudal": 9647, " vocal": 9648, " vocalist": 9649, " potter": 9650, " pottery": 9651, " excur": 9652, " excurs": 9653, " excursions": 9654, "also": 9655, " తా": 9656, " Hot": 9657, " Hotel": 9658, " Op": 9659, " Open": 9660, " OpenS": 9661, " OpenStre": 9662, " OpenStreet": 9663, " OpenStreetM": 9664, " OpenStreetMap": 9665, " exper": 9666, " experience": 9667, " पाञ्चाल": 9668, " caret": 9669, " caretak": 9670, " caretaker": 9671, "Among": 9672, " केवल": 9673, " lowered": 9674, " tou": 9675, " tourist": 9676, " tourists": 9677, " विरोध": 9678, " farms": 9679, " Canada": 9680, "present": 9681, "हित": 9682, " yog": 9683, " yogur": 9684, " yogurt": 9685, "त्तमम्।": 9686, " instances": 9687, " tre": 9688, " trees": 9689, " sung": 9690, " spok": 9691, " spoken": 9692, " Arav": 9693, " Aravall": 9694, " Aravallis": 9695, " Island": 9696, " honours": 9697, " plays": 9698, " accomp": 9699, " accompani": 9700, " accompanied": 9701, "party": 9702, " adverse": 9703, " adversely": 9704, " emergency": 9705, " systematic": 9706, " product": 9707, " productivity": 9708, " पूरा": 9709, " meas": 9710, " measured": 9711, "క్ర": 9712, " like": 9713, " neg": 9714, " negative": 9715, " unan": 9716, " unanim": 9717, " unanimously": 9718, " join": 9719, " joint": 9720, " bust": 9721, " bustard": 9722, " పరిశో": 9723, " Ras": 9724, " Rasl": 9725, " Raslil": 9726, " Raslila": 9727, " uniqu": 9728, " uniquely": 9729, " pow": 9730, " powers": 9731, " कृत्वा": 9732, " unif": 9733, " uniform": 9734, " infection": 9735, " ocean": 9736, " oceanic": 9737, " vice": 9738, "ोकशत": 9739, "ोकशतानि": 9740, " आर्य": 9741, " Stat": 9742, " Statist": 9743, " Statistically": 9744, "ल्क": 9745, " Meas": 9746, " Measured": 9747, " ban": 9748, " Teth": 9749, " Tethyan": 9750, " 1956": 9751, " पूर्ण": 9752, " textiles": 9753, " parity": 9754, "Pakistan": 9755, " employment": 9756, " stiffer": 9757, " marital": 9758, " myth": 9759, " mythology": 9760, " जिन्हें": 9761, "With": 9762, " env": 9763, " envir": 9764, " environ": 9765, " environmental": 9766, "1991": 9767, "Pol": 9768, "Polo": 9769, " curry": 9770, " cited": 9771, " evolving": 9772, " typically": 9773, " ఇతిహాసం": 9774, " विष्ण": 9775, " artic": 9776, " articul": 9777, " articulating": 9778, " pou": 9779, " poul": 9780, " poult": 9781, " poultry": 9782, " भागी": 9783, " white": 9784, "NDA": 9785, " Baloch": 9786, " Balochistan": 9787, " इसका": 9788, "डु": 9789, " temper": 9790, " temperate": 9791, " Tend": 9792, " Tendulk": 9793, " Tendulkar": 9794, " यदि": 9795, "Ala": 9796, "द्भु": 9797, " fart": 9798, " farther": 9799, " champ": 9800, " champion": 9801, " जमा": 9802, " subduct": 9803, " Ray": 9804, " Rayk": 9805, " Rayka": 9806, " derec": 9807, " derecog": 9808, " derecogni": 9809, " derecognized": 9810, " composite": 9811, " calendrical": 9812, "Ara": 9813, "Arab": 9814, "Arabic": 9815, " statist": 9816, " statistics": 9817, " Rom": 9818, " Roman": 9819, " choli": 9820, "Go": 9821, "Goa": 9822, " Reorgan": 9823, " Reorganisation": 9824, " tala": 9825, " Lord": 9826, " Falls": 9827, " birch": 9828, " median": 9829, "literally": 9830, " politics": 9831, " जैसे": 9832, "')": 9833, "094": 9834, "Megh": 9835, "Meghal": 9836, "Meghalay": 9837, "Meghalaya": 9838, " ups": 9839, " upsur": 9840, " upsurge": 9841, " तुलना": 9842, " కార్య": 9843, " Bol": 9844, " Bolly": 9845, " Bollyw": 9846, " Bollywood": 9847, "ca": 9848, " రాష్ట్రపతి": 9849, " protag": 9850, " protagon": 9851, " protagonists": 9852, " shalwars": 9853, " seas": 9854, " నాగ": 9855, " silk": 9856, " infant": 9857, " infantic": 9858, " infanticide": 9859, "क्षणम्।": 9860, " Rams": 9861, " Ramsar": 9862, " prof": 9863, " profess": 9864, " profession": 9865, " professionals": 9866, " Nav": 9867, " Navrat": 9868, " Navratri": 9869, " conqu": 9870, " conquest": 9871, "थाः": 9872, " simple": 9873, " drom": 9874, " dromed": 9875, " dromedary": 9876, "वस": 9877, "Chola": 9878, "Arun": 9879, "Arunachal": 9880, " ethos": 9881, " repul": 9882, " repuls": 9883, " repulsing": 9884, "Female": 9885, " atol": 9886, " atolls": 9887, " Kut": 9888, " Kutch": 9889, " strid": 9890, " strident": 9891, " coins": 9892, " rank": 9893, " ranks": 9894, " label": 9895, " २४": 9896, " subcast": 9897, " subcaste": 9898, " thick": 9899, " thickening": 9900, " wool": 9901, " wooll": 9902, " woollen": 9903, " harve": 9904, " harvested": 9905, "धिप": 9906, " ऊँची": 9907, " 1206": 9908, " Chinn": 9909, " Chinnathur": 9910, " Chinnathurai": 9911, " deity": 9912, " jat": 9913, " jatis": 9914, " చైనా": 9915, " रागेण": 9916, " characterised": 9917, "ौ।": 9918, "ोड": 9919, " defore": 9920, " deforested": 9921, "lie": 9922, " neem": 9923, " मध्ये": 9924, " variety": 9925, " Wikiqu": 9926, " Wikiquote": 9927, " plateau": 9928, " net": 9929, " jurist": 9930, " mor": 9931, " morally": 9932, " Kot": 9933, " 2004": 9934, " పొంద": 9935, " partn": 9936, " partners": 9937, " Mahā": 9938, " Mahāb": 9939, " Mahābh": 9940, " Mahābhā": 9941, " Mahābhār": 9942, " Mahābhārata": 9943, " raised": 9944, " devastation": 9945, " moth": 9946, " Pain": 9947, " Painted": 9948, " directions": 9949, " माहात्म": 9950, " Gandhian": 9951, " पर्यटन": 9952, " maintain": 9953, " maintaining": 9954, " पाण्डवान्प्रति॥": 9955, " रत्न": 9956, " moisture": 9957, " definitions": 9958, "Puducherry": 9959, " संशप्त": 9960, " నో": 9961, " discont": 9962, " discontent": 9963, " Cher": 9964, " Cheras": 9965, " administrat": 9966, " administrators": 9967, " fun": 9968, " func": 9969, " functions": 9970, " Cam": 9971, " Camb": 9972, " Cambo": 9973, " Cambodia": 9974, " institutional": 9975, " institutionalised": 9976, " conserv": 9977, " conservative": 9978, " marries": 9979, " predates": 9980, " interv": 9981, " intervals": 9982, "horse": 9983, " तृत": 9984, " तृतीय": 9985, " attracting": 9986, "డవ": 9987, " Settled": 9988, "पार्थ": 9989, " volcanism": 9990, " causing": 9991, " flows": 9992, " fru": 9993, " fruit": 9994, " slowly": 9995, " Co": 9996, " Coast": 9997, " Coastal": 9998, "Texts": 9999}, "merges": [[" ", "t"], ["a", "n"], ["h", "e"], ["i", "n"], [" t", "he"], ["o", "n"], ["e", "r"], ["r", "e"], ["a", "l"], [" ", "o"], ["s", "t"], ["a", "t"], ["e", "n"], ["a", "r"], ["d", "i"], ["an", "d"], [" ", "c"], ["e", "d"], [" ", "I"], ["्", "र"], [" ", "a"], [" ", "in"], [" o", "f"], [" ", "w"], ["i", "t"], [" ", "s"], ["्", "य"], [" I", "n"], [" ", "and"], ["o", "r"], [" ", "क"], [" ", "p"], [" ", "स"], ["i", "on"], [" ", "b"], [" ", ","], ["e", "s"], [" ", "m"], [" ", "f"], ["i", "c"], [" In", "di"], ["i", "s"], [" ", "प"], ["in", "g"], ["र", "्"], ["a", "s"], ["o", "m"], [" ", "l"], ["en", "t"], ["o", "u"], [" ", "e"], [" Indi", "a"], ["्", "त"], [" t", "o"], [" ", "म"], ["ा", "न"], [" ", "1"], ["ा", "र"], [" ", "व"], [" ", "d"], ["u", "r"], ["l", "y"], [" ", "h"], ["e", "c"], [" ", "T"], [" ", "re"], ["i", "l"], [" ", "n"], [" ", "ह"], [" ", "त"], [" ", "g"], ["r", "a"], [" ", "भ"], ["t", "h"], ["r", "i"], ["u", "l"], ["o", "l"], ["v", "er"], ["a", "m"], [" ", "C"], [" ", "A"], [" ", "द"], [" ", "."], ["్", "ర"], ["at", "ion"], [" ", "न"], [" ", "B"], [" ", "अ"], [" ", "S"], [" ", "2"], [" ", "च"], ["र", "ा"], ["v", "e"], [" ", "ప"], ["्", "व"], ["l", "e"], ["r", "o"], ["ि", "त"], ["u", "t"], ["य", "ा"], ["c", "e"], ["म", "्"], [" T", "he"], [" ", "is"], ["ా", "ర"], ["a", "d"], [" क", "े"], ["i", "st"], ["e", "t"], ["i", "m"], [" Indi", "an"], ["ల", "ు"], [" b", "y"], [" प", "्र"], ["న", "ి"], ["े", "ं"], ["u", "s"], ["a", "st"], [" 1", "9"], ["g", "e"], [" ", "य"], [" ", "ज"], [" व", "ि"], ["त", "्र"], ["i", "g"], [" ", "స"], ["स", "्य"], ["u", "n"], [" ", "వ"], ["'", "s"], ["ार", "त"], [" t", "h"], ["i", "d"], ["it", "h"], ["o", "w"], ["i", "r"], [" ", "P"], [" ", "క"], [" ", "ब"], [" ", "श"], ["0", "0"], [" ", "r"], [" म", "ें"], [" ", "M"], ["u", "c"], [" b", "e"], ["r", "om"], [" ह", "ै"], ["ि", "क"], [" w", "ith"], ["ర", "్"], [" f", "or"], ["at", "e"], ["ष", "्"], ["ा", "ं"], [" c", "on"], ["m", "ent"], ["र्", "व"], ["न", "्"], ["ा", "स"], [" ", "("], ["an", "g"], [" w", "as"], ["e", "m"], ["t", "er"], ["o", "p"], ["t", "ion"], [" w", "h"], ["మ", "ు"], ["i", "es"], ["्", "च"], [" भ", "ारत"], [" m", "o"], ["त", "्"], [" a", "s"], [" स", "ं"], ["్", "య"], ["a", "in"], ["re", "s"], [" f", "rom"], [" ", "అ"], ["on", "g"], [" ", "st"], ["ల", "ో"], ["e", "st"], ["्", "ष"], ["a", "c"], ["ి", "ం"], ["त", "ि"], ["ar", "t"], [" ", "N"], ["he", "r"], ["न", "ा"], [" ", "ग"], ["ic", "al"], [" e", "x"], ["a", "y"], [" ", "మ"], [" ", "E"], [" ", "D"], [" ", "H"], [" ", "it"], ["s", "e"], [" ", "G"], [" ", "ర"], ["a", "b"], ["l", "d"], [" ", "on"], ["u", "m"], ["स", "्त"], ["a", "k"], [" ", "di"], [" ", "an"], ["g", "h"], ["थ", "ा"], ["t", "s"], ["il", "l"], [" 2", "0"], ["म", "ा"], ["ic", "h"], [" o", "r"], ["्य", "ा"], [" h", "as"], ["i", "al"], ["ो", "ं"], ["న", "్"], ["డ", "ు"], ["u", "p"], ["u", "d"], [" ", "रा"], ["त", "ा"], ["ద", "ి"], ["d", "er"], [" wh", "ich"], ["क", "्ष"], ["it", "y"], ["द", "ा"], [" ", "आ"], ["i", "ve"], [" a", "re"], [" ", "औ"], ["న", "ు"], ["ా", "ల"], ["श", "्च"], [" औ", "र"], ["o", "c"], ["ul", "t"], [" ", "un"], [" क", "ा"], ["or", "t"], ["d", "u"], ["e", "l"], ["u", "re"], ["c", "on"], ["ou", "n"], ["u", "b"], [" प", "र"], ["r", "it"], ["స", "్"], ["स", "्"], ["न", "्त"], ["l", "i"], [" क", "ी"], ["ः", "।"], ["క", "్"], ["er", "s"], [" ", "v"], ["o", "t"], [" ", "K"], ["ष्", "ट"], ["ृ", "त"], ["i", "v"], ["ar", "y"], ["గ", "ా"], ["द", "्"], [" in", "c"], ["ी", "य"], [" ", "al"], ["े", "श"], ["त", "े"], [" c", "om"], ["o", "ver"], [" it", "s"], [" c", "ent"], ["er", "e"], [" ", "इ"], [" ", "उ"], ["an", "s"], [" ", "ल"], ["ः", "॥"], [" w", "or"], ["en", "d"], ["ह", "ा"], [" d", "e"], ["c", "h"], [" ", "W"], [" ", "।"], ["a", "g"], [" ", "భ"], ["ar", "ge"], ["e", "ar"], [" ", "र"], ["o", "d"], [" w", "ere"], ["ిం", "చ"], ["క", "ు"], [" ", "ए"], ["ा", "ल"], ["ou", "r"], ["m", "p"], ["at", "ed"], [" ప", "్ర"], ["व", "ि"], [" ", "ध"], ["I", "n"], [" है", "।"], ["म्", "।"], [" ", "చ"], [" स", "े"], ["o", "s"], [" H", "in"], ["T", "he"], ["व", "ा"], ["ార", "త"], [" रा", "ज"], ["ा", "म"], ["ान", "्"], ["े", "न"], [" A", "s"], [" con", "t"], ["a", "p"], ["t", "ed"], ["is", "m"], [" c", "h"], ["is", "h"], [" s", "p"], ["a", "ge"], [" ", "ద"], [" ", "at"], [" p", "ro"], ["an", "ce"], [" ర", "ా"], [" प", "ा"], ["r", "y"], ["o", "g"], ["ా", "య"], ["ion", "s"], [" p", "art"], ["ou", "s"], ["over", "n"], ["ur", "ing"], ["ou", "th"], [" in", "t"], [" p", "l"], ["ou", "gh"], ["f", "ter"], ["a", "j"], ["प", "्र"], [" 20", "1"], [" ", "R"], ["a", "v"], ["er", "al"], ["am", "e"], ["con", "om"], ["as", "s"], ["న్", "న"], ["ो", "क"], ["ु", "र"], [" ", "త"], ["ా", "లు"], [" ", "ఉ"], ["l", "ow"], [" ", "U"], ["o", "re"], [" C", "h"], ["म्", "॥"], ["ि", "या"], ["ే", "శ"], ["र्", "म"], ["स", "े"], ["ang", "u"], ["er", "n"], [" l", "e"], [" ", "J"], ["overn", "ment"], [" c", "o"], ["an", "t"], ["i", "f"], [" b", "ec"], ["ి", "క"], ["र्", "थ"], ["ి", "న"], [" न", "ि"], ["ै", "व"], ["ill", "ion"], ["an", "y"], [" int", "o"], [" re", "g"], [" l", "arge"], [" for", "m"], ["h", "i"], [" e", "conom"], [" cent", "ur"], ["ण", "्"], [" re", "l"], ["at", "es"], [" m", "ar"], ["res", "s"], ["द्", "ध"], ["न", "े"], [" ", "ఆ"], ["र्", "ष"], ["త", "్ర"], [" wor", "ld"], [" l", "angu"], ["di", "a"], ["प", "ा"], ["न्", "द"], [" ", "ar"], ["c", "es"], [" p", "er"], [" a", "d"], ["m", "er"], ["c", "t"], [" c", "l"], ["i", "a"], ["త", "ు"], ["క్", "ష"], ["ण्", "ड"], ["्", "ञ"], [" ", "\""], [" ", "7"], [" s", "ub"], ["al", "ly"], [" p", "op"], [" a", "g"], [" ", "k"], [" Hin", "du"], ["m", "e"], ["in", "ist"], [" s", "e"], ["త", "్"], ["st", "it"], ["ం", "లో"], [" स", "म"], ["త", "ి"], ["h", "ar"], [" ", "y"], [" प", "र्व"], ["ation", "al"], ["ut", "ion"], ["en", "ce"], ["ir", "st"], [" e", "l"], ["q", "u"], ["in", "e"], [" ", "5"], ["न", "ं"], ["s", "o"], [" ", "3"], ["त", "्त"], [" ", "V"], [" ", "న"], ["i", "an"], [" है", "ं"], ["ि", "य"], ["श", "्र"], [" In", "d"], ["d", "uc"], ["al", "l"], ["re", "d"], [" ", "art"], ["a", "ve"], [" pop", "ul"], [" g", "overnment"], ["i", "k"], [" f", "irst"], [" ", "గ"], [" d", "uring"], ["In", "dia"], [" त", "था"], ["े", "ष"], ["ర్", "వ"], ["म", "ि"], ["ज", "य"], [" भ", "ी"], [" क", "ो"], [" ", "-"], ["ం", "డ"], ["l", "ud"], [" d", "ec"], [" ", "జ"], [" s", "y"], ["re", "as"], [" p", "ri"], [" s", "h"], ["p", "p"], ["i", "re"], ["भ", "ा"], [" ", "ri"], ["ర", "ి"], [" t", "ra"], ["ర", "ు"], [" ", "4"], ["o", "k"], ["ान", "ां"], [" न", "ा"], ["ु", "न"], [" ex", "p"], ["w", "e"], ["c", "c"], ["re", "at"], [" y", "ear"], ["t", "her"], ["ec", "t"], [" com", "p"], ["b", "er"], ["r", "ic"], [" g", "en"], ["र्", "त"], ["om", "e"], ["di", "tion"], [" ", "శ"], ["क", "्त"], ["ा", "प"], ["्र", "ा"], [" ", "F"], [" न", "े"], ["े", "व"], ["ag", "es"], ["id", "e"], ["ro", "w"], ["d", "h"], ["der", "n"], ["f", "f"], [" ", "end"], [" inc", "lud"], ["e", "w"], ["ec", "tion"], ["ा", "द"], ["uc", "h"], ["o", "th"], ["v", "ed"], ["ig", "n"], ["g", "an"], ["ि", "ण"], ["oun", "d"], [" o", "ver"], [" य", "त्र"], [" ", "ఇ"], ["r", "al"], [" क", "र"], ["ड", "़"], ["त", "ः"], ["వ", "ా"], ["ద", "్"], ["up", "p"], [" re", "s"], [" con", "s"], ["est", "ern"], ["us", "ed"], [" sy", "st"], [" syst", "em"], [" in", "f"], ["ig", "h"], [" al", "so"], [" centur", "y"], ["stit", "ution"], [" bec", "ame"], ["aj", "or"], ["स", "ं"], [" स", "्"], ["ष्ट", "्र"], [" 20", "2"], ["్", "ట"], ["म", "ु"], ["e", "p"], [" స", "ం"], [" h", "ad"], [" be", "en"], [" r", "ul"], [" rel", "ig"], ["ద", "ేశ"], [" వ", "ి"], ["at", "ic"], [" h", "ave"], ["im", "al"], [" b", "ut"], ["्व", "ा"], [" p", "e"], ["mp", "ire"], [" mo", "re"], [" ", ")"], ["ార", "ు"], [" 2", "00"], ["त", "्य"], [" स", "ा"], [" स", "र्व"], ["त", "ं"], ["न", "्य"], ["भ", "ि"], ["క", "ి"], [" ", "L"], ["వ", "ి"], ["ా", "న"], [" m", "illion"], ["ान", "ि"], ["ver", "s"], ["m", "ong"], [" द", "ेश"], [" वि", "ज"], [" S", "outh"], ["ur", "al"], [" ", "im"], [" n", "um"], ["or", "d"], [" a", "fter"], ["ण", "ि"], ["ong", "ress"], [" cl", "ass"], [" t", "w"], ["en", "g"], [" m", "e"], ["ల", "్"], [" भ", "ा"], [" सं", "जय"], ["ख", "्य"], ["क", "ा"], [" 19", "6"], [" భ", "ారత"], ["భ", "ారత"], [" re", "p"], ["ve", "l"], ["l", "o"], [" mo", "dern"], [" mo", "st"], [" year", "s"], ["द", "्य"], ["o", "se"], ["्", "ल"], [" inc", "reas"], ["s", "h"], [" s", "uch"], [" p", "ol"], [" th", "at"], [" m", "inist"], ["ult", "ure"], [" l", "at"], [" ", "he"], [" reg", "ion"], ["en", "s"], [" tw", "o"], [" the", "ir"], [" ", "O"], ["on", "d"], ["ow", "er"], ["ం", "ది"], ["ర", "ా"], ["श", "ं"], [" म", "हा"], ["ై", "న"], ["ం", "ట"], ["र्", "ण"], ["क", "ार"], ["oun", "t"], [" 19", "5"], ["u", "st"], ["या", "य"], ["C", "E"], ["హ", "ా"], ["ri", "b"], [" B", "CE"], ["in", "ent"], [" d", "ance"], ["et", "we"], ["etwe", "en"], ["e", "f"], [" s", "c"], ["re", "n"], [" ", ";"], [" pri", "me"], ["or", "th"], [" di", "s"], [" b", "oth"], ["b", "an"], [" l", "ong"], ["ग", "्र"], [" c", "a"], [" C", "ongress"], ["u", "res"], ["ar", "li"], ["re", "e"], ["h", "m"], [" B", "ud"], [" Bud", "dh"], [" s", "oc"], [" m", "ajor"], [" tra", "dition"], ["म", "े"], ["ang", "es"], [" ", "ల"], ["ा", "ः"], ["भ", "ारत"], [" य", "दा"], [" प", "ु"], [" य", "ु"], ["र", "ी"], [" त", "दा"], ["य", "ो"], [" 1", "8"], [" ना", "शं"], [" नाशं", "से"], [" विज", "याय"], ["l", "ic"], [" ह", "ि"], [" म", "ह"], [" ", "१"], ["ా", "డు"], ["l", "es"], [" popul", "ation"], ["he", "d"], ["ी", "न"], [" ए", "क"], [" n", "ot"], [" un", "der"], ["ध", "िक"], ["ङ", "्"], ["श", "्व"], [" s", "er"], ["ur", "ban"], ["ation", "s"], ["ध", "ान"], [" g", "row"], ["ist", "an"], [" c", "ast"], ["ar", "d"], ["ం", "ద"], [" As", "ia"], [" t", "er"], ["p", "h"], [" भारत", "ीय"], ["am", "il"], ["र्", "ज"], ["్", "మ"], [" 19", "9"], ["త", "ో"], [" संजय", "॥"], ["त्", "म"], [" हैं", "।"], ["्", "म"], ["क", "े"], ["ि", "व"], [" ज", "ा"], ["00", "0"], ["ल", "ा"], [" स", "्व"], ["ौ", "ष"], ["न", "ी"], ["न", "ु"], [" स", "ु"], ["ol", "og"], [" t", "e"], [" s", "upp"], [" m", "us"], ["त", "ी"], ["ప", "ు"], [" n", "ort"], ["a", "w"], [" th", "is"], [" b", "etween"], [" m", "any"], ["or", "y"], ["r", "ough"], [" ex", "t"], [" minist", "er"], ["n", "i"], [" e", "ast"], [" B", "rit"], [" Brit", "ish"], [" a", "pp"], [" el", "ection"], [" E", "mpire"], [" ", "urban"], ["is", "ation"], ["ar", "i"], ["con", "t"], ["in", "ce"], ["य", "ु"], ["ial", "ly"], ["t", "y"], ["am", "ent"], [" ", "j"], [" be", "gan"], [" of", "f"], [" langu", "age"], [" cast", "e"], ["uc", "le"], ["ucle", "ar"], [" m", "il"], [" ", "ra"], ["ic", "s"], ["త", "ా"], ["ac", "h"], [")", ","], [" ", "బ"], [" द", "्र"], ["द", "्र"], ["र", "े"], ["ास", "्त"], ["र", "्य"], [" पा", "ण्ड"], [" ", "6"], ["ical", "ly"], ["al", "s"], [" I", "t"], [" f", "ol"], [" nort", "her"], [" norther", "n"], [" श", "्र"], ["el", "l"], [" ध", "र्म"], ["vers", "ity"], ["p", "t"], ["ह", "ु"], ["ీ", "య"], [" C", "on"], [" n", "orth"], ["l", "u"], ["low", "ing"], [" s", "ec"], ["ప", "్"], [" l", "and"], [" यदा", "श्र"], [" यदाश्र", "ौष"], [" s", "outh"], ["cont", "inent"], ["k", "et"], [" econom", "y"], ["s", "l"], ["क", "्र"], ["vel", "op"], ["ak", "istan"], ["द", "्व"], ["v", "i"], [" a", "b"], ["t", "a"], ["ो", "ऽ"], ["ou", "t"], [" re", "c"], ["ज", "्ञ"], [" f", "ore"], ["ిం", "ది"], ["ం", "గా"], [" इ", "स"], ["प", "्त"], [" क", "ृ"], [" ह", "ु"], ["ष", "ा"], [" राज", "्य"], ["द", "ेश"], ["m", "on"], [" ह", "ो"], [" C", "E"], ["ा", "य"], ["ञ", "्च"], ["ు", "లు"], ["c", "i"], ["c", "y"], ["y", "a"], [" mus", "ic"], [" t", "im"], [" langu", "ages"], ["g", "en"], ["om", "in"], [" S", "h"], [" a", "mong"], ["న్", "ని"], ["ad", "e"], ["an", "i"], ["it", "e"], [" C", "om"], [" inf", "lu"], ["a", "ce"], ["es", "h"], ["ul", "ar"], ["रा", "ज"], [" यदाश्रौष", "ं"], [" lat", "er"], [" im", "p"], ["ar", "n"], ["a", "i"], [" de", "velop"], [" gen", "eral"], ["it", "ion"], [" large", "st"], [" P", "akistan"], [" r", "ate"], ["u", "gh"], ["ate", "ly"], [" rul", "e"], [" w", "estern"], [" class", "ical"], ["in", "s"], ["it", "ed"], [" క", "ా"], ["ष्", "ण"], [" ", "en"], [" B", "eng"], [" Beng", "al"], [" A", "n"], [" U", "n"], [" pe", "op"], [" Ch", "in"], ["ాయ", "ి"], ["द", "ि"], ["ष्", "ठ"], [" द", "्व"], ["े", "ण"], [" क", "्ष"], [" ज", "ि"], ["ట", "ి"], [" 19", "4"], ["ित", "ा"], ["न", "ि"], ["स", "ा"], [" प", "ू"], ["ub", "lic"], ["प", "ु"], [" P", "l"], [" ", "8"], ["ू", "प"], [" ", "9"], ["ab", "le"], ["ic", "e"], ["is", "ed"], ["ध", "ि"], [" ज", "न"], ["t", "ing"], ["is", "e"], ["imal", "ay"], ["or", "m"], ["o", "di"], ["ow", "n"], [" T", "h"], ["i", "b"], [" increas", "ed"], [" h", "ist"], ["ग", "म"], ["il", "d"], [" m", "id"], [" क", "ि"], ["un", "j"], ["unj", "ab"], [" h", "um"], [" econom", "ic"], ["ain", "s"], [" sub", "continent"], [" per", "i"], [" peri", "od"], [" s", "ince"], ["es", "p"], [" l", "it"], [" 201", "1"], [" M", "ugh"], ["at", "ive"], ["it", "ary"], ["c", "ed"], [" e", "mp"], ["ra", "ph"], [" sp", "ec"], [" e", "mer"], ["er", "ed"], ["ar", "at"], [" the", "re"], [" l", "if"], [" lif", "e"], ["్య", "ా"], [" c", "ount"], [" n", "on"], ["ec", "h"], [" peop", "le"], [" ", "ఎ"], ["ు", "ల"], ["िक", "ा"], ["द", "ी"], ["त", "ु"], ["ि", "म"], ["म", "ान"], ["ख्य", "ान"], ["क", "ी"], [" स्", "थ"], [" 1", "2"], ["ా", "గ"], ["ो", "ध"], ["क्ष", "िण"], ["प", "र्व"], ["a", "h"], ["r", "on"], [" ल", "ोक"], ["ध", "्य"], ["व", "ान्"], ["क", "ि"], ["प", "ि"], ["్ర", "ీ"], [" ", "హ"], ["్", "చ"], [" s", "et"], [" m", "at"], ["he", "m"], [" H", "imalay"], [" re", "f"], ["व", "्य"], [" o", "cc"], [" స", "్"], ["ec", "ted"], ["ir", "d"], [" on", "e"], ["ult", "an"], [" n", "ew"], [" c", "our"], ["ill", "en"], ["illen", "ni"], ["illenni", "um"], [" P", "unjab"], ["f", "t"], [" num", "ber"], [" E", "ast"], ["ve", "ment"], [" m", "ain"], ["he", "n"], [" I", "sl"], [" S", "ik"], [" రా", "మ"], [" w", "ar"], ["ci", "ent"], [" lit", "er"], [" ఉ", "న్న"], [" le", "ad"], [" p", "arli"], [" parli", "ament"], [" Mugh", "al"], ["di", "c"], ["ా", "ని"], ["ro", "c"], ["he", "s"], [" n", "uclear"], [" soc", "ial"], ["v", "ent"], [" spec", "ies"], [" st", "ate"], ["l", "im"], [" A", "l"], ["r", "ol"], [" रा", "ष्ट्र"], ["it", "ies"], ["o", "od"], [" ", "ఒ"], ["ter", "n"], ["e", "ver"], [" S", "ans"], [" Sans", "k"], [" Sansk", "rit"], [" th", "an"], [" p", "ower"], [" E", "ur"], [" Ind", "us"], [" 1", "5"], ["ac", "k"], ["र", "ं"], ["ण", "ं"], ["ण", "्य"], [" द", "क्षिण"], ["ज", "ा"], [" 19", "8"], ["स्", "थ"], [" ", "ని"], [" भ", "ू"], [" ब", "हु"], ["च", "्च"], ["व", "ी"], ["ख", "्या"], ["स", "ी"], ["ల", "ి"], ["ద్", "ధ"], ["ం", "త"], ["ेष", "ु"], [" व", "्य"], [" म", "ा"], [" क", "िया"], [" च", "।"], ["ु", "त"], [" Pl", "ate"], [" Ind", "o"], [" చ", "ె"], ["ी", "प"], [" cont", "rib"], [" U", "S"], ["l", "arge"], ["large", "st"], [" g", "ra"], ["an", "k"], ["t", "il"], [" includ", "ing"], ["p", "le"], ["l", "a"], ["and", "s"], ["ri", "g"], [" o", "ut"], [" C", "ent"], [" th", "rough"], ["भ", "ू"], [" Com", "p"], [" b", "as"], [" th", "ough"], [" o", "ther"], [" గ", "ు"], [" అ", "న"], ["du", "st"], ["ar", "ly"], [" s", "ur"], ["iv", "il"], [" ri", "gh"], [" b", "illion"], ["f", "e"], ["t", "en"], [" చ", "ే"], [" the", "m"], [" mil", "itary"], [" E", "n"], [" 195", "0"], [" c", "ol"], [" wh", "o"], [" D", "el"], ["म", "ं"], ["og", "raph"], [" emer", "g"], [" त", "क"], ["्य", "ते"], [" e", "st"], [" ri", "ver"], ["स्", "क"], ["i", "z"], [" con", "stitution"], [" T", "amil"], [" G", "anges"], [" ", "up"], ["or", "ts"], ["op", "e"], [" ca", "used"], [" count", "ry"], ["am", "an"], [" ag", "ric"], [" Chin", "a"], ["ీ", "త"], ["ార", "్"], ["ास", "न"], [" वि", "श्व"], [" 19", "7"], [" ब", "्र"], [" ", "ఈ"], [" ", "య"], ["స", "ు"], ["ట", "్ట"], ["्", "छ"], ["ो", "ग"], ["ण", "ा"], ["1", "9"], [" स", "र"], ["द", "ेव"], [" व", "ै"], [" ", "२"], ["ह", "्म"], ["ित", "ं"], [" 1", "7"], [" ప", "ా"], ["మ", "ా"], ["ం", "గ"], [" ద", "ేశ"], ["ం", "చ"], [" च", "॥"], ["त", "ो"], ["ल", "ी"], ["े", "य"], ["ार", "ा"], ["ुर", "ु"], [" स", "ह"], ["ी", "त"], ["न्त", "ि"], ["ो", "प"], ["भ", "्य"], ["न्", "ध"], [" ", "था"], ["స్", "తు"], ["స్", "త"], [" W", "or"], [" Wor", "ld"], ["డ", "ి"], [" ఒ", "క"], ["గ", "ు"], ["at", "a"], [" contrib", "ut"], [" p", "re"], [" relig", "i"], [" mat", "hem"], [" S", "t"], ["oc", "al"], [" N", "ational"], [" l", "ed"], [" Cent", "ral"], ["an", "a"], [" th", "ird"], ["ment", "s"], ["p", "ut"], [" di", "re"], [" t", "r"], [" Comp", "any"], [" m", "illennium"], [" w", "e"], [" r", "ural"], ["ra", "d"], [" c", "r"], [" ser", "ved"], [" al", "l"], ["he", "ast"], ["ou", "ld"], [" A", "fter"], ["ा", "च"], [" म", "ु"], [" s", "ign"], ["न्द", "्र"], [" Sik", "h"], ["న", "ా"], ["मा", "ण"], [" మ", "హా"], ["i", "ans"], ["g", "l"], [" pl", "ay"], [" g", "re"], [" f", "ar"], [" w", "om"], [" Del", "hi"], ["us", "lim"], [" कृ", "ष्ण"], [" w", "ide"], [" s", "ome"], [" f", "ound"], [" B", "y"], ["duc", "ed"], ["an", "ge"], [" क", "ृत"], ["u", "j"], [" influ", "en"], [" सा", "थ"], ["re", "ad"], ["id", "ent"], ["ow", "ever"], [" centur", "ies"], [" n", "e"], [" st", "y"], ["ord", "ing"], [" fore", "st"], [" n", "o"], [" g", "r"], ["r", "u"], [" pol", "it"], [" sec", "ond"], ["చ", "్చ"], [" १", "९"], ["े", "द"], ["2", "0"], [" ", "घ"], [" 1", "0"], ["వ", "ు"], [" भा", "षा"], ["ोक", "्त"], [" च", "ा"], ["ं", "ध"], [" हि", "न्द"], ["ब", "्"], ["न्", "न"], [" व", "र्ष"], [" क", "ार"], ["े", "त्र"], ["भ", "व"], [" स", "मा"], [" य", "ह"], ["रा", "ष्ट्र"], ["ద", "ు"], [" స", "ా"], [" రా", "జ"], ["ప", "్ర"], [" त", "ु"], [" च", "ैव"], ["ङ्", "ग"], ["ृ", "ष्ट"], ["ान", "्त"], [" सर", "कार"], ["o", "st"], ["%", "."], ["ప", "ర్వ"], [" క", "ూ"], ["ప్", "ప"], [" 2", "6"], [" ", "her"], ["च", "्छ"], [" ", "फ"], [" religi", "ous"], ["o", "ol"], [" tim", "e"], ["ं", "श"], ["or", "k"], [" are", "as"], [" ", "used"], [" g", "reat"], ["om", "et"], ["at", "h"], ["un", "d"], ["l", "ed"], [" reg", "ions"], [" cent", "ral"], ["ultan", "ate"], [" ", "—"], [" m", "ade"], [" Hindu", "ism"], ["ac", "y"], [" tr", "ans"], ["m", "it"], ["e", "at"], [" co", "ok"], [" J", "ain"], [" c", "ulture"], [" east", "ern"], ["w", "est"], [" P", "rad"], [" Prad", "esh"], [" le", "ft"], [" hum", "an"], [" पू", "र्व"], ["an", "ces"], ["or", "ies"], ["d", "ay"], [" mo", "vement"], ["c", "ri"], [" व", "ा"], ["at", "s"], [" co", "al"], ["di", "an"], [" c", "ap"], ["er", "ation"], ["al", "le"], [" Hin", "di"], ["ens", "us"], [" Indian", "s"], ["a", "u"], [" Buddh", "ist"], ["त्", "।"], ["iv", "es"], [" En", "gl"], [" Engl", "ish"], [" wom", "en"], ["d", "le"], [" ter", "rit"], [" as", "s"], ["ra", "hm"], [" emp", "lo"], [" emplo", "y"], [" ", "us"], [" m", "em"], [" emerg", "ed"], ["त्र", "ैव"], [" M", "uslim"], [" ", "ent"], [" grow", "th"], ["త", "ం"], [" in", "dust"], ["०", "०"], ["ar", "s"], [" a", "c"], [" h", "igh"], ["ver", "y"], [" cont", "rol"], ["ओ", "ं"], [" major", "ity"], [" 194", "7"], ["an", "ts"], [" G", "and"], [" Gand", "hi"], [" जि", "स"], [" fol", "lowing"], [" co", "ast"], ["d", "aman"], [" ", "esp"], [" esp", "ec"], [" espec", "ially"], ["or", "s"], ["a", "re"], [" t", "ech"], [" J", "an"], ["ver", "se"], ["olog", "y"], ["cc", "ording"], ["i", "ed"], [" the", "y"], [" includ", "e"], ["e", "h"], [" polit", "ical"], ["at", "i"], [" p", "ain"], [" pain", "ting"], ["र्ज", "ुन"], ["య", "ా"], ["ించ", "ి"], [" ", "'"], ["ము", "లు"], [" ", "ఏ"], ["ష", "్ట"], ["ै", "ः"], [" स", "ब"], [" सब", "से"], ["ा", "व"], ["र्", "श"], [" ए", "व"], ["ह", "र"], ["स्", "मि"], ["य", "ः"], [" इ", "ति"], ["్య", "ం"], [" భారత", "దేశ"], [" ప", "ర్వ"], ["క", "ా"], ["ర", "ణ"], [" 2", "1"], ["ि", "ल"], ["क", "र"], [" क", "्र"], [" पाण्ड", "व"], [" क", "ु"], [" स", "ि"], ["మ", "ైన"], ["%", ","], ["ी", "ं"], ["या", "ः"], ["ं", "ग"], [" अ", "धिक"], [" त", "तः"], ["ि", "र"], ["त्", "स"], [" प", "ञ्च"], ["म", "ह"], ["ढ", "़"], ["ग्र", "े"], [" क्ष", "ेत्र"], [" स", "ौ"], ["మ", "ి"], ["u", "e"], ["బ", "డ"], ["ాయ", "ణ"], [" క", "ాల"], ["iv", "ed"], ["em", "oc"], [" supp", "ort"], ["am", "m"], ["a", "red"], [" భ", "ా"], [" c", "re"], ["w", "ork"], [" The", "se"], ["ist", "ic"], [" Himalay", "as"], [" di", "ff"], [" ag", "o"], [" l", "ocal"], [" occ", "up"], [" sc", "ul"], [" scul", "pt"], ["st", "r"], [" an", "imal"], ["al", "e"], ["ా", "త"], [" B", "ang"], ["ak", "sh"], [" f", "ed"], ["om", "s"], ["ल", "े"], [" g", "ar"], [" le", "g"], ["ec", "ut"], [" d", "ra"], [" mar", "ri"], ["ధ", "్య"], ["D", "P"], ["it", "es"], ["ाप", "्त"], [" P", "ers"], ["k", "ed"], [" m", "an"], [" स", "ाम"], ["ज", "्य"], ["if", "ic"], ["on", "s"], ["य", "ं"], [" l", "ast"], [" an", "cient"], [" hist", "or"], [" liter", "acy"], [" re", "m"], [" rem", "ain"], [" c", "ult"], ["b", "ers"], ["alle", "y"], [" f", "eat"], [" K", "as"], [" Kas", "hm"], [" parliament", "ary"], [" c", "ensus"], ["ధ", "ిక"], ["m", "ar"], [" Con", "stitution"], ["n", "ing"], ["u", "ally"], [" ", "roc"], [")", "."], [" gre", "w"], [" o", "rig"], [" v", "ill"], [" p", "rom"], ["li", "ef"], ["le", "g"], [" B", "rahm"], ["ur", "n"], ["र्", "ग"], ["ార", "ం"], ["er", "ing"], ["प", "ू"], ["o", "in"], ["ro", "p"], [" wide", "ly"], ["ces", "s"], [" st", "ates"], [" de", "v"], [" s", "m"], ["er", "t"], [" ar", "m"], ["i", "x"], [" di", "versity"], [" part", "y"], ["स्त", "ि"], ["ష", "్"], ["ं", "ग्रे"], [" f", "ig"], ["od", "y"], [" wh", "ose"], ["y", "an"], [" I", "ts"], ["b", "ar"], [" ब", "ाद"], [" G", "uj"], ["ope", "an"], [" dire", "ct"], [" n", "ational"], ["ic", "ial"], [" r", "ates"], [" An", "daman"], [" ar", "ch"], [" ल", "ि"], ["f", "ore"], ["स", "ि"], [" b", "ir"], ["al", "i"], ["v", "id"], ["v", "ing"], ["v", "ol"], [" Un", "ited"], ["m", "inist"], [" b", "i"], [" relig", "ions"], ["v", "en"], [" N", "eh"], [" Neh", "ru"], ["es", "s"], [" p", "en"], [" pen", "ins"], ["p", "ur"], [" ", "थ"], ["in", "es"], [" e", "arly"], ["J", "P"], ["ित", "म्॥"], [" స", "ీత"], ["t", "t"], ["ాని", "కి"], ["ట", "్"], [" ఉ", "ప"], ["ध", "्या"], ["ान", "ु"], [" त", "्र"], ["ब", "ंध"], ["द", "ान"], ["ु", "द्ध"], [" अ", "नु"], ["वि", "धान"], ["न्त", "्र"], ["स्य", "ा"], ["ल", "्"], [" द", "ो"], [" भी", "म"], [" उ", "त्त"], [" द", "ु"], [" ग", "या"], ["ల", "ా"], ["ి", "త"], [" ప", "ే"], [" का", "ल"], [" द", "श"], ["म", "त"], [" अ", "प"], ["ान", "े"], ["स", "ू"], ["े", "।"], [" स", "्त"], ["च", "ित"], ["प", "ाल"], ["त्र", "ा"], ["ण", "ां"], ["वि", "ध"], [" श", "्ल"], ["ान", "्य"], ["र", "ि"], [" न", "ाम"], ["ो", "ल"], [" 1", "3"], [" మ", "ొ"], ["ద్", "ద"], ["ac", "t"], [" ప", "ు"], ["ించ", "ిన"], ["े", "ख"], [" व", "ास"], [" 19", "3"], [" अ", "न्य"], [" क", "र्ण"], ["मु", "ख"], [" यु", "द्ध"], ["म", "ास"], ["ज", "न"], ["स्क", "ृत"], ["ट", "ि"], [" ", "+"], ["म्", "ब"], ["ండ", "ి"], ["ార", "ి"], ["ణ", "ు"], ["క్", "క"], [" 1", "4"], ["b", "al"], [" pro", "duc"], ["ist", "s"], [" s", "ch"], [" ", "z"], [" W", "estern"], ["ృ", "త"], ["c", "ent"], [" 200", "1"], [" mathem", "atic"], ["m", "b"], [" w", "on"], ["స్", "థ"], [" c", "or"], ["ur", "ther"], [" D", "uring"], ["ुर", "्य"], [" ", "Y"], [" fed", "eral"], [" s", "ultanate"], ["et", "ic"], [" k", "ing"], ["w", "n"], ["స", "ి"], [" ", "ed"], [" ed", "uc"], [" educ", "ation"], ["ol", "d"], [" end", "em"], [" కూ", "డ"], [" ex", "ecut"], [" with", "in"], [" sp", "e"], ["స్", "క"], ["un", "g"], ["ou", "p"], ["igh", "t"], [" t", "rib"], [" Pers", "ian"], ["ive", "ly"], ["र", "िक"], [" long", "er"], [" wor", "k"], ["ific", "ant"], [" develop", "ment"], ["द", "ु"], [" righ", "t"], [" c", "ar"], [" com", "mer"], [" वि", "स्त"], ["am", "p"], [" of", "ten"], [" A", "ct"], [" bec", "ome"], ["u", "al"], [" roc", "k"], [" st", "at"], [" o", "ld"], ["स्त", "्र"], ["at", "ing"], ["at", "t"], [" m", "on"], [" ", "ई"], [" employ", "ed"], ["e", "x"], ["ra", "ct"], ["all", "ed"], [" వ", "ే"], [" mem", "ber"], [" un", "ion"], ["out", "heast"], [" mar", "ket"], [" m", "en"], ["च", "्यते"], [" indust", "ry"], [" c", "ur"], ["ab", "l"], ["i", "et"], ["se", "qu"], ["sequ", "ent"], [" n", "ear"], [" bas", "ed"], ["स", "ार"], [" c", "ities"], [" com", "mon"], ["m", "in"], [" election", "s"], ["is", "ing"], ["p", "ed"], [" l", "ow"], [" w", "ell"], ["త", "ర"], [" a", "ir"], ["र", "ु"], [" w", "in"], ["tern", "al"], ["ic", "o"], [" se", "ver"], [" Guj", "arat"], [" al", "ong"], [" in", "d"], [" W", "ik"], ["ध", "र्म"], [" M", "a"], ["భ", "ి"], ["is", "hed"], ["h", "an"], [" in", "ter"], [" B", "har"], ["al", "ity"], [" popul", "ar"], [" e", "arli"], ["d", "e"], ["tion", "s"], [" ad", "minist"], ["th", "ough"], [" agric", "ulture"], ["r", "ation"], ["der", "s"], [" r", "ise"], [" tech", "n"], [" sty", "les"], ["ak", "e"], ["s", "s"], [" cre", "ated"], [" l", "ower"], ["्य", "ं"], [" form", "s"], ["in", "c"], [" comp", "os"], [" महा", "त्म"], [" G", "DP"], ["em", "p"], [" region", "al"], [" M", "o"], [" 199", "1"], [" వ", "ె"], [" p", "res"], [" penins", "ular"], [" orig", "in"], [" rep", "ublic"], ["ह", "ास"], [" The", "re"], ["r", "ound"], [" B", "JP"], [" de", "f"], [" Buddh", "ism"], ["as", "h"], [" b", "l"], ["t", "al"], [" s", "ou"], [" sou", "ther"], [" souther", "n"], [" B", "h"], ["్ర", "ా"], [" ప్ర", "ా"], [" ", "ము"], ["్", "వ"], [" ", "లో"], [" అ", "ని"], ["ब", "्र"], ["ान", "ं"], [" नि", "र्"], ["द", "े"], [" ध", "ी"], [" म", "ो"], ["ख्यान", "म"], [" ब्र", "ह्म"], ["ान", "ा"], [" ", "ख"], [" ग", "ु"], [" र", "ूप"], [" ", "या"], [" ज", "ो"], ["ल", "य"], ["ज", "ी"], [" 1", "1"], ["త్", "వ"], ["ప", "ా"], [" అ", "య"], ["గ", "ి"], ["ల్", "ల"], [" ज", "्ञ"], [" राज", "्ञ"], ["ी", "ल"], ["स", "्व"], [" पा", "र्थ"], [" ब", "ड़"], [" प", "ुन"], [" द", "ि"], ["व", "ध"], [" उत्त", "र"], ["म", "ो"], [" ", "छ"], ["स्मि", "न्"], [" 5", "5"], ["िय", "ों"], ["ఖ", "్య"], ["ర్", "ష"], [" రామ", "ాయణ"], [" వ", "ా"], ["ర్", "య"], ["o", "ok"], [" క", "ో"], [" క", "థ"], [" అన", "ే"], [" ల", "క్ష"], [" వ", "చ్చ"], [" రా", "ము"], [" त", "े"], ["स्", "था"], [" ग", "ण"], [" ", "ऊ"], ["ट", "ी"], [" स", "ै"], [" उ", "प"], ["म्", "भ"], ["ह", "ि"], ["क्ष", "ा"], [" श", "ासन"], [" ", "ड"], ["स", "ह"], [" जा", "ता"], [" त", "स्य"], [" ", "ऋ"], ["ोक्त", "ं"], ["మ", "ే"], ["భారత", "దేశ"], ["క", "ొ"], [" 5", "0"], [" A", "r"], [" M", "ah"], [" g", "lo"], [" As", "ian"], [" res", "p"], [" sch", "ool"], [" f", "ive"], [" हु", "आ"], ["a", "il"], [" St", "ates"], [" N", "ad"], [" Nad", "u"], [" in", "di"], ["s", "c"], [" t", "a"], [" re", "n"], [" f", "urther"], ["e", "e"], [" sculpt", "ure"], ["భ", "ా"], [" k", "n"], ["d", "ra"], [" pl", "ain"], [" increas", "ing"], [" pro", "t"], [" र", "ह"], [" king", "d"], [" kingd", "oms"], ["या", "ं"], [" स", "ू"], ["वा", "द"], ["A", "n"], ["म", "हा"], [" execut", "ive"], [" d", "omin"], [" Jain", "ism"], ["c", "an"], ["ो", "ड़"], [" Th", "is"], ["ृ", "ति"], ["al", "es"], ["म", "ें"], [" though", "t"], [" h", "is"], [" he", "re"], [" d", "ances"], ["ak", "h"], [" w", "est"], ["ab", "il"], [" m", "ult"], [" D", "al"], ["at", "ak"], ["p", "l"], [" h", "ig"], ["ric", "ket"], ["श", "ि"], ["or", "ce"], [" w", "hen"], [" sign", "ificant"], [" Isl", "ands"], [" he", "ld"], [" sur", "v"], [" w", "ild"], ["ं", "द्र"], [" c", "ivil"], ["त", "्या"], [" coal", "ition"], [" सम", "य"], ["e", "a"], ["g", "et"], [" lead", "ing"], [" num", "bers"], [" 202", "3"], [" V", "alley"], [" A", "ra"], ["ौ", "प"], [" Kashm", "ir"], ["n", "a"], [" W", "est"], ["l", "ine"], [" form", "ed"], [" 196", "5"], [" f", "ast"], [" an", "n"], ["oc", "k"], ["e", "y"], [" Isl", "am"], [" old", "est"], [" vill", "age"], ["an", "ted"], ["up", "ta"], [" अ", "न्त"], [" diff", "er"], [" ar", "ound"], ["d", "ed"], [" v", "ari"], [" s", "o"], [" grow", "ing"], ["व", "े"], ["क", "ं"], ["ap", "ut"], ["aput", "ra"], [" tradition", "s"], [" f", "l"], [" cont", "in"], ["్ర", "మ"], ["e", "ograph"], ["ो", "ण"], [" o", "b"], [" S", "outheast"], [" स", "न्ति"], ["पा", "य"], ["us", "e"], [" e", "mpire"], [" tim", "es"], ["m", "ary"], ["ar", "k"], ["ast", "ri"], [" est", "abl"], [" e", "very"], [" sm", "all"], [" sub", "sequent"], ["श्च", "िम"], [" wor", "n"], [" pol", "ic"], [" th", "ree"], [" end", "ang"], [" endang", "ered"], [" p", "ort"], [" app", "ro"], [" appro", "x"], [" approx", "im"], [" approxim", "ately"], [" s", "a"], [" fig", "ures"], [" ter", "m"], [" ", "ve"], [" est", "im"], [" rec", "ord"], [" Plate", "au"], [" N", "ico"], [" Nico", "bar"], [" ind", "ep"], [" indep", "end"], [" tradition", "al"], [" C", "ivil"], ["gen", "cy"], ["ic", "es"], [" D", "e"], [" sp", "read"], [" శ", "ా"], [" h", "owever"], [" A", "mong"], [" te", "x"], [" pl", "ate"], ["in", "ed"], ["at", "her"], [" leg", "is"], [" legis", "l"], [" सं", "विधान"], [" Bhar", "at"], [" द", "ेव"], [" imp", "ort"], [" comp", "le"], ["ou", "se"], ["त्", "॥"], [" bir", "th"], [" s", "um"], [" earli", "est"], [" cons", "id"], ["ిక", "ి"], ["es", "e"], [" con", "duc"], ["et", "t"], ["g", "u"], [" e", "th"], ["al", "th"], [" techn", "ology"], [" A", "ccording"], [" gra", "du"], ["్మ", "ణ"], [" b", "or"], [" influen", "ced"], ["os", "s"], ["ro", "ss"], [" gr", "oup"], [" Jan", "u"], [" Janu", "ary"], [" స", "ు"], ["t", "i"], [" v", "i"], [" cour", "t"], ["ध", "ार"], [" R", "aj"], [" off", "icial"], ["ल", "ो"], ["is", "s"], ["ar", "a"], ["l", "ad"], [" A", "f"], [" s", "up"], [" च", "ु"], [" s", "ing"], ["ard", "s"], [" ध", "ृत"], ["at", "ure"], ["eral", "a"], [" cour", "ts"], [" un", "til"], [" a", "ff"], [" ch", "anges"], ["he", "re"], ["ain", "ed"], [" develop", "ed"], ["ం", "ప"], [" di", "st"], [" As", "s"], ["ి", "ణ"], ["िक", "ी"], [" territ", "ories"], [" ag", "ain"], [" f", "low"], [" mid", "dle"], [" ", "upp"], [" upp", "er"], [" to", "tal"], [" st", "r"], [" f", "amil"], [" famil", "ies"], [" f", "our"], [" p", "an"], [" v", "ast"], ["v", "al"], [" lead", "er"], [" n", "ow"], [" 1", "6"], [" య", "ు"], ["ట", "ు"], ["ద", "ా"], ["ి", "ని"], ["ర్", "ణ"], [" ర", "చ"], ["ిం", "ద"], [" మహా", "భారత"], ["ంలో", "ని"], [" క", "ొ"], ["ష్ట", "్ర"], ["ం", "బ"], ["ुर्य", "ोध"], ["्", "न"], [" म", "ध्य"], ["क", "ाल"], ["र्", "ध"], ["ा", "त"], [" त", "त"], [" स", "द"], ["ृत", "्त"], ["की", "र्त"], ["ष", "्य"], [" अ", "स्ति"], [" हु", "ई"], ["यु", "क्त"], ["ं", "ड"], ["्रा", "णि"], [" त", "ी"], ["द", "र्श"], ["र", "ूप"], [" भारत", "स्य"], ["ाच", "ीन"], ["ల", "ను"], [" కూడ", "ా"], ["ాల", "ను"], [" ఉన్న", "ాయి"], [" సం", "స్క"], ["మ", "ం"], ["వ", "్య"], ["బ", "్"], ["్", "లో"], [".", "."], ["ृ", "द्ध"], [" यु", "धि"], ["ाल", "ी"], ["श", "ासन"], ["धिक", "ार"], ["राज", "्य"], ["ग", "त"], [" राज्य", "ों"], [" के", "ंद्र"], ["भा", "ग"], ["म", "ित"], [" ए", "त"], ["द्", "भ"], ["ना", "व"], [" व", "ेद"], [" वि", "विध"], ["र्", "मा"], [" श", "त"], ["गम", "नं"], [" श", "ु"], ["ँ", "च"], ["ध", "ी"], [" धृत", "राष्ट्र"], ["ग", "र"], ["ृ", "ह"], ["ु", "देव"], ["वा", "च"], [" పర్వ", "ము"], ["మ", "హా"], [" గు", "ర"], [" మ", "హ"], ["ర్", "ప"], [" 7", "0"], [" త", "ె"], ["ించ", "ాడు"], ["న", "ే"], [" ఉ", "ంది"], [" క", "ు"], ["ధ", "ాన"], [" ", ":"], [" पर", "ं"], ["द्य", "ोग"], ["व", "स्था"], [" द", "ुर्योध"], ["ह", "ीं"], [" स", "म्"], [" द", "िव"], [" हिन्द", "ी"], [" पु", "ण्य"], ["स्त", "था"], ["ु", "ं"], [" ब", "ना"], [" कार", "ण"], ["स", "ु"], ["पु", "त्र"], [" 2", "8"], ["स्त", "ु"], [" द", "िया"], ["क", "्"], [" क", "थ"], ["ो", "ष"], [" लि", "ए"], ["ल", "्ल"], ["त्र", "ी"], ["ष", "ि"], [" च", "ाप"], [" पु", "रा"], [" इति", "हास"], [" थ", "ी"], ["ा", "ह"], [" पा", "कि"], ["स्त", "ान"], [" श", "ि"], [" म", "े"], ["भा", "व"], ["ాత", "ీయ"], [" చె", "ప్ప"], [" మ", "ా"], ["రు", "వా"], [" మ", "ార్"], [" ప", "రి"], ["మ", "్"], [" మ", "ూ"], [" ర", "ై"], ["2", "1"], ["2", "00"], [" 3", "6"], [" glo", "bal"], [" te", "a"], [" produc", "er"], [" భా", "ష"], [" S", "ing"], [" Sing", "h"], ["on", "e"], ["ar", "h"], ["et", "work"], [" mathematic", "s"], [" S", "ri"], [" ref", "orm"], [" indi", "gen"], [" indigen", "ous"], ["hed", "ul"], [" ta", "x"], [" p", "red"], ["odi", "versity"], [" great", "er"], [" ren", "ew"], [" kn", "own"], [" s", "ect"], [" sect", "or"], [" f", "em"], ["r", "in"], ["er", "v"], ["ास्त", "्र"], [" f", "am"], [" hist", "ory"], [" dis", "put"], ["न", "ः।"], [" cons", "ol"], [" consol", "id"], [" M", "al"], [" W", "ar"], [" Hindu", "st"], [" pol", "l"], [" cook", "ed"], [" ext", "ant"], [" influ", "ence"], [" p", "har"], [" phar", "m"], [" pharm", "ace"], [" pharmace", "ut"], [" pharmaceut", "ical"], ["క", "ో"], [" D", "ec"], [" l", "ay"], ["u", "k"], [" sec", "ular"], ["or", "tion"], [" cr", "ust"], [" spe", "ak"], [" el", "ites"], ["st", "ed"], ["स", "्र"], [" c", "he"], ["di", "t"], [" other", "s"], [" d", "emoc"], ["tt", "ar"], ["t", "he"], ["it", "s"], ["and", "ing"], [" sh", "ow"], ["v", "an"], [" T", "har"], ["ri", "es"], ["క్", "కు"], ["um", "b"], ["umb", "ai"], [" l", "im"], ["त", "म"], [" p", "ublic"], [" f", "und"], [" fund", "ament"], [" fundament", "al"], [" G", "h"], [" Gh", "ats"], [" j", "ust"], [" be", "ing"], [" The", "ir"], [" D", "ra"], [" Dra", "vi"], [" Dravi", "dian"], ["in", "ing"], [" ए", "श"], [" एश", "िया"], [" f", "est"], ["iv", "al"], [" सै", "न्य"], [" are", "a"], ["abil", "ity"], [" to", "ok"], [" hig", "he"], [" highe", "st"], ["op", "eration"], [" commer", "c"], [" commerc", "ial"], ["di", "v"], [" G", "ree"], [" Gree", "k"], ["li", "fe"], ["b", "ian"], ["o", "v"], [" feat", "ures"], ["r", "ish"], ["rish", "na"], ["me", "di"], ["medi", "ately"], ["arn", "atic"], ["या", "।"], ["o", "ts"], [" b", "ri"], ["ू", "ल"], ["द", "ं"], ["द्व", "ीप"], ["it", "ions"], [" res", "ult"], [" result", "ing"], ["at", "ical"], [" N", "ep"], ["ab", "ly"], [" sc", "ri"], [" gen", "er"], ["ित", "्वा"], ["r", "atic"], [" वि", "क"], ["న", "కు"], [" differ", "ent"], ["sh", "a"], [" he", "ad"], ["ంద", "ు"], ["i", "e"], [" re", "lief"], ["li", "ed"], ["వ", "ర"], ["our", "ces"], [" Brahm", "aputra"], [" ex", "c"], [" t", "urn"], [" contin", "u"], [" continu", "ed"], [" p", "ract"], [" c", "an"], [" righ", "ts"], ["str", "uc"], [" w", "rit"], ["पाय", "न"], [" Al", "l"], ["er", "c"], ["श", "ेष"], ["el", "f"], ["ine", "ering"], ["w", "ay"], [" T", "ib"], [" Tib", "et"], ["డ", "్"], [" cent", "re"], [" p", "il"], [" cur", "ren"], ["n", "am"], [" n", "ame"], [" ब", "ढ़"], [" Con", "stit"], [" cook", "ing"], [" w", "a"], [" wa", "ist"], ["ुन", "ि"], [" D", "es"], [" common", "ly"], [" e", "qu"], [" प", "श्चिम"], [" स", "प्त"], ["ab", "ad"], [" N", "uclear"], ["u", "es"], ["er", "ial"], ["ame", "e"], ["amee", "z"], [" re", "duced"], ["rop", "ical"], ["ान्", "।"], ["oc", "i"], [" b", "ody"], [" 12", "00"], ["ing", "s"], [" ve", "get"], ["c", "ast"], ["iv", "ing"], ["iet", "y"], ["mit", "t"], [" estim", "ated"], [" r", "ange"], [" relig", "ion"], [" influen", "ces"], ["o", "tion"], [" ex", "ch"], ["dra", "m"], ["dram", "as"], [" cons", "um"], [" Ma", "ur"], [" direct", "ly"], ["in", "ct"], [" f", "ish"], ["ar", "ies"], [" ad", "dition"], [" H", "owever"], [" be", "fore"], ["reas", "ing"], [" Un", "ion"], [" म", "ै"], ["vent", "ion"], [" exp", "orts"], [" app", "ear"], ["e", "qu"], [" था", "।"], [" import", "ant"], [" fore", "ign"], [" t", "est"], [" 202", "2"], [" sum", "mer"], ["त", "ां"], [" G", "ond"], ["ो", "द"], [" the", "se"], [" in", "vol"], [" d", "er"], [" s", "ix"], [" agric", "ult"], [" agricult", "ural"], ["o", "or"], [" n", "ation"], ["ग्र", "ह"], ["er", "g"], ["erg", "y"], ["em", "ple"], [" Al", "though"], [" Eur", "as"], [" conduc", "ted"], ["av", "i"], [" be", "low"], ["g", "a"], [" c", "reat"], ["ri", "al"], ["tern", "ational"], [" ", "er"], [" er", "a"], ["av", "ing"], [" record", "ed"], ["on", "es"], ["if", "ied"], [" arch", "it"], [" archit", "ect"], [" s", "ari"], [" w", "ear"], ["స", "ం"], ["తు", "డు"], [" establ", "ished"], [" त", "तो"], ["ab", "h"], ["olog", "ical"], [" 195", "1"], [" Eur", "opean"], [" s", "im"], [" pro", "v"], ["ol", "ence"], [" compos", "ed"], [" महात्म", "ना"], [" t", "emp"], [" c", "alled"], ["li", "ance"], [" ch", "ar"], ["t", "ou"], ["tou", "ch"], ["म", "्य"], ["ष", "ु"], [" part", "ition"], [" di", "verse"], ["m", "iss"], [" Bang", "lad"], [" Banglad", "esh"], [" Af", "ric"], [" Afric", "a"], [" ab", "out"], ["e", "ly"], [" dec", "ad"], [" decad", "es"], ["i", "qu"], ["re", "me"], [" V", "a"], [" sing", "le"], [" K", "erala"], ["ous", "ly"], [" a", "cc"], [" ser", "v"], ["arn", "atak"], ["arnatak", "a"], [" व", "े"], ["or", "ter"], ["al", "w"], ["it", "al"], [" ext", "ens"], [" rel", "ations"], [" S", "ea"], [" 202", "6"], ["ot", "t"], ["an", "n"], [" pro", "cess"], ["di", "s"], ["vid", "ed"], ["ad", "a"], [" pl", "ace"], [" वास", "ुदेव"], [" ", "qu"], [" int", "ro"], [" 201", "0"], [" me", "at"], ["ure", "d"], ["िय", "े"], [" mil", "k"], ["य", "े"], ["G", "overnment"], [" व", "र्त"], ["ol", "e"], [" 201", "8"], ["ख्यान", "ं"], ["న", "ం"], [" ex", "ternal"], [" en", "ac"], [" enac", "ted"], ["ak", "es"], [" l", "o"], [" re", "t"], [" tradition", "ally"], [" b", "u"], [" n", "at"], [" 4", "0"], ["b", "ack"], [" న", "ా"], ["ము", "లో"], [" స్", "థ"], ["మహా", "భారత"], ["ె", "ను"], [" అ", "ధిక"], [" త", "రువా"], [" ఉప", "పర్వ"], [" ప్ర", "ధాన"], ["1", "7"], ["प", "रा"], [" पु", "त्र"], ["ज", "़"], ["ति", "ः"], [" देश", "ों"], ["श्च", "ैव"], [" दुर्योध", "न"], ["ध", "ा"], ["ेष", "ां"], [" र", "हा"], ["ू", "र"], ["न", "म्॥"], ["े", "ट"], ["श", "त"], ["ो", "त्"], ["न्", "म"], ["व", "ास"], [" क", "ई"], ["यो", "ग"], ["स", "द"], ["तं", "त्र"], [" ", "ओ"], [" न", "व"], ["र्थ", "ं"], [" से", "ना"], ["र", "थ"], ["ार", "ी"], ["श", "ास"], ["र्", "द"], ["ी", "क"], ["१", "९"], [" हो", "ता"], [" सं", "घ"], [" हु", "ए"], [" चु", "नाव"], [" य", "था"], ["ित", "म्।"], ["ित", "ः।"], [" अ", "ंग्रे"], [" ना", "ग"], ["्या", "ः"], ["त", "र"], ["6", "4"], ["ధ", "ి"], ["ల", "లో"], ["ణ", "ా"], [" క", "్రీ"], ["ళ", "్"], [" మొ", "ద"], [" పర్వము", "ః"], ["ం", "శ"], ["ార", "ా"], [" వ", "ాల"], ["్మ", "ీ"], ["ప్", "పు"], ["ప", "ంచ"], [" వ", "్య"], ["ల", "ం"], ["ధ", "ు"], [" భారత", "ీయ"], ["త", "్య"], ["డ", "ం"], [" ల", "ే"], [" పే", "రు"], ["వ", "త్"], [" స్", "వ"], ["్ర", "ి"], [" युधि", "ष्ठ"], [" इ", "त्य"], [" प", "ह"], [" प", "ित"], [" इस", "के"], [" कर", "ोड़"], [" न", "हीं"], ["ृत", "्य"], [" प्र", "मुख"], [" साम", "्रा"], [" साम्रा", "ज्य"], [" अ", "न"], ["प", "र"], [" प्र", "ति"], [" भा", "ग"], ["ै", "त"], ["या", "मास"], ["ित", "ः"], [" ब", "न"], ["व", "ेश"], [" ", "ऐ"], ["जा", "ति"], [" भी", "ष्"], ["ा", "ख"], [" अ", "व"], [" अनु", "सार"], [" प", "ुर"], ["प्र", "ति"], [" कर", "ने"], ["ड़", "ा"], [" उ", "त्"], ["मु", "च्यते"], [" न", "्या"], [" द", "ृष्ट"], ["न्", "ह"], ["िक", "ं"], ["च", "ि"], ["स", "ेन"], ["ु", "म"], ["व", "ान"], ["ो", "र"], ["ु", "प"], [" प्र", "ाचीन"], [" पा", "र्"], [" 2", "4"], [" 3", "00"], ["20", "1"], [" 3", "0"], ["ర్", "గ"], ["క", "ాల"], [" యు", "ద్ధ"], [" అన", "గా"], [" P", "ro"], [" జ", "రి"], [" 18", "5"], [" ", "X"], ["ల", "ే"], [" 4", "00"], [" ప", "ూ"], ["వ", "స్థ"], ["మ", "ని"], [" ప", "ె"], ["ం", "డు"], [" 2", "5"], [" రా", "ష్ట్ర"], ["గ", "ిన"], [" చ", "ి"], [" द", "ेख"], [" अ", "ष्ट"], [" स्", "म"], [" सं", "बंध"], ["त", "्वा"], ["र", "्या"], ["क्त", "ं"], ["त", "्व"], ["ट", "े"], [" ल", "ग"], ["ो", "ह"], ["सं", "ख्या"], [" R", "ep"], ["ौ", "ह"], [" पर", "म"], [" म", "न"], [" एव", "ं"], ["े", "त"], ["द", "न"], [" स्व", "तंत्र"], ["िण", "ा"], [" राष्ट्र", "ीय"], [" भाषा", "ओं"], [" धर्म", "राज"], [" अ", "र"], [" देश", "ः"], ["ौ", "र"], [" त", "त्र"], [" मै", "दान"], [" श", "ास"], [" द्व", "ारा"], [" पर्व", "त"], ["स", "्राणि"], [" ज", "ग"], [" के", "न्द्र"], [" आ", "र्थ"], [" आर्थ", "िक"], [" चुनाव", "ों"], [" त", "ेन"], ["स्क", "ृति"], [" पाकि", "स्तान"], ["स", "म"], [" पर", "िकी"], [" परिकी", "र्त"], ["र्थ", "े"], [" )", ";"], ["श्च", "ा"], ["रा", "ट"], ["स्थ", "ान"], ["ित", "्य"], [" प्र", "धान"], ["पा", "ख्यानम"], ["व", "ृत्त"], [" 4", "2"], [" न", "ार"], [" ज", "य"], [" ज", "ी"], ["ప", "ూ"], ["ాన", "ం"], ["ప", "ో"], [" మ", "ధ్య"], [" ", "0"], ["9", "1"], ["ంట", "ి"], [" ", "గా"], ["డ", "ానికి"], [" వే", "ద"], ["ద", "ం"], ["చ", "ి"], [" జ", "ా"], [" ద", "ీ"], ["ద", "్య"], ["om", "est"], ["య", "ం"], [" ఇ", "ది"], ["c", "om"], ["4", "2"], ["ణ", "ము"], [" క", "లి"], [" 7", "8"], ["య", "ో"], ["y", "p"], [" జ", "న"], [" ప", "ొ"], ["ర్", "త"], ["వ", "ే"], [" ", "ను"], ["2", "4"], [" D", "emoc"], ["ra", "cy"], [" le", "vel"], [" contribut", "ions"], [" m", "amm"], [" mamm", "als"], [" f", "all"], ["क्त", "ि"], ["क", "्य"], [" p", "at"], [" the", "n"], [" fol", "low"], [" cons", "ists"], [" school", "s"], [" exp", "ans"], ["D", "A"], [" d", "h"], [" set", "ting"], [" L", "ank"], [" to", "p"], [" S", "he"], [" ब", "ी"], ["us", "h"], ["hedul", "ed"], ["p", "ay"], [" pred", "omin"], ["A", "ry"], ["Ary", "an"], ["B", "i"], [" ex", "am"], [" exam", "ple"], [" dec", "la"], [" cor", "al"], [" th", "ose"], [" v", "is"], ["a", "ren"], ["ection", "s"], ["ar", "b"], [" ", "﻿"], [" Bang", "al"], [" Bangal", "ore"], [" Y", "aksh"], [" prot", "ected"], [" d", "ue"], ["ri", "d"], ["m", "end"], [" F", "ron"], [" Fron", "t"], [" disput", "es"], [" ద", "క్ష"], [" बहु", "त"], [" Mal", "ay"], [" gar", "lic"], [" g", "od"], [" Sh", "iv"], [" Shiv", "a"], [" trans", "mit"], [" transmit", "ted"], [" Hindust", "ani"], [" art", "s"], [" endem", "ic"], [" bas", "in"], [" ch", "ild"], ["im", "e"], [" Dec", "can"], ["ే", "వ"], [" marri", "ages"], [" T", "er"], [" c", "u"], ["er", "ly"], [" speak", "ers"], [" Punjab", "i"], [" imp", "ro"], ["प्र", "ाप्त"], [" ref", "er"], ["l", "ung"], ["hi", "p"], ["త్ర", "ి"], [" supp", "l"], ["A", "fter"], [" e", "ight"], [" మ", "త"], [" v", "ic"], [" vic", "t"], [" exp", "ort"], [" A", "k"], ["it", "ated"], [" w", "ould"], [" urban", "isation"], [" K", "al"], [" mar", "ked"], [" man", "us"], [" manus", "cri"], [" government", "s"], ["ol", "a"], ["en", "ed"], [" v", "arn"], [" main", "t"], [" dis", "pl"], ["re", "t"], [" Sh", "ank"], [" Shank", "ar"], [" c", "ricket"], [" जा", "ती"], [" inf", "orm"], [" inform", "ation"], [" ", "ధ"], ["f", "orce"], ["j", "ect"], ["िया", "ँ"], [" st", "ren"], [" stren", "g"], [" streng", "th"], [" s", "low"], [" we", "ap"], [" weap", "ons"], ["क्र", "म"], [" s", "over"], [" sover", "e"], [" sovere", "ign"], [" sovereign", "ty"], ["B", "y"], [" h", "ub"], [" de", "p"], [" M", "any"], [" di", "v"], [" gar", "ment"], [" व", "ी"], [" fest", "ival"], ["ोक", "ा"], [" remain", "ing"], [" F", "or"], [" cult", "ures"], [" cr", "uc"], [" cruc", "ial"], [" r", "ich"], [" d", "ri"], [" అ", "ను"], ["र्", "ह"], [" wild", "life"], [" Ara", "bian"], ["b", "le"], [" el", "ected"], [" K", "rishna"], [" im", "mediately"], [" n", "omin"], [" C", "arnatic"], ["ra", "c"], [" m", "uch"], ["ాగ", "ం"], [" play", "er"], [" ri", "vers"], [" B", "ay"], [" j", "ur"], ["ac", "ed"], ["ద", "్ర"], [" minist", "ers"], [" ab", "o"], [" abo", "ve"], [" in", "it"], ["ning", "s"], ["p", "ts"], [" stat", "us"], [" rel", "ative"], [" pro", "p"], [" वि", "द"], ["hes", "s"], ["ot", "ed"], [" a", "ge"], [" c", "os"], ["ol", "it"], ["ం", "ధ"], ["it", "ud"], ["In", "dian"], [" G", "upta"], ["బ", "ా"], ["on", "ial"], [" M", "id"], [" Mid", "dle"], ["ూ", "ప"], [" col", "leg"], [" colleg", "es"], [" mult", "i"], ["ब", "ल"], ["A", "l"], [" स्", "था"], ["e", "b"], ["id", "ly"], [" o", "p"], [" पाण्डव", "ानां"], [" As", "h"], [" Ash", "ok"], [" Ashok", "a"], [" ప్ర", "పంచ"], [" जन", "जाति"], [" animal", "s"], ["er", "able"], ["ै", "पायन"], ["res", "ent"], [" se", "p"], [" or", "gan"], [" cont", "ains"], [" ra", "il"], [" rail", "way"], [" M", "arat"], ["h", "as"], [" st", "e"], ["స్", "తా"], [" h", "ab"], [" hab", "it"], [" c", "att"], [" catt", "le"], ["M", "e"], ["un", "e"], ["et", "er"], [" curren", "cy"], [" తరువా", "త"], [" ch", "ur"], [" chur", "id"], [" churid", "ars"], [" pri", "mary"], [" ", "ir"], ["Z", "or"], ["Zor", "o"], ["Zoro", "astri"], ["Zoroastri", "an"], ["ित", "्र"], [" popul", "ous"], ["र्ष", "िणा"], [" అయ", "ిన"], [" Constit", "u"], [" Constitu", "ent"], ["i", "or"], ["ండ", "వ"], [" క", "ల"], ["ించ", "ారు"], [" th", "reat"], [" Des", "ert"], [" north", "west"], [" polic", "ies"], [" O", "ly"], [" Oly", "mp"], [" is", "ol"], ["t", "ure"], [" k", "ameez"], [" t", "ropical"], [" ass", "oci"], ["గా", "లు"], ["ॉ", "ंग्रे"], ["ॉंग्रे", "स"], ["ని", "కి"], [" f", "act"], ["ang", "ra"], [" mathem", "atical"], [" p", "ur"], [" c", "oun"], ["e", "es"], [" constitution", "al"], ["D", "em"], ["ograph", "ics"], [" ch", "os"], [" chos", "en"], [" independ", "ence"], [" dev", "otion"], [" class", "es"], [" soc", "iety"], [" ad", "ded"], ["ధ", "ార"], ["ang", "ed"], [" Civil", "isation"], [" pract", "ices"], ["धर्म", "ः"], ["i", "p"], ["E", "ur"], ["Eur", "opean"], [" c", "le"], [" Maur", "ya"], [" రా", "క్ష"], [" అ", "భి"], ["on", "om"], [" comp", "an"], [" compan", "ies"], ["स", "भा"], [" tex", "ts"], ["k", "n"], ["मि", "ल"], [" P", "ark"], [" s", "iz"], [" scri", "pt"], [" sa", "fe"], ["P", "A"], ["av", "our"], [" r", "ather"], [" s", "il"], ["ष", "े"], [" 4", "3"], [" b", "ro"], [" bro", "ad"], [" 202", "4"], [" g", "as"], [" sh", "are"], [" fol", "k"], [" in", "equ"], [" inequ", "ality"], [" T", "reat"], [" Treat", "y"], [" M", "yan"], [" Myan", "mar"], [" 200", "8"], [" 196", "0"], ["m", "a"], [" c", "ame"], ["k", "im"], ["ur", "red"], [" 193", "5"], [" cult", "ural"], [" trib", "al"], [" exp", "ress"], ["a", "fter"], [" sty", "le"], [" Indi", "ra"], [" सं", "स्कृत"], [" दश", "क"], [" Jan", "ata"], [" support", "ed"], ["ell", "ion"], [" l", "ik"], [" en", "ergy"], [" N", "orth"], [" k", "il"], [" kil", "omet"], [" kilomet", "res"], [" T", "emple"], [" p", "ast"], ["in", "d"], [" administ", "ration"], ["ond", "s"], [" स्थ", "ित"], ["ak", "ing"], ["न्त", "ं"], ["b", "ody"], [" ass", "ert"], [" T", "el"], [" con", "ce"], [" res", "ident"], [" resident", "s"], [" f", "in"], ["re", "g"], [" f", "ra"], ["iv", "ity"], ["ई", "।"], [" dis", "hes"], [" Com", "mon"], [" g", "ave"], ["c", "hed"], ["ాల", "లో"], [" M", "umbai"], ["ould", "er"], [" h", "aving"], ["ud", "uc"], ["uduc", "her"], ["uducher", "ry"], [" प्र", "देश"], [" architect", "ure"], [" l", "oss"], [" कार", "्य"], [" rec", "ent"], [" M", "ad"], ["r", "an"], ["d", "s"], ["ించ", "బడ"], [" b", "ron"], [" bron", "z"], ["omest", "ic"], [" be", "lief"], ["f", "orm"], ["is", "en"], [" c", "al"], ["తు", "లు"], [" mar", "g"], [" marg", "ins"], [" ", "eng"], [" eng", "ineering"], [" sim", "il"], [" simil", "ar"], [" p", "ers"], [" P", "all"], [" Pall", "av"], [" dra", "in"], [" ఉ", "ంట"], [" m", "in"], [" d", "o"], [" col", "l"], [" कु", "ल"], ["र", "ण"], [" ह", "ी"], ["aksh", "ad"], ["akshad", "we"], ["akshadwe", "ep"], ["p", "ass"], ["pass", "ing"], ["it", "her"], [" s", "omet"], [" somet", "im"], [" sometim", "es"], [" char", "ac"], [" charac", "ter"], [" m", "er"], [" mer", "ch"], ["ab", "les"], [" se", "als"], [" o", "pp"], [" opp", "os"], ["ill", "ed"], [" ", "="], ["ress", "ed"], [" ज", "ै"], [" m", "i"], [" s", "ites"], [" origin", "ally"], ["ig", "ration"], [" mo", "ist"], ["l", "and"], [" far", "m"], ["ut", "e"], [" forest", "s"], [" sur", "round"], [" l", "ies"], [" cont", "ain"], ["e", "dic"], ["ri", "st"], [" ర", "థ"], ["g", "arh"], ["p", "ic"], ["res", "ident"], ["en", "ing"], [" 196", "2"], [" set", "t"], ["le", "ment"], [" d", "en"], ["w", "ards"], [" form", "al"], [" exch", "ange"], [" 198", "0"], [" హ", "ింద"], [" sup", "er"], [" यु", "ग"], [" Mo", "hen"], [" Mohen", "j"], [" Mohenj", "o"], [" K", "arnataka"], [" 201", "3"], [" ab", "s"], [" ad", "op"], [" port",
[...]
