{
  "version": "1.0",
  "truncation": null,
  "padding": null,
  "added_tokens": [],
  "normalizer": {
    "type": "NFKC"
  },
  "pre_tokenizer": {
    "type": "Metaspace",
    "replacement": "▁",
    "prepend_scheme": "never",
    "split": true
  },
  "post_processor": null,
  "decoder": {
    "type": "Metaspace",
    "replacement": "▁",
    "prepend_scheme": "never",
    "split": true
  },
  "model": {
    "type": "BPE",
    "dropout": null,
    "unk_token": null,
    "continuing_subword_prefix": null,
    "end_of_word_suffix": null,
    "fuse_unk": false,
    "byte_fallback": false,
    "ignore_merges": false,
    "vocab": {
      "\t": 0,
      "\n": 1,
      "\u000b": 2,
      "\f": 3,
      "\r": 4,
      "▁": 5,
      "!": 6,
      "\"": 7,
      "#": 8,
      "$": 9,
      "%": 10,
      "&": 11,
      "'": 12,
      "(": 13,
      ")": 14,
      "*": 15,
      "+": 16,
      ",": 17,
      "-": 18,
      ".": 19,
      "/": 20,
      "0": 21,
      "1": 22,
      "2": 23,
      "3": 24,
      "4": 25,
      "5": 26,
      "6": 27,
      "7": 28,
      "8": 29,
      "9": 30,
      ":": 31,
      ";": 32,
      "<": 33,
      "=": 34,
      ">": 35,
      "?": 36,
      "@": 37,
      "A": 38,
      "B": 39,
      "C": 40,
      "D": 41,
      "E": 42,
      "F": 43,
      "G": 44,
      "H": 45,
      "I": 46,
      "J": 47,
      "K": 48,
      "L": 49,
      "M": 50,
      "N": 51,
      "O": 52,
      "P": 53,
      "Q": 54,
      "R": 55,
      "S": 56,
      "T": 57,
      "U": 58,
      "V": 59,
      "W": 60,
      "X": 61,
      "Y": 62,
      "Z": 63,
      "[": 64,
      "\\": 65,
      "]": 66,
      "^": 67,
      "_": 68,
      "`": 69,
      "a": 70,
      "b": 71,
      "c": 72,
      "d": 73,
      "e": 74,
      "f": 75,
      "g": 76,
      "h": 77,
      "i": 78,
      "j": 79,
      "k": 80,
      "l": 81,
      "m": 82,
      "n": 83,
      "o": 84,
      "p": 85,
      "q": 86,
      "r": 87,
      "s": 88,
      "t": 89,
      "u": 90,
      "v": 91,
      "w": 92,
      "x": 93,
      "y": 94,
      "z": 95,
      "{": 96,
      "|": 97,
      "}": 98,
      "~": 99,
      "°": 100,
      "·": 101,
      "Ö": 102,
      "á": 103,
      "â": 104,
      "æ": 105,
      "ç": 106,
      "è": 107,
      "é": 108,
      "í": 109,
      "ñ": 110,
      "ö": 111,
      "ü": 112,
      "ā": 113,
      "ī": 114,
      "İ": 115,
      "Ś": 116,
      "ś": 117,
      "ū": 118,
      "ș": 119,
      "ə": 120,
      "ɦ": 121,
      "ɪ": 122,
      "ɾ": 123,
      "ʊ": 124,
      "ʼ": 125,
      "ˈ": 126,
      "ː": 127,
      "ί": 128,
      "α": 129,
      "δ": 130,
      "θ": 131,
      "ν": 132,
      "π": 133,
      "ς": 134,
      "ό": 135,
      "ا": 136,
      "ب": 137,
      "ت": 138,
      "ر": 139,
      "ھ": 140,
      "ऀ": 141,
      "ँ": 142,
      "ं": 143,
      "ः": 144,
      "ऄ": 145,
      "अ": 146,
      "आ": 147,
      "इ": 148,
      "ई": 149,
      "उ": 150,
      "ऊ": 151,
      "ऋ": 152,
      "ऌ": 153,
      "ऍ": 154,
      "ऎ": 155,
      "ए": 156,
      "ऐ": 157,
      "ऑ": 158,
      "ऒ": 159,
      "ओ": 160,
      "औ": 161,
      "क": 162,
      "ख": 163,
      "ग": 164,
      "घ": 165,
      "ङ": 166,
      "च": 167,
      "छ": 168,
      "ज": 169,
      "झ": 170,
      "ञ": 171,
      "ट": 172,
      "ठ": 173,
      "ड": 174,
      "ढ": 175,
      "ण": 176,
      "त": 177,
      "थ": 178,
      "द": 179,
      "ध": 180,
      "न": 181,
      "ऩ": 182,
      "प": 183,
      "फ": 184,
      "ब": 185,
      "भ": 186,
      "म": 187,
      "य": 188,
      "र": 189,
      "ऱ": 190,
      "ल": 191,
      "ळ": 192,
      "ऴ": 193,
      "व": 194,
      "श": 195,
      "ष": 196,
      "स": 197,
      "ह": 198,
      "ऺ": 199,
      "ऻ": 200,
      "़": 201,
      "ऽ": 202,
      "ा": 203,
      "ि": 204,
      "ी": 205,
      "ु": 206,
      "ू": 207,
      "ृ": 208,
      "ॄ": 209,
      "ॅ": 210,
      "ॆ": 211,
      "े": 212,
      "ै": 213,
      "ॉ": 214,
      "ॊ": 215,
      "ो": 216,
      "ौ": 217,
      "्": 218,
      "ॎ": 219,
      "ॏ": 220,
      "ॐ": 221,
      "॑": 222,
      "॒": 223,
      "॓": 224,
      "॔": 225,
      "ॕ": 226,
      "ॖ": 227,
      "ॗ": 228,
      "क़": 229,
      "ख़": 230,
      "ग़": 231,
      "ज़": 232,
      "ड़": 233,
      "ढ़": 234,
      "फ़": 235,
      "य़": 236,
      "ॠ": 237,
      "ॡ": 238,
      "ॢ": 239,
      "ॣ": 240,
      "।": 241,
      "॥": 242,
      "०": 243,
      "१": 244,
      "२": 245,
      "३": 246,
      "४": 247,
      "५": 248,
      "६": 249,
      "७": 250,
      "८": 251,
      "९": 252,
      "॰": 253,
      "ॱ": 254,
      "ॲ": 255,
      "ॳ": 256,
      "ॴ": 257,
      "ॵ": 258,
      "ॶ": 259,
      "ॷ": 260,
      "ॸ": 261,
      "ॹ": 262,
      "ॺ": 263,
      "ॻ": 264,
      "ॼ": 265,
      "ॽ": 266,
      "ॾ": 267,
      "ॿ": 268,
      "ত": 269,
      "ভ": 270,
      "র": 271,
      "া": 272,
      "ਤ": 273,
      "ਭ": 274,
      "ਰ": 275,
      "ਾ": 276,
      "ત": 277,
      "ભ": 278,
      "ર": 279,
      "ા": 280,
      "ତ": 281,
      "ଭ": 282,
      "ର": 283,
      "ା": 284,
      "இ": 285,
      "த": 286,
      "ந": 287,
      "ய": 288,
      "ா": 289,
      "ி": 290,
      "்": 291,
      "ఀ": 292,
      "ఁ": 293,
      "ం": 294,
      "ః": 295,
      "ఄ": 296,
      "అ": 297,
      "ఆ": 298,
      "ఇ": 299,
      "ఈ": 300,
      "ఉ": 301,
      "ఊ": 302,
      "ఋ": 303,
      "ఌ": 304,
      "఍": 305,
      "ఎ": 306,
      "ఏ": 307,
      "ఐ": 308,
      "఑": 309,
      "ఒ": 310,
      "ఓ": 311,
      "ఔ": 312,
      "క": 313,
      "ఖ": 314,
      "గ": 315,
      "ఘ": 316,
      "ఙ": 317,
      "చ": 318,
      "ఛ": 319,
      "జ": 320,
      "ఝ": 321,
      "ఞ": 322,
      "ట": 323,
      "ఠ": 324,
      "డ": 325,
      "ఢ": 326,
      "ణ": 327,
      "త": 328,
      "థ": 329,
      "ద": 330,
      "ధ": 331,
      "న": 332,
      "఩": 333,
      "ప": 334,
      "ఫ": 335,
      "బ": 336,
      "భ": 337,
      "మ": 338,
      "య": 339,
      "ర": 340,
      "ఱ": 341,
      "ల": 342,
      "ళ": 343,
      "ఴ": 344,
      "వ": 345,
      "శ": 346,
      "ష": 347,
      "స": 348,
      "హ": 349,
      "఺": 350,
      "఻": 351,
      "఼": 352,
      "ఽ": 353,
      "ా": 354,
      "ి": 355,
      "ీ": 356,
      "ు": 357,
      "ూ": 358,
      "ృ": 359,
      "ౄ": 360,
      "౅": 361,
      "ె": 362,
      "ే": 363,
      "ై": 364,
      "౉": 365,
      "ొ": 366,
      "ో": 367,
      "ౌ": 368,
      "్": 369,
      "౎": 370,
      "౏": 371,
      "౐": 372,
      "౑": 373,
      "౒": 374,
      "౓": 375,
      "౔": 376,
      "ౕ": 377,
      "ౖ": 378,
      "౗": 379,
      "ౘ": 380,
      "ౙ": 381,
      "ౚ": 382,
      "౛": 383,
      "౜": 384,
      "ౝ": 385,
      "౞": 386,
      "౟": 387,
      "ౠ": 388,
      "ౡ": 389,
      "ౢ": 390,
      "ౣ": 391,
      "౤": 392,
      "౥": 393,
      "౦": 394,
      "౧": 395,
      "౨": 396,
      "౩": 397,
      "౪": 398,
      "౫": 399,
      "౬": 400,
      "౭": 401,
      "౮": 402,
      "౯": 403,
      "౰": 404,
      "౱": 405,
      "౲": 406,
      "౳": 407,
      "౴": 408,
      "౵": 409,
      "౶": 410,
      "౷": 411,
      "౸": 412,
      "౹": 413,
      "౺": 414,
      "౻": 415,
      "౼": 416,
      "౽": 417,
      "౾": 418,
      "౿": 419,
      "ṅ": 420,
      "ṇ": 421,
      "Ṛ": 422,
      "ṣ": 423,
      "ṭ": 424,
      "Ἰ": 425,
      "‎": 426,
      "–": 427,
      "—": 428,
      "†": 429,
      "•": 430,
      "′": 431,
      "‹": 432,
      "›": 433,
      "⁡": 434,
      "₹": 435,
      "↑": 436,
      "−": 437,
      "﻿": 438,
      "wi": 439,
      "ki": 440,
      "wiki": 441,
      "ia": 442,
      "dia": 443,
      "or": 444,
      "tt": 445,
      "pe": 446,
      "htt": 447,
      "http": 448,
      "https": 449,
      "org": 450,
      "pedia": 451,
      "wikipedia": 452,
      "▁[": 453,
      "en": 454,
      "▁\"": 455,
      "te": 456,
      "in": 457,
      "an": 458,
      "](": 459,
      "on": 460,
      ":/": 461,
      "://": 462,
      "In": 463,
      "th": 464,
      "ti": 465,
      "India": 466,
      "er": 467,
      "ar": 468,
      "20": 469,
      "al": 470,
      "hi": 471,
      "es": 472,
      "ार": 473,
      "्र": 474,
      "\")": 475,
      "re": 476,
      "of": 477,
      "्य": 478,
      "▁क": 479,
      "▁।": 480,
      "is": 481,
      "भार": 482,
      "भारत": 483,
      "tion": 484,
      "the": 485,
      "ed": 486,
      "ci": 487,
      "om": 488,
      "and": 489,
      "▁-": 490,
      "रा": 491,
      "▁स": 492,
      "it": 493,
      "▁the": 494,
      "▁of": 495,
      "as": 496,
      "ou": 497,
      "cite": 498,
      "sa": 499,
      "▁(": 500,
      "म्": 501,
      "न्": 502,
      "201": 503,
      "▁|": 504,
      "ic": 505,
      "le": 506,
      "▁India": 507,
      "र्": 508,
      "OT": 509,
      "oo": 510,
      "▁in": 511,
      "▁प": 512,
      "▁म": 513,
      "id": 514,
      "19": 515,
      "ra": 516,
      "ान": 517,
      "no": 518,
      "स्": 519,
      "ent": 520,
      "ate": 521,
      "▁s": 522,
      "▁and": 523,
      "▁p": 524,
      "200": 525,
      "et": 526,
      "ri": 527,
      "ing": 528,
      "ac": 529,
      "▁c": 530,
      "ation": 531,
      "दे": 532,
      "్ర": 533,
      "at": 534,
      "am": 535,
      "us": 536,
      "▁A": 537,
      "भा": 538,
      "▁C": 539,
      "▁अ": 540,
      "राज": 541,
      "ref": 542,
      "या": 543,
      "ag": 544,
      "ook": 545,
      "▁S": 546,
      "▁f": 547,
      "वि": 548,
      "ad": 549,
      "note": 550,
      "▁*": 551,
      "ang": 552,
      "ति": 553,
      "▁t": 554,
      "▁b": 555,
      "देश": 556,
      "lo": 557,
      "ార": 558,
      "षा": 559,
      "ीय": 560,
      "li": 561,
      "ve": 562,
      "78": 563,
      "▁के": 564,
      "ur": 565,
      "िक": 566,
      "um": 567,
      "▁m": 568,
      "10": 569,
      ").": 570,
      "ें": 571,
      "ver": 572,
      "▁ह": 573,
      "▁P": 574,
      "ाल": 575,
      "ist": 576,
      "राज्य": 577,
      "ना": 578,
      "भाषा": 579,
      "FO": 580,
      "com": 581,
      "त्र": 582,
      "FOOT": 583,
      "FOOTN": 584,
      "FOOTNOT": 585,
      "FOOTNOTE": 586,
      "ch": 587,
      "IS": 588,
      "▁▁": 589,
      "ul": 590,
      "lin": 591,
      "ial": 592,
      "978": 593,
      "we": 594,
      "pg": 595,
      "he": 596,
      "ro": 597,
      "BN": 598,
      "ISBN": 599,
      "त्": 600,
      "क्": 601,
      "il": 602,
      "ce": 603,
      "st": 604,
      "न्द": 605,
      "ter": 606,
      "red": 607,
      "]](": 608,
      "▁w": 609,
      "[[": 610,
      "ww": 611,
      "un": 612,
      "▁d": 613,
      "Sou": 614,
      "fi": 615,
      "ष्": 616,
      "▁1": 617,
      "ons": 618,
      "स्य": 619,
      "ory": 620,
      "rc": 621,
      "enti": 622,
      "▁T": 623,
      "▁201": 624,
      "▁ज": 625,
      "ol": 626,
      "link": 627,
      "▁M": 628,
      "ता": 629,
      "▁R": 630,
      "edit": 631,
      "tic": 632,
      "identi": 633,
      "▁प्र": 634,
      "identifi": 635,
      "identifier": 636,
      "action": 637,
      "▁•": 638,
      "▁में": 639,
      "्व": 640,
      "ాల": 641,
      "redlink": 642,
      "్య": 643,
      "▁to": 644,
      "▁भारत": 645,
      "em": 646,
      "ig": 647,
      "िया": 648,
      "res": 649,
      "21": 650,
      "భార": 651,
      "▁a": 652,
      "భారత": 653,
      "book": 654,
      "ment": 655,
      "▁B": 656,
      "ला": 657,
      "cial": 658,
      "jpg": 659,
      "దే": 660,
      "25": 661,
      "\").": 662,
      "ष्ट": 663,
      "web": 664,
      "पु": 665,
      "ni": 666,
      "ों": 667,
      "స్": 668,
      "ङ्": 669,
      "దేశ": 670,
      "books": 671,
      "age": 672,
      "▁न": 673,
      "00": 674,
      "▁ब": 675,
      "▁ప": 676,
      "sia": 677,
      "हि": 678,
      "ir": 679,
      "23": 680,
      "IT": 681,
      "ity": 682,
      "▁[↑": 683,
      "▁[↑](": 684,
      "▁l": 685,
      "▁D": 686,
      "ind": 687,
      "प्र": 688,
      "Spe": 689,
      "సా": 690,
      "▁त": 691,
      "ER": 692,
      "ष्ट्र": 693,
      "ay": 694,
      "▁आ": 695,
      "▁है": 696,
      "ly": 697,
      "EF": 698,
      "angu": 699,
      "ITER": 700,
      "ITEREF": 701,
      "ec": 702,
      "ర్": 703,
      "24": 704,
      "मा": 705,
      "me": 706,
      "▁द": 707,
      "26": 708,
      "Special": 709,
      "▁E": 710,
      "rces": 711,
      "का": 712,
      "ion": 713,
      "న్": 714,
      "11": 715,
      "क्ष": 716,
      "ित": 717,
      "राष्ट्र": 718,
      "up": 719,
      "ved": 720,
      "सं": 721,
      "ld": 722,
      "199": 723,
      "Uni": 724,
      "Book": 725,
      "CITEREF": 726,
      "Sources": 727,
      "और": 728,
      "▁व": 729,
      "BookSources": 730,
      "▁h": 731,
      "india": 732,
      "ber": 733,
      "▁e": 734,
      "28": 735,
      "rom": 736,
      "cal": 737,
      "▁का": 738,
      "हा": 739,
      "tu": 740,
      "▁वि": 741,
      "_(": 742,
      "▁की": 743,
      "▁N": 744,
      "▁H": 745,
      "\"),": 746,
      "के": 747,
      "▁ग": 748,
      "▁G": 749,
      "el": 750,
      "oun": 751,
      "▁से": 752,
      "sh": 753,
      "राज्यम्": 754,
      "्या": 755,
      "chi": 756,
      "go": 757,
      "ंग": 758,
      "सा": 759,
      "for": 760,
      "ress": 761,
      "op": 762,
      "स्त": 763,
      "ew": 764,
      "▁और": 765,
      "ry": 766,
      "ak": 767,
      "ational": 768,
      "vers": 769,
      "రా": 770,
      "ary": 771,
      "▁on": 772,
      "हिन्द": 773,
      "www": 774,
      "▁re": 775,
      "▁th": 776,
      "शा": 777,
      "▁च": 778,
      "mp": 779,
      "Indian": 780,
      "calf": 781,
      "ab": 782,
      "वा": 783,
      "etcalf": 784,
      ".[[": 785,
      "ast": 786,
      "्रे": 787,
      "▁20": 788,
      "▁200": 789,
      "),": 790,
      "ub": 791,
      "ateg": 792,
      "ategory": 793,
      ")\")": 794,
      "13": 795,
      "ain": 796,
      "भारतीय": 797,
      "ली": 798,
      "archi": 799,
      "లో": 800,
      "anguage": 801,
      "భారతదేశ": 802,
      "▁ए": 803,
      "र्व": 804,
      "गर": 805,
      "rit": 806,
      "ge": 807,
      "ण्": 808,
      "ish": 809,
      "ts": 810,
      "स्थ": 811,
      "▁n": 812,
      "The": 813,
      "ने": 814,
      "▁इ": 815,
      "50": 816,
      "od": 817,
      "▁from": 818,
      "22": 819,
      "नि": 820,
      "con": 821,
      "archive": 822,
      "16": 823,
      "40": 824,
      "late": 825,
      "ङ्ग": 826,
      "▁उ": 827,
      "ted": 828,
      "▁or": 829,
      "▁క": 830,
      "▁J": 831,
      "▁सं": 832,
      "▁F": 833,
      "ap": 834,
      "ची": 835,
      "17": 836,
      "gh": 837,
      "18": 838,
      "▁19": 839,
      "्च": 840,
      "ण्ड": 841,
      "15": 842,
      "री": 843,
      "orld": 844,
      "har": 845,
      "30": 846,
      "ud": 847,
      "est": 848,
      "ले": 849,
      "లు": 850,
      "త్ర": 851,
      "Metcalf": 852,
      "29": 853,
      "▁for": 854,
      "List": 855,
      "▁In": 856,
      "E0": 857,
      "14": 858,
      "ust": 859,
      "▁by": 860,
      "రి": 861,
      "ct": 862,
      "ृत": 863,
      "AA": 864,
      "umb": 865,
      "त्त": 866,
      "goo": 867,
      "క్": 868,
      "versity": 869,
      "ep": 870,
      "मु": 871,
      "सि": 872,
      "मि": 873,
      "ంద": 874,
      "gle": 875,
      "ते": 876,
      "▁ar": 877,
      "▁g": 878,
      "im": 879,
      "\\_": 880,
      "▁is": 881,
      "ని": 882,
      "with": 883,
      "▁వ": 884,
      "▁Indian": 885,
      "27": 886,
      "google": 887,
      "▁.": 888,
      "ount": 889,
      "पा": 890,
      "px": 891,
      "os": 892,
      "media": 893,
      "South": 894,
      "धान": 895,
      "▁L": 896,
      "▁O": 897,
      "▁Asia": 898,
      "र्म": 899,
      "ha": 900,
      "mons": 901,
      "ల్": 902,
      "▁को": 903,
      "▁K": 904,
      "द्": 905,
      "Har": 906,
      "భారతదేశం": 907,
      "A4": 908,
      "दी": 909,
      "'s": 910,
      "▁पर": 911,
      "कि": 912,
      "ng": 913,
      "▁W": 914,
      "ens": 915,
      "uc": 916,
      "wikimedia": 917,
      "मे": 918,
      "णी": 919,
      "err": 920,
      "ther": 921,
      "load": 922,
      "upload": 923,
      "Ch": 924,
      "University": 925,
      "▁స": 926,
      "था": 927,
      "ीप": 928,
      "▁The": 929,
      "tern": 930,
      "ma": 931,
      "ors": 932,
      "▁देश": 933,
      "ut": 934,
      "commons": 935,
      "ంగ": 936,
      "inal": 937,
      "thumb": 938,
      "do": 939,
      "▁మ": 940,
      "पुर": 941,
      "av": 942,
      "nd": 943,
      "द्व": 944,
      "our": 945,
      "स्क": 946,
      "शास": 947,
      "de": 948,
      "▁र": 949,
      "▁be": 950,
      "und": 951,
      "ेत्र": 952,
      "मान": 953,
      "umm": 954,
      "fn": 955,
      "स्थान": 956,
      "धर्म": 957,
      "जन": 958,
      "ys": 959,
      "दि": 960,
      "over": 961,
      "aj": 962,
      "▁pp": 963,
      "్రా": 964,
      "▁राज्य": 965,
      "ड़": 966,
      "ort": 967,
      "न्द्र": 968,
      "ot": 969,
      "ong": 970,
      "ance": 971,
      "ence": 972,
      "श्रे": 973,
      "ీయ": 974,
      "\n▁▁": 975,
      "di": 976,
      "gov": 977,
      "ff": 978,
      "Category": 979,
      "ండ": 980,
      "ल्": 981,
      "श्रेणी": 982,
      "rie": 983,
      "कार": 984,
      "arg": 985,
      "cy": 986,
      "43": 987,
      "per": 988,
      "all": 989,
      "*.": 990,
      "les": 991,
      "ages": 992,
      "▁ल": 993,
      "ow": 994,
      "PA": 995,
      "ear": 996,
      "िका": 997,
      "▁य": 998,
      "tate": 999,
      "▁as": 1000,
      "br": 1001,
      "జ్య": 1002,
      "▁చ": 1003,
      "Ste": 1004,
      "▁I": 1005,
      "िय": 1006,
      "की": 1007,
      "▁श": 1008,
      "▁orig": 1009,
      "ans": 1010,
      "▁भाषा": 1011,
      "ture": 1012,
      "తా": 1013,
      "art": 1014,
      "मू": 1015,
      "▁Ret": 1016,
      "33": 1017,
      "सू": 1018,
      "▁Retrie": 1019,
      "▁Retrieved": 1020,
      "rchi": 1021,
      "ll": 1022,
      "lig": 1023,
      "▁भ": 1024,
      "जा": 1025,
      "दा": 1026,
      "▁original": 1027,
      "द्वीप": 1028,
      "Asia": 1029,
      "oc": 1030,
      "emp": 1031,
      "ము": 1032,
      "▁with": 1033,
      "log": 1034,
      "47": 1035,
      "▁१": 1036,
      "్ట": 1037,
      "बा": 1038,
      "Stein": 1039,
      "land": 1040,
      "▁Press": 1041,
      "eral": 1042,
      "ere": 1043,
      "నా": 1044,
      "नी": 1045,
      "తి": 1046,
      "सी": 1047,
      "देशः": 1048,
      "श्व": 1049,
      "ummit": 1050,
      "गु": 1051,
      "मी": 1052,
      "og": 1053,
      "ore": 1054,
      "ical": 1055,
      "श्": 1056,
      "36": 1057,
      "conom": 1058,
      "2018": 1059,
      "▁स्": 1060,
      "సి": 1061,
      "स्कृत": 1062,
      "త్": 1063,
      "▁सा": 1064,
      "70": 1065,
      "Harv": 1066,
      "ana": 1067,
      "पाल": 1068,
      "▁[\"": 1069,
      "\"](": 1070,
      "errors": 1071,
      "2006": 1072,
      "न्त": 1073,
      "omm": 1074,
      "िम": 1075,
      "श्रेणीः": 1076,
      "ध्य": 1077,
      "▁राष्ट्र": 1078,
      "ers": 1079,
      "▁[*": 1080,
      "*](": 1081,
      "ism": 1082,
      "90": 1083,
      "▁University": 1084,
      "्री": 1085,
      "rchived": 1086,
      "गो": 1087,
      "opul": 1088,
      "िण": 1089,
      "ations": 1090,
      "యా": 1091,
      "ాలు": 1092,
      "80": 1093,
      "als": 1094,
      "titu": 1095,
      "ile": 1096,
      "▁&": 1097,
      "ार्": 1098,
      "ine": 1099,
      "ani": 1100,
      "35": 1101,
      "ric": 1102,
      "ata": 1103,
      "ord": 1104,
      "ries": 1105,
      "रु": 1106,
      "ht": 1107,
      "nment": 1108,
      "▁was": 1109,
      "Hind": 1110,
      "2011": 1111,
      "ass": 1112,
      "ank": 1113,
      "45": 1114,
      "ire": 1115,
      "46": 1116,
      "istory": 1117,
      "ंड": 1118,
      "त्तर": 1119,
      "temp": 1120,
      "▁రా": 1121,
      "ess": 1122,
      "nic": 1123,
      "ensus": 1124,
      "2010": 1125,
      "ard": 1126,
      "से": 1127,
      "▁అ": 1128,
      "▁वर्": 1129,
      "ian": 1130,
      "250": 1131,
      "▁ex": 1132,
      "द्ध": 1133,
      "▁no": 1134,
      "tics": 1135,
      "hm": 1136,
      "ies": 1137,
      "पर": 1138,
      "ous": 1139,
      "outh": 1140,
      "ती": 1141,
      "ubl": 1142,
      "गढ": 1143,
      "गा": 1144,
      "to": 1145,
      "▁ప్ర": 1146,
      "महा": 1147,
      "द्र": 1148,
      "▁an": 1149,
      "वे": 1150,
      "▁de": 1151,
      "esh": 1152,
      "सम": 1153,
      "sher": 1154,
      "ke": 1155,
      "क्षिण": 1156,
      "▁r": 1157,
      "ach": 1158,
      "ను": 1159,
      "▁भारतीय": 1160,
      "▁language": 1161,
      "48": 1162,
      "श्रेणीःHarv": 1163,
      "38": 1164,
      "vi": 1165,
      "anguages": 1166,
      "▁are": 1167,
      "77": 1168,
      "ue": 1169,
      "ంది": 1170,
      "ीत": 1171,
      "न्त्र": 1172,
      "वर्": 1173,
      "eng": 1174,
      "▁२": 1175,
      "ex": 1176,
      "opulation": 1177,
      "्ष": 1178,
      "▁2011": 1179,
      "▁हैं": 1180,
      "को": 1181,
      "ont": 1182,
      "धिक": 1183,
      "\n▁▁▁": 1184,
      "थि": 1185,
      "tem": 1186,
      "39": 1187,
      "language": 1188,
      "▁it": 1189,
      "CS": 1190,
      "జా": 1191,
      "लेख": 1192,
      "ountries": 1193,
      "60": 1194,
      "ిక": 1195,
      "ालय": 1196,
      "BA": 1197,
      "ford": 1198,
      ")[[": 1199,
      "ral": 1200,
      ")](": 1201,
      "QBA": 1202,
      "QBAJ": 1203,
      "udd": 1204,
      "ss": 1205,
      "ai": 1206,
      "▁V": 1207,
      "णि": 1208,
      "▁Hind": 1209,
      "▁अन": 1210,
      "भि": 1211,
      "ction": 1212,
      "aki": 1213,
      "e0": 1214,
      "onstitu": 1215,
      "81": 1216,
      "Econom": 1217,
      "కు": 1218,
      "Asher": 1219,
      "ంచ": 1220,
      "Temp": 1221,
      "National": 1222,
      "xford": 1223,
      "omp": 1224,
      "▁Category": 1225,
      "▁whi": 1226,
      "ोक": 1227,
      "▁ने": 1228,
      "49": 1229,
      "econ": 1230,
      "ph": 1231,
      "ati": 1232,
      "other": 1233,
      "▁पु": 1234,
      "iss": 1235,
      "संस्कृत": 1236,
      "▁क्ष": 1237,
      "పూ": 1238,
      "AAQBAJ": 1239,
      "ven": 1240,
      "భా": 1241,
      "▁राज": 1242,
      "ద్": 1243,
      "ब्": 1244,
      "ern": 1245,
      "template": 1246,
      "द्य": 1247,
      "stan": 1248,
      "हर": 1249,
      "ाना": 1250,
      "ंग्रे": 1251,
      "ik": 1252,
      "शे": 1253,
      "▁कर": 1254,
      "end": 1255,
      "oli": 1256,
      "RI": 1257,
      "▁जन": 1258,
      "elhi": 1259,
      "▁क्षेत्र": 1260,
      "MetcalfMetcalf": 1261,
      "ews": 1262,
      "ties": 1263,
      "ions": 1264,
      "यु": 1265,
      "ब्र": 1266,
      "▁Ch": 1267,
      "ूर्व": 1268,
      "htm": 1269,
      "his": 1270,
      "pd": 1271,
      "सार": 1272,
      "iv": 1273,
      "▁ఉ": 1274,
      "ప్ర": 1275,
      "▁which": 1276,
      "ib": 1277,
      "తం": 1278,
      "▁*[": 1279,
      "ark": 1280,
      "Re": 1281,
      "ty": 1282,
      "णा": 1283,
      "tates": 1284,
      "a4": 1285,
      "शेष": 1286,
      "ిన": 1287,
      "▁सू": 1288,
      "▁ఆ": 1289,
      "na": 1290,
      "ंध": 1291,
      "क्त": 1292,
      "मुख": 1293,
      "▁3": 1294,
      "artic": 1295,
      "pdf": 1296,
      "ope": 1297,
      "ख्या": 1298,
      "धार": 1299,
      "ingh": 1300,
      "rou": 1301,
      "▁ति": 1302,
      "bot": 1303,
      "▁South": 1304,
      "ange": 1305,
      "out": 1306,
      "ult": 1307,
      "▁ర": 1308,
      "cl": 1309,
      "riti": 1310,
      "ack": 1311,
      "tim": 1312,
      "12": 1313,
      "नगर": 1314,
      "Ma": 1315,
      "tes": 1316,
      "85": 1317,
      "lop": 1318,
      "arget": 1319,
      "▁సా": 1320,
      "భారతీయ": 1321,
      "वी": 1322,
      "వి": 1323,
      "▁has": 1324,
      "▁that": 1325,
      "▁li": 1326,
      "Archived": 1327,
      "Sfn": 1328,
      "territ": 1329,
      "albot": 1330,
      "▁5": 1331,
      "fe": 1332,
      "पी": 1333,
      "PD": 1334,
      "श्च": 1335,
      "ration": 1336,
      "▁दि": 1337,
      "cont": 1338,
      "gen": 1339,
      ",_": 1340,
      "शिया": 1341,
      "जरा": 1342,
      "कु": 1343,
      "రు": 1344,
      "గా": 1345,
      "![": 1346,
      "వా": 1347,
      "ञ्च": 1348,
      "RICS": 1349,
      "शासित": 1350,
      "ँच": 1351,
      "rad": 1352,
      "चल": 1353,
      "ష్ట": 1354,
      "▁199": 1355,
      "ob": 1356,
      "शासन": 1357,
      "गम": 1358,
      "logy": 1359,
      "sland": 1360,
      "ंत्र": 1361,
      "ya": 1362,
      "ార్": 1363,
      "लु": 1364,
      "म्ब": 1365,
      "ublic": 1366,
      "క్ష": 1367,
      "ame": 1368,
      "▁pro": 1369,
      "రిత్ర": 1370,
      "స్థ": 1371,
      "रे": 1372,
      "File": 1373,
      "विशेष": 1374,
      "ali": 1375,
      "United": 1376,
      "▁pe": 1377,
      "▁एक": 1378,
      "##": 1379,
      "▁तथा": 1380,
      "\n▁": 1381,
      "icial": 1382,
      "श्चिम": 1383,
      "ign": 1384,
      "56": 1385,
      "న్న": 1386,
      "Ar": 1387,
      "PDF": 1388,
      "2009": 1389,
      "ost": 1390,
      "तमि": 1391,
      "ंग्रेज": 1392,
      "स्तान": 1393,
      "కి": 1394,
      "lia": 1395,
      "au": 1396,
      "idge": 1397,
      "74": 1398,
      "नाम": 1399,
      "हार": 1400,
      "pend": 1401,
      "ूप": 1402,
      "mpire": 1403,
      "न्ति": 1404,
      "Template": 1405,
      "sv": 1406,
      "svg": 1407,
      "tical": 1408,
      "तु": 1409,
      "hist": 1410,
      "ove": 1411,
      "man": 1412,
      "भू": 1413,
      "▁De": 1414,
      "ree": 1415,
      "aste": 1416,
      "inist": 1417,
      "ta": 1418,
      "ोग": 1419,
      "खण्ड": 1420,
      "सूची": 1421,
      "oh": 1422,
      "Delhi": 1423,
      "హి": 1424,
      "टी": 1425,
      "र्थ": 1426,
      "ritish": 1427,
      "चि": 1428,
      "▁2014": 1429,
      "उत्तर": 1430,
      "De": 1431,
      "amil": 1432,
      "चीन": 1433,
      "्रो": 1434,
      "87": 1435,
      "शि": 1436,
      "ेन": 1437,
      "वं": 1438,
      "में": 1439,
      "onstitution": 1440,
      "▁प्रदेश": 1441,
      "▁तिथि": 1442,
      "▁अभि": 1443,
      "श्मी": 1444,
      "श्मीर": 1445,
      "▁ख": 1446,
      "Ed": 1447,
      "▁at": 1448,
      "दू": 1449,
      "2007": 1450,
      "्रा": 1451,
      "ంః": 1452,
      "ath": 1453,
      "गण": 1454,
      "▁2": 1455,
      "ated": 1456,
      "లీ": 1457,
      "pu": 1458,
      "▁st": 1459,
      "▁जा": 1460,
      "econom": 1461,
      "क्षेत्र": 1462,
      "न्न": 1463,
      "మా": 1464,
      "▁v": 1465,
      "ese": 1466,
      "la": 1467,
      "▁cent": 1468,
      "ज़": 1469,
      "र्ण": 1470,
      "चे": 1471,
      "प्": 1472,
      "FOOTNOTEStein": 1473,
      "bridge": 1474,
      "ంట": 1475,
      "En": 1476,
      "ష్ట్ర": 1477,
      "by": 1478,
      "पुस्त": 1479,
      "पुस्तक": 1480,
      "tive": 1481,
      "▁प्रा": 1482,
      "World": 1483,
      "स्ति": 1484,
      "Cent": 1485,
      "▁te": 1486,
      "▁इति": 1487,
      "usic": 1488,
      "iki": 1489,
      "ambridge": 1490,
      "velop": 1491,
      "se": 1492,
      "पि": 1493,
      "isation": 1494,
      "మ్రా": 1495,
      "మ్రాజ్య": 1496,
      "2014": 1497,
      "धर्मः": 1498,
      "ternational": 1499,
      "lection": 1500,
      "100": 1501,
      "ञ्": 1502,
      "gover": 1503,
      "विधान": 1504,
      "ుల": 1505,
      "अंग्रेज": 1506,
      "यः": 1507,
      "\").[[": 1508,
      "▁अभिगम": 1509,
      "▁its": 1510,
      "yson": 1511,
      "Oxford": 1512,
      "▁मे": 1513,
      "odern": 1514,
      "्रोत": 1515,
      "inent": 1516,
      "ulture": 1517,
      "row": 1518,
      "qu": 1519,
      "RC": 1520,
      "सिन्": 1521,
      "ansk": 1522,
      "▁un": 1523,
      "gion": 1524,
      "धि": 1525,
      "34": 1526,
      "alth": 1527,
      "भाग": 1528,
      "37": 1529,
      "orth": 1530,
      ".\"": 1531,
      "ms": 1532,
      "యి": 1533,
      "Dw": 1534,
      "ेण": 1535,
      "ina": 1536,
      "ru": 1537,
      "सागर": 1538,
      "2004": 1539,
      "ङ्क": 1540,
      "Ind": 1541,
      "88": 1542,
      "▁న": 1543,
      "ashm": 1544,
      "▁wh": 1545,
      "akistan": 1546,
      "▁--": 1547,
      "ज्": 1548,
      "matics": 1549,
      "▁U": 1550,
      "world": 1551,
      "uring": 1552,
      "led": 1553,
      "▁स्थ": 1554,
      "anskrit": 1555,
      "2005": 1556,
      "ogra": 1557,
      "alay": 1558,
      "ater": 1559,
      "▁Re": 1560,
      "times": 1561,
      "ountry": 1562,
      "మి": 1563,
      "డి": 1564,
      "ave": 1565,
      "any": 1566,
      "धी": 1567,
      "▁---": 1568,
      "dition": 1569,
      "roup": 1570,
      "मल": 1571,
      "radesh": 1572,
      "▁త": 1573,
      "IN": 1574,
      "▁ఇ": 1575,
      "..": 1576,
      "భాష": 1577,
      "AARC": 1578,
      "▁नि": 1579,
      "val": 1580,
      "velopment": 1581,
      "ाला": 1582,
      "urope": 1583,
      "lion": 1584,
      "▁mil": 1585,
      "ome": 1586,
      "120": 1587,
      "रकार": 1588,
      "పా": 1589,
      "Indo": 1590,
      "पाकि": 1591,
      "▁'": 1592,
      "१९": 1593,
      "mer": 1594,
      "▁4": 1595,
      "▁स्व": 1596,
      "ase": 1597,
      "▁History": 1598,
      "▁बा": 1599,
      "irst": 1600,
      "कर": 1601,
      "▁languages": 1602,
      "▁were": 1603,
      "news": 1604,
      "overnment": 1605,
      "लि": 1606,
      "196": 1607,
      "ound": 1608,
      "दक्षिण": 1609,
      "▁जि": 1610,
      "anc": 1611,
      "lish": 1612,
      "▁2007": 1613,
      "▁cont": 1614,
      "pro": 1615,
      "ury": 1616,
      "▁[![": 1617,
      "html": 1618,
      "▁पुरा": 1619,
      "़ी": 1620,
      "▁सि": 1621,
      "▁sub": 1622,
      "▁ad": 1623,
      "Singh": 1624,
      "▁विश्व": 1625,
      "वरी": 1626,
      "▁దేశ": 1627,
      "त्य": 1628,
      "▁मा": 1629,
      "పు": 1630,
      "▁मेला": 1631,
      "काल": 1632,
      "ves": 1633,
      "engal": 1634,
      "government": 1635,
      "doi": 1636,
      "పాల": 1637,
      "विध": 1638,
      "सभा": 1639,
      "हास": 1640,
      "521": 1641,
      "▁अस्ति": 1642,
      "స్తా": 1643,
      "असम": 1644,
      "▁7": 1645,
      "ैद": 1646,
      "95": 1647,
      "వర్": 1648,
      "ल्ली": 1649,
      "ంత": 1650,
      "mber": 1651,
      "por": 1652,
      "नेपाल": 1653,
      "Economy": 1654,
      "००": 1655,
      "तः": 1656,
      "250px": 1657,
      "ames": 1658,
      "धिकार": 1659,
      "69": 1660,
      "▁le": 1661,
      "खा": 1662,
      "त्व": 1663,
      "पुरम्": 1664,
      "श्री": 1665,
      "DwAAQBAJ": 1666,
      "Dyson": 1667,
      "2008": 1668,
      "slands": 1669,
      "History": 1670,
      "▁18": 1671,
      "▁రాజ్య": 1672,
      "▁हु": 1673,
      "oi": 1674,
      "\n\n▁": 1675,
      "नाथ": 1676,
      "ligion": 1677,
      "स्था": 1678,
      "ాన": 1679,
      "000": 1680,
      "▁Hindu": 1681,
      "हु": 1682,
      "DP": 1683,
      "51": 1684,
      "▁हो": 1685,
      "सर्व": 1686,
      "िक्": 1687,
      "port": 1688,
      "▁मु": 1689,
      "पति": 1690,
      "dom": 1691,
      "▁2019": 1692,
      "low": 1693,
      "దేశ్": 1694,
      "वन": 1695,
      "aint": 1696,
      "प्त": 1697,
      "ystem": 1698,
      "सद": 1699,
      "Edit": 1700,
      "▁अनु": 1701,
      "New": 1702,
      "ice": 1703,
      "▁Asian": 1704,
      "లా": 1705,
      "▁6": 1706,
      "duc": 1707,
      "▁ch": 1708,
      "old": 1709,
      "▁हि": 1710,
      "ril": 1711,
      "05": 1712,
      "ght": 1713,
      "▁2021": 1714,
      "usin": 1715,
      "usiness": 1716,
      "నే": 1717,
      "lass": 1718,
      "▁गीत": 1719,
      "par": 1720,
      "▁भी": 1721,
      "ah": 1722,
      "ది": 1723,
      "्ल": 1724,
      "AsherT": 1725,
      "AsherTalbot": 1726,
      "టి": 1727,
      "रो": 1728,
      "continent": 1729,
      "Par": 1730,
      "eneral": 1731,
      "Pro": 1732,
      "▁2010": 1733,
      "hel": 1734,
      "ంగా": 1735,
      "पश्चिम": 1736,
      "BRICS": 1737,
      "ined": 1738,
      "une": 1739,
      "International": 1740,
      "तन्त्र": 1741,
      "Gu": 1742,
      "lim": 1743,
      "हिन्दी": 1744,
      "otherm": 1745,
      "othermund": 1746,
      "uary": 1747,
      "चित्र": 1748,
      "ics": 1749,
      "census": 1750,
      "साँच": 1751,
      "▁सूची": 1752,
      "ug": 1753,
      "FOOTNOTEMetcalfMetcalf": 1754,
      "PP": 1755,
      "ories": 1756,
      "Union": 1757,
      "ise": 1758,
      "Sh": 1759,
      "ञ्ज": 1760,
      "व्य": 1761,
      "ace": 1762,
      "pr": 1763,
      "\")*.": 1764,
      "ulke": 1765,
      "▁సామ్రాజ్య": 1766,
      "प्रदेशः": 1767,
      "స్తాన్": 1768,
      "डो": 1769,
      "rg": 1770,
      "वर": 1771,
      "phi": 1772,
      "omb": 1773,
      "్మ": 1774,
      "टि": 1775,
      "్చ": 1776,
      "ail": 1777,
      "107": 1778,
      "uly": 1779,
      "be": 1780,
      "ission": 1781,
      "గు": 1782,
      "ustry": 1783,
      "Doi": 1784,
      "ैन": 1785,
      "▁शासन": 1786,
      ".).": 1787,
      "ज्ञ": 1788,
      "fter": 1789,
      "त्ती": 1790,
      "year": 1791,
      "जी": 1792,
      "articles": 1793,
      "ister": 1794,
      "countries": 1795,
      "ats": 1796,
      "్రీ": 1797,
      "71": 1798,
      "British": 1799,
      "▁territ": 1800,
      "జాత": 1801,
      "cies": 1802,
      "नदी": 1803,
      "ant": 1804,
      "ower": 1805,
      "Kulke": 1806,
      "फ़": 1807,
      "मध्य": 1808,
      "vis": 1809,
      "ork": 1810,
      "पाद": 1811,
      "aw": 1812,
      "▁సం": 1813,
      "ef": 1814,
      "ls": 1815,
      "देह": 1816,
      "liament": 1817,
      "aman": 1818,
      "तम": 1819,
      "ood": 1820,
      "ిల్": 1821,
      "पञ्ज": 1822,
      "earch": 1823,
      "▁Comm": 1824,
      "मणि": 1825,
      ".;": 1826,
      "▁ra": 1827,
      "ंदि": 1828,
      "▁Ap": 1829,
      "▁सम": 1830,
      "सङ्": 1831,
      "East": 1832,
      "▁9": 1833,
      "Hindi": 1834,
      "मरा": 1835,
      "inistry": 1836,
      "Press": 1837,
      "వం": 1838,
      "72": 1839,
      "▁सरकार": 1840,
      "ates": 1841,
      "ari": 1842,
      "▁महा": 1843,
      "uch": 1844,
      "▁జ": 1845,
      "▁दक्षिण": 1846,
      "yn": 1847,
      "సియా": 1848,
      "2003": 1849,
      "ashmir": 1850,
      "ugh": 1851,
      "▁15": 1852,
      "డ్": 1853,
      "बर": 1854,
      "▁ri": 1855,
      "फल": 1856,
      "▁इस": 1857,
      "▁गण": 1858,
      "ठी": 1859,
      "కా": 1860,
      "▁8": 1861,
      "స్త్ర": 1862,
      "▁घ": 1863,
      "जय": 1864,
      "▁ag": 1865,
      "umber": 1866,
      "रब": 1867,
      "Li": 1868,
      "▁वर्ष": 1869,
      "कम्": 1870,
      "मूल": 1871,
      "▁26": 1872,
      "ण्डी": 1873,
      "टा": 1874,
      "ధిక": 1875,
      "mb": 1876,
      "▁पूर्व": 1877,
      "बी": 1878,
      "Page": 1879,
      "▁ప్రా": 1880,
      "▁17": 1881,
      "मन": 1882,
      "44": 1883,
      "isher": 1884,
      "**": 1885,
      "▁तक": 1886,
      "▁వి": 1887,
      "लङ्": 1888,
      "జాతీయ": 1889,
      "data": 1890,
      "డు": 1891,
      "▁Empire": 1892,
      "65": 1893,
      "▁पा": 1894,
      "ह्": 1895,
      "सञ्च": 1896,
      "सञ्चिका": 1897,
      "सञ्चिकाः": 1898,
      "Ministry": 1899,
      "▁An": 1900,
      "च्": 1901,
      "▁./": 1902,
      "దక్ష": 1903,
      "ణా": 1904,
      "पं": 1905,
      "षु": 1906,
      "▁చరిత్ర": 1907,
      "ులు": 1908,
      "rib": 1909,
      "लोक": 1910,
      "ongress": 1911,
      "erv": 1912,
      "ople": 1913,
      "ండి": 1914,
      "▁రాజ్యం": 1915,
      "air": 1916,
      "75": 1917,
      "2023": 1918,
      "▁कार": 1919,
      "धु": 1920,
      "ama": 1921,
      "Co": 1922,
      "Government": 1923,
      "त्रि": 1924,
      "ley": 1925,
      "aper": 1926,
      "ledge": 1927,
      "Hindu": 1928,
      "जि": 1929,
      "cre": 1930,
      "దీ": 1931,
      "शी": 1932,
      "lear": 1933,
      "च्च": 1934,
      "▁10": 1935,
      "▁tra": 1936,
      "ओं": 1937,
      "Wiki": 1938,
      "बि": 1939,
      "king": 1940,
      "युक्त": 1941,
      "mar": 1942,
      "क्ति": 1943,
      "▁सर्व": 1944,
      "iron": 1945,
      "▁July": 1946,
      "▁this": 1947,
      "▁World": 1948,
      "59": 1949,
      "र्दू": 1950,
      "ural": 1951,
      "▁25": 1952,
      "olitical": 1953,
      "వర్గ": 1954,
      "दिल्ली": 1955,
      "స్త": 1956,
      "▁par": 1957,
      "नै": 1958,
      "राष्ट्रीय": 1959,
      "hind": 1960,
      "▁किया": 1961,
      "330": 1962,
      "EditPage": 1963,
      "edi": 1964,
      "▁कि": 1965,
      "emb": 1966,
      "ober": 1967,
      "मो": 1968,
      "rab": 1969,
      "anges": 1970,
      "ंदिर": 1971,
      "श्वर": 1972,
      "error": 1973,
      "ure": 1974,
      "उर्दू": 1975,
      "▁नाम": 1976,
      "पूर्व": 1977,
      "దక్షి": 1978,
      "nglish": 1979,
      "Singh2009": 1980,
      "िर": 1981,
      "Sch": 1982,
      "म्मू": 1983,
      "कल": 1984,
      "2024": 1985,
      "57": 1986,
      "ographi": 1987,
      "ombined": 1988,
      "uclear": 1989,
      "ond": 1990,
      "▁system": 1991,
      "84": 1992,
      "▁government": 1993,
      "att": 1994,
      "▁cons": 1995,
      "pt": 1996,
      "target": 1997,
      "viron": 1998,
      "vironment": 1999,
      "uropean": 2000,
      "తర": 2001,
      "ide": 2002,
      "ect": 2003,
      "▁pl": 2004,
      "▁year": 2005,
      "help": 2006,
      "▁into": 2007,
      "▁April": 2008,
      "ution": 2009,
      "eptem": 2010,
      "eptember": 2011,
      "▁Mar": 2012,
      "▁బ": 2013,
      "▁Pradesh": 2014,
      "estern": 2015,
      "▁summit": 2016,
      "ority": 2017,
      "igh": 2018,
      "summit": 2019,
      "ran": 2020,
      "उत्": 2021,
      "Raj": 2022,
      "▁have": 2023,
      "▁केन्द्र": 2024,
      "also": 2025,
      "▁16": 2026,
      "kh": 2027,
      "▁खाना": 2028,
      "uman": 2029,
      "▁errors": 2030,
      "पुरी": 2031,
      "son": 2032,
      "ोल": 2033,
      "్యా": 2034,
      "58": 2035,
      "ज्य": 2036,
      "निक": 2037,
      "▁not": 2038,
      "यू": 2039,
      "SAARC": 2040,
      "▁2018": 2041,
      "जाब": 2042,
      "▁during": 2043,
      "fl": 2044,
      "oor": 2045,
      "Bh": 2046,
      "202": 2047,
      "outledge": 2048,
      "स्ट": 2049,
      "argest": 2050,
      "ember": 2051,
      "mi": 2052,
      "07": 2053,
      "चण्डी": 2054,
      "gra": 2055,
      "line": 2056,
      "ities": 2057,
      "▁class": 2058,
      "2C": 2059,
      "▁Archived": 2060,
      "▁comp": 2061,
      "▁गया": 2062,
      "▁us": 2063,
      "లి": 2064,
      "▁first": 2065,
      "ocial": 2066,
      "तमिळ": 2067,
      "ङ्ग्ल": 2068,
      "ानु": 2069,
      "Pakistan": 2070,
      "76": 2071,
      "Rothermund": 2072,
      "केन्द्र": 2073,
      "inister": 2074,
      "A5": 2075,
      "▁their": 2076,
      "पंजाब": 2077,
      "ంధ": 2078,
      "बसे": 2079,
      "ట్": 2080,
      "▁आधार": 2081,
      "ంబ": 2082,
      "idd": 2083,
      "▁धर्म": 2084,
      "जम्मू": 2085,
      "jab": 2086,
      "मुख्य": 2087,
      "Combined": 2088,
      "121": 2089,
      "ayan": 2090,
      "rd": 2091,
      "1998": 2092,
      "96": 2093,
      "▁Sfn": 2094,
      "akh": 2095,
      "Bengal": 2096,
      "▁Oct": 2097,
      "▁October": 2098,
      "र्य": 2099,
      "हिमा": 2100,
      "माण": 2101,
      "डा": 2102,
      "बंध": 2103,
      "ughal": 2104,
      "▁En": 2105,
      "▁template": 2106,
      "▁target": 2107,
      "▁न्या": 2108,
      "▁error": 2109,
      "Bra": 2110,
      "pl": 2111,
      "▁econom": 2112,
      "छत्ती": 2113,
      "छत्तीस": 2114,
      "छत्तीसगढ": 2115,
      "ज्ञान": 2116,
      "भो": 2117,
      "cient": 2118,
      "దా": 2119,
      "ध्व": 2120,
      "मै": 2121,
      "बो": 2122,
      "Eth": 2123,
      "mil": 2124,
      "31": 2125,
      "cience": 2126,
      "2016": 2127,
      "▁CITEREF": 2128,
      "hism": 2129,
      "▁लि": 2130,
      "odi": 2131,
      "गोल": 2132,
      "▁ఎ": 2133,
      "national": 2134,
      "ive": 2135,
      "rin": 2136,
      "ban": 2137,
      "▁१९": 2138,
      "नु": 2139,
      "▁also": 2140,
      "Tamil": 2141,
      "▁se": 2142,
      "ूल": 2143,
      "हिन्दु": 2144,
      "ne": 2145,
      "gy": 2146,
      "▁off": 2147,
      "पुरा": 2148,
      "ara": 2149,
      "An": 2150,
      "▁सबसे": 2151,
      "off": 2152,
      "CE": 2153,
      "etwe": 2154,
      "etween": 2155,
      "र्वत": 2156,
      "▁world": 2157,
      "ishing": 2158,
      "▁Pro": 2159,
      "▁con": 2160,
      "eser": 2161,
      "▁भू": 2162,
      "shi": 2163,
      "ritan": 2164,
      "ritannic": 2165,
      "ritannica": 2166,
      "आङ्ग्ल": 2167,
      "▁గ": 2168,
      "Fisher": 2169,
      "Cra": 2170,
      "▁శ": 2171,
      "▁2023": 2172,
      "▁Th": 2173,
      "ంద్ర": 2174,
      "▁2012": 2175,
      "स्थानम्": 2176,
      "▁sfn": 2177,
      "▁region": 2178,
      "chno": 2179,
      "नव": 2180,
      "2019": 2181,
      "▁dis": 2182,
      "act": 2183,
      "ology": 2184,
      "imes": 2185,
      "सङ्ख्या": 2186,
      "2017": 2187,
      "नगरम्": 2188,
      "ini": 2189,
      "▁September": 2190,
      "चित्रः": 2191,
      "Central": 2192,
      "ष्ठ": 2193,
      "unjab": 2194,
      "ధ్య": 2195,
      "Sanskrit": 2196,
      "▁2006": 2197,
      "tal": 2198,
      "ौद्ध": 2199,
      "▁Cent": 2200,
      "रिया": 2201,
      "ual": 2202,
      "St": 2203,
      "▁उत्तर": 2204,
      "history": 2205,
      "बै": 2206,
      "▁countries": 2207,
      "▁పే": 2208,
      "रूप": 2209,
      "ash": 2210,
      "cri": 2211,
      "▁Sh": 2212,
      "▁Aug": 2213,
      "▁August": 2214,
      "now": 2215,
      "ote": 2216,
      "KulkeRothermund": 2217,
      "▁wi": 2218,
      "wing": 2219,
      "वस्था": 2220,
      "iver": 2221,
      "tera": 2222,
      "ంలో": 2223,
      "వర్గంః": 2224,
      "uis": 2225,
      "दय": 2226,
      "क्र": 2227,
      "ట్ట": 2228,
      "▁21": 2229,
      "ही": 2230,
      "▁साथ": 2231,
      "ద్ధ": 2232,
      "Dem": 2233,
      "aka": 2234,
      "▁Islands": 2235,
      "ంగ్": 2236,
      "ron": 2237,
      "तर": 2238,
      "▁part": 2239,
      "▁22": 2240,
      "urr": 2241,
      "▁భారతదేశం": 2242,
      "नीति": 2243,
      "▁2016": 2244,
      "Se": 2245,
      "amb": 2246,
      "67": 2247,
      "adu": 2248,
      "int": 2249,
      "lad": 2250,
      "सूच": 2251,
      "\n▁▁▁▁": 2252,
      "omen": 2253,
      "▁subcontinent": 2254,
      "ains": 2255,
      "११": 2256,
      "gency": 2257,
      "time": 2258,
      "త్య": 2259,
      "Comm": 2260,
      "హింద": 2261,
      "Sik": 2262,
      "udden": 2263,
      "▁हिन्द": 2264,
      "GDP": 2265,
      "जो": 2266,
      "ైన": 2267,
      "बाद": 2268,
      "European": 2269,
      "oth": 2270,
      "▁res": 2271,
      "▁24": 2272,
      "▁था": 2273,
      "ंगा": 2274,
      "ियाँ": 2275,
      "सीत्": 2276,
      "one": 2277,
      "And": 2278,
      "యు": 2279,
      "आई": 2280,
      "Cambridge": 2281,
      "fficial": 2282,
      "\")*": 2283,
      "▁భాష": 2284,
      "view": 2285,
      "ాన్": 2286,
      "ङ्गा": 2287,
      "For": 2288,
      "ेश्वर": 2289,
      "यो": 2290,
      "▁संघ": 2291,
      "▁ఒ": 2292,
      "chnology": 2293,
      "▁ed": 2294,
      "▁यु": 2295,
      "2012": 2296,
      "tec": 2297,
      "jan": 2298,
      "▁मान": 2299,
      "53": 2300,
      "टे": 2301,
      "oll": 2302,
      "नम्": 2303,
      "▁Metcalf": 2304,
      "बार": 2305,
      "िः": 2306,
      "thern": 2307,
      "पाकिस्तान": 2308,
      "याल": 2309,
      "iddle": 2310,
      "▁रा": 2311,
      "83": 2312,
      "93": 2313,
      "▁between": 2314,
      "andhi": 2315,
      "भ्य": 2316,
      "harma": 2317,
      "▁2009": 2318,
      "▁more": 2319,
      "▁उप": 2320,
      "▁form": 2321,
      "చ్చ": 2322,
      "▁2024": 2323,
      "मन्त्र": 2324,
      "able": 2325,
      "01": 2326,
      "डी": 2327,
      "Harle": 2328,
      "▁New": 2329,
      "▁k": 2330,
      "back": 2331,
      "▁अन्य": 2332,
      "etary": 2333,
      "मूह": 2334,
      "तंत्र": 2335,
      "्यट": 2336,
      "Bi": 2337,
      "Craven": 2338,
      "fric": 2339,
      "Bang": 2340,
      "▁been": 2341,
      "ేంద్ర": 2342,
      "99": 2343,
      "ures": 2344,
      "▁but": 2345,
      "ule": 2346,
      "▁years": 2347,
      "బ్": 2348,
      "दु": 2349,
      "జీ": 2350,
      "Infor": 2351,
      "మూ": 2352,
      "Economic": 2353,
      "బె": 2354,
      "भी": 2355,
      "ेश": 2356,
      "89": 2357,
      "▁June": 2358,
      "▁वर्त": 2359,
      "▁music": 2360,
      "सिक्": 2361,
      "▁century": 2362,
      "▁स्रोत": 2363,
      "▁Commission": 2364,
      "ृह": 2365,
      "▁संस्कृत": 2366,
      "Asian": 2367,
      "ck": 2368,
      "రాష్ట్ర": 2369,
      "▁ac": 2370,
      "97": 2371,
      "Mughal": 2372,
      "तमिल": 2373,
      "▁द्व": 2374,
      "rans": 2375,
      "sl": 2376,
      "ortal": 2377,
      "▁Act": 2378,
      "కృ": 2379,
      "ering": 2380,
      "Ge": 2381,
      "CO": 2382,
      "स्त्र": 2383,
      "किम": 2384,
      "కో": 2385,
      "harat": 2386,
      "ped": 2387,
      "▁al": 2388,
      "▁Y": 2389,
      "brary": 2390,
      "berg": 2391,
      "ध्वज": 2392,
      "▁dance": 2393,
      "कन्न": 2394,
      "▁14": 2395,
      "ब्रि": 2396,
      "clud": 2397,
      "rick": 2398,
      "▁बहु": 2399,
      "▁देशः": 2400,
      "काश्मीर": 2401,
      "China": 2402,
      "athe": 2403,
      "▁बाद": 2404,
      "FOOTNOTER": 2405,
      "मुद्र": 2406,
      "FOOTNOTEAsherTalbot": 2407,
      "Mar": 2408,
      "▁కా": 2409,
      "1994": 2410,
      "jar": 2411,
      "प्रदेश": 2412,
      "rish": 2413,
      "ompany": 2414,
      "va": 2415,
      "ड़ा": 2416,
      "थम": 2417,
      "cember": 2418,
      "istan": 2419,
      "ligi": 2420,
      "ष्ण": 2421,
      "▁all": 2422,
      "మే": 2423,
      "హా": 2424,
      "ह्म": 2425,
      "▁bec": 2426,
      "▁मूल": 2427,
      "मलय": 2428,
      "తంత్ర": 2429,
      "▁after": 2430,
      "108": 2431,
      "म्रा": 2432,
      "म्राज्य": 2433,
      "ters": 2434,
      "▁13": 2435,
      "ाळ": 2436,
      "थी": 2437,
      "▁इत्": 2438,
      "ident": 2439,
      "limate": 2440,
      "ोबार": 2441,
      "2001": 2442,
      "Rep": 2443,
      "mu": 2444,
      "avid": 2445,
      "तुर्": 2446,
      "ttar": 2447,
      "oon": 2448,
      "▁state": 2449,
      "जरात": 2450,
      "rop": 2451,
      "States": 2452,
      "జి": 2453,
      "వే": 2454,
      "embly": 2455,
      "▁वा": 2456,
      "▁$": 2457,
      "▁मन": 2458,
      "▁Se": 2459,
      "्यटन": 2460,
      "ंग्": 2461,
      "Fund": 2462,
      "ones": 2463,
      "▁ind": 2464,
      "depend": 2465,
      "▁Econom": 2466,
      "▁एवं": 2467,
      "co": 2468,
      "ince": 2469,
      "▁over": 2470,
      "▁East": 2471,
      "▁दे": 2472,
      "ft": 2473,
      "fic": 2474,
      "एं": 2475,
      "94": 2476,
      "hy": 2477,
      "imp": 2478,
      "बे": 2479,
      "▁यह": 2480,
      "ffair": 2481,
      "ffairs": 2482,
      "▁For": 2483,
      "peration": 2484,
      "icy": 2485,
      "arh": 2486,
      "తో": 2487,
      "▁ab": 2488,
      "wart": 2489,
      "wartz": 2490,
      "wartzberg": 2491,
      ".](": 2492,
      "edic": 2493,
      "బి": 2494,
      "Kar": 2495,
      "term": 2496,
      "చరిత్ర": 2497,
      "erala": 2498,
      "▁most": 2499,
      "▁di": 2500,
      "tions": 2501,
      "fil": 2502,
      "onetary": 2503,
      "ird": 2504,
      "▁Jan": 2505,
      "ovement": 2506,
      "pa": 2507,
      "झार": 2508,
      "स्व": 2509,
      "ंग्ला": 2510,
      "పాలి": 2511,
      "ladesh": 2512,
      "._": 2513,
      "स्रोत": 2514,
      "▁states": 2515,
      ")\"):": 2516,
      ")\"):[": 2517,
      "life": 2518,
      "anisation": 2519,
      "▁number": 2520,
      "▁Cambridge": 2521,
      "▁per": 2522,
      "ाने": 2523,
      "\".": 2524,
      "wo": 2525,
      "ala": 2526,
      "कास": 2527,
      "▁sa": 2528,
      "▁population": 2529,
      "ument": 2530,
      "lations": 2531,
      "ोन": 2532,
      "ces": 2533,
      "▁comm": 2534,
      "ाः": 2535,
      "ditional": 2536,
      "▁other": 2537,
      "▁రాజ": 2538,
      "sam": 2539,
      "rime": 2540,
      "▁सेना": 2541,
      "Routledge": 2542,
      "▁सम्": 2543,
      "fr": 2544,
      "ాల్": 2545,
      "ographic": 2546,
      "van": 2547,
      "टिश": 2548,
      "ంక": 2549,
      "nat": 2550,
      "దు": 2551,
      "गुजरात": 2552,
      "1947": 2553,
      "ticles": 2554,
      "▁National": 2555,
      "umbai": 2556,
      "▁Ar": 2557,
      "▁२०": 2558,
      "▁Congress": 2559,
      "eh": 2560,
      "country": 2561,
      "Ex": 2562,
      "द्वीपः": 2563,
      "नाग": 2564,
      "धिकारिक": 2565,
      "###": 2566,
      "91": 2567,
      "▁en": 2568,
      "ప్": 2569,
      "▁जु": 2570,
      "ose": 2571,
      "All": 2572,
      "ियों": 2573,
      "ाणि": 2574,
      "ning": 2575,
      "Aust": 2576,
      "केर": 2577,
      "904": 2578,
      "్యవ": 2579,
      "कन्नड": 2580,
      "▁राष्ट्रीय": 2581,
      "arb": 2582,
      "ब्रह्म": 2583,
      "ool": 2584,
      "41": 2585,
      "ाली": 2586,
      "▁कु": 2587,
      "06": 2588,
      "Ludden": 2589,
      "लङ्का": 2590,
      "86": 2591,
      "Ag": 2592,
      "are": 2593,
      "▁28": 2594,
      "cb": 2595,
      "alley": 2596,
      "पतिः": 2597,
      "▁2013": 2598,
      "ధాన": 2599,
      "ID": 2600,
      "fore": 2601,
      "obb": 2602,
      "▁election": 2603,
      "ikshi": 2604,
      "ikshit": 2605,
      "62": 2606,
      "ారు": 2607,
      "प्रा": 2608,
      "ade": 2609,
      "gions": 2610,
      "article": 2611,
      "ఢిల్": 2612,
      "ఢిల్లీ": 2613,
      "ssembly": 2614,
      "cyc": 2615,
      "डु": 2616,
      "माज": 2617,
      "af": 2618,
      "▁Oxford": 2619,
      "नेमा": 2620,
      "frica": 2621,
      "▁ro": 2622,
      "pib": 2623,
      "लाई": 2624,
      "Var": 2625,
      "censusindia": 2626,
      "आधार": 2627,
      "apit": 2628,
      "डि": 2629,
      "▁May": 2630,
      "పంచ": 2631,
      "▁सु": 2632,
      "wealth": 2633,
      "union": 2634,
      "ंद्र": 2635,
      "theast": 2636,
      "317": 2637,
      "han": 2638,
      "▁co": 2639,
      "uk": 2640,
      "▁es": 2641,
      "मेला": 2642,
      "ola": 2643,
      "PM": 2644,
      "దక్షిణ": 2645,
      "न्या": 2646,
      "▁English": 2647,
      "మూస": 2648,
      "olicy": 2649,
      "iz": 2650,
      "63": 2651,
      "▁रूप": 2652,
      "ीन": 2653,
      "द्योग": 2654,
      "निकोबार": 2655,
      "2000": 2656,
      "pur": 2657,
      "orthern": 2658,
      "ించ": 2659,
      "हारा": 2660,
      "हाराष्ट्र": 2661,
      "Dikshit": 2662,
      "Chi": 2663,
      "▁ध": 2664,
      "ake": 2665,
      "सकल": 2666,
      "ative": 2667,
      "ough": 2668,
      "एशिया": 2669,
      "read": 2670,
      "▁Budd": 2671,
      "ाट": 2672,
      "▁लोक": 2673,
      "ayback": 2674,
      "123": 2675,
      "ale": 2676,
      "▁spe": 2677,
      "दन": 2678,
      "▁territories": 2679,
      "गीत": 2680,
      "क्षा": 2681,
      "432": 2682,
      "ध्र": 2683,
      "reat": 2684,
      "ट्": 2685,
      "संख्या": 2686,
      "▁जुलाई": 2687,
      "ports": 2688,
      "▁had": 2689,
      "ृति": 2690,
      "get": 2691,
      "▁Population": 2692,
      "२०": 2693,
      "वली": 2694,
      "▁ते": 2695,
      "ok": 2696,
      "ased": 2697,
      "టు": 2698,
      "▁Gu": 2699,
      "▁2020": 2700,
      "onwealth": 2701,
      "CITEREFMetcalfMetcalf": 2702,
      "▁12": 2703,
      "▁1950": 2704,
      "व्यवस्था": 2705,
      "oci": 2706,
      "128": 2707,
      "Fl": 2708,
      "▁**": 2709,
      "▁मंदिर": 2710,
      "▁जय": 2711,
      "ंगाल": 2712,
      "54": 2713,
      "55": 2714,
      "▁St": 2715,
      "ocra": 2716,
      "मानव": 2717,
      "Th": 2718,
      ",[[": 2719,
      "ucation": 2720,
      "kim": 2721,
      "▁BCE": 2722,
      "riod": 2723,
      "ode": 2724,
      "ctor": 2725,
      "logue": 2726,
      "Uttar": 2727,
      "▁incre": 2728,
      "len": 2729,
      "ూడ": 2730,
      "▁Talbot": 2731,
      "बौद्ध": 2732,
      "गः": 2733,
      "ून": 2734,
      "ారి": 2735,
      "cent": 2736,
      "▁ప్రాంత": 2737,
      "change": 2738,
      "समूह": 2739,
      "▁January": 2740,
      "बांग्ला": 2741,
      "▁देशों": 2742,
      "▁It": 2743,
      "ंब": 2744,
      "పాలిత": 2745,
      "पे": 2746,
      "▁sh": 2747,
      "वै": 2748,
      "CITEREFStein": 2749,
      "मैथि": 2750,
      "ृत्य": 2751,
      "▁ఆర్": 2752,
      "జన": 2753,
      "Empire": 2754,
      "▁చె": 2755,
      "तन": 2756,
      "encies": 2757,
      "▁became": 2758,
      "शत": 2759,
      "कर्ण": 2760,
      "FOOTNOTEB": 2761,
      "CN": 2762,
      "php": 2763,
      "▁2017": 2764,
      "టె": 2765,
      "iation": 2766,
      "▁two": 2767,
      "▁me": 2768,
      "ges": 2769,
      "olitics": 2770,
      "▁Constitution": 2771,
      "कोल": 2772,
      "Centre": 2773,
      "वन्": 2774,
      "Constitution": 2775,
      "top": 2776,
      "str": 2777,
      "vision": 2778,
      "103": 2779,
      "ins": 2780,
      "सेना": 2781,
      "भूमि": 2782,
      "ligious": 2783,
      "▁dec": 2784,
      "ada": 2785,
      "▁up": 2786,
      "దస్త్ర": 2787,
      "దస్త్రంః": 2788,
      "▁March": 2789,
      "68": 2790,
      "nologue": 2791,
      "▁Sch": 2792,
      "ised": 2793,
      "▁national": 2794,
      "nataka": 2795,
      "500": 2796,
      "Budd": 2797,
      "Chand": 2798,
      "203": 2799,
      "ross": 2800,
      "ann": 2801,
      "ఖ్య": 2802,
      "dian": 2803,
      "▁war": 2804,
      "ofindia": 2805,
      "Pl": 2806,
      "▁Union": 2807,
      "▁Commissioner": 2808,
      "ivil": 2809,
      "గో": 2810,
      "▁23": 2811,
      "Tur": 2812,
      "रू": 2813,
      "BE": 2814,
      "ock": 2815,
      "ंह": 2816,
      "▁Census": 2817,
      "▁Plate": 2818,
      "bal": 2819,
      "स्कृति": 2820,
      "मत": 2821,
      "్యవస్థ": 2822,
      "▁general": 2823,
      "▁Ind": 2824,
      "Sri": 2825,
      "స్కృ": 2826,
      "ered": 2827,
      "ussia": 2828,
      "118": 2829,
      "andard": 2830,
      "▁we": 2831,
      "atus": 2832,
      "వు": 2833,
      "Indus": 2834,
      "high": 2835,
      "_%": 2836,
      "▁क्र": 2837,
      "▁includ": 2838,
      "if": 2839,
      "धानी": 2840,
      "▁2015": 2841,
      "▁तट": 2842,
      "8D": 2843,
      "▁2025": 2844,
      "▁2008": 2845,
      "64": 2846,
      "योग": 2847,
      "omin": 2848,
      "1997": 2849,
      "▁27": 2850,
      "▁Summit": 2851,
      "abad": 2852,
      "▁2022": 2853,
      "vol": 2854,
      "come": 2855,
      "IM": 2856,
      "ोर्": 2857,
      "eration": 2858,
      "स्ला": 2859,
      "स्लाम": 2860,
      "Ram": 2861,
      "▁अनुसार": 2862,
      "लै": 2863,
      "▁ను": 2864,
      "▁जल": 2865,
      "rits": 2866,
      "▁రాష్ట్ర": 2867,
      "मेघ": 2868,
      "चार": 2869,
      "▁प्रति": 2870,
      "png": 2871,
      "tel": 2872,
      "▁జాతీయ": 2873,
      "loy": 2874,
      "population": 2875,
      "▁j": 2876,
      "▁प्रथम": 2877,
      "▁अग": 2878,
      "गत": 2879,
      "रेल": 2880,
      "▁उत्": 2881,
      "▁Hindi": 2882,
      "230": 2883,
      "▁December": 2884,
      "ura": 2885,
      "▁केंद्र": 2886,
      "Russia": 2887,
      "253": 2888,
      "roups": 2889,
      "Brahm": 2890,
      "ite": 2891,
      "amp": 2892,
      "ooperation": 2893,
      "FOOTNOTESingh2009": 2894,
      "asia": 2895,
      "Vi": 2896,
      "astern": 2897,
      "atar": 2898,
      "cord": 2899,
      "▁official": 2900,
      "త్రి": 2901,
      "▁पर्वत": 2902,
      "ternal": 2903,
      "▁Rep": 2904,
      "मेव": 2905,
      "▁५": 2906,
      "वंश": 2907,
      "eds": 2908,
      "▁BRICS": 2909,
      "▁caste": 2910,
      "resident": 2911,
      "▁period": 2912,
      "rganisation": 2913,
      "▁परि": 2914,
      "under": 2915,
      "ssam": 2916,
      "पू": 2917,
      "Hinduism": 2918,
      "मार": 2919,
      "एँ": 2920,
      "atsy": 2921,
      "atsyayan": 2922,
      "imalay": 2923,
      "ंप": 2924,
      "▁प्रधान": 2925,
      "ricket": 2926,
      "ंक": 2927,
      "సం": 2928,
      "▁तस्": 2929,
      "Andaman": 2930,
      "▁States": 2931,
      "▁ref": 2932,
      "ovember": 2933,
      "files": 2934,
      "गि": 2935,
      "Br": 2936,
      "etail": 2937,
      "▁11": 2938,
      "TR": 2939,
      "ainting": 2940,
      "▁sup": 2941,
      "Kashmir": 2942,
      "than": 2943,
      "▁आधिकारिक": 2944,
      "ourt": 2945,
      "▁Development": 2946,
      "ింది": 2947,
      "eign": 2948,
      "az": 2949,
      "Parliament": 2950,
      "ालयः": 2951,
      "Ins": 2952,
      "देव": 2953,
      "एस": 2954,
      "मुम्ब": 2955,
      "मुम्बई": 2956,
      "08": 2957,
      "▁छ": 2958,
      "▁जो": 2959,
      "ebr": 2960,
      "ebruary": 2961,
      "विश्व": 2962,
      "▁భారత": 2963,
      "क्षः": 2964,
      "माला": 2965,
      "▁am": 2966,
      "ublishing": 2967,
      "▁Pe": 2968,
      "Nar": 2969,
      "अम": 2970,
      "teen": 2971,
      "▁मि": 2972,
      "▁शा": 2973,
      "press": 2974,
      "Temple": 2975,
      "tecture": 2976,
      "ultan": 2977,
      "हासः": 2978,
      "▁లో": 2979,
      "प्रधान": 2980,
      "्स": 2981,
      "अरु": 2982,
      "Informatics": 2983,
      "त्रिपुर": 2984,
      "ung": 2985,
      "city": 2986,
      "yan": 2987,
      "▁Sanskrit": 2988,
      "key": 2989,
      "Mal": 2990,
      "▁one": 2991,
      "రణ": 2992,
      "Climate": 2993,
      "भोज": 2994,
      "Pe": 2995,
      "olk": 2996,
      "लक्ष": 2997,
      "र्थिक": 2998,
      "logo": 2999,
      "general": 3000,
      "्यः": 3001,
      "रत": 3002,
      "महाराष्ट्र": 3003,
      "▁modern": 3004,
      "మె": 3005,
      "हो": 3006,
      "▁War": 3007,
      "▁ना": 3008,
      "ध्वजः": 3009,
      "slam": 3010,
      "▁ऐ": 3011,
      "▁0": 3012,
      "business": 3013,
      "Sharma": 3014,
      "vatsyayan": 3015,
      "ब्रिटिश": 3016,
      "मंत्र": 3017,
      "page": 3018,
      "iction": 3019,
      "Fr": 3020,
      "auth": 3021,
      "orities": 3022,
      "arge": 3023,
      "▁:": 3024,
      "▁ap": 3025,
      "Kerala": 3026,
      "Te": 3027,
      "▁मध्य": 3028,
      "ehru": 3029,
      "ilg": 3030,
      "Main": 3031,
      "▁మత": 3032,
      "भाष": 3033,
      "▁पार्": 3034,
      "Spear": 3035,
      "jarat": 3036,
      "ned": 3037,
      "सम्ब": 3038,
      "nam": 3039,
      "oint": 3040,
      "econd": 3041,
      "▁कार्य": 3042,
      "wal": 3043,
      "Ak": 3044,
      "▁अप": 3045,
      "▁classical": 3046,
      "03": 3047,
      "▁व्य": 3048,
      "▁ई": 3049,
      "▁time": 3050,
      "tro": 3051,
      "duction": 3052,
      "दरा": 3053,
      "▁ఈ": 3054,
      "▁emp": 3055,
      "▁end": 3056,
      "indiatimes": 3057,
      "oy": 3058,
      "गरी": 3059,
      "▁एशिया": 3060,
      "वार": 3061,
      "cat": 3062,
      "135": 3063,
      "ड़ी": 3064,
      "▁later": 3065,
      "ria": 3066,
      "Mah": 3067,
      "Rig": 3068,
      "▁than": 3069,
      "▁अधिक": 3070,
      "adh": 3071,
      "upta": 3072,
      "▁there": 3073,
      "1990": 3074,
      "हैद": 3075,
      "हैदरा": 3076,
      "हैदराबाद": 3077,
      "lang": 3078,
      "ढ़": 3079,
      "nown": 3080,
      "▁million": 3081,
      "athak": 3082,
      "▁northern": 3083,
      "▁Times": 3084,
      "omas": 3085,
      "minist": 3086,
      "▁such": 3087,
      "संघ": 3088,
      "ae": 3089,
      "सत्य": 3090,
      "Schwartzberg": 3091,
      "2015": 3092,
      "219": 3093,
      "lord": 3094,
      "aksh": 3095,
      "▁ని": 3096,
      "right": 3097,
      "IMF": 3098,
      "WE": 3099,
      "WEO": 3100,
      "iger": 3101,
      "व्या": 3102,
      "links": 3103,
      "ances": 3104,
      "Articles": 3105,
      "Pal": 3106,
      "ticle": 3107,
      "owland": 3108,
      "▁mathe": 3109,
      "osed": 3110,
      "ealth": 3111,
      "▁यू": 3112,
      "▁Per": 3113,
      "उप": 3114,
      "52": 3115,
      "utt": 3116,
      "Jain": 3117,
      "टक": 3118,
      "106": 3119,
      "79": 3120,
      "तंत्रता": 3121,
      "ources": 3122,
      "▁who": 3123,
      "dis": 3124,
      "cean": 3125,
      "olle": 3126,
      "▁art": 3127,
      "▁दिन": 3128,
      "266": 3129,
      "124": 3130,
      "ख्य": 3131,
      "लाल": 3132,
      "మిళ": 3133,
      "anka": 3134,
      "254": 3135,
      "हिम": 3136,
      "हिमालय": 3137,
      "ారం": 3138,
      "Austral": 3139,
      "1996": 3140,
      "ankar": 3141,
      "▁हिन्दी": 3142,
      "ష్": 3143,
      "త్తర": 3144,
      "Census": 3145,
      "▁స్థ": 3146,
      "▁February": 3147,
      "cul": 3148,
      "adi": 3149,
      "▁प्राचीन": 3150,
      "ments": 3151,
      "सम्": 3152,
      "र्ष": 3153,
      "వంశ": 3154,
      "▁30": 3155,
      "its": 3156,
      "ैदान": 3157,
      "Bharat": 3158,
      "oral": 3159,
      "द्योगिक": 3160,
      "सु": 3161,
      "▁अव": 3162,
      "ammu": 3163,
      "lan": 3164,
      "achal": 3165,
      "jec": 3166,
      "119": 3167,
      "ould": 3168,
      "rowth": 3169,
      "▁साम्राज्य": 3170,
      "अनु": 3171,
      "98": 3172,
      "रि": 3173,
      "ర్వ": 3174,
      "▁under": 3175,
      "పాకి": 3176,
      "▁కూడ": 3177,
      "भु": 3178,
      "१९४": 3179,
      "▁जिस": 3180,
      "वर्गः": 3181,
      "मन्द": 3182,
      "Mumbai": 3183,
      "देशीय": 3184,
      "रवी": 3185,
      "▁large": 3186,
      "sub": 3187,
      "Taj": 3188,
      "ఫ్": 3189,
      "ब्द": 3190,
      "▁people": 3191,
      "▁फ": 3192,
      "esearch": 3193,
      "ill": 3194,
      "Punjab": 3195,
      "gist": 3196,
      "gistr": 3197,
      "gistrar": 3198,
      "द्यान": 3199,
      "సు": 3200,
      "▁पश्चिम": 3201,
      "Hindust": 3202,
      "logical": 3203,
      "गढ़": 3204,
      "Indones": 3205,
      "Indonesia": 3206,
      "तमे": 3207,
      "▁రై": 3208,
      "▁Environment": 3209,
      "oreign": 3210,
      "ड़े": 3211,
      "ाङ्क": 3212,
      "गङ्गा": 3213,
      "a5": 3214,
      "जाति": 3215,
      "West": 3216,
      "Af": 3217,
      "ingdom": 3218,
      "▁अगस्त": 3219,
      "lobal": 3220,
      "arly": 3221,
      "inese": 3222,
      "शोक": 3223,
      "110": 3224,
      "▁rule": 3225,
      "పతి": 3226,
      "▁long": 3227,
      "B0": 3228,
      "FOOTNOTEKulkeRothermund": 3229,
      "▁స్": 3230,
      "2013": 3231,
      "तिरु": 3232,
      "▁among": 3233,
      "resent": 3234,
      "ాయి": 3235,
      "ho": 3236,
      "articlesh": 3237,
      "articleshow": 3238,
      "ंद": 3239,
      "▁industry": 3240,
      "▁Pakistan": 3241,
      "న్నా": 3242,
      "utra": 3243,
      "विज्ञान": 3244,
      "urt": 3245,
      "▁కాల": 3246,
      "tig": 3247,
      "phy": 3248,
      "ोलन": 3249,
      "यूर": 3250,
      "olper": 3251,
      "olpert": 3252,
      "inguis": 3253,
      "▁समय": 3254,
      "హిందూ": 3255,
      "religion": 3256,
      "-_": 3257,
      "1950": 3258,
      "Library": 3259,
      "ohn": 3260,
      "ादय": 3261,
      "langoff": 3262,
      "war": 3263,
      "162": 3264,
      "वान्": 3265,
      "rac": 3266,
      "can": 3267,
      "aspx": 3268,
      "▁many": 3269,
      "has": 3270,
      "rative": 3271,
      "min": 3272,
      "ेद": 3273,
      "▁Li": 3274,
      "DikshitSchwartzberg": 3275,
      "from": 3276,
      "यालय": 3277,
      "క్కు": 3278,
      "▁British": 3279,
      "ict": 3280,
      "122": 3281,
      "arna": 3282,
      "ines": 3283,
      "▁ప్రదేశ్": 3284,
      "▁beg": 3285,
      "asing": 3286,
      "onstituent": 3287,
      "▁2004": 3288,
      "osi": 3289,
      "Ary": 3290,
      "▁नी": 3291,
      "):": 3292,
      "▁అధిక": 3293,
      "ymb": 3294,
      "सदन": 3295,
      "ervation": 3296,
      "Summit": 3297,
      "ఆసియా": 3298,
      "▁నుండి": 3299,
      "BB": 3300,
      "ynast": 3301,
      "ynasty": 3302,
      "113": 3303,
      "Encyc": 3304,
      "▁union": 3305,
      "వుల": 3306,
      "▁सूच": 3307,
      "115": 3308,
      "్రి": 3309,
      "▁भाग": 3310,
      "▁Africa": 3311,
      "errit": 3312,
      "सम्बर": 3313,
      "Bangladesh": 3314,
      "▁हुई": 3315,
      "pee": 3316,
      "267": 3317,
      "కాల": 3318,
      "ोर": 3319,
      "ser": 3320,
      "\"))": 3321,
      "▁Arab": 3322,
      "ప్రదేశ్": 3323,
      "య్య": 3324,
      "doc": 3325,
      "इति": 3326,
      "బా": 3327,
      "arket": 3328,
      "116": 3329,
      "Caste": 3330,
      "्यू": 3331,
      "ineering": 3332,
      "▁Modern": 3333,
      "▁द्वार": 3334,
      "ergy": 3335,
      "ety": 3336,
      "న్నాయి": 3337,
      "▁out": 3338,
      "ector": 3339,
      "▁Ac": 3340,
      "Con": 3341,
      "वर्ष": 3342,
      "west": 3343,
      "River": 3344,
      "vel": 3345,
      "Wolpert": 3346,
      "cms": 3347,
      "▁ext": 3348,
      "men": 3349,
      "bn": 3350,
      "rade": 3351,
      "oa": 3352,
      "state": 3353,
      "कश्मीर": 3354,
      "aus": 3355,
      "ild": 3356,
      "▁ల": 3357,
      "orical": 3358,
      "▁चु": 3359,
      "हरि": 3360,
      "▁29": 3361,
      "▁em": 3362,
      "eb": 3363,
      "Qu": 3364,
      "CS1": 3365,
      "languages": 3366,
      "భూ": 3367,
      "▁1947": 3368,
      "urch": 3369,
      "▁Bank": 3370,
      "form": 3371,
      "ras": 3372,
      "▁her": 3373,
      "IMFWEO": 3374,
      "इस्लाम": 3375,
      "▁स्था": 3376,
      "▁non": 3377,
      "मंत्री": 3378,
      "▁लिए": 3379,
      "rdu": 3380,
      "hip": 3381,
      "129": 3382,
      "▁article": 3383,
      "rol": 3384,
      "మత": 3385,
      "rim": 3386,
      "Islands": 3387,
      "meric": 3388,
      "oot": 3389,
      "ball": 3390,
      "map": 3391,
      "ृद्ध": 3392,
      "▁social": 3393,
      "Official": 3394,
      "apan": 3395,
      "ोड़": 3396,
      "Population": 3397,
      "▁निर्": 3398,
      "శ్మ": 3399,
      "శ్మీ": 3400,
      "tellig": 3401,
      "telligence": 3402,
      "▁Nadu": 3403,
      "erritory": 3404,
      "▁All": 3405,
      "Foreign": 3406,
      "धन": 3407,
      "anas": 3408,
      "तीय": 3409,
      "ोष": 3410,
      "overeign": 3411,
      "Malay": 3412,
      "ix": 3413,
      "▁మొ": 3414,
      "▁३": 3415,
      "ghan": 3416,
      "▁ऊ": 3417,
      "रान": 3418,
      "▁China": 3419,
      "▁economic": 3420,
      "▁territory": 3421,
      "states": 3422,
      "ర్య": 3423,
      "क्स": 3424,
      "▁minister": 3425,
      "rist": 3426,
      "ंति": 3427,
      "teracy": 3428,
      "urton": 3429,
      "Ganges": 3430,
      "మైన": 3431,
      "▁he": 3432,
      "veda": 3433,
      "inguistic": 3434,
      "britannica": 3435,
      "UN": 3436,
      "▁high": 3437,
      "ility": 3438,
      "II": 3439,
      "▁maj": 3440,
      "▁हुआ": 3441,
      "द्वार": 3442,
      "▁imp": 3443,
      "▁नगर": 3444,
      "231": 3445,
      "caste": 3446,
      "avy": 3447,
      "▁बढ़": 3448,
      "▁Kashmir": 3449,
      "LA": 3450,
      "inger": 3451,
      "▁some": 3452,
      "ंबई": 3453,
      "largest": 3454,
      "pect": 3455,
      "itary": 3456,
      "242": 3457,
      "Me": 3458,
      "ultural": 3459,
      "िक्षा": 3460,
      "फ़र": 3461,
      "kar": 3462,
      "नाव": 3463,
      "ests": 3464,
      "वाद": 3465,
      "2025": 3466,
      "▁विकास": 3467,
      "Political": 3468,
      "▁CE": 3469,
      "tition": 3470,
      "खाना": 3471,
      "alore": 3472,
      "pura": 3473,
      "▁या": 3474,
      "▁power": 3475,
      "415": 3476,
      "Ad": 3477,
      "iri": 3478,
      "▁दिया": 3479,
      "▁2003": 3480,
      "తమిళ": 3481,
      "bank": 3482,
      "▁వా": 3483,
      "Monetary": 3484,
      "Assam": 3485,
      "inance": 3486,
      "PPP": 3487,
      "▁Language": 3488,
      "▁GDP": 3489,
      "यत": 3490,
      "జాబి": 3491,
      "జాబితా": 3492,
      "▁largest": 3493,
      "िन": 3494,
      "▁found": 3495,
      "mal": 3496,
      "Karnataka": 3497,
      "▁जून": 3498,
      "▁history": 3499,
      "शाब्द": 3500,
      "▁Assembly": 3501,
      "Wikipedia": 3502,
      "దం": 3503,
      "Wayback": 3504,
      "▁मार": 3505,
      "JP": 3506,
      "▁Cons": 3507,
      "धा": 3508,
      "▁SAARC": 3509,
      "पर्यटन": 3510,
      "▁एष": 3511,
      "▁शक्ति": 3512,
      "▁2026": 3513,
      "दश": 3514,
      "क्री": 3515,
      "▁दिसम्बर": 3516,
      "▁कारण": 3517,
      "industry": 3518,
      "▁Raj": 3519,
      "स्ती": 3520,
      "स्तीर्ण": 3521,
      "▁अधि": 3522,
      "▁अन्त": 3523,
      "1970": 3524,
      "▁since": 3525,
      "▁term": 3526,
      "jpe": 3527,
      "jpeg": 3528,
      "ghanistan": 3529,
      "my": 3530,
      "कृ": 3531,
      "ouse": 3532,
      "कुर": 3533,
      "▁area": 3534,
      "खण्डः": 3535,
      "isha": 3536,
      "illion": 3537,
      "శా": 3538,
      "గణ": 3539,
      "రిజ": 3540,
      "స్కృతి": 3541,
      "▁land": 3542,
      "రాజ": 3543,
      "माणु": 3544,
      "achine": 3545,
      "▁विद्य": 3546,
      "Al": 3547,
      "way": 3548,
      "endra": 3549,
      "ండ్": 3550,
      "▁sch": 3551,
      "ds": 3552,
      "125": 3553,
      "शक": 3554,
      "80904": 3555,
      "Iran": 3556,
      "▁used": 3557,
      "rate": 3558,
      "UCN": 3559,
      "ద్ర": 3560,
      "पुत्र": 3561,
      "▁play": 3562,
      "Pradesh": 3563,
      "teenth": 3564,
      "ography": 3565,
      "riculture": 3566,
      "report": 3567,
      "ssoc": 3568,
      "पालिका": 3569,
      "अन्त": 3570,
      "ulti": 3571,
      "CITEREFAsherTalbot": 3572,
      "chin": 3573,
      "_-_": 3574,
      "reek": 3575,
      "▁थी": 3576,
      "owe": 3577,
      "तत्": 3578,
      "▁गु": 3579,
      "Development": 3580,
      "राम": 3581,
      "verse": 3582,
      "\");": 3583,
      "आन्": 3584,
      "ourn": 3585,
      "▁–": 3586,
      "बंगाल": 3587,
      "गंगा": 3588,
      "▁both": 3589,
      "गणना": 3590,
      "▁([": 3591,
      "Nep": 3592,
      "समा": 3593,
      "राजस्थान": 3594,
      "tex": 3595,
      "भूमिः": 3596,
      "105": 3597,
      "▁they": 3598,
      "gl": 3599,
      "urban": 3600,
      "etra": 3601,
      "कारः": 3602,
      "132": 3603,
      "117": 3604,
      "पात": 3605,
      "▁oc": 3606,
      "▁occ": 3607,
      "Mani": 3608,
      "ंस": 3609,
      "ైనా": 3610,
      "ंग्रेस": 3611,
      "हीं": 3612,
      "▁began": 3613,
      "मले": 3614,
      "प्रति": 3615,
      "▁स्थित": 3616,
      "▁తే": 3617,
      "Buddhism": 3618,
      "▁Nations": 3619,
      "ictionary": 3620,
      "ymbol": 3621,
      "esert": 3622,
      "▁Bengal": 3623,
      "ram": 3624,
      "▁ప్రాంతాలు": 3625,
      "मुद्रा": 3626,
      "▁मार्च": 3627,
      "BBC": 3628,
      "detail": 3629,
      "ili": 3630,
      "emale": 3631,
      "▁तत्": 3632,
      "▁अर्थ": 3633,
      "Language": 3634,
      "eth": 3635,
      "ime": 3636,
      "FOOTNOTEHarle": 3637,
      "73": 3638,
      "FOOTNOTESpear": 3639,
      "▁संविधान": 3640,
      "AF": 3641,
      "rishna": 3642,
      "▁Company": 3643,
      "▁పా": 3644,
      "public": 3645,
      "ffer": 3646,
      "▁rate": 3647,
      "लैंड": 3648,
      "agar": 3649,
      "बैक": 3650,
      "జమ": 3651,
      "own": 3652,
      "109": 3653,
      "त्तरा": 3654,
      "▁Min": 3655,
      "Environment": 3656,
      "Human": 3657,
      "परि": 3658,
      "▁trans": 3659,
      "CITEREFR": 3660,
      "North": 3661,
      "▁Delhi": 3662,
      "ibet": 3663,
      "243": 3664,
      "ర్చ": 3665,
      "lack": 3666,
      "road": 3667,
      "నికి": 3668,
      "▁द्वारा": 3669,
      "Col": 3670,
      "పం": 3671,
      "ociety": 3672,
      "త్త": 3673,
      "ల్ల": 3674,
      "▁पह": 3675,
      "erry": 3676,
      "నాభా": 3677,
      "ये": 3678,
      "Chola": 3679,
      "५०": 3680,
      "itt": 3681,
      "IUCN": 3682,
      "पट": 3683,
      "work": 3684,
      "म्भ": 3685,
      "▁north": 3686,
      "2021": 3687,
      "सर": 3688,
      "▁2005": 3689,
      "संयुक्त": 3690,
      "lect": 3691,
      "काश": 3692,
      "yanmar": 3693,
      "ites": 3694,
      "reme": 3695,
      "▁Fund": 3696,
      "▁Affairs": 3697,
      "अरब": 3698,
      "ared": 3699,
      "కొ": 3700,
      "▁Gandhi": 3701,
      "rown": 3702,
      "▁General": 3703,
      "ప్రధాన": 3704,
      "▁गा": 3705,
      "FOOTNOTEM": 3706,
      "ris": 3707,
      "ov": 3708,
      "త్వ": 3709,
      "जैन": 3710,
      "ncl": 3711,
      "nclm": 3712,
      "visional": 3713,
      "वादी": 3714,
      "▁top": 3715,
      "Jammu": 3716,
      "करण": 3717,
      "003": 3718,
      "rgani": 3719,
      "rganiz": 3720,
      "ie": 3721,
      "ancy": 3722,
      "ultanate": 3723,
      "120px": 3724,
      "viol": 3725,
      "▁Fr": 3726,
      "ministrative": 3727,
      "▁Bi": 3728,
      "▁फ़र": 3729,
      "▁సి": 3730,
      "▁ci": 3731,
      "▁बना": 3732,
      "▁member": 3733,
      "▁दी": 3734,
      "ండు": 3735,
      "Islam": 3736,
      "▁sp": 3737,
      ".\")": 3738,
      "ingham": 3739,
      "territories": 3740,
      "Ethnologue": 3741,
      "Constituent": 3742,
      "▁Science": 3743,
      "Aryan": 3744,
      "समें": 3745,
      "▁made": 3746,
      "265": 3747,
      "इंड": 3748,
      "uslim": 3749,
      "जार": 3750,
      "ोच्च": 3751,
      "election": 3752,
      "▁शता": 3753,
      "ब्दी": 3754,
      "యం": 3755,
      "▁ser": 3756,
      "▁सी": 3757,
      "akhand": 3758,
      "खंड": 3759,
      "▁मो": 3760,
      "TRt": 3761,
      "TRtDwAAQBAJ": 3762,
      "ament": 3763,
      "బడి": 3764,
      "20160": 3765,
      "force": 3766,
      "▁सिनेमा": 3767,
      "cip": 3768,
      "▁ఉంది": 3769,
      "▁अने": 3770,
      "▁अनेक": 3771,
      "▁శా": 3772,
      "edie": 3773,
      "edieval": 3774,
      "सिन्धु": 3775,
      "రాజ్య": 3776,
      "▁चि": 3777,
      "aries": 3778,
      "▁కేంద్ర": 3779,
      "षय": 3780,
      "apita": 3781,
      "ంగీ": 3782,
      "umar": 3783,
      "gis": 3784,
      "61": 3785,
      "▁వ్యవస్థ": 3786,
      "తు": 3787,
      "Commonwealth": 3788,
      "▁ins": 3789,
      "vid": 3790,
      "lower": 3791,
      "రీ": 3792,
      "నై": 3793,
      "406": 3794,
      "▁lead": 3795,
      "lowing": 3796,
      "aputra": 3797,
      "160": 3798,
      "▁groups": 3799,
      "Kal": 3800,
      "▁క్రీ": 3801,
      "उत्तरा": 3802,
      "rough": 3803,
      "anda": 3804,
      "▁Valley": 3805,
      "tice": 3806,
      "ement": 3807,
      "qual": 3808,
      "डिया": 3809,
      "▁मैदान": 3810,
      "los": 3811,
      "▁York": 3812,
      "lead": 3813,
      "सिक्किम": 3814,
      "ocracy": 3815,
      "పె": 3816,
      "otals": 3817,
      "ffice": 3818,
      "निर": 3819,
      "ौद्योगिक": 3820,
      "दीव": 3821,
      "िस्तान": 3822,
      "Provisional": 3823,
      "ournal": 3824,
      "pringer": 3825,
      "सिद्ध": 3826,
      "flu": 3827,
      "ular": 3828,
      "du": 3829,
      "▁relations": 3830,
      "rganization": 3831,
      "मुंबई": 3832,
      "ving": 3833,
      "onsoon": 3834,
      "नौ": 3835,
      "2020": 3836,
      "सव": 3837,
      "arl": 3838,
      "ात्": 3839,
      "▁prime": 3840,
      "▁इसके": 3841,
      "Business": 3842,
      "▁पाकि": 3843,
      "harm": 3844,
      "Moh": 3845,
      "udi": 3846,
      "▁अरब": 3847,
      "166": 3848,
      "▁संग": 3849,
      "▁इतिहास": 3850,
      "सूचना": 3851,
      "▁left": 3852,
      "po": 3853,
      "Bib": 3854,
      "Sind": 3855,
      "dives": 3856,
      "anor": 3857,
      "ార్ట": 3858,
      "ార్టీ": 3859,
      "Act": 3860,
      "सो": 3861,
      "मलेशिया": 3862,
      "▁తేదీ": 3863,
      "▁Himalay": 3864,
      "overty": 3865,
      "▁total": 3866,
      "bi": 3867,
      "▁చూ": 3868,
      "సిన": 3869,
      "▁Centre": 3870,
      "gram": 3871,
      "gramme": 3872,
      "130": 3873,
      "చల్": 3874,
      "▁कृत": 3875,
      "कोङ्क": 3876,
      "कोङ्कण": 3877,
      "▁Tamil": 3878,
      "sian": 3879,
      "074": 3880,
      "▁पत्र": 3881,
      "▁दृ": 3882,
      "लेखः": 3883,
      "लख": 3884,
      "141": 3885,
      "2022": 3886,
      "▁his": 3887,
      "amental": 3888,
      "▁రాష్ట్రాల": 3889,
      "బడింది": 3890,
      "Ethnic": 3891,
      "day": 3892,
      "ological": 3893,
      "▁शु": 3894,
      "యన్": 3895,
      "music": 3896,
      "rain": 3897,
      "▁tex": 3898,
      "రాష్ట్రాల": 3899,
      "operation": 3900,
      "क्रीडा": 3901,
      "ling": 3902,
      "▁Ex": 3903,
      "राष्ट्रपति": 3904,
      "मैथिली": 3905,
      "पुण": 3906,
      "ीयः": 3907,
      "216": 3908,
      "ार्ता": 3909,
      "याधी": 3910,
      "याधीश": 3911,
      "Afghanistan": 3912,
      "▁depend": 3913,
      "rig": 3914,
      "▁ఒక": 3915,
      "Languages": 3916,
      "दादरा": 3917,
      "ret": 3918,
      "300": 3919,
      "ii": 3920,
      "▁ఒరిజ": 3921,
      "▁ఒరిజిన": 3922,
      "▁ఒరిజినల్": 3923,
      "మధ్య": 3924,
      "abha": 3925,
      "▁Con": 3926,
      "itz": 3927,
      "దిన": 3928,
      "emic": 3929,
      "अमर": 3930,
      "4020": 3931,
      "▁Sec": 3932,
      "▁River": 3933,
      "Jainism": 3934,
      "▁ఉన్నాయి": 3935,
      "138": 3936,
      "urn": 3937,
      "▁७": 3938,
      "ee": 3939,
      "रम्": 3940,
      "वेश": 3941,
      "icon": 3942,
      "▁mar": 3943,
      "अरुण": 3944,
      "▁status": 3945,
      "मयूर": 3946,
      "ंधी": 3947,
      "Rigveda": 3948,
      "ंश": 3949,
      "Myanmar": 3950,
      "कोलक": 3951,
      "▁ती": 3952,
      "ahar": 3953,
      "111": 3954,
      "ेय": 3955,
      "పాకిస్తాన్": 3956,
      "హార": 3957,
      "▁Ge": 3958,
      "AS": 3959,
      "वर्ण": 3960,
      "▁50": 3961,
      "FOOTNOTENational": 3962,
      "मिल": 3963,
      "engali": 3964,
      "िये": 3965,
      "▁south": 3966,
      "ayl": 3967,
      "aylor": 3968,
      "समूहः": 3969,
      "▁बृह": 3970,
      "गीतम्": 3971,
      "11162": 3972,
      "8829": 3973,
      "882905": 3974,
      "ండో": 3975,
      "epart": 3976,
      "epartment": 3977,
      "olden": 3978,
      "![](": 3979,
      "मणिपुर": 3980,
      "ैल": 3981,
      "नान": 3982,
      "Nuclear": 3983,
      "aining": 3984,
      "शन": 3985,
      "▁दो": 3986,
      "imachal": 3987,
      "RL": 3988,
      "Paper": 3989,
      "्मा": 3990,
      "David": 3991,
      "Organisation": 3992,
      "ounci": 3993,
      "Be": 3994,
      "रै": 3995,
      "ూర్": 3996,
      "enn": 3997,
      "अण्ड": 3998,
      "చి": 3999,
      "▁ఉన్న": 4000,
      "▁Publishing": 4001,
      "▁Economic": 4002,
      "▁Wiki": 4003,
      "▁न्यायालय": 4004,
      "ivis": 4005,
      "చే": 4006,
      "ists": 4007,
      "▁प्रमुख": 4008,
      "अज": 4009,
      "▁युद्ध": 4010,
      "▁राग": 4011,
      "▁movement": 4012,
      "Am": 4013,
      "▁David": 4014,
      "ब्ब": 4015,
      "पूर्वी": 4016,
      "ळि": 4017,
      "▁country": 4018,
      "ISO": 4019,
      "सान्": 4020,
      "FOOTNOTECraven": 4021,
      "217": 4022,
      "▁economy": 4023,
      "asting": 4024,
      "Maldives": 4025,
      "▁ము": 4026,
      "ముంబ": 4027,
      "▁दर": 4028,
      "▁them": 4029,
      "lief": 4030,
      "▁మధ్య": 4031,
      "भीम": 4032,
      "▁western": 4033,
      "lenni": 4034,
      "lennium": 4035,
      "▁చూసిన": 4036,
      "मन्त्री": 4037,
      "126": 4038,
      "imf": 4039,
      "हन": 4040,
      "104": 4041,
      "▁November": 4042,
      "▁भाषाओं": 4043,
      "orea": 4044,
      "Dra": 4045,
      "vidian": 4046,
      "onom": 4047,
      "▁...": 4048,
      "Congress": 4049,
      "▁painting": 4050,
      "War": 4051,
      "ప్రా": 4052,
      "Arab": 4053,
      "▁हुए": 4054,
      "▁2001": 4055,
      "rial": 4056,
      "परा": 4057,
      "मेर": 4058,
      "▁संबंध": 4059,
      "cess": 4060,
      "nar": 4061,
      "ोप": 4062,
      "స్థాన్": 4063,
      "वितीय": 4064,
      "मंदिर": 4065,
      "జమ్మ": 4066,
      "జమ్మూ": 4067,
      "▁dire": 4068,
      "వరి": 4069,
      "ency": 4070,
      "La": 4071,
      "▁करने": 4072,
      "elang": 4073,
      "▁Kingdom": 4074,
      "भिन्न": 4075,
      "ेंद्र": 4076,
      "At": 4077,
      "▁నా": 4078,
      "अशोक": 4079,
      "क्षी": 4080,
      "▁employ": 4081,
      "index": 4082,
      "Religion": 4083,
      "▁प्राप्त": 4084,
      "र्ज": 4085,
      "ject": 4086,
      "माल": 4087,
      "पार": 4088,
      "యాల": 4089,
      "నిస్తాన్": 4090,
      "▁చి": 4091,
      "గర": 4092,
      "मह": 4093,
      "ominal": 4094,
      "ature": 4095,
      "most": 4096,
      "▁1998": 4097,
      "icob": 4098,
      "icobar": 4099,
      "dance": 4100,
      "▁పేజీ": 4101,
      "order": 4102,
      "स्तु": 4103,
      "श्र": 4104,
      "सिंह": 4105,
      "మీ": 4106,
      "▁డ": 4107,
      "▁न्याय": 4108,
      "Centre2005": 4109,
      "▁estim": 4110,
      "Pages": 4111,
      "▁pre": 4112,
      "163": 4113,
      "▁काल": 4114,
      "नाडु": 4115,
      "पेक्ष": 4116,
      "▁new": 4117,
      "QAAQBAJ": 4118,
      "arty": 4119,
      "Report": 4120,
      "▁Republic": 4121,
      "ildlife": 4122,
      "న్ని": 4123,
      "▁life": 4124,
      "▁influ": 4125,
      "Gre": 4126,
      "ummer": 4127,
      "02": 4128,
      "ద్ద": 4129,
      "\"),[[": 4130,
      "Un": 4131,
      "ెల": 4132,
      "▁Be": 4133,
      "pectancy": 4134,
      "uduch": 4135,
      "uducherry": 4136,
      "143": 4137,
      "శ్చ": 4138,
      "శ్చి": 4139,
      "శ్చిమ": 4140,
      "▁contrib": 4141,
      "क्षर": 4142,
      "▁जी": 4143,
      "def": 4144,
      "Od": 4145,
      "92": 4146,
      "new": 4147,
      "local": 4148,
      "ortheast": 4149,
      "ight": 4150,
      "208": 4151,
      "क्रम": 4152,
      "State": 4153,
      "▁urban": 4154,
      "लं": 4155,
      "लंका": 4156,
      "▁tradition": 4157,
      "lurton": 4158,
      "Sa": 4159,
      "वायु": 4160,
      "ाधिकार": 4161,
      "pp": 4162,
      "Republic": 4163,
      "sc": 4164,
      "ुक": 4165,
      "avi": 4166,
      "Western": 4167,
      "News": 4168,
      "icha": 4169,
      "ichael": 4170,
      "worldbank": 4171,
      "▁Official": 4172,
      "subcontinent": 4173,
      "कर्": 4174,
      "नाटक": 4175,
      "▁/": 4176,
      "ब्बत": 4177,
      "క్ర": 4178,
      "code": 4179,
      "Gini": 4180,
      "▁eastern": 4181,
      "ema": 4182,
      "vara": 4183,
      "▁Di": 4184,
      "volution": 4185,
      "▁नहीं": 4186,
      "Wright": 4187,
      "▁स्थान": 4188,
      "139": 4189,
      "▁popul": 4190,
      "gional": 4191,
      "rates": 4192,
      "▁summits": 4193,
      "शीन": 4194,
      "ार्थ": 4195,
      "2002": 4196,
      "वस": 4197,
      "▁regions": 4198,
      "కై": 4199,
      "▁शताब्दी": 4200,
      "షు": 4201,
      "రియా": 4202,
      "uth": 4203,
      "▁ला": 4204,
      "Uttarakhand": 4205,
      "▁Persian": 4206,
      "Cor": 4207,
      "ootball": 4208,
      "▁From": 4209,
      "०००": 4210,
      "urrent": 4211,
      "▁बन": 4212,
      "Japan": 4213,
      "287": 4214,
      "urve": 4215,
      "lopedia": 4216,
      "్రె": 4217,
      "eserve": 4218,
      "atis": 4219,
      "66": 4220,
      "దీవుల": 4221,
      "अंग्रेजी": 4222,
      "IJ": 4223,
      "jo": 4224,
      "...": 4225,
      "तट": 4226,
      "Gujarat": 4227,
      "▁रहा": 4228,
      "NI": 4229,
      "▁im": 4230,
      "iley": 4231,
      "ward": 4232,
      "ource": 4233,
      "uled": 4234,
      "సభ": 4235,
      "cript": 4236,
      "Culture": 4237,
      "राक": 4238,
      "fir": 4239,
      "रक्ष": 4240,
      "थिय": 4241,
      "र्जा": 4242,
      "Group": 4243,
      "रेलू": 4244,
      "మహా": 4245,
      "रक्षा": 4246,
      "१९४७": 4247,
      "20140": 4248,
      "oz": 4249,
      "▁women": 4250,
      "కర్": 4251,
      "▁gre": 4252,
      "Australia": 4253,
      "विशेषः": 4254,
      "विशेषःEditPage": 4255,
      "▁Indus": 4256,
      "fication": 4257,
      "330px": 4258,
      "SA": 4259,
      "rust": 4260,
      "SCO": 4261,
      "pecial": 4262,
      "kingdom": 4263,
      "yle": 4264,
      "▁ऑ": 4265,
      "Christ": 4266,
      "architecture": 4267,
      "गणराज्य": 4268,
      "१९५०": 4269,
      "261": 4270,
      "details": 4271,
      "ora": 4272,
      "आर्": 4273,
      "ेस": 4274,
      "दर्": 4275,
      "ణి": 4276,
      "▁Hinduism": 4277,
      "Per": 4278,
      "▁Co": 4279,
      "సామ్రాజ్య": 4280,
      "document": 4281,
      "हे": 4282,
      "▁ही": 4283,
      "ockey": 4284,
      "awahar": 4285,
      "awaharl": 4286,
      "awaharlal": 4287,
      "anth": 4288,
      "గాంధ": 4289,
      "క్య": 4290,
      "▁culture": 4291,
      "మం": 4292,
      "కేంద్ర": 4293,
      "FOOTNOTEStein199": 4294,
      "चाल": 4295,
      "hell": 4296,
      "cording": 4297,
      "▁ड": 4298,
      "सर्": 4299,
      "▁उद्यान": 4300,
      "▁गणराज्य": 4301,
      "raditional": 4302,
      "oard": 4303,
      "Nadu": 4304,
      "CITEREFB": 4305,
      "▁సంస్కృతి": 4306,
      "▁Government": 4307,
      "ext": 4308,
      "▁बी": 4309,
      "▁billion": 4310,
      "omason": 4311,
      "▁second": 4312,
      "gisl": 4313,
      "▁technology": 4314,
      "షన్": 4315,
      "summits": 4316,
      "Sal": 4317,
      "▁రాజవంశ": 4318,
      "▁dispu": 4319,
      "42": 4320,
      "ecu": 4321,
      "▁तु": 4322,
      "మల": 4323,
      "President": 4324,
      "terature": 4325,
      "▁మార్": 4326,
      "खित": 4327,
      "102": 4328,
      "210": 4329,
      "San": 4330,
      "पान": 4331,
      "akes": 4332,
      "▁far": 4333,
      "Company": 4334,
      "etrag": 4335,
      "etraglia": 4336,
      "▁Nehru": 4337,
      "ederal": 4338,
      "▁▁▁": 4339,
      "ancis": 4340,
      "ప్రపంచ": 4341,
      "arli": 4342,
      "▁Public": 4343,
      "▁चुनाव": 4344,
      "तृ": 4345,
      "▁हिम": 4346,
      "ashmiri": 4347,
      "aves": 4348,
      "దక్షిణా": 4349,
      "English": 4350,
      "Can": 4351,
      "▁लेख": 4352,
      "ंट": 4353,
      "quality": 4354,
      "Chief": 4355,
      "147": 4356,
      "miss": 4357,
      "श्रेणीःCS1": 4358,
      "ाव": 4359,
      "ार्क": 4360,
      "FOOTNOTEDikshitSchwartzberg": 4361,
      "esti": 4362,
      "▁పార్టీ": 4363,
      "पूर्ण": 4364,
      "215": 4365,
      "▁Punjab": 4366,
      "▁प्रत्य": 4367,
      "428": 4368,
      "ographics": 4369,
      "Member": 4370,
      "Tiger": 4371,
      "▁కూడా": 4372,
      "శ్రీ": 4373,
      "లంక": 4374,
      "सान्द्र": 4375,
      "द्रौ": 4376,
      "▁जिसमें": 4377,
      "कोरिया": 4378,
      "Clo": 4379,
      "विः": 4380,
      "Univers": 4381,
      "पद": 4382,
      "odiversity": 4383,
      "ओर": 4384,
      "▁होता": 4385,
      "545": 4386,
      "सागरः": 4387,
      "न्य": 4388,
      "Dravidian": 4389,
      "ఆఫ్": 4390,
      "खर": 4391,
      "▁dom": 4392,
      "मिक": 4393,
      "ple": 4394,
      "एन": 4395,
      "kZ": 4396,
      "kZV": 4397,
      "kZVu": 4398,
      "kZVuDwAAQBAJ": 4399,
      "निवर्": 4400,
      "निवर्सि": 4401,
      "निवर्सिटी": 4402,
      "ker": 4403,
      "iam": 4404,
      "▁तम": 4405,
      "ritsar": 4406,
      "urity": 4407,
      "▁करोड़": 4408,
      "ighth": 4409,
      "urvey": 4410,
      "यों": 4411,
      "▁सदन": 4412,
      "▁పేరు": 4413,
      "Turk": 4414,
      "భి": 4415,
      "रादू": 4416,
      "रादून": 4417,
      ")\"),": 4418,
      "▁Ocean": 4419,
      "▁Territory": 4420,
      "Krishna": 4421,
      "बिहार": 4422,
      "esc": 4423,
      "▁स्वा": 4424,
      "▁मुख्य": 4425,
      "▁सैन": 4426,
      "DS": 4427,
      "ants": 4428,
      "▁वर्षा": 4429,
      "विस्तीर्ण": 4430,
      "fferent": 4431,
      "ligions": 4432,
      "Varanas": 4433,
      "तार": 4434,
      "Bal": 4435,
      "▁इन": 4436,
      "▁వచ్చ": 4437,
      "tered": 4438,
      "▁Plateau": 4439,
      "78074": 4440,
      "ez": 4441,
      "astal": 4442,
      "▁१५": 4443,
      "226": 4444,
      "गृह": 4445,
      "వీ": 4446,
      "ంగీతం": 4447,
      "ल्ल": 4448,
      "इराक": 4449,
      "rat": 4450,
      "▁చెయ్య": 4451,
      "▁hum": 4452,
      "▁name": 4453,
      "दाख": 4454,
      "181": 4455,
      "केंद्र": 4456,
      "1971": 4457,
      "▁z": 4458,
      "ईरान": 4459,
      "यर": 4460,
      "pi": 4461,
      "LC": 4462,
      "ञ्छ": 4463,
      "iary": 4464,
      "▁Indians": 4465,
      "▁व्या": 4466,
      "नामा": 4467,
      "హిందీ": 4468,
      "२६": 4469,
      "▁स्थल": 4470,
      "ానికి": 4471,
      "them": 4472,
      "सिंध": 4473,
      "अफ": 4474,
      "्रीका": 4475,
      "▁नव": 4476,
      "ఉత్తర": 4477,
      "▁कश्मीर": 4478,
      "Sovereign": 4479,
      "सून": 4480,
      "AL": 4481,
      "ams": 4482,
      "ముద్ర": 4483,
      "▁नद": 4484,
      "▁sector": 4485,
      "पटना": 4486,
      "पदी": 4487,
      "▁these": 4488,
      "PMC": 4489,
      "hmed": 4490,
      "321": 4491,
      "यमु": 4492,
      "यमुना": 4493,
      "▁उत्पाद": 4494,
      "pture": 4495,
      "32": 4496,
      "▁tree": 4497,
      "ogue": 4498,
      "territory": 4499,
      "వర్గంఃHarv": 4500,
      "ango": 4501,
      "ssociation": 4502,
      "वेद": 4503,
      "152": 4504,
      "चित": 4505,
      "level": 4506,
      "Flag": 4507,
      "relations": 4508,
      "▁rem": 4509,
      "ained": 4510,
      "▁1994": 4511,
      "▁This": 4512,
      "First": 4513,
      "▁ఏ": 4514,
      "▁development": 4515,
      "గాంధీ": 4516,
      "Gupta": 4517,
      "जवा": 4518,
      "_&": 4519,
      "_&_": 4520,
      "yam": 4521,
      "Goa": 4522,
      "338": 4523,
      "चन": 4524,
      "्यम्": 4525,
      "struc": 4526,
      "Totals": 4527,
      "garh": 4528,
      "Ku": 4529,
      "▁विस्त": 4530,
      "दः": 4531,
      "asp": 4532,
      "రే": 4533,
      "Taylor": 4534,
      "external": 4535,
      "345": 4536,
      "▁caus": 4537,
      "▁Al": 4538,
      "269": 4539,
      "aland": 4540,
      "actbook": 4541,
      "spe": 4542,
      "PMID": 4543,
      "Cal": 4544,
      "▁produc": 4545,
      "షి": 4546,
      "ating": 4547,
      "using": 4548,
      "▁human": 4549,
      "Ancient": 4550,
      "▁बीच": 4551,
      "▁जनगणना": 4552,
      "dependence": 4553,
      "286": 4554,
      "Nepal": 4555,
      "gypt": 4556,
      "AC": 4557,
      "paper": 4558,
      "phere": 4559,
      "visions": 4560,
      "▁దేశాల": 4561,
      "oples": 4562,
      "▁religious": 4563,
      "inated": 4564,
      "दार": 4565,
      "erg": 4566,
      "NG": 4567,
      "127": 4568,
      "मलयाल": 4569,
      "projec": 4570,
      "▁మార్గ": 4571,
      "रण": 4572,
      "▁नदी": 4573,
      "हिन्दू": 4574,
      "▁man": 4575,
      "लग": 4576,
      "▁संस्कृति": 4577,
      "araj": 4578,
      "उदय": 4579,
      "▁పరి": 4580,
      "▁Civil": 4581,
      "▁Qu": 4582,
      "Middle": 4583,
      "▁मौ": 4584,
      "310": 4585,
      "que": 4586,
      "bc": 4587,
      "Tibet": 4588,
      "known": 4589,
      "glance": 4590,
      "▁Chand": 4591,
      "▁Bang": 4592,
      "Puducherry": 4593,
      "श्रीलंका": 4594,
      "alam": 4595,
      "▁विज्ञान": 4596,
      "▁when": 4597,
      "alli": 4598,
      "Domin": 4599,
      "▁कई": 4600,
      "मतम्": 4601,
      "काशी": 4602,
      "▁इंड": 4603,
      "ym": 4604,
      "estic": 4605,
      "arlo": 4606,
      "Bangalore": 4607,
      "मराठी": 4608,
      "674": 4609,
      "▁Research": 4610,
      "▁राजनीति": 4611,
      "uisine": 4612,
      "▁Pl": 4613,
      "Politics": 4614,
      "utes": 4615,
      "▁हिमालय": 4616,
      "ally": 4617,
      "Zva": 4618,
      "ZvaGu": 4619,
      "ZvaGua": 4620,
      "ZvaGuaJ": 4621,
      "ZvaGuaJIJ": 4622,
      "ZvaGuaJIJgo": 4623,
      "ZvaGuaJIJgoC": 4624,
      "ced": 4625,
      "search": 4626,
      "णाली": 4627,
      "श्या": 4628,
      "लेट": 4629,
      "▁आर्थिक": 4630,
      "▁८": 4631,
      "గి": 4632,
      "कर्नाटक": 4633,
      "▁Europe": 4634,
      "मन्दिर": 4635,
      "ofile": 4636,
      "arnatic": 4637,
      "CITEREFDyson": 4638,
      "▁स्थाने": 4639,
      "Bibcode": 4640,
      "Sikhism": 4641,
      "దార": 4642,
      "చైనా": 4643,
      "▁युग": 4644,
      "roadc": 4645,
      "roadcasting": 4646,
      "न्दा": 4647,
      "350": 4648,
      "▁Data": 4649,
      "▁1960": 4650,
      "ముంబై": 4651,
      "▁దేశం": 4652,
      "Ne": 4653,
      "सीमा": 4654,
      "पर्वत": 4655,
      "cog": 4656,
      "12148": 4657,
      "FOOTNOTESharma": 4658,
      "Sing": 4659,
      "ोस": 4660,
      "parliament": 4661,
      "orship": 4662,
      "▁Buddhist": 4663,
      "▁विधान": 4664,
      "amily": 4665,
      "ax": 4666,
      "134": 4667,
      "ymbols": 4668,
      "ians": 4669,
      "ables": 4670,
      "ze": 4671,
      "▁Park": 4672,
      "▁composed": 4673,
      "ediff": 4674,
      "timesofindia": 4675,
      "ofker": 4676,
      "aro": 4677,
      "270": 4678,
      "Civil": 4679,
      "adra": 4680,
      "dy": 4681,
      "चंड": 4682,
      "ीगढ़": 4683,
      "్రిటి": 4684,
      "aria": 4685,
      "ीपी": 4686,
      "ually": 4687,
      "FT": 4688,
      "ues": 4689,
      "▁colle": 4690,
      "FOOTNOTEInternational": 4691,
      "▁जनसंख्या": 4692,
      "oro": 4693,
      "▁द्वीप": 4694,
      "ey": 4695,
      "Range": 4696,
      "म्य": 4697,
      "ब्ध": 4698,
      "▁स्त": 4699,
      "अव": 4700,
      "▁पर्यटन": 4701,
      "dr": 4702,
      "*,": 4703,
      "सां": 4704,
      "वान": 4705,
      "Encyclop": 4706,
      "Mas": 4707,
      "jid": 4708,
      "▁కో": 4709,
      "▁exp": 4710,
      "▁prom": 4711,
      "Sub": 4712,
      "Man": 4713,
      "पक": 4714,
      "ica": 4715,
      "▁att": 4716,
      "▁ago": 4717,
      "ino": 4718,
      "▁old": 4719,
      "aryana": 4720,
      "▁మా": 4721,
      "▁within": 4722,
      "ोर्ड": 4723,
      "▁1965": 4724,
      "thura": 4725,
      "Portal": 4726,
      "cover": 4727,
      "cise": 4728,
      "▁river": 4729,
      "▁Machine": 4730,
      "టా": 4731,
      "▁చే": 4732,
      "ukh": 4733,
      "Times": 4734,
      "▁especial": 4735,
      "▁especially": 4736,
      "ren": 4737,
      "251": 4738,
      "पण": 4739,
      "Nations": 4740,
      "▁लोग": 4741,
      "▁समाज": 4742,
      "धुनिक": 4743,
      "न्स": 4744,
      "nominal": 4745,
      "aut": 4746,
      "PC": 4747,
      "1992": 4748,
      "ज़ा": 4749,
      "Brahmaputra": 4750,
      "हिमाचल": 4751,
      "ashi": 4752,
      "economic": 4753,
      "ंत": 4754,
      "▁క్రీడ": 4755,
      "ौगोल": 4756,
      "ौगोलिक": 4757,
      "culpture": 4758,
      "▁through": 4759,
      "▁ऋ": 4760,
      "▁Cooperation": 4761,
      "mitt": 4762,
      "▁areas": 4763,
      "विधा": 4764,
      "▁right": 4765,
      "bnf": 4766,
      "Allchin": 4767,
      "shared": 4768,
      "erman": 4769,
      "फा": 4770,
      "▁def": 4771,
      "adhya": 4772,
      "▁use": 4773,
      "ka": 4774,
      "हरी": 4775,
      "John": 4776,
      "orn": 4777,
      "మంత్రి": 4778,
      "409": 4779,
      "FOOTNOTEStein19981": 4780,
      "స్తు": 4781,
      "నీ": 4782,
      "ets": 4783,
      "Eur": 4784,
      "Office": 4785,
      "irth": 4786,
      "ability": 4787,
      "క్క": 4788,
      "comm": 4789,
      "Wildlife": 4790,
      "जल": 4791,
      "407": 4792,
      "SE": 4793,
      "ately": 4794,
      "Kathak": 4795,
      "▁near": 4796,
      "▁पू": 4797,
      "▁hist": 4798,
      "inf": 4799,
      "ij": 4800,
      "Education": 4801,
      "[![](": 4802,
      "▁अप्र": 4803,
      "▁अप्रैल": 4804,
      "▁fam": 4805,
      "Women": 4806,
      "▁only": 4807,
      "AAJ": 4808,
      "ender": 4809,
      "114": 4810,
      "Himachal": 4811,
      "▁कुल": 4812,
      "eccan": 4813,
      "Bihar": 4814,
      "140": 4815,
      "KulkeRothermund2004": 4816,
      "▁religion": 4817,
      "केरल": 4818,
      "alk": 4819,
      "▁Linguistic": 4820,
      "विद्य": 4821,
      "विद्यालय": 4822,
      "ెలు": 4823,
      "Web": 4824,
      "400": 4825,
      "violence": 4826,
      "hasha": 4827,
      "▁सूचना": 4828,
      "▁ठ": 4829,
      "▁शिक्षा": 4830,
      "ంగ్లా": 4831,
      "353": 4832,
      "▁Games": 4833,
      "EC": 4834,
      "अन्तर्": 4835,
      "power": 4836,
      "ील": 4837,
      "▁Quote": 4838,
      "▁mi": 4839,
      "8d": 4840,
      "▁increased": 4841,
      "bbc": 4842,
      "ూర్పు": 4843,
      "Chandig": 4844,
      "Chandigarh": 4845,
      "linkim": 4846,
      "linkimages": 4847,
      "भ्यता": 4848,
      "hai": 4849,
      "ographical": 4850,
      "ondon": 4851,
      "ripura": 4852,
      "lem": 4853,
      "मार्": 4854,
      "▁दशक": 4855,
      "▁ब्र": 4856,
      "arden": 4857,
      "▁मह": 4858,
      "156": 4859,
      "Tarlo": 4860,
      "Odisha": 4861,
      "నాల": 4862,
      "Bar": 4863,
      "146": 4864,
      "▁Central": 4865,
      "law": 4866,
      "reed": 4867,
      "▁growth": 4868,
      "Energy": 4869,
      "▁वर्ग": 4870,
      "త్స": 4871,
      "hol": 4872,
      "▁wide": 4873,
      "adras": 4874,
      "तिब्बत": 4875,
      "▁పు": 4876,
      "dress": 4877,
      "▁along": 4878,
      "olkata": 4879,
      "మాల": 4880,
      "హదార": 4881,
      "హదారుల": 4882,
      "1017": 4883,
      "षाण": 4884,
      "जनसंख्या": 4885,
      "Va": 4886,
      "వాతంత్ర": 4887,
      "వాతంత్ర్య": 4888,
      "రో": 4889,
      "▁జాబితా": 4890,
      "▁क्षेत्रीय": 4891,
      "238": 4892,
      "akshad": 4893,
      "akshadwe": 4894,
      "akshadweep": 4895,
      "B6": 4896,
      "▁Sik": 4897,
      "ంగాల్": 4898,
      "vanag": 4899,
      "vanagari": 4900,
      "महाद्वीप": 4901,
      "वल": 4902,
      "▁प्रधानमंत्री": 4903,
      "Old": 4904,
      "thing": 4905,
      "Min": 4906,
      "ोने": 4907,
      "Archi": 4908,
      "▁అధికార": 4909,
      "రిక": 4910,
      "▁By": 4911,
      "▁control": 4912,
      "క్రీ": 4913,
      "▁tea": 4914,
      "pen": 4915,
      "ourb": 4916,
      "ourbaki": 4917,
      "▁కొ": 4918,
      "ilgrim": 4919,
      "ults": 4920,
      "iance": 4921,
      "ao": 4922,
      "ternet": 4923,
      "Health": 4924,
      "aking": 4925,
      "439": 4926,
      "hra": 4927,
      "Modern": 4928,
      "people": 4929,
      "Paki": 4930,
      "Pakist": 4931,
      "Pakistani": 4932,
      "▁लग": 4933,
      "▁पत्रिका": 4934,
      "श्य": 4935,
      "▁द्": 4936,
      "▁Rothermund": 4937,
      "▁संसद": 4938,
      "ather": 4939,
      "▁पार्टी": 4940,
      "स्वतंत्रता": 4941,
      "अभि": 4942,
      "चंडीगढ़": 4943,
      "round": 4944,
      "riya": 4945,
      "vent": 4946,
      "Alig": 4947,
      "Aligned": 4948,
      "ौर": 4949,
      "Court": 4950,
      "1960": 4951,
      "ustrial": 4952,
      "सिनेमा": 4953,
      "yer": 4954,
      "▁सैन्य": 4955,
      "olnar": 4956,
      "ened": 4957,
      "मीन": 4958,
      "पो": 4959,
      "▁Lanka": 4960,
      "harkh": 4961,
      "harkhand": 4962,
      "▁dem": 4963,
      "179": 4964,
      "तान्त्र": 4965,
      "तान्त्रिक": 4966,
      "asian": 4967,
      "Forest": 4968,
      "▁direct": 4969,
      "▁जनजाति": 4970,
      "२०११": 4971,
      "▁United": 4972,
      "133": 4973,
      "▁bu": 4974,
      "onial": 4975,
      "temple": 4976,
      "ड्": 4977,
      "म्र": 4978,
      "eck": 4979,
      "troduction": 4980,
      "ावली": 4981,
      "content": 4982,
      "अल्": 4983,
      "▁mathematics": 4984,
      "హర": 4985,
      "iland": 4986,
      "▁eng": 4987,
      "angam": 4988,
      "class": 4989,
      "Sikh": 4990,
      "ureau": 4991,
      "▁వ్యా": 4992,
      "1967": 4993,
      "Narendra": 4994,
      "Home": 4995,
      "340": 4996,
      "kingdoms": 4997,
      "Standard": 4998,
      "పో": 4999,
      "▁36": 5000,
      "▁Society": 5001,
      "aith": 5002,
      "వె": 5003,
      "▁पहले": 5004,
      "టెడ్": 5005,
      "वीं": 5006,
      "Science": 5007,
      "कवर": 5008,
      "▁News": 5009,
      "▁భారతదేశ": 5010,
      "med": 5011,
      "▁Nicobar": 5012,
      "Air": 5013,
      "Affairs": 5014,
      "alls": 5015,
      "▁बि": 5016,
      "▁शहर": 5017,
      "ncb": 5018,
      "ncbi": 5019,
      "dra": 5020,
      "url": 5021,
      "▁ne": 5022,
      "▁work": 5023,
      "▁men": 5024,
      "Gil": 5025,
      "शास्त्र": 5026,
      "owever": 5027,
      "ाधिक": 5028,
      "ences": 5029,
      "wana": 5030,
      "ichell": 5031,
      "▁उल्": 5032,
      "निरपेक्ष": 5033,
      "బీ": 5034,
      "NC": 5035,
      "స్సా": 5036,
      "loc": 5037,
      "▁Br": 5038,
      "official": 5039,
      "very": 5040,
      "20150": 5041,
      "▁बल": 5042,
      "hatt": 5043,
      "harata": 5044,
      "rang": 5045,
      "atna": 5046,
      "Golden": 5047,
      "vil": 5048,
      "▁ge": 5049,
      "Countries": 5050,
      "duct": 5051,
      "cha": 5052,
      "▁सह": 5053,
      "utan": 5054,
      "containing": 5055,
      "ourts": 5056,
      "▁प्रौद्योगिक": 5057,
      "▁numbers": 5058,
      "Monsoon": 5059,
      "eduled": 5060,
      "▁political": 5061,
      "337": 5062,
      "Saint": 5063,
      "248": 5064,
      "▁रवी": 5065,
      "▁vill": 5066,
      "सरकार": 5067,
      "निया": 5068,
      "गू": 5069,
      "▁ఆసియా": 5070,
      "hindi": 5071,
      "▁Minorities": 5072,
      "tection": 5073,
      "349": 5074,
      "ण्डल": 5075,
      "ouncil": 5076,
      "vention": 5077,
      "him": 5078,
      "Bah": 5079,
      "లోని": 5080,
      "cod": 5081,
      "▁including": 5082,
      "akrish": 5083,
      "akrishn": 5084,
      "akrishnan": 5085,
      "देशों": 5086,
      "लिस": 5087,
      "▁Sub": 5088,
      "Partition": 5089,
      "परमाणु": 5090,
      "Data": 5091,
      "▁थ": 5092,
      "der": 5093,
      "▁sou": 5094,
      "భూట": 5095,
      "భూటాన్": 5096,
      "oss": 5097,
      "్యం": 5098,
      "anghai": 5099,
      "▁Dem": 5100,
      "हाय": 5101,
      "system": 5102,
      "Marath": 5103,
      "324": 5104,
      "▁gen": 5105,
      "ghts": 5106,
      "▁Comp": 5107,
      "▁before": 5108,
      "మ్": 5109,
      "0000": 5110,
      "Hindustan": 5111,
      "arliest": 5112,
      "nl": 5113,
      "nlm": 5114,
      "LD": 5115,
      "attle": 5116,
      "तमिलनाडु": 5117,
      "Canada": 5118,
      "తావ": 5119,
      "తావరణ": 5120,
      "తావరణం": 5121,
      "जग": 5122,
      "angra": 5123,
      "▁traditional": 5124,
      "▁range": 5125,
      "పాల్": 5126,
      "▁हे": 5127,
      "good": 5128,
      "384": 5129,
      "nih": 5130,
      "ollingham": 5131,
      "Petraglia": 5132,
      "382": 5133,
      "Plate": 5134,
      "inema": 5135,
      "Le": 5136,
      "छत्तीसगढ़": 5137,
      "వల": 5138,
      "harmace": 5139,
      "harmaceu": 5140,
      "ritsch": 5141,
      "estival": 5142,
      "▁राजवंश": 5143,
      "वैद": 5144,
      "वैदिक": 5145,
      "▁రైలు": 5146,
      "anorama": 5147,
      "Lakshadweep": 5148,
      "▁कॉ": 5149,
      "ctorate": 5150,
      "गोदा": 5151,
      "वियत": 5152,
      "दान": 5153,
      "▁स्थाप": 5154,
      "हित": 5155,
      "लेह": 5156,
      "म्या": 5157,
      "Demographics": 5158,
      "101": 5159,
      "apore": 5160,
      "Devanagari": 5161,
      "mirates": 5162,
      "▁At": 5163,
      "dex": 5164,
      "Ani": 5165,
      "Animal": 5166,
      "ाधि": 5167,
      "घ्र": 5168,
      "శ్రీలంక": 5169,
      "Bank": 5170,
      "459": 5171,
      "227": 5172,
      "urry": 5173,
      "वर्गःः": 5174,
      "thehind": 5175,
      "इंडोने": 5176,
      "इंडोनेशिया": 5177,
      "▁maint": 5178,
      "197": 5179,
      "▁बै": 5180,
      "▁सप्त": 5181,
      "20190": 5182,
      "▁sty": 5183,
      "▁Dictionary": 5184,
      "▁ओर": 5185,
      "247": 5186,
      "दम": 5187,
      "वत्": 5188,
      "▁appro": 5189,
      "▁mathema": 5190,
      "▁जनवरी": 5191,
      "iated": 5192,
      "Map": 5193,
      "uthority": 5194,
      "▁सीमा": 5195,
      "Res": 5196,
      "मी2": 5197,
      "Date": 5198,
      "ars": 5199,
      "▁श्री": 5200,
      "JPG": 5201,
      "▁पञ्च": 5202,
      "भाषण": 5203,
      "भाषणम्": 5204,
      "Brune": 5205,
      "Brunei": 5206,
      "▁Registrar": 5207,
      "व्यक्त": 5208,
      "144": 5209,
      "▁Monetary": 5210,
      "कं": 5211,
      "▁dynasty": 5212,
      "▁उच्च": 5213,
      "జో": 5214,
      "237": 5215,
      "मग": 5216,
      "मगध": 5217,
      "rief": 5218,
      "ంగ్రె": 5219,
      "Registrar": 5220,
      "ession": 5221,
      "ham": 5222,
      "▁निर्माण": 5223,
      "285": 5224,
      "▁కాశ్మీ": 5225,
      "▁Routledge": 5226,
      "▁Temp": 5227,
      "▁Temple": 5228,
      "▁Mani": 5229,
      "Intelligence": 5230,
      "asthan": 5231,
      "▁कोरिया": 5232,
      "▁rock": 5233,
      "▁led": 5234,
      "मिज़": 5235,
      "Joint": 5236,
      "ఒడి": 5237,
      "235": 5238,
      "ుడు": 5239,
      "Camb": 5240,
      "Cambo": 5241,
      "Cambodia": 5242,
      "▁different": 5243,
      "पुणे": 5244,
      "पीठ": 5245,
      "astr": 5246,
      "र्ग": 5247,
      "Jama": 5248,
      "▁बहुत": 5249,
      "ameez": 5250,
      "Gandhi": 5251,
      "Malaysia": 5252,
      "▁contin": 5253,
      "AsherAsher": 5254,
      "▁capita": 5255,
      "मन्त्रालयः": 5256,
      "bar": 5257,
      "▁२८": 5258,
      "सङ्के": 5259,
      "सङ्केत": 5260,
      "▁species": 5261,
      "Laos": 5262,
      "▁కు": 5263,
      "मैथिल": 5264,
      "▁fe": 5265,
      "elangana": 5266,
      "▁मत": 5267,
      "Masjid": 5268,
      "लद्": 5269,
      "लद्दाख": 5270,
      "▁ज्": 5271,
      "▁ज्ञ": 5272,
      "▁Chinese": 5273,
      "2011census": 5274,
      "anat": 5275,
      "ज्ञा": 5276,
      "ज्ञापक": 5277,
      "ेन्द्र": 5278,
      "▁employed": 5279,
      "orthographic": 5280,
      "రాష్ట్రపతి": 5281,
      "691": 5282,
      "१८": 5283,
      "Music": 5284,
      "214": 5285,
      "▁31": 5286,
      "ption": 5287,
      "గణతంత్ర": 5288,
      "Lot": 5289,
      "Lotus": 5290,
      "Comp": 5291,
      "ृक्षः": 5292,
      "▁मस्": 5293,
      "फोर्ड": 5294,
      "Tha": 5295,
      "Thailand": 5296,
      "▁Sabha": 5297,
      "ियां": 5298,
      "▁कुछ": 5299,
      "well": 5300,
      "▁Island": 5301,
      "igration": 5302,
      "▁साल": 5303,
      "▁उन": 5304,
      "इन": 5305,
      "▁four": 5306,
      "పంజా": 5307,
      "Commission": 5308,
      "सिंधु": 5309,
      "अफ्रीका": 5310,
      "255": 5311,
      "नीतिः": 5312,
      "Force": 5313,
      "वट": 5314,
      "▁वाल": 5315,
      "शिम": 5316,
      "शिमला": 5317,
      "catal": 5318,
      "▁fol": 5319,
      "बेट": 5320,
      "▁జనాభా": 5321,
      "▁मानसून": 5322,
      "ngineering": 5323,
      "▁ఆధ": 5324,
      "itation": 5325,
      "▁పట్ట": 5326,
      "ఇన్": 5327,
      "ఇన్ఫ": 5328,
      "▁స్థాన": 5329,
      "▁Health": 5330,
      "▁प्रेस": 5331,
      "▁report": 5332,
      "▁Force": 5333,
      "▁agriculture": 5334,
      "260": 5335,
      "न्दोलन": 5336,
      "709": 5337,
      "UT": 5338,
      "विकास": 5339,
      "04": 5340,
      "స్త్రం": 5341,
      "Ajan": 5342,
      "Ajanta": 5343,
      "abh": 5344,
      "▁ప్రభ": 5345,
      "▁ప్రభు": 5346,
      "త్వం": 5347,
      "मिन्": 5348,
      "षि": 5349,
      "सः": 5350,
      "1999": 5351,
      "मस्": 5352,
      "इल": 5353,
      "otal": 5354,
      "yy": 5355,
      "bert": 5356,
      "lock": 5357,
      "274": 5358,
      "తాబ్": 5359,
      "తాబ్దం": 5360,
      "thematics": 5361,
      "ाटी": 5362,
      "ఆర్": 5363,
      "▁majority": 5364,
      "rel": 5365,
      "सन्": 5366,
      "aks": 5367,
      "ataraj": 5368,
      "/)": 5369,
      "rest": 5370,
      "तत्त्व": 5371,
      "तेल": 5372,
      "तेलंग": 5373,
      "तेलंगाना": 5374,
      "ప్రధానమంత్రి": 5375,
      "lue": 5376,
      "BI": 5377,
      "▁शासनम्": 5378,
      "Lanka": 5379,
      "loped": 5380,
      "नर्म": 5381,
      "amy": 5382,
      "राय": 5383,
      "ॉल": 5384,
      "ुष": 5385,
      "FOOTNOTEStein1998": 5386,
      "कारा": 5387,
      "ynth": 5388,
      "▁°": 5389,
      "137": 5390,
      "बंधन": 5391,
      "Dog": 5392,
      "Dogri": 5393,
      "tw": 5394,
      "कमल": 5395,
      "▁९": 5396,
      "282": 5397,
      "▁दिवस": 5398,
      "▁जात": 5399,
      "▁बृहत्": 5400,
      "istorical": 5401,
      "▁now": 5402,
      "Valley": 5403,
      "hattis": 5404,
      "Springer": 5405,
      "आंध": 5406,
      "आंध्र": 5407,
      "सस्य": 5408,
      "ox": 5409,
      "ఇండో": 5410,
      "షియా": 5411,
      "कोलका": 5412,
      "कोलकाता": 5413,
      "आर्थिक": 5414,
      "▁२०११": 5415,
      "feb": 5416,
      "▁४": 5417,
      "గుజ": 5418,
      "గుజరా": 5419,
      "ంశ": 5420,
      "Sikkim": 5421,
      "ीकरण": 5422,
      "318": 5423,
      "नागा": 5424,
      "ీన": 5425,
      "तिः": 5426,
      "धिः": 5427,
      "405": 5428,
      "लेब": 5429,
      "लेबनान": 5430,
      "acmil": 5431,
      "acmillan": 5432,
      "Bhutan": 5433,
      "Dal": 5434,
      "Egypt": 5435,
      "▁Organization": 5436,
      "మన్": 5437,
      "osphere": 5438,
      "Cooperation": 5439,
      "win": 5440,
      "चेन्न": 5441,
      "चेन्नई": 5442,
      "కీయ": 5443,
      "▁Incre": 5444,
      "agen": 5445,
      "तला": 5446,
      "Deccan": 5447,
      "ఆఫ్ఘ": 5448,
      "Department": 5449,
      "FOOTNOTERobb": 5450,
      "▁third": 5451,
      "\n\n": 5452,
      "च्छ": 5453,
      "भाव": 5454,
      "▁ఆర్ధిక": 5455,
      "▁emerg": 5456,
      "तेलु": 5457,
      "तेलुगू": 5458,
      "308": 5459,
      "इटा": 5460,
      "పశ్చిమ": 5461,
      "raj": 5462,
      "bhasha": 5463,
      "Southeast": 5464,
      "▁would": 5465,
      "బంగ్లా": 5466,
      "▁जाती": 5467,
      "edule": 5468,
      "omo": 5469,
      "tile": 5470,
      "धानम्": 5471,
      "ded": 5472,
      "▁Ved": 5473,
      "▁Ad": 5474,
      "कृत्य": 5475,
      "फलकम्": 5476,
      "त्रिपुरा": 5477,
      "tected": 5478,
      "Religious": 5479,
      "తూర్పు": 5480,
      "Braz": 5481,
      "Brazil": 5482,
      "ator": 5483,
      "icts": 5484,
      "▁Wikidata": 5485,
      "Law": 5486,
      "Purch": 5487,
      "Purchasing": 5488,
      "number": 5489,
      "ocratic": 5490,
      "▁like": 5491,
      "२००": 5492,
      "Dominion": 5493,
      "1990242": 5494,
      "पञ्च": 5495,
      "tudi": 5496,
      "tudies": 5497,
      "FOOTNOTEC": 5498,
      "▁इंडिया": 5499,
      "మొ": 5500,
      "▁स्वतन्त्र": 5501,
      "168": 5502,
      "▁Minister": 5503,
      "▁·": 5504,
      "Country": 5505,
      "Amritsar": 5506,
      "▁नेतृ": 5507,
      "▁नेतृत्व": 5508,
      "etry": 5509,
      "Kashmiri": 5510,
      "गान्": 5511,
      "गान्धी": 5512,
      "शाला": 5513,
      "Insur": 5514,
      "▁Greek": 5515,
      "b0": 5516,
      "angered": 5517,
      "▁मात": 5518,
      "शो": 5519,
      "शोध": 5520,
      "తమిళనా": 5521,
      "తమిళనాడు": 5522,
      "१५": 5523,
      "projection": 5524,
      "झारखंड": 5525,
      "मालदीव": 5526,
      "Chinese": 5527,
      "▁widely": 5528,
      "नद्": 5529,
      "▁स्वतंत्रता": 5530,
      "333": 5531,
      "త్యే": 5532,
      "త్యేక": 5533,
      "▁main": 5534,
      "▁occup": 5535,
      "Social": 5536,
      "hmedabad": 5537,
      "पाली": 5538,
      "FOOTNOTELudden": 5539,
      "ner": 5540,
      "सदः": 5541,
      "▁సభ": 5542,
      "▁विदेश": 5543,
      "FOOTNOTERowland": 5544,
      "big": 5545,
      "/).": 5546,
      "ody": 5547,
      "▁नागर": 5548,
      "Collingham": 5549,
      "ावती": 5550,
      "▁change": 5551,
      "▁शासित": 5552,
      "Tele": 5553,
      "भरत": 5554,
      "▁cre": 5555,
      "157": 5556,
      "onk": 5557,
      "305": 5558,
      "960": 5559,
      "▁These": 5560,
      "B8": 5561,
      "बांग्लादेश": 5562,
      "▁रचित": 5563,
      "▁Kar": 5564,
      "harmaceutical": 5565,
      "Tritsch": 5566,
      "Sindhi": 5567,
      "▁ప్రపంచ": 5568,
      "hous": 5569,
      "FOOTNOTEProvisional": 5570,
      "Manipur": 5571,
      "▁६": 5572,
      "▁1962": 5573,
      "▁आन्": 5574,
      "हरिया": 5575,
      "▁Britannica": 5576,
      "▁कॉंग्रेस": 5577,
      "▁ele": 5578,
      "ౌద్ధ": 5579,
      "222": 5580,
      "बोध": 5581,
      "ेक": 5582,
      "tter": 5583,
      "ents": 5584,
      "here": 5585,
      "▁मशीन": 5586,
      "rup": 5587,
      "Cricket": 5588,
      "ropical": 5589,
      "Urdu": 5590,
      "313": 5591,
      "▁Programme": 5592,
      "151": 5593,
      "ablish": 5594,
      "Universal": 5595,
      "▁though": 5596,
      "385": 5597,
      "Front": 5598,
      "era": 5599,
      "ంగ్లీ": 5600,
      "▁refor": 5601,
      "ద్ధం": 5602,
      "beral": 5603,
      "Modi": 5604,
      "▁can": 5605,
      "igen": 5606,
      "igenous": 5607,
      "Aut": 5608,
      "Andhra": 5609,
      "merican": 5610,
      "▁यूनिवर्सिटी": 5611,
      "भग": 5612,
      "ियान": 5613,
      "▁Prin": 5614,
      "hats": 5615,
      "▁Am": 5616,
      "PO": 5617,
      "akers": 5618,
      "Reserve": 5619,
      "Hindustani": 5620,
      "una": 5621,
      "Names": 5622,
      "▁centu": 5623,
      "▁centuries": 5624,
      "026": 5625,
      "forcement": 5626,
      "Rajasthan": 5627,
      "High": 5628,
      "Assembly": 5629,
      "▁republic": 5630,
      "▁१०": 5631,
      "Medieval": 5632,
      "▁Economy": 5633,
      "153": 5634,
      "Thar": 5635,
      "▁सिंह": 5636,
      "द्वितीय": 5637,
      "178": 5638,
      "ताज": 5639,
      "Trans": 5640,
      "మాఖ్య": 5641,
      "82": 5642,
      "Jharkhand": 5643,
      "351": 5644,
      "शील": 5645,
      "Mil": 5646,
      "▁गई": 5647,
      "pic": 5648,
      "more": 5649,
      "tit": 5650,
      "osa": 5651,
      "first": 5652,
      "▁Emer": 5653,
      "इतिहास": 5654,
      "सत": 5655,
      "▁Vedic": 5656,
      "raman": 5657,
      "▁ఇతర": 5658,
      "her": 5659,
      "CITEREFFisher": 5660,
      "orge": 5661,
      "rban": 5662,
      ")\"](": 5663,
      "ches": 5664,
      "▁millennium": 5665,
      "271": 5666,
      "▁engineering": 5667,
      "ड़िया": 5668,
      "▁ఉప": 5669,
      "संसद": 5670,
      "▁milk": 5671,
      "▁Buddha": 5672,
      "నె": 5673,
      "aul": 5674,
      "lymp": 5675,
      "▁मई": 5676,
      "isa": 5677,
      "Po": 5678,
      "rowing": 5679,
      "Non": 5680,
      "▁గల": 5681,
      "▁मिल": 5682,
      "ocal": 5683,
      "ountains": 5684,
      "type": 5685,
      "240": 5686,
      "साम्राज्य": 5687,
      "geoh": 5688,
      "geohack": 5689,
      "present": 5690,
      "nuclear": 5691,
      "జ్": 5692,
      "adas": 5693,
      "ital": 5694,
      "▁fl": 5695,
      "▁जै": 5696,
      "angetic": 5697,
      "వాణా": 5698,
      "▁last": 5699,
      "ంటి": 5700,
      "asht": 5701,
      "ashtra": 5702,
      "▁sm": 5703,
      "lectri": 5704,
      "263": 5705,
      "ece": 5706,
      "▁सित": 5707,
      "upreme": 5708,
      "▁estimate": 5709,
      "भाज": 5710,
      "▁Policy": 5711,
      "बल": 5712,
      "ardian": 5713,
      "▁सभा": 5714,
      "talk": 5715,
      "Jawaharlal": 5716,
      ")_": 5717,
      "▁Trade": 5718,
      "ights": 5719,
      "ళు": 5720,
      "▁Agency": 5721,
      "eri": 5722,
      "Inform": 5723,
      "Information": 5724,
      "ataraja": 5725,
      "ఉప": 5726,
      "TO": 5727,
      "atab": 5728,
      "struction": 5729,
      "edu": 5730,
      "198": 5731,
      "NCL": 5732,
      "▁known": 5733,
      "▁reg": 5734,
      "ीं": 5735,
      "Historical": 5736,
      "lled": 5737,
      "173": 5738,
      "ोर्ट": 5739,
      "prov": 5740,
      "Jha": 5741,
      "ఢ్": 5742,
      "undarb": 5743,
      "undarbans": 5744,
      "उच्च": 5745,
      "▁sever": 5746,
      "बहु": 5747,
      "andoor": 5748,
      "▁बौद्ध": 5749,
      "Inf": 5750,
      "opland": 5751,
      "▁commun": 5752,
      "▁independence": 5753,
      "▁1997": 5754,
      "▁2002": 5755,
      "dynasty": 5756,
      "489": 5757,
      "ield": 5758,
      "▁Ganges": 5759,
      "लुरु": 5760,
      "పి": 5761,
      "महल": 5762,
      "▁लिये": 5763,
      "213": 5764,
      "Miz": 5765,
      "▁village": 5766,
      "Coord": 5767,
      "280": 5768,
      "tou": 5769,
      "touch": 5770,
      "▁భా": 5771,
      "398": 5772,
      "alaya": 5773,
      "▁स्तर": 5774,
      "▁talk": 5775,
      "▁सूर्य": 5776,
      "టీ": 5777,
      "112": 5778,
      "212": 5779,
      "सिख": 5780,
      "मक": 5781,
      "yth": 5782,
      "Games": 5783,
      "rocod": 5784,
      "టక": 5785,
      "▁పాల": 5786,
      "▁46": 5787,
      "▁ancient": 5788,
      "▁అత్య": 5789,
      "ronom": 5790,
      "▁US": 5791,
      "लिया": 5792,
      "sch": 5793,
      "isease": 5794,
      "Northeast": 5795,
      "साई": 5796,
      "hib": 5797,
      "NA": 5798,
      "▁prac": 5799,
      "▁Indo": 5800,
      "మర": 5801,
      "cia": 5802,
      "జె": 5803,
      "Shanghai": 5804,
      "424": 5805,
      "1200": 5806,
      "Emb": 5807,
      "uters": 5808,
      "gu": 5809,
      "ష్ణ": 5810,
      "190": 5811,
      "emi": 5812,
      "▁Dance": 5813,
      "संधान": 5814,
      "Green": 5815,
      "net": 5816,
      "ourism": 5817,
      "▁ले": 5818,
      "▁Conservation": 5819,
      "▁Francis": 5820,
      "183": 5821,
      "ctive": 5822,
      "▁People": 5823,
      "▁Infor": 5824,
      "▁Informatics": 5825,
      "▁Urdu": 5826,
      "शक्ति": 5827,
      "789": 5828,
      "anga": 5829,
      "indian": 5830,
      "▁Publications": 5831,
      "बें": 5832,
      "बेंग": 5833,
      "reedom": 5834,
      "▁become": 5835,
      "▁constitution": 5836,
      "itar": 5837,
      "ట్ర": 5838,
      "rove": 5839,
      "निष्ठ": 5840,
      "దక్షిణాసియా": 5841,
      "oung": 5842,
      "▁जब": 5843,
      "▁east": 5844,
      "जोर": 5845,
      "▁Michael": 5846,
      "▁ru": 5847,
      "▁parliament": 5848,
      "యునై": 5849,
      "Big": 5850,
      "ices": 5851,
      "न्याय": 5852,
      "▁fig": 5853,
      "वाह": 5854,
      "▁१२": 5855,
      "address": 5856,
      "addressing": 5857,
      "अनुसार": 5858,
      "ट्ट": 5859,
      "▁military": 5860,
      "శ్": 5861,
      "exist": 5862,
      "सना": 5863,
      "Kolkata": 5864,
      "ोत्": 5865,
      "▁भौगोलिक": 5866,
      "emen": 5867,
      "not": 5868,
      "ords": 5869,
      "जना": 5870,
      "idy": 5871,
      "PetragliaAllchin": 5872,
      "డ్డ": 5873,
      "▁మొద": 5874,
      "ండియా": 5875,
      "नः": 5876,
      "హ్": 5877,
      "ots": 5878,
      "▁forest": 5879,
      "्रांस": 5880,
      "Island": 5881,
      "▁upper": 5882,
      "▁55": 5883,
      "981": 5884,
      "▁Hindus": 5885,
      "भाई": 5886,
      "159": 5887,
      "nus": 5888,
      "▁divis": 5889,
      "165": 5890,
      "न्तु": 5891,
      "186": 5892,
      "cogni": 5893,
      "దేశాల": 5894,
      "Singapore": 5895,
      "279": 5896,
      "613": 5897,
      "Sam": 5898,
      "Water": 5899,
      "▁CITEREFStein": 5900,
      "▁CITEREFStein1998": 5901,
      "న్నడ": 5902,
      "▁माध्य": 5903,
      "ising": 5904,
      "చ్చే": 5905,
      "SN": 5906,
      "ene": 5907,
      "గరిక": 5908,
      "గరికత": 5909,
      "सर्वोच्च": 5910,
      "xim": 5911,
      "▁West": 5912,
      "▁ass": 5913,
      "▁trade": 5914,
      "Nehru": 5915,
      "ayana": 5916,
      "▁కలి": 5917,
      "हाँ": 5918,
      "▁समा": 5919,
      "beach": 5920,
      "oist": 5921,
      "cted": 5922,
      "▁होती": 5923,
      "las": 5924,
      "घर": 5925,
      "▁काम": 5926,
      "Don": 5927,
      "daro": 5928,
      "▁दृश्य": 5929,
      "ublish": 5930,
      "ublishers": 5931,
      "eton": 5932,
      "▁sq": 5933,
      "▁కార": 5934,
      "Bas": 5935,
      "Time": 5936,
      "▁speakers": 5937,
      "▁समान": 5938,
      "మార్": 5939,
      "त्या": 5940,
      "362": 5941,
      "ద్ధి": 5942,
      "వాత": 5943,
      "allav": 5944,
      "▁Wiley": 5945,
      "ick": 5946,
      "posed": 5947,
      "▁अमेर": 5948,
      "ళ్": 5949,
      "సై": 5950,
      "dependent": 5951,
      "CITEREFStein1998": 5952,
      "rupee": 5953,
      "Internet": 5954,
      "▁religions": 5955,
      "डम": 5956,
      "▁On": 5957,
      "ంగం": 5958,
      "▁बड़े": 5959,
      "▁addition": 5960,
      "धीरे": 5961,
      "▁వచ్చింది": 5962,
      "▁ob": 5963,
      "identifiers": 5964,
      "establish": 5965,
      "ంచి": 5966,
      "▁Languages": 5967,
      "▁Nuclear": 5968,
      "ద్వీ": 5969,
      "▁సంగీతం": 5970,
      "Is": 5971,
      "November": 5972,
      "ఇస్": 5973,
      "थियार": 5974,
      "▁based": 5975,
      "िकी": 5976,
      "▁औ": 5977,
      "Kumar": 5978,
      "dira": 5979,
      "orning": 5980,
      "▁market": 5981,
      "योजन": 5982,
      "▁zone": 5983,
      "ोला": 5984,
      "ంటు": 5985,
      "ji": 5986,
      "ldlife": 5987,
      "र्मा": 5988,
      "पक्षी": 5989,
      "త్మ": 5990,
      "retary": 5991,
      "▁77": 5992,
      "20110": 5993,
      "भाजन": 5994,
      "▁Book": 5995,
      "▁dependencies": 5996,
      "▁longer": 5997,
      "Sino": 5998,
      "▁oldest": 5999,
      "हित्य": 6000,
      "▁set": 6001,
      "opal": 6002,
      "ఖండ": 6003,
      "rid": 6004,
      "दल": 6005,
      "▁Korea": 6006,
      "orig": 6007,
      "Gate": 6008,
      "pub": 6009,
      "गान": 6010,
      "CITEREFLudden": 6011,
      "जीव": 6012,
      "ager": 6013,
      "▁kingdoms": 6014,
      "▁నగర": 6015,
      "7mar": 6016,
      "7mar2011": 6017,
      "▁अर्थव्यवस्था": 6018,
      "फ़ि": 6019,
      "Election": 6020,
      "lex": 6021,
      "211": 6022,
      "Sec": 6023,
      "लॉ": 6024,
      "hiva": 6025,
      "▁आधुनिक": 6026,
      "inan": 6027,
      "inancial": 6028,
      "▁घाट": 6029,
      "136": 6030,
      "zer": 6031,
      "▁जिन": 6032,
      "Garg": 6033,
      "డిన": 6034,
      "1016": 6035,
      "▁Environmental": 6036,
      "▁house": 6037,
      "णाचल": 6038,
      "▁Himalayas": 6039,
      "▁Short": 6040,
      "olia": 6041,
      "riage": 6042,
      "ayashi": 6043,
      "dependencies": 6044,
      "Punjabi": 6045,
      "PR": 6046,
      "ద్రా": 6047,
      "▁बंगाल": 6048,
      "wikidata": 6049,
      "▁కాంగ్రె": 6050,
      "429": 6051,
      "्रांति": 6052,
      "▁प्रकाश": 6053,
      "▁रक्षा": 6054,
      "ंतर": 6055,
      "haw": 6056,
      "itzel": 6057,
      "▁43": 6058,
      "▁poll": 6059,
      "lackb": 6060,
      "▁Man": 6061,
      "▁ve": 6062,
      "Agency": 6063,
      "ensive": 6064,
      "Female": 6065,
      "Public": 6066,
      "ాళు": 6067,
      "ాళుక్య": 6068,
      "▁Ins": 6069,
      "▁rural": 6070,
      "నిమా": 6071,
      "berc": 6072,
      "bercu": 6073,
      "berculos": 6074,
      "berculosis": 6075,
      "▁दोन": 6076,
      "CITEREFM": 6077,
      "वहार": 6078,
      "जम्ब": 6079,
      "ध्या": 6080,
      "A6": 6081,
      "▁include": 6082,
      "कालीन": 6083,
      "Eurasian": 6084,
      "tain": 6085,
      "కరణ": 6086,
      "irectorate": 6087,
      "ारम्भ": 6088,
      "▁రె": 6089,
      "ison": 6090,
      "▁,": 6091,
      "बु": 6092,
      "NCLM": 6093,
      "thReport": 6094,
      "▁even": 6095,
      "▁caused": 6096,
      "arks": 6097,
      "व्": 6098,
      "DA": 6099,
      "▁oft": 6100,
      "▁often": 6101,
      "Journal": 6102,
      "hattisgarh": 6103,
      "fun": 6104,
      "वर्ती": 6105,
      "20170": 6106,
      "via": 6107,
      "स्वतन्त्र": 6108,
      "Hel": 6109,
      "atter": 6110,
      "sites": 6111,
      "ily": 6112,
      "oorke": 6113,
      "oorkee": 6114,
      "387": 6115,
      "View": 6116,
      "unle": 6117,
      "unleavy": 6118,
      "akar": 6119,
      "केन्द्रीय": 6120,
      "▁Jain": 6121,
      "ilies": 6122,
      "General": 6123,
      "lated": 6124,
      "▁where": 6125,
      "Current": 6126,
      "ंपनी": 6127,
      "AAM": 6128,
      "AAMAAJ": 6129,
      "232": 6130,
      "tis": 6131,
      "text": 6132,
      "స్వ": 6133,
      "▁major": 6134,
      "FOOTNOTEWolpert": 6135,
      "రిహ": 6136,
      "Vedic": 6137,
      "मित": 6138,
      "ecutive": 6139,
      "Coordinated": 6140,
      "1961": 6141,
      "▁expectancy": 6142,
      "bird": 6143,
      "▁आर्य": 6144,
      "Davidson": 6145,
      "ॉक": 6146,
      "tiger": 6147,
      "▁Day": 6148,
      "▁emerged": 6149,
      "ెలుగు": 6150,
      "ारो": 6151,
      "▁Before": 6152,
      "यन": 6153,
      "▁John": 6154,
      "145": 6155,
      "187": 6156,
      "\")[[": 6157,
      "▁दिसं": 6158,
      "▁दिसंबर": 6159,
      "▁अलग": 6160,
      "ommaraj": 6161,
      "ommaraju": 6162,
      "ात्मक": 6163,
      "ico": 6164,
      "▁Increase": 6165,
      "ua": 6166,
      "ీర్": 6167,
      "▁cities": 6168,
      "▁middle": 6169,
      "गुप्त": 6170,
      "सैन": 6171,
      "149": 6172,
      "▁rise": 6173,
      "209": 6174,
      "astronom": 6175,
      "fied": 6176,
      "adakh": 6177,
      "▁యు": 6178,
      "विजय": 6179,
      "▁जन्": 6180,
      "▁जन्म": 6181,
      "▁थे": 6182,
      "▁Law": 6183,
      "కాశ్మీ": 6184,
      "indic": 6185,
      "Gross": 6186,
      "342": 6187,
      "▁central": 6188,
      "comp": 6189,
      "cott": 6190,
      "ocation": 6191,
      "ools": 6192,
      "▁London": 6193,
      "రాన్": 6194,
      "ago": 6195,
      "hek": 6196,
      "▁देख": 6197,
      "Thi": 6198,
      "దేశాలు": 6199,
      "ప్రాంత": 6200,
      "భారత్": 6201,
      "నిక": 6202,
      "हत": 6203,
      "ings": 6204,
      "Chin": 6205,
      "▁Ag": 6206,
      "Ob": 6207,
      "220": 6208,
      "tices": 6209,
      "rigonom": 6210,
      "▁early": 6211,
      "316": 6212,
      "క్కువ": 6213,
      "FOOTNOTEKulkeRothermund200": 6214,
      "▁rights": 6215,
      "CITEREFSingh2009": 6216,
      "्राम": 6217,
      "194": 6218,
      "Vice": 6219,
      "ymn": 6220,
      "Phi": 6221,
      "▁consum": 6222,
      "▁హ": 6223,
      "▁Z": 6224,
      "अर्थ": 6225,
      "టెక్": 6226,
      "టెక్నాల": 6227,
      "టెక్నాలజీ": 6228,
      "alwar": 6229,
      "प्राचीन": 6230,
      "ग्र": 6231,
      "िक्ष": 6232,
      "उत्सव": 6233,
      "▁ప్రధాన": 6234,
      "▁mid": 6235,
      "gAAQBAJ": 6236,
      "voy": 6237,
      "కూ": 6238,
      "isted": 6239,
      "GE": 6240,
      "जापान": 6241,
      "जें": 6242,
      "▁Veda": 6243,
      "abel": 6244,
      "▁km": 6245,
      "టిక": 6246,
      "utta": 6247,
      "Multi": 6248,
      "▁census": 6249,
      "Christian": 6250,
      "ద్య": 6251,
      "▁adop": 6252,
      "▁Asher": 6253,
      "ृतीय": 6254,
      "▁After": 6255,
      "148": 6256,
      ")[": 6257,
      "▁dist": 6258,
      "▁Gujarat": 6259,
      "eag": 6260,
      "▁भूम": 6261,
      "▁भूमिका": 6262,
      "▁And": 6263,
      "905": 6264,
      "पत": 6265,
      "ropped": 6266,
      "షా": 6267,
      "▁Ste": 6268,
      "▁Fl": 6269,
      "थाई": 6270,
      "▁rupee": 6271,
      "▁Shankar": 6272,
      "leg": 6273,
      "during": 6274,
      "हू": 6275,
      "ियन": 6276,
      "ండర్": 6277,
      "equality": 6278,
      "indias": 6279,
      "▁దేశంలో": 6280,
      "टिबंध": 6281,
      "▁su": 6282,
      "▁CITEREFSingh2009": 6283,
      "रोहर": 6284,
      "▁चीन": 6285,
      "▁As": 6286,
      "ంధు": 6287,
      "288": 6288,
      "▁संस्थान": 6289,
      "arlung": 6290,
      "▁व्यवस्था": 6291,
      "wa": 6292,
      "चें": 6293,
      "चेंज": 6294,
      "హిమాల": 6295,
      "enjo": 6296,
      "समाज": 6297,
      "▁whose": 6298,
      "▁education": 6299,
      "EX": 6300,
      "▁Dal": 6301,
      "185": 6302,
      "ాల్దీవుల": 6303,
      "▁Vol": 6304,
      "397": 6305,
      "▁కి": 6306,
      "till": 6307,
      "onkani": 6308,
      "ूर": 6309,
      "Vis": 6310,
      "ेल": 6311,
      "rak": 6312,
      "ప్రత్యేక": 6313,
      "ప్రత్యేకః": 6314,
      "ప్రత్యేకఃEditPage": 6315,
      "orders": 6316,
      "▁पार": 6317,
      "beralisation": 6318,
      "▁अंग्रेज": 6319,
      "▁सेवा": 6320,
      "357": 6321,
      "▁पाकिस्तान": 6322,
      "▁सिन्": 6323,
      "▁सिन्धु": 6324,
      "▁सभ्यता": 6325,
      "▁served": 6326,
      "▁inter": 6327,
      "Prime": 6328,
      "▁రహదారుల": 6329,
      "worldcat": 6330,
      "तुल": 6331,
      "Ash": 6332,
      "ప్రదా": 6333,
      "▁International": 6334,
      "▁లే": 6335,
      "uj": 6336,
      "▁नेपाल": 6337,
      "ito": 6338,
      "▁Tim": 6339,
      "ట్టు": 6340,
      "संथ": 6341,
      "संथाल": 6342,
      "▁mark": 6343,
      "బౌద్ధ": 6344,
      "हुँच": 6345,
      "थन": 6346,
      "गोदावरी": 6347,
      "रजि": 6348,
      "रजिस्ट": 6349,
      "रजिस्ट्र": 6350,
      "रजिस्ट्रार": 6351,
      "umeration": 6352,
      "ओमान": 6353,
      "ेत": 6354,
      "▁बार": 6355,
      "artial": 6356,
      "ణం": 6357,
      "Regional": 6358,
      "भुवन": 6359,
      "कड़": 6360,
      "257": 6361,
      "▁गीतम्": 6362,
      "व्याघ्र": 6363,
      "▁पड़": 6364,
      "చ్చేరి": 6365,
      "Clothing": 6366,
      "▁कविः": 6367,
      "▁family": 6368,
      "Guk": 6369,
      "Gukesh": 6370,
      "▁increase": 6371,
      "urg": 6372,
      "symbols": 6373,
      "▁Desert": 6374,
      "ैली": 6375,
      "▁approxim": 6376,
      "Rail": 6377,
      "फाल": 6378,
      "హిమా": 6379,
      "హిమాచల్": 6380,
      "reet": 6381,
      "Ramayana": 6382,
      "853": 6383,
      "▁diversity": 6384,
      "CITEREFHarle": 6385,
      "వేద": 6386,
      "results": 6387,
      "स्वा": 6388,
      "BF": 6389,
      "alled": 6390,
      "INR": 6391,
      "170": 6392,
      "గిన": 6393,
      "▁Muslim": 6394,
      "aver": 6395,
      "Research": 6396,
      "American": 6397,
      "జార్": 6398,
      "कार्": 6399,
      "▁लगभग": 6400,
      "▁सक": 6401,
      "ब्रू": 6402,
      "कम्प": 6403,
      "यमन": 6404,
      "खड": 6405,
      "▁भूमि": 6406,
      "HO": 6407,
      "लखन": 6408,
      "लखनऊ": 6409,
      "Encyclopedia": 6410,
      "మిజో": 6411,
      "उडु": 6412,
      "session": 6413,
      "CITEREFCraven": 6414,
      "IC": 6415,
      "कांक": 6416,
      "మయన్": 6417,
      "మయన్మార్": 6418,
      "బ్రిటి": 6419,
      "02649": 6420,
      "painting": 6421,
      "రువాత": 6422,
      "िणः": 6423,
      "NIFT": 6424,
      "NIFTY": 6425,
      "394": 6426,
      "चा": 6427,
      "Pallav": 6428,
      "olice": 6429,
      "▁आपरा": 6430,
      "▁आपराधिक": 6431,
      "▁`": 6432,
      "1991": 6433,
      "లక్ష": 6434,
      "हार्": 6435,
      "हार्द": 6436,
      "Sat": 6437,
      "सरी": 6438,
      "uccess": 6439,
      "ful": 6440,
      "साधन": 6441,
      "कतार": 6442,
      "getar": 6443,
      "▁అతి": 6444,
      "Zoro": 6445,
      "Zoroastr": 6446,
      "Zoroastrian": 6447,
      "ोरम": 6448,
      "पङ्क": 6449,
      "▁बड़ा": 6450,
      "▁वार्ता": 6451,
      "కన్నడ": 6452,
      "▁सद": 6453,
      "▁सदस्य": 6454,
      "▁establish": 6455,
      "▁texts": 6456,
      "tte": 6457,
      "्त": 6458,
      "Parliamentary": 6459,
      "▁न्यायाधीश": 6460,
      "भागः": 6461,
      "गृहमन्त्रालयः": 6462,
      "गृहमन्त्रालयः२०११": 6463,
      "Akbar": 6464,
      "ద్వీప": 6465,
      "लोकसभा": 6466,
      "పీ": 6467,
      "ilt": 6468,
      "आईएस": 6469,
      "urya": 6470,
      "▁अपने": 6471,
      "▁हथियार": 6472,
      "कृष्ण": 6473,
      "atures": 6474,
      "morning": 6475,
      "बं": 6476,
      "arth": 6477,
      "anding": 6478,
      "केरळ": 6479,
      "▁three": 6480,
      "ભા": 6481,
      "ભાર": 6482,
      "ભારત": 6483,
      "gul": 6484,
      "▁घरेलू": 6485,
      "...]": 6486,
      "teri": 6487,
      "▁अष्ट": 6488,
      "మహాత్మ": 6489,
      "▁सुरक्षा": 6490,
      "20111": 6491,
      "मन्": 6492,
      "ितम्": 6493,
      "▁सम्प्र": 6494,
      "नर": 6495,
      "uda": 6496,
      "205": 6497,
      "1988": 6498,
      "place": 6499,
      "505": 6500,
      "▁centre": 6501,
      "arrow": 6502,
      "LotusF": 6503,
      "LotusFlower": 6504,
      "రాజస్థాన్": 6505,
      "वाणी": 6506,
      "▁1970": 6507,
      "region": 6508,
      "ताल": 6509,
      "391": 6510,
      "9677": 6511,
      "967733": 6512,
      "aving": 6513,
      "Publishing": 6514,
      "MS": 6515,
      "MS20": 6516,
      "MS2097": 6517,
      "बङ्ग": 6518,
      "बङ्गाल": 6519,
      "गिल": 6520,
      "మౌ": 6521,
      "మౌర్య": 6522,
      "ypr": 6523,
      "yprus": 6524,
      "▁Olymp": 6525,
      "Geology": 6526,
      "లాండ్": 6527,
      "AD": 6528,
      "put": 6529,
      "పంజాబ్": 6530,
      "ees": 6531,
      "style": 6532,
      "alys": 6533,
      "alysis": 6534,
      "Africa": 6535,
      "ritt": 6536,
      "ritten": 6537,
      "ଭା": 6538,
      "ଭାର": 6539,
      "ଭାରତ": 6540,
      "उष्ण": 6541,
      "ाध्य": 6542,
      "ाध्यक्षः": 6543,
      "131": 6544,
      "बू": 6545,
      "mas": 6546,
      "▁उद्": 6547,
      "लॉग": 6548,
      "▁Bharat": 6549,
      "▁following": 6550,
      "▁ये": 6551,
      "wat": 6552,
      "चोल": 6553,
      "▁लिया": 6554,
      "कवरत्ती": 6555,
      "▁सकल": 6556,
      "Ked": 6557,
      "Kedar": 6558,
      "KedarRange": 6559,
      "Literacy": 6560,
      "▁web": 6561,
      "▁प्रचल": 6562,
      "▁अधिकार": 6563,
      "गला": 6564,
      "Kalash": 6565,
      "अरुणाचल": 6566,
      "parame": 6567,
      "गङ्ग": 6568,
      "शु": 6569,
      "दर्श": 6570,
      "स्तम्भ": 6571,
      "स्तम्भः": 6572,
      "▁inte": 6573,
      "gration": 6574,
      "economictimes": 6575,
      "sai": 6576,
      "न्यायाधीश": 6577,
      "Gangetic": 6578,
      "Sy": 6579,
      "▁आन्दोलन": 6580,
      "गांधी": 6581,
      "▁well": 6582,
      "204": 6583,
      "ऑक्स": 6584,
      "तै": 6585,
      "▁colleges": 6586,
      "Seven": 6587,
      "orne": 6588,
      "HD": 6589,
      "▁Art": 6590,
      "ently": 6591,
      "विंश": 6592,
      "विंशति": 6593,
      "1993": 6594,
      "▁small": 6595,
      "▁prin": 6596,
      "இந": 6597,
      "இந்": 6598,
      "இந்த": 6599,
      "இந்தி": 6600,
      "இந்திய": 6601,
      "இந்தியா": 6602,
      "Witzel": 6603,
      "तुळ": 6604,
      "तुळु": 6605,
      "Harvard": 6606,
      "यिक": 6607,
      "▁policy": 6608,
      "Vij": 6609,
      "Vijayan": 6610,
      "Vijayanag": 6611,
      "Vijayanagara": 6612,
      "▁player": 6613,
      "wn": 6614,
      "కళ": 6615,
      "▁घाटी": 6616,
      "ustice": 6617,
      "పూర్": 6618,
      "Greek": 6619,
      "िता": 6620,
      "Ban": 6621,
      "सिङ्गा": 6622,
      "▁हाला": 6623,
      "ष्प": 6624,
      "्यूरो": 6625,
      "ink": 6626,
      "ES": 6627,
      "▁Educ": 6628,
      "वार्ता": 6629,
      "▁दोनों": 6630,
      "रूस": 6631,
      "ell": 6632,
      "economy": 6633,
      "fer": 6634,
      "भाषी": 6635,
      "शिला": 6636,
      "वहारिक": 6637,
      "जम्बु": 6638,
      "▁deve": 6639,
      "▁developed": 6640,
      "20221": 6641,
      "चालन": 6642,
      "▁According": 6643,
      "▁सर्वोच्च": 6644,
      "▁str": 6645,
      "aci": 6646,
      "▁common": 6647,
      "जप": 6648,
      "सर्प": 6649,
      "elta": 6650,
      "▁गठ": 6651,
      "325": 6652,
      "▁nation": 6653,
      "వార": 6654,
      "रोप": 6655,
      "कै": 6656,
      "बुन्": 6657,
      "बुन्दे": 6658,
      "बुन्देल": 6659,
      "abour": 6660,
      "అస్సా": 6661,
      "సిక్": 6662,
      "वाक": 6663,
      "वाक्यम्": 6664,
      "मानुष": 6665,
      "oms": 6666,
      "mand": 6667,
      "▁po": 6668,
      "195": 6669,
      "▁68": 6670,
      "▁eat": 6671,
      "▁eaten": 6672,
      "dog": 6673,
      "ena": 6674,
      "Turkey": 6675,
      "▁historical": 6676,
      "दं": 6677,
      "jarati": 6678,
      "infob": 6679,
      "infobox": 6680,
      "Mong": 6681,
      "▁pur": 6682,
      "olad": 6683,
      "Mahab": 6684,
      "Mahabharata": 6685,
      "▁chi": 6686,
      "Oj": 6687,
      "Ojha": 6688,
      "▁Journal": 6689,
      "చె": 6690,
      "గఢ్": 6691,
      "Sundarbans": 6692,
      "BharatVar": 6693,
      "BharatVarsh": 6694,
      "▁ఇది": 6695,
      "గుజరాత్": 6696,
      "▁వంశ": 6697,
      "▁వంశం": 6698,
      "राजवंश": 6699,
      "German": 6700,
      "410": 6701,
      "सर्वदेशीय": 6702,
      "सर्वदेशीयमुद्र": 6703,
      "सर्वदेशीयमुद्रान": 6704,
      "सर्वदेशीयमुद्रानि": 6705,
      "सर्वदेशीयमुद्रानिधिः": 6706,
      "rum": 6707,
      "चार्य": 6708,
      "ीत्या": 6709,
      "lands": 6710,
      "▁नौ": 6711,
      "▁नौसेना": 6712,
      "▁दिल्ली": 6713,
      "▁बने": 6714,
      "कलि": 6715,
      "मीरा": 6716,
      "मीरात": 6717,
      "vert": 6718,
      "▁families": 6719,
      "292": 6720,
      "गति": 6721,
      "यष्ट": 6722,
      "ंपरा": 6723,
      "మన": 6724,
      "though": 6725,
      "▁రాజకీయ": 6726,
      "600": 6727,
      "▁so": 6728,
      "▁२०२": 6729,
      "Rajya": 6730,
      "ద్దు": 6731,
      "oram": 6732,
      "भूट": 6733,
      "भूटान": 6734,
      "▁Time": 6735,
      "went": 6736,
      "नाना": 6737,
      "ethnologue": 6738,
      "▁sultanate": 6739,
      "▁air": 6740,
      "485": 6741,
      "▁१३": 6742,
      "ghalaya": 6743,
      "चम्": 6744,
      "lar": 6745,
      "184": 6746,
      "अंड": 6747,
      "తెలుగు": 6748,
      "ਭਾ": 6749,
      "ਭਾਰ": 6750,
      "ਭਾਰਤ": 6751,
      "అరు": 6752,
      "అరుణా": 6753,
      "అరుణాచల్": 6754,
      "పద": 6755,
      "culture": 6756,
      "Agni": 6757,
      "▁మార్గాలు": 6758,
      "IA": 6759,
      "chae": 6760,
      "▁do": 6761,
      "ভা": 6762,
      "ভার": 6763,
      "ভারত": 6764,
      "hdr": 6765,
      "శో": 6766,
      "▁Schedule": 6767,
      "topo": 6768,
      "▁लिखित": 6769,
      "दम्": 6770,
      "566": 6771,
      "మహార": 6772,
      "మహారా": 6773,
      "మహారాష్ట్ర": 6774,
      "जाल": 6775,
      "योगः": 6776,
      "uns": 6777,
      "యో": 6778,
      "కర్ణా": 6779,
      "కర్ణాటక": 6780,
      "ortality": 6781,
      "pujan": 6782,
      "ग्व": 6783,
      "▁सङ्": 6784,
      "▁सङ्घ": 6785,
      "groups": 6786,
      "276": 6787,
      "▁Dyson": 6788,
      "▁జరి": 6789,
      "▁deci": 6790,
      "▁सार": 6791,
      "neworld": 6792,
      "Chenn": 6793,
      "Chennai": 6794,
      "▁२००": 6795,
      "तन्त्रम्": 6796,
      "Eastern": 6797,
      "487": 6798,
      "Viet": 6799,
      "Vietnam": 6800,
      "మేషన్": 6801,
      "▁Mah": 6802,
      "परेश": 6803,
      "परेशन": 6804,
      "अह": 6805,
      "अहम": 6806,
      "▁Report": 6807,
      "▁cap": 6808,
      "टो": 6809,
      "▁legisl": 6810,
      "indicator": 6811,
      "బెంగా": 6812,
      "▁local": 6813,
      "lows": 6814,
      "ible": 6815,
      "िणी": 6816,
      "खात": 6817,
      "annada": 6818,
      "▁80": 6819,
      "निर्": 6820,
      "ज्ये": 6821,
      "ज्येष्ठ": 6822,
      "laci": 6823,
      "Emblem": 6824,
      "302": 6825,
      "आम्र": 6826,
      "dire": 6827,
      "బెట్": 6828,
      "వర": 6829,
      "कावे": 6830,
      "कावेरी": 6831,
      "గం": 6832,
      "1000": 6833,
      "ఖండ్": 6834,
      "Obama": 6835,
      "▁जलवायु": 6836,
      "▁popular": 6837,
      "पार्": 6838,
      "let": 6839,
      "ालर": 6840,
      "▁Singh": 6841,
      "सभ": 6842,
      "బీహ": 6843,
      "బీహార్": 6844,
      "Ab": 6845,
      "लित": 6846,
      "लाञ्छ": 6847,
      "lé": 6848,
      "lément": 6849,
      "lémentin": 6850,
      "▁सागर": 6851,
      "Democracy": 6852,
      "VID": 6853,
      "Phili": 6854,
      "Philipp": 6855,
      "Philippines": 6856,
      "स्थाप": 6857,
      "ids": 6858,
      ";[[": 6859,
      "Himalay": 6860,
      "ealand": 6861,
      "Sun": 6862,
      "▁तेन": 6863,
      "▁across": 6864,
      "भर": 6865,
      "▁consid": 6866,
      "मानः": 6867,
      "▁चतुर्": 6868,
      "Administrative": 6869,
      "भाजपा": 6870,
      "▁Ram": 6871,
      "ेऽ": 6872,
      "\")*,": 6873,
      "Varanasig": 6874,
      "Varanasiganga": 6875,
      "ially": 6876,
      "tempor": 6877,
      "temporary": 6878,
      "esp": 6879,
      "itchi": 6880,
      "itchison": 6881,
      "▁siz": 6882,
      "सोमा": 6883,
      "▁about": 6884,
      "Cons": 6885,
      "Maha": 6886,
      "ension": 6887,
      "tification": 6888,
      "1977": 6889,
      "్రూ": 6890,
      "▁Home": 6891,
      "▁1980": 6892,
      "डोल्": 6893,
      "डोल्फ": 6894,
      "काळि": 6895,
      "▁విస్త": 6896,
      "ंदोलन": 6897,
      "402": 6898,
      "▁Te": 6899,
      "▁अभ": 6900,
      "▁ग्र": 6901,
      "Calc": 6902,
      "Calcutta": 6903,
      "Saudi": 6904,
      "Christianity": 6905,
      "ప్ప": 6906,
      "िष": 6907,
      "▁निर": 6908,
      "शोधनम्": 6909,
      "area": 6910,
      "Nataraja": 6911,
      "▁Movement": 6912,
      "దినో": 6913,
      "దినోత్స": 6914,
      "దినోత్సవం": 6915,
      "ालै": 6916,
      "१६": 6917,
      "Barack": 6918,
      "▁प्रती": 6919,
      "ूबर": 6920,
      "▁uni": 6921,
      "Sanchi": 6922,
      "▁వాతావరణం": 6923,
      "गस्": 6924,
      "Plum": 6925,
      "Plumage": 6926,
      "▁Mon": 6927,
      "श्याम": 6928,
      "वळि": 6929,
      "▁प्": 6930,
      "▁प्लेट": 6931,
      "cts": 6932,
      "पुरम": 6933,
      "ళి": 6934,
      "If": 6935,
      "वृक्षः": 6936,
      "कों": 6937,
      "कोंक": 6938,
      "कोंकण": 6939,
      "ogo": 6940,
      "142": 6941,
      "Bigtemple": 6942,
      "▁See": 6943,
      "గ్": 6944,
      "ervice": 6945,
      "१४": 6946,
      "▁domestic": 6947,
      "ultures": 6948,
      "▁गांधी": 6949,
      "▁अद्": 6950,
      "న్నో": 6951,
      "▁१८": 6952,
      "global": 6953,
      "Ahmedabad": 6954,
      "▁శతాబ్దం": 6955,
      "touchability": 6956,
      "Australian": 6957,
      "ically": 6958,
      "▁Modi": 6959,
      "Peac": 6960,
      "Peacock": 6961,
      "డే": 6962,
      "420": 6963,
      "Shankar": 6964,
      "Lok": 6965,
      "▁Organisation": 6966,
      "ंसा": 6967,
      "कनिष्ठ": 6968,
      "Tibetan": 6969,
      "289": 6970,
      "बेङ्ग": 6971,
      "बेङ्गळ": 6972,
      "बेङ्गळू": 6973,
      "बेङ्गळूरु": 6974,
      "▁▁▁▁": 6975,
      "oka": 6976,
      "acher": 6977,
      "ఆగ": 6978,
      "itor": 6979,
      "సింధు": 6980,
      "्ना": 6981,
      "म्न": 6982,
      "शासनम्": 6983,
      "missing": 6984,
      "crimin": 6985,
      "वेदा": 6986,
      "वेदान्त": 6987,
      "पातकाल": 6988,
      "forest": 6989,
      "PT": 6990,
      "wait": 6991,
      "▁राजनीतिक": 6992,
      "By": 6993,
      "mon": 6994,
      "सनातन": 6995,
      "uscript": 6996,
      "ంతం": 6997,
      "uin": 6998,
      "Mohenjo": 6999,
      "जयपुर": 7000,
      "281": 7001,
      "uran": 7002,
      "post": 7003,
      "ek": 7004,
      "दूर": 7005,
      "महो": 7006,
      "महोद": 7007,
      "महोदयः": 7008,
      "▁deb": 7009,
      "టం": 7010,
      "मिजोर": 7011,
      "मिजोरम": 7012,
      "Sant": 7013,
      "మాల్దీవుల": 7014,
      "▁ज़": 7015,
      "بھ": 7016,
      "بھا": 7017,
      "بھار": 7018,
      "بھارت": 7019,
      "olas": 7020,
      "traditional": 7021,
      "▁विधा": 7022,
      "▁शुरू": 7023,
      "Madras": 7024,
      "नन्दा": 7025,
      "मन्दिरम्": 7026,
      "▁పర": 7027,
      "▁others": 7028,
      "Demon": 7029,
      "elug": 7030,
      "elugu": 7031,
      "▁any": 7032,
      "Minister": 7033,
      "ground": 7034,
      "▁वृद्ध": 7035,
      "▁वृद्धि": 7036,
      "तिक": 7037,
      "Cinema": 7038,
      "▁highest": 7039,
      "istic": 7040,
      "Bri": 7041,
      "जगदी": 7042,
      "▁times": 7043,
      "▁सौ": 7044,
      "topic": 7045,
      "Park": 7046,
      "ishes": 7047,
      "िरा": 7048,
      "वङ्ग": 7049,
      "▁भरत": 7050,
      "५७": 7051,
      "फ्रांस": 7052,
      "▁Ne": 7053,
      "tar": 7054,
      "▁तटीय": 7055,
      "▁Schwartzberg": 7056,
      "formation": 7057,
      "▁Sea": 7058,
      "ुरा": 7059,
      "houses": 7060,
      "34549": 7061,
      "erves": 7062,
      "anies": 7063,
      "aph": 7064,
      "ार्मिक": 7065,
      "both": 7066,
      "igni": 7067,
      "ignific": 7068,
      "▁festival": 7069,
      "239": 7070,
      "हरियाणा": 7071,
      "▁plate": 7072,
      "तुल्य": 7073,
      "▁\\": 7074,
      "usical": 7075,
      "कन्द": 7076,
      "कन्दुक": 7077,
      "171": 7078,
      "दर": 7079,
      "▁ముఖ్య": 7080,
      "bas": 7081,
      "▁sim": 7082,
      "▁simil": 7083,
      "▁similar": 7084,
      "▁divisions": 7085,
      "Finance": 7086,
      "ott": 7087,
      "▁char": 7088,
      "▁around": 7089,
      "धू": 7090,
      "वास्तु": 7091,
      "▁मन्द": 7092,
      "▁मन्दिर": 7093,
      "▁heredit": 7094,
      "Make": 7095,
      "▁पहुँच": 7096,
      "liefs": 7097,
      "హు": 7098,
      "▁Sikh": 7099,
      "ిస్త": 7100,
      "1962": 7101,
      "▁Emirates": 7102,
      "Class": 7103,
      "▁प्रकार": 7104,
      "▁dances": 7105,
      "▁bread": 7106,
      "▁nuclear": 7107,
      "▁Cup": 7108,
      "▁ध्य": 7109,
      "Muslim": 7110,
      "authorities": 7111,
      "pts": 7112,
      "hat": 7113,
      "ఇంగ్లీ": 7114,
      "urther": 7115,
      "▁rit": 7116,
      "200853": 7117,
      "Authority": 7118,
      "1007": 7119,
      "▁party": 7120,
      "Rediff": 7121,
      "▁arts": 7122,
      "poration": 7123,
      "Exchange": 7124,
      "विक": 7125,
      "218": 7126,
      "▁ब्": 7127,
      "amic": 7128,
      "ooking": 7129,
      "Plofker": 7130,
      "▁मोदी": 7131,
      "angla": 7132,
      "▁ప్రజ": 7133,
      "Britannica": 7134,
      "pc": 7135,
      "Nass": 7136,
      "atch": 7137,
      "▁Ghats": 7138,
      "▁sec": 7139,
      "उद्यान": 7140,
      "Eighth": 7141,
      "apro": 7142,
      "aproban": 7143,
      "aprobanis": 7144,
      "heet": 7145,
      "▁Cather": 7146,
      "▁Catherine": 7147,
      "राजनीति": 7148,
      "▁१९९": 7149,
      "elated": 7150,
      "006": 7151,
      "▁support": 7152,
      "1857": 7153,
      "atistics": 7154,
      "माजिक": 7155,
      "హ్మ": 7156,
      "value": 7157,
      "Enforcement": 7158,
      "ush": 7159,
      "puri": 7160,
      "▁won": 7161,
      "323": 7162,
      "▁op": 7163,
      "▁Exchange": 7164,
      "निय": 7165,
      "date": 7166,
      "▁1991": 7167,
      "293": 7168,
      ".-": 7169,
      "getarian": 7170,
      "agarwal": 7171,
      "त्न": 7172,
      "नृत्य": 7173,
      "das": 7174,
      "▁घोष": 7175,
      "लब्ध": 7176,
      "achin": 7177,
      "▁continu": 7178,
      "408": 7179,
      "▁మొత్": 7180,
      "▁మొత్తం": 7181,
      "sar": 7182,
      "December": 7183,
      "title": 7184,
      "Army": 7185,
      "▁built": 7186,
      "272": 7187,
      "els": 7188,
      "urrency": 7189,
      "Maurya": 7190,
      "▁Emergency": 7191,
      "565": 7192,
      "▁२४": 7193,
      "house": 7194,
      "ountain": 7195,
      "ædia": 7196,
      "▁ऊर्जा": 7197,
      "south": 7198,
      "▁Me": 7199,
      "ramaniam": 7200,
      "▁[...]": 7201,
      "पत्त": 7202,
      "▁Barb": 7203,
      "▁Hindust": 7204,
      "ందిన": 7205,
      "कला": 7206,
      "కారం": 7207,
      "Haryana": 7208,
      "LCCN": 7209,
      "Def": 7210,
      "ridangam": 7211,
      "▁व्यापार": 7212,
      "▁परमाणु": 7213,
      "▁बे": 7214,
      "▁Century": 7215,
      "▁साम": 7216,
      "lackwell": 7217,
      "France": 7218,
      "▁bas": 7219,
      "oday": 7220,
      "▁school": 7221,
      "▁प्रमाण": 7222,
      "▁Security": 7223,
      "2010118": 7224,
      "▁II": 7225,
      "ూరు": 7226,
      "▁कम": 7227,
      "Sac": 7228,
      "Sacred": 7229,
      "miling": 7230,
      "bett": 7231,
      "AgAAQBAJ": 7232,
      "uff": 7233,
      "NGDP": 7234,
      "▁forms": 7235,
      "▁जग": 7236,
      "▁विभाग": 7237,
      "▁subject": 7238,
      "▁बड़ी": 7239,
      "▁సాం": 7240,
      "oge": 7241,
      "▁खा": 7242,
      "rested": 7243,
      "▁बनी": 7244,
      "Aksai": 7245,
      "rees": 7246,
      "▁प्रतिशत": 7247,
      "sts": 7248,
      "▁రవాణా": 7249,
      "ynag": 7250,
      "ynagogue": 7251,
      "▁छा": 7252,
      "▁literacy": 7253,
      "ungabh": 7254,
      "ungabhadra": 7255,
      "▁Association": 7256,
      "FOOTNOTEMinistry": 7257,
      "modern": 7258,
      "Miss": 7259,
      "ws": 7260,
      "▁रू": 7261,
      "lectricity": 7262,
      "पुराण": 7263,
      "▁వే": 7264,
      "గంగా": 7265,
      "ohan": 7266,
      "▁शाखा": 7267,
      "▁<": 7268,
      "▁హిందూ": 7269,
      "आइ": 7270,
      "ర్లు": 7271,
      "Droup": 7272,
      "Droupadi": 7273,
      "▁science": 7274,
      "శ్ర": 7275,
      "Gilbert": 7276,
      "nathura": 7277,
      "nathurai": 7278,
      "▁सितं": 7279,
      "▁सितंबर": 7280,
      "Supreme": 7281,
      "documents": 7282,
      "▁क्रम": 7283,
      "प्रधानमंत्री": 7284,
      "युग": 7285,
      "▁रहे": 7286,
      "zed": 7287,
      "1093": 7288,
      "FOOTNOTEWright": 7289,
      "▁X": 7290,
      "uck": 7291,
      "▁today": 7292,
      "ंच": 7293,
      "▁ఏర్": 7294,
      "▁low": 7295,
      "▁గాంధీ": 7296,
      "eded": 7297,
      "▁win": 7298,
      "विकि": 7299,
      "akshis": 7300,
      "▁sur": 7301,
      "▁however": 7302,
      "1990243": 7303,
      "ghat": 7304,
      "DD": 7305,
      "perc": 7306,
      "▁1949": 7307,
      "▁Mana": 7308,
      "జనాభా": 7309,
      "lease": 7310,
      "▁poli": 7311,
      "ంపె": 7312,
      "ంపెనీ": 7313,
      "Dance": 7314,
      "▁భారత్": 7315,
      "▁डॉल": 7316,
      "▁डॉलर": 7317,
      "School": 7318,
      "▁leader": 7319,
      "▁विस्तार": 7320,
      "edicine": 7321,
      "▁Bengali": 7322,
      "▁coral": 7323,
      "andemic": 7324,
      "▁गठबंधन": 7325,
      "Express": 7326,
      "హర్": 7327,
      "▁प्रारम्भ": 7328,
      "roti": 7329,
      "रोपीय": 7330,
      "gi": 7331,
      "AQAAQBAJ": 7332,
      "225": 7333,
      "NCLM50": 7334,
      "NCLM50thReport": 7335,
      "Navy": 7336,
      "gadi": 7337,
      "gadiverse": 7338,
      "▁కాలం": 7339,
      "Peers": 7340,
      "PK": 7341,
      "304": 7342,
      "Sport": 7343,
      "▁series": 7344,
      "▁Pal": 7345,
      "▁parties": 7346,
      "▁very": 7347,
      "▁approximately": 7348,
      "▁producer": 7349,
      "▁Food": 7350,
      "▁रो": 7351,
      "Chhattisgarh": 7352,
      "pel": 7353,
      "igns": 7354,
      "Jan": 7355,
      "jolad": 7356,
      "▁anim": 7357,
      "otel": 7358,
      "▁birth": 7359,
      "Mahar": 7360,
      "Maharashtra": 7361,
      "▁चार": 7362,
      "▁pen": 7363,
      "▁penins": 7364,
      "adav": 7365,
      "adavoor": 7366,
      "▁SCO": 7367,
      "ollege": 7368,
      "▁पै": 7369,
      "▁notation": 7370,
      "▁being": 7371,
      "Copland": 7372,
      "206": 7373,
      "Macmillan": 7374,
      "▁Thomas": 7375,
      "Dalit": 7376,
      "▁నే": 7377,
      "\")—": 7378,
      "da": 7379,
      "▁courts": 7380,
      "▁वे": 7381,
      "▁तीर्थ": 7382,
      "Saltw": 7383,
      "Saltwater": 7384,
      "AAAAMAAJ": 7385,
      "▁सहयोग": 7386,
      "political": 7387,
      "▁Some": 7388,
      "▁met": 7389,
      "Geography": 7390,
      "రిహద్దు": 7391,
      "Mizoram": 7392,
      "161": 7393,
      "Mon": 7394,
      "uments": 7395,
      "Ph": 7396,
      "358": 7397,
      "wenty": 7398,
      "bel": 7399,
      "bellion": 7400,
      "ధి": 7401,
      "Thali": 7402,
      "Meghalaya": 7403,
      "▁pri": 7404,
      "Alla": 7405,
      "▁pred": 7406,
      "vidence": 7407,
      "उत्पाद": 7408,
      "rajbhasha": 7409,
      "▁above": 7410,
      "Trade": 7411,
      "romed": 7412,
      "romedary": 7413,
      "▁ఆఫ్": 7414,
      "▁विक": 7415,
      "thehindu": 7416,
      "रीक्ष": 7417,
      "रीक्षण": 7418,
      "स्ता": 7419,
      "growth": 7420,
      "Ap": 7421,
      "titute": 7422,
      "▁गए": 7423,
      "Su": 7424,
      "Madhya": 7425,
      "minis": 7426,
      "ministered": 7427,
      "▁Civilisation": 7428,
      "defa": 7429,
      "default": 7430,
      "rocodile": 7431,
      "తరం": 7432,
      "ీస్": 7433,
      "▁मील": 7434,
      "363": 7435,
      "సె": 7436,
      "Poverty": 7437,
      "▁అత్యధిక": 7438,
      "IND": 7439,
      "▁Age": 7440,
      "urmu": 7441,
      "Hy": 7442,
      "Ladakh": 7443,
      "imf2": 7444,
      "▁y": 7445,
      "▁जिसके": 7446,
      "▁enti": 7447,
      "▁entire": 7448,
      "▁अपना": 7449,
      "शस्त्र": 7450,
      "pli": 7451,
      "urned": 7452,
      "హాయ": 7453,
      "ऑपरेशन": 7454,
      "वेली": 7455,
      "पत्": 7456,
      "orse": 7457,
      "▁ful": 7458,
      "शिक्षा": 7459,
      "न्ह": 7460,
      "వర్గంఃWikipedia": 7461,
      "▁topics": 7462,
      "ochi": 7463,
      "usion": 7464,
      "Architecture": 7465,
      "▁वायु": 7466,
      "CITEREFDikshitSchwartzberg": 7467,
      "8f": 7468,
      "newsite": 7469,
      "ause": 7470,
      "nami": 7471,
      "▁పాకి": 7472,
      "▁traditions": 7473,
      "150": 7474,
      "517": 7475,
      "ప్రాంతాలు": 7476,
      "తీ": 7477,
      "▁विवाद": 7478,
      "319": 7479,
      "unbird": 7480,
      "FOOTNOTEBlurton": 7481,
      "▁practices": 7482,
      "ॉकी": 7483,
      "▁कर्ज": 7484,
      "▁ఎక్కువ": 7485,
      "▁plain": 7486,
      "▁Bangladesh": 7487,
      "urs": 7488,
      "341": 7489,
      "▁ऊँच": 7490,
      "▁Studies": 7491,
      "JS": 7492,
      "Tourism": 7493,
      "ౌక": 7494,
      "lines": 7495,
      "allalli": 7496,
      "jp": 7497,
      "▁जाते": 7498,
      "ias": 7499,
      "▁institu": 7500,
      "cir": 7501,
      "▁x": 7502,
      "▁coast": 7503,
      "▁go": 7504,
      "▁shar": 7505,
      "Battle": 7506,
      "▁confl": 7507,
      "Ali": 7508,
      "▁size": 7509,
      "Ele": 7510,
      "Have": 7511,
      "Robb": 7512,
      "▁provid": 7513,
      "Ravi": 7514,
      "▁परंपरा": 7515,
      "▁spread": 7516,
      "▁Amb": 7517,
      "ttac": 7518,
      "ttacus": 7519,
      "19943": 7520,
      "ब्ल": 7521,
      "▁ఫ": 7522,
      "ल्तन": 7523,
      "ल्तनत": 7524,
      "angrove": 7525,
      "223": 7526,
      "▁members": 7527,
      "▁cricket": 7528,
      "Search": 7529,
      "tives": 7530,
      "sources": 7531,
      "స్తుత": 7532,
      "eagle": 7533,
      "ఖ్": 7534,
      "Insurance": 7535,
      "▁సాధ": 7536,
      "▁प्रणाली": 7537,
      "సిక్కు": 7538,
      "Industrial": 7539,
      "▁कृ": 7540,
      "▁2000": 7541,
      "▁जबकि": 7542,
      "ilgir": 7543,
      "ilgiris": 7544,
      "inde": 7545,
      "independ": 7546,
      "▁Intelligence": 7547,
      "▁regional": 7548,
      "erce": 7549,
      "▁Gana": 7550,
      "▁अपनी": 7551,
      "▁संख्या": 7552,
      "sey": 7553,
      "ravan": 7554,
      "ravanabel": 7555,
      "ravanabelag": 7556,
      "ravanabelagola": 7557,
      "east": 7558,
      "पूर्": 7559,
      "▁Council": 7560,
      "ado": 7561,
      "▁समूह": 7562,
      "▁ఎన్నో": 7563,
      "etwork": 7564,
      "ँकि": 7565,
      "తే": 7566,
      "hyan": 7567,
      "andy": 7568,
      "monsoon": 7569,
      "policy": 7570,
      "▁70": 7571,
      "rofile": 7572,
      "▁may": 7573,
      "▁పె": 7574,
      "▁పెద్ద": 7575,
      "Carnatic": 7576,
      "river": 7577,
      "MD": 7578,
      "▁dispute": 7579,
      "resid": 7580,
      "టుంబ": 7581,
      "▁humans": 7582,
      "EN": 7583,
      "hoti": 7584,
      "విశ్": 7585,
      "▁विदेशी": 7586,
      "▁Caves": 7587,
      "Fundamental": 7588,
      "आपातकाल": 7589,
      "मोहन": 7590,
      "మతం": 7591,
      "▁ter": 7592,
      "relid": 7593,
      "హిమాలయాల": 7594,
      "सैनिक": 7595,
      "enguin": 7596,
      "authority": 7597,
      "▁clo": 7598,
      "हिंसा": 7599,
      "Encyclopae": 7600,
      "Encyclopaedia": 7601,
      "idyana": 7602,
      "idyanathan": 7603,
      "otechnology": 7604,
      "den": 7605,
      "▁peoples": 7606,
      "maint": 7607,
      "గర్": 7608,
      "Broadcasting": 7609,
      "▁endangered": 7610,
      "▁Non": 7611,
      "tely": 7612,
      "Bengali": 7613,
      "▁defe": 7614,
      "Tripura": 7615,
      "nold": 7616,
      "til": 7617,
      "mc": 7618,
      "एवं": 7619,
      "1995": 7620,
      "market": 7621,
      "Telangana": 7622,
      "Bhutes": 7623,
      "Bhutesvara": 7624,
      "\n\n▁▁▁▁": 7625,
      "▁cultural": 7626,
      "CITEREFRobb": 7627,
      "ummary": 7628,
      "▁नृत्य": 7629,
      "టో": 7630,
      "383": 7631,
      "enced": 7632,
      "Forests": 7633,
      "१८५७": 7634,
      "▁సు": 7635,
      "ऊर्जा": 7636,
      "870": 7637,
      "olid": 7638,
      "assan": 7639,
      "Karanth": 7640,
      "▁rul": 7641,
      "▁రో": 7642,
      "▁Karnataka": 7643,
      "कार्य": 7644,
      "zard": 7645,
      "Ocean": 7646,
      "పార్": 7647,
      "▁Le": 7648,
      "▁185": 7649,
      "anced": 7650,
      "Dutt": 7651,
      "Duttaph": 7652,
      "Duttaphry": 7653,
      "Duttaphrynus": 7654,
      "▁signific": 7655,
      "FOOTNOTEP": 7656,
      "లమె": 7657,
      "ula": 7658,
      "359": 7659,
      "దేశం": 7660,
      "ोत्तर": 7661,
      "▁దేశాలు": 7662,
      "▁earliest": 7663,
      "FOOTNOTEDyson": 7664,
      "thomason": 7665,
      "▁inequality": 7666,
      "thme": 7667,
      "thmetic": 7668,
      "▁స్వాతంత్ర్య": 7669,
      "▁इसी": 7670,
      "▁निय": 7671,
      "acter": 7672,
      "TS": 7673,
      "र्त": 7674,
      "र्तग": 7675,
      "र्तगाल": 7676,
      "▁అనే": 7677,
      "▁growing": 7678,
      "▁adopted": 7679,
      "Yarlung": 7680,
      "Day": 7681,
      "వర్గం": 7682,
      "▁బహు": 7683,
      "▁वर्ण": 7684,
      "शक्त": 7685,
      "ిస్తారు": 7686,
      "A8": 7687,
      "▁grad": 7688,
      "रेन्द्र": 7689,
      "Classical": 7690,
      "Ke": 7691,
      "eling": 7692,
      "Nav": 7693,
      "329": 7694,
      "259": 7695,
      "tropical": 7696,
      "465": 7697,
      "▁बैंक": 7698,
      "▁Dec": 7699,
      "▁అధికారిక": 7700,
      "वाँ": 7701,
      "▁much": 7702,
      "नो": 7703,
      "నేష": 7704,
      "నేషన": 7705,
      "నేషనల్": 7706,
      "▁further": 7707,
      "189": 7708,
      "▁pilgrim": 7709,
      "ronze": 7710,
      "ought": 7711,
      "▁Nat": 7712,
      "mt": 7713,
      "▁hand": 7714,
      "414": 7715,
      "▁जे": 7716,
      "▁appe": 7717,
      "486": 7718,
      "तं": 7719,
      "▁Publishers": 7720,
      "▁Princ": 7721,
      "▁Princeton": 7722,
      "▁governments": 7723,
      "AB": 7724,
      "undamental": 7725,
      "ाचार": 7726,
      "tudy": 7727,
      "▁नीति": 7728,
      "rise": 7729,
      "संगीत": 7730,
      "LO": 7731,
      "vest": 7732,
      "ృద్ధి": 7733,
      "▁తరువాత": 7734,
      "emor": 7735,
      "ticip": 7736,
      "abin": 7737,
      "abinet": 7738,
      "hie": 7739,
      "Pallava": 7740,
      "wards": 7741,
      "▁अमेरिका": 7742,
      "స్త్రీయ": 7743,
      "source": 7744,
      "▁सां": 7745,
      "चन्द्र": 7746,
      "▁State": 7747,
      "155": 7748,
      "uccessful": 7749,
      "हरु": 7750,
      "▁पत्": 7751,
      "गणतंत्र": 7752,
      "Palace": 7753,
      "▁धीरे": 7754,
      "स्ल": 7755,
      "स्लिम": 7756,
      "సమాఖ్య": 7757,
      "228": 7758,
      "▁just": 7759,
      "Coastal": 7760,
      "▁directly": 7761,
      "322": 7762,
      "त्री": 7763,
      "224": 7764,
      "▁six": 7765,
      "నియా": 7766,
      "dispu": 7767,
      "▁३२": 7768,
      "Art": 7769,
      "olonial": 7770,
      "ఇస్లా": 7771,
      "▁dependent": 7772,
      "Kingdom": 7773,
      "ffec": 7774,
      "▁ज्ञा": 7775,
      "asu": 7776,
      "▁result": 7777,
      "▁European": 7778,
      "sci": 7779,
      "संस्कृति": 7780,
      "ంటుంది": 7781,
      "वर्ल्": 7782,
      "वर्ल्ड": 7783,
      "ंजन": 7784,
      "▁बहुमत": 7785,
      "technology": 7786,
      "▁own": 7787,
      "▁मंत्र": 7788,
      "▁Chin": 7789,
      "▁न्यू": 7790,
      "1011": 7791,
      "IAF": 7792,
      "336": 7793,
      "Ci": 7794,
      "Dictionary": 7795,
      "▁ప్రకారం": 7796,
      "▁वार्": 7797,
      "▁वार्ष": 7798,
      "▁वार्षिक": 7799,
      "sing": 7800,
      "Defence": 7801,
      "Machine": 7802,
      "फिक": 7803,
      "ND": 7804,
      "▁ens": 7805,
      "gir": 7806,
      "▁Bureau": 7807,
      "andbook": 7808,
      "earning": 7809,
      "▁చిన్న": 7810,
      "▁२२": 7811,
      "▁inf": 7812,
      "tici": 7813,
      "ticide": 7814,
      "Commissioner": 7815,
      "Roy": 7816,
      "ota": 7817,
      "▁mountains": 7818,
      "▁ric": 7819,
      "mod": 7820,
      "संविधान": 7821,
      "दमन": 7822,
      "▁leading": 7823,
      "Pan": 7824,
      "मान्य": 7825,
      "illia": 7826,
      "illiam": 7827,
      "▁शांति": 7828,
      "वरण": 7829,
      "अफ़": 7830,
      "बद्ध": 7831,
      "bh": 7832,
      "params": 7833,
      "▁List": 7834,
      "ముద్రం": 7835,
      "▁Ludden": 7836,
      "▁పట్టణ": 7837,
      "Pre": 7838,
      "స్య": 7839,
      "ritical": 7840,
      "▁ता": 7841,
      "pubmed": 7842,
      "▁కాలంలో": 7843,
      "vestig": 7844,
      "vestigation": 7845,
      "ficient": 7846,
      "pati": 7847,
      "ads": 7848,
      "Pala": 7849,
      "नाइ": 7850,
      "नाइटे": 7851,
      "नाइटेड": 7852,
      "ేర": 7853,
      "Mahat": 7854,
      "Mahatma": 7855,
      "ड़ीसा": 7856,
      "▁medieval": 7857,
      "▁समीप": 7858,
      "▁శాస్త్రం": 7859,
      "▁ప్రభుత్వం": 7860,
      "uborne": 7861,
      "▁मानव": 7862,
      "▁क्रांति": 7863,
      "ui": 7864,
      "Isra": 7865,
      "Israel": 7866,
      "▁(*": 7867,
      "▁భ": 7868,
      "తిక": 7869,
      "▁हिल": 7870,
      "पालिक": 7871,
      "He": 7872,
      "mith": 7873,
      "ussa": 7874,
      "ఆర్ధిక": 7875,
      "lackbuck": 7876,
      "ctions": 7877,
      "%,": 7878,
      "418": 7879,
      "నాలు": 7880,
      "▁ఏర్ప": 7881,
      "मानक": 7882,
      "वत": 7883,
      "cle": 7884,
      "మణి": 7885,
      "ucture": 7886,
      "చాళుక్య": 7887,
      "▁record": 7888,
      "IB": 7889,
      "909": 7890,
      "Lord": 7891,
      "So": 7892,
      "▁Mughal": 7893,
      "▁गुफा": 7894,
      "atabase": 7895,
      "दृ": 7896,
      "430": 7897,
      "EAS": 7898,
      "▁democracy": 7899,
      "▁आय": 7900,
      "▁Cynth": 7901,
      "▁Cynthia": 7902,
      "iscover": 7903,
      "▁వార": 7904,
      "▁వారస": 7905,
      "enter": 7906,
      "play": 7907,
      "rug": 7908,
      "ruggle": 7909,
      "▁भो": 7910,
      "యిన": 7911,
      "▁బె": 7912,
      "▁निक": 7913,
      "▁राजधानी": 7914,
      "▁40": 7915,
      "Traditional": 7916,
      "▁Party": 7917,
      "▁grew": 7918,
      "pace": 7919,
      "▁held": 7920,
      "Line": 7921,
      "party": 7922,
      "rea": 7923,
      "▁Americ": 7924,
      "314": 7925,
      "▁data": 7926,
      "▁ప్రాచ": 7927,
      "प्रकाश": 7928,
      "wan": 7929,
      "Nag": 7930,
      "న్నిక": 7931,
      "fast": 7932,
      "Southern": 7933,
      "inage": 7934,
      "684": 7935,
      "Kathakali": 7936,
      "etric": 7937,
      "తున్న": 7938,
      "▁Court": 7939,
      "lie": 7940,
      "ps": 7941,
      "▁paper": 7942,
      "Janata": 7943,
      "तिहास": 7944,
      "तिहासिक": 7945,
      "पोर्ट": 7946,
      "తై": 7947,
      "438": 7948,
      "▁influences": 7949,
      "lite": 7950,
      "Tandoor": 7951,
      "हिन्दुस्तान": 7952,
      "▁1200": 7953,
      "▁peninsular": 7954,
      "▁ste": 7955,
      "use": 7956,
      "हरा": 7957,
      "▁మతం": 7958,
      "bu": 7959,
      "Dunleavy": 7960,
      "రాఠ": 7961,
      "idget": 7962,
      "423": 7963,
      "Jana": 7964,
      "खि": 7965,
      "Maury": 7966,
      "Biosphere": 7967,
      "నుమ": 7968,
      "▁living": 7969,
      "▁lower": 7970,
      "डे": 7971,
      "who": 7972,
      "osition": 7973,
      "▁Although": 7974,
      "▁विद्यमान": 7975,
      "లిం": 7976,
      "పిక్": 7977,
      "▁domin": 7978,
      "ెలవు": 7979,
      "▁सुधार": 7980,
      "PS": 7981,
      "grave": 7982,
      "nia": 7983,
      "peoples": 7984,
      "ysical": 7985,
      "▁तुल": 7986,
      "యాళ": 7987,
      "कोण": 7988,
      "Operation": 7989,
      "▁President": 7990,
      "eph": 7991,
      "▁CITEREFKulkeRothermund2004": 7992,
      "constitution": 7993,
      "▁బా": 7994,
      "▁ప్రతి": 7995,
      "▁regard": 7996,
      "ज्ज": 7997,
      "▁iss": 7998,
      "▁వర్": 7999,
      "म्प": 8000,
      "▁पथ": 8001,
      "topics": 8002,
      "▁पहा": 8003,
      "नीय": 8004,
      "▁administrative": 8005,
      "इजरा": 8006,
      "172": 8007,
      "ca": 8008,
      "▁विस्तृत": 8009,
      "పాలన": 8010,
      "astes": 8011,
      "గుర్": 8012,
      "▁जीवन": 8013,
      "▁చెంద": 8014,
      "band": 8015,
      "desc": 8016,
      "vard": 8017,
      "245": 8018,
      "reement": 8019,
      "5261": 8020,
      "▁54": 8021,
      "188": 8022,
      "non": 8023,
      "▁गि": 8024,
      "▁Aust": 8025,
      "▁Austral": 8026,
      "▁astronom": 8027,
      "economics": 8028,
      "▁पुलिस": 8029,
      "lif": 8030,
      ")\").": 8031,
      "▁cor": 8032,
      "हते": 8033,
      "▁having": 8034,
      "factbook": 8035,
      "March": 8036,
      "▁southern": 8037,
      "▁500": 8038,
      "▁Commonwealth": 8039,
      "▁BJP": 8040,
      "ओड़": 8041,
      "ओड़ि": 8042,
      "ओड़िशा": 8043,
      "चेरी": 8044,
      "▁vers": 8045,
      "capita": 8046,
      "▁ऑफ": 8047,
      "Ra": 8048,
      "▁Bangalore": 8049,
      "Association": 8050,
      "▁sing": 8051,
      "గోళ": 8052,
      "▁Religion": 8053,
      "ఆంధ": 8054,
      "ఆంధ్ర": 8055,
      "▁vis": 8056,
      "amang": 8057,
      "जित": 8058,
      "सहाय": 8059,
      "ivision": 8060,
      "▁same": 8061,
      "▁band": 8062,
      "ర్టు": 8063,
      "శీ": 8064,
      "మై": 8065,
      "▁gar": 8066,
      "▁surr": 8067,
      "▁surround": 8068,
      "▁ब्रि": 8069,
      "▁ब्रिटिश": 8070,
      "▁वर्तमान": 8071,
      "▁दृष्ट": 8072,
      "262": 8073,
      "nder": 8074,
      "संग": 8075,
      "▁ద": 8076,
      "utri": 8077,
      "utrition": 8078,
      "Life": 8079,
      "▁उद्योग": 8080,
      "Field": 8081,
      "వందే": 8082,
      "బెంగాల్": 8083,
      "cricket": 8084,
      "▁लेकर": 8085,
      "uting": 8086,
      "మేఘ": 8087,
      "Reuters": 8088,
      "▁import": 8089,
      "▁ప్రము": 8090,
      "▁ప్రముఖ": 8091,
      "DNA": 8092,
      "374": 8093,
      "tiles": 8094,
      "▁టెక్నాలజీ": 8095,
      "మించ": 8096,
      "imple": 8097,
      "▁మన": 8098,
      "cely": 8099,
      "▁నాగరికత": 8100,
      "raval": 8101,
      "ravalli": 8102,
      "PA4": 8103,
      "▁Western": 8104,
      "▁उस": 8105,
      "घरेलू": 8106,
      "▁मौसम": 8107,
      "uted": 8108,
      "Territory": 8109,
      "AliA": 8110,
      "AliAitchison": 8111,
      "क्स्": 8112,
      "voyage": 8113,
      "erner": 8114,
      "▁pres": 8115,
      "▁अध": 8116,
      "rigonometry": 8117,
      "RIC": 8118,
      "wayback": 8119,
      "ume": 8120,
      "arlic": 8121,
      "▁empire": 8122,
      "yal": 8123,
      "Child": 8124,
      "315": 8125,
      "2755": 8126,
      "ల్వే": 8127,
      "343": 8128,
      "organ": 8129,
      "▁sett": 8130,
      "▁संगीत": 8131,
      "ూచ": 8132,
      "▁sc": 8133,
      "Prin": 8134,
      "▁अभियान": 8135,
      "edkar": 8136,
      "▁Islam": 8137,
      "Income": 8138,
      "oman": 8139,
      "Federal": 8140,
      "ब्लिक": 8141,
      "▁projec": 8142,
      "oration": 8143,
      "ीर": 8144,
      "CITEREFKulkeRothermund2004": 8145,
      "భారతీయుల": 8146,
      "▁सल्तनत": 8147,
      "370": 8148,
      "मण्डल": 8149,
      "▁78": 8150,
      "312": 8151,
      "▁सर्": 8152,
      "न्हे": 8153,
      "pB": 8154,
      "विषय": 8155,
      "▁ప్రస్తుత": 8156,
      "Shri": 8157,
      "▁1996": 8158,
      "▁సాధించ": 8159,
      "Mahal": 8160,
      "ाम": 8161,
      "प्रणाली": 8162,
      "स्कृतिक": 8163,
      "▁कृषि": 8164,
      "పించ": 8165,
      "lc": 8166,
      "Gond": 8167,
      "▁35": 8168,
      "independence": 8169,
      "Cyprus": 8170,
      "kC": 8171,
      "No": 8172,
      "▁Prospe": 8173,
      "▁Prospects": 8174,
      "नेट": 8175,
      "रं": 8176,
      "kameez": 8177,
      "▁parliamentary": 8178,
      "2026": 8179,
      "▁har": 8180,
      "252": 8181,
      "▁tr": 8182,
      "US": 8183,
      "7080": 8184,
      "▁nearly": 8185,
      "158": 8186,
      "▁Middle": 8187,
      "पांड": 8188,
      "reaty": 8189,
      "ervices": 8190,
      "▁cultures": 8191,
      "▁cuisine": 8192,
      "▁figures": 8193,
      "देवी": 8194,
      "sang": 8195,
      "▁झ": 8196,
      "▁elections": 8197,
      "Webarchive": 8198,
      "▁vict": 8199,
      "▁called": 8200,
      "Untouchability": 8201,
      "▁२९": 8202,
      "unknown": 8203,
      "Kaz": 8204,
      "BS": 8205,
      "▁rel": 8206,
      "▁Id": 8207,
      "Malayalam": 8208,
      "standard": 8209,
      "180": 8210,
      "कटिबंध": 8211,
      "▁group": 8212,
      "तांत्र": 8213,
      "तांत्रिक": 8214,
      "▁Nep": 8215,
      "overn": 8216,
      "jang": 8217,
      "jangan": 8218,
      "కీ": 8219,
      "▁tri": 8220,
      "▁समुद्र": 8221,
      "▁धरोहर": 8222,
      "acts": 8223,
      "gether": 8224,
      "risis": 8225,
      "Presid": 8226,
      "ష్టు": 8227,
      "एम": 8228,
      "b7": 8229,
      "AE": 8230,
      "Indira": 8231,
      "bul": 8232,
      "ramou": 8233,
      "ramouli": 8234,
      "ify": 8235,
      "▁डा": 8236,
      "var": 8237,
      "parliamentofindia": 8238,
      "crimination": 8239,
      "hau": 8240,
      "ales": 8241,
      "catalogue": 8242,
      "profile": 8243,
      "Flood": 8244,
      "▁ప్రాంతం": 8245,
      "▁During": 8246,
      "డో": 8247,
      "Penguin": 8248,
      "latt": 8249,
      "chaemen": 8250,
      "▁makes": 8251,
      "ajor": 8252,
      "politics": 8253,
      "edora": 8254,
      "मूल्य": 8255,
      "ampion": 8256,
      "sector": 8257,
      "Ter": 8258,
      "▁Present": 8259,
      "ंदर": 8260,
      "▁రెండు": 8261,
      "375": 8262,
      "▁जैन": 8263,
      "20250": 8264,
      "▁पूर्वी": 8265,
      "▁Library": 8266,
      "▁पार्ट": 8267,
      "▁వ్యాసం": 8268,
      "వ్యవస్థ": 8269,
      "బడ్డ": 8270,
      "Depend": 8271,
      "▁अभी": 8272,
      "▁संग्राम": 8273,
      "010": 8274,
      "▁global": 8275,
      "▁jur": 8276,
      "formance": 8277,
      "Marathi": 8278,
      "▁अशोक": 8279,
      "omic": 8280,
      "452": 8281,
      "oger": 8282,
      "after": 8283,
      "कान": 8284,
      "421": 8285,
      "udget": 8286,
      "▁ann": 8287,
      "sab": 8288,
      "avin": 8289,
      "▁क्रय": 8290,
      "rakash": 8291,
      "▁Social": 8292,
      "सूचित": 8293,
      "CR": 8294,
      "▁borders": 8295,
      "losop": 8296,
      "losophy": 8297,
      "▁आंदोलन": 8298,
      "277": 8299,
      "164": 8300,
      "unachal": 8301,
      "▁qu": 8302,
      "rata": 8303,
      "▁rates": 8304,
      "Coningham": 8305,
      "▁lo": 8306,
      "ల్తా": 8307,
      "ల్తాను": 8308,
      "़त": 8309,
      "शाली": 8310,
      "▁hockey": 8311,
      "▁1999": 8312,
      "टिक": 8313,
      "త్తరా": 8314,
      "▁लाख": 8315,
      "తమిళం": 8316,
      "1965": 8317,
      "र्भ": 8318,
      "11934": 8319,
      "11934238": 8320,
      "▁गति": 8321,
      "anion": 8322,
      "▁Portal": 8323,
      "▁each": 8324,
      "▁दु": 8325,
      "▁वै": 8326,
      "▁again": 8327,
      "▁Technology": 8328,
      "त्ता": 8329,
      "left": 8330,
      "జైన": 8331,
      "vanced": 8332,
      "education": 8333,
      "భర": 8334,
      "భరత": 8335,
      "akhi": 8336,
      "gar": 8337,
      "▁those": 8338,
      "rink": 8339,
      "స్కృత": 8340,
      "▁Har": 8341,
      "404": 8342,
      "Organization": 8343,
      "▁what": 8344,
      "wAAQBAJ": 8345,
      "AN": 8346,
      "▁धार्मिक": 8347,
      "ply": 8348,
      "154": 8349,
      "▁significant": 8350,
      "▁కాశ్మీరు": 8351,
      "expectancy": 8352,
      "▁अनुसंधान": 8353,
      "లమెంట": 8354,
      "▁law": 8355,
      "ba": 8356,
      "Protected": 8357,
      "▁Its": 8358,
      "▁चित्र": 8359,
      "ably": 8360,
      "▁Carnatic": 8361,
      "perCol": 8362,
      "perCollin": 8363,
      "perCollins": 8364,
      "vin": 8365,
      "309": 8366,
      "MK": 8367,
      "MKI": 8368,
      "Ira": 8369,
      "Iraq": 8370,
      "బాద్": 8371,
      "బడిన": 8372,
      "former": 8373,
      "▁prob": 8374,
      "▁मुद्र": 8375,
      "▁मुद्रा": 8376,
      "ట్రో": 8377,
      "erated": 8378,
      "abit": 8379,
      "▁Sons": 8380,
      "▁Nar": 8381,
      "▁reach": 8382,
      "▁Football": 8383,
      "२२": 8384,
      "▁Encyc": 8385,
      "cus": 8386,
      "▁पुरु": 8387,
      "▁architecture": 8388,
      "▁Mathe": 8389,
      "▁parity": 8390,
      "दर्शन": 8391,
      "rced": 8392,
      "▁63": 8393,
      "▁1971": 8394,
      "▁దా": 8395,
      "भेद": 8396,
      "▁निम्न": 8397,
      "▁१९८": 8398,
      "लिखित": 8399,
      "▁init": 8400,
      "470": 8401,
      "▁Revolution": 8402,
      "361": 8403,
      "▁test": 8404,
      "सूर": 8405,
      "378": 8406,
      "enumeration": 8407,
      "▁श्व": 8408,
      "▁श्वेत": 8409,
      "▁Sam": 8410,
      "ores": 8411,
      "▁\"[": 8412,
      "millennium": 8413,
      "తాజ": 8414,
      "తాజ్మ": 8415,
      "తాజ్మహ": 8416,
      "తాజ్మహల్": 8417,
      "नरेन्द्र": 8418,
      "▁poverty": 8419,
      "61389": 8420,
      "१९४८": 8421,
      "Keeling": 8422,
      "▁formed": 8423,
      "rupt": 8424,
      "ruptcy": 8425,
      "▁पड़ोस": 8426,
      "▁जनता": 8427,
      "includ": 8428,
      "▁Daman": 8429,
      "Curry": 8430,
      "▁vari": 8431,
      "वर्गःःArticles": 8432,
      "▁worship": 8433,
      "कीय": 8434,
      "ISSN": 8435,
      "div": 8436,
      "▁Gond": 8437,
      "bf": 8438,
      "dna": 8439,
      "dnaindia": 8440,
      "▁styles": 8441,
      "Ni": 8442,
      "ohann": 8443,
      "rof": 8444,
      "Rowland": 8445,
      "▁largely": 8446,
      "▁सः": 8447,
      "ses": 8448,
      "▁mathematic": 8449,
      "▁mathematicians": 8450,
      "ఇంగ్లీషు": 8451,
      "Asiatic": 8452,
      "Open": 8453,
      "922": 8454,
      "आईडी": 8455,
      "▁यव": 8456,
      "Tables": 8457,
      "century": 8458,
      "जॉ": 8459,
      "ाङ्ग": 8460,
      "ाङ्गम्": 8461,
      "५९": 8462,
      "▁Rao": 8463,
      "health": 8464,
      "▁thought": 8465,
      "Autonom": 8466,
      "Autonomous": 8467,
      "▁जहाँ": 8468,
      "వాదం": 8469,
      "▁समाप्त": 8470,
      "sis": 8471,
      "Congress2004": 8472,
      "Andamanese": 8473,
      "Ved": 8474,
      "समृद्ध": 8475,
      "ald": 8476,
      "fa": 8477,
      "మాన్": 8478,
      "▁female": 8479,
      "కుంట": 8480,
      "heetah": 8481,
      "▁Ser": 8482,
      "మిజోరా": 8483,
      "మిజోరాం": 8484,
      "brief": 8485,
      "Baspa": 8486,
      "▁Related": 8487,
      "▁आयुक्त": 8488,
      "Dadra": 8489,
      "▁प्रदेशः": 8490,
      "ళా": 8491,
      "si": 8492,
      "▁due": 8493,
      "Fa": 8494,
      "Fauna": 8495,
      "न्ध": 8496,
      "▁వె": 8497,
      "agran": 8498,
      "See": 8499,
      "▁126": 8500,
      "Turkman": 8501,
      "▁दर्": 8502,
      "▁मोद": 8503,
      "vestment": 8504,
      "▁అభి": 8505,
      "320": 8506,
      "देहरादून": 8507,
      "▁వివి": 8508,
      "▁వివిధ": 8509,
      "वासी": 8510,
      "memor": 8511,
      "सप्त": 8512,
      "Cabinet": 8513,
      "▁achie": 8514,
      "▁Police": 8515,
      "్రామ": 8516,
      "१९१९": 8517,
      "१९१९तमे": 8518,
      "▁enter": 8519,
      "▁desc": 8520,
      "ended": 8521,
      "षित": 8522,
      "hen": 8523,
      "कुवै": 8524,
      "कुवैत": 8525,
      "stock": 8526,
      "▁100": 8527,
      "▁शि": 8528,
      "▁exports": 8529,
      "हरलाल": 8530,
      "हरलालने": 8531,
      "हरलालनेहरु": 8532,
      "▁पत्नी": 8533,
      "▁First": 8534,
      "Varanasi": 8535,
      "లియా": 8536,
      "1975": 8537,
      "20130": 8538,
      "Biodiversity": 8539,
      "▁appear": 8540,
      "Zoroastrianism": 8541,
      "▁चित्त": 8542,
      "make": 8543,
      "anctu": 8544,
      "anctuaries": 8545,
      "169": 8546,
      "చండ": 8547,
      "చండీ": 8548,
      "Part": 8549,
      "▁वाला": 8550,
      "Gaz": 8551,
      "ette": 8552,
      "Forestry": 8553,
      "chess": 8554,
      "Sachin": 8555,
      "536": 8556,
      "▁continued": 8557,
      "ाण": 8558,
      "Fic": 8559,
      "Ficus": 8560,
      "పాండి": 8561,
      "పాండిచ్చేరి": 8562,
      "FOOTNOTEगृहमन्त्रालयः२०११": 8563,
      "Ramsar": 8564,
      "ute": 8565,
      "జనవరి": 8566,
      "सिल": 8567,
      "00254": 8568,
      "Insol": 8569,
      "Insolven": 8570,
      "Insolvency": 8571,
      "ligiosa": 8572,
      "इराक़": 8573,
      "महात्": 8574,
      "महात्मा": 8575,
      "▁net": 8576,
      "uni": 8577,
      "रच": 8578,
      "oundation": 8579,
      "▁औसत": 8580,
      "FOOTNOTEKumar": 8581,
      "▁Her": 8582,
      "itage": 8583,
      "▁features": 8584,
      "▁भूगोल": 8585,
      "Encyclopædia": 8586,
      "1974": 8587,
      "167": 8588,
      "▁Early": 8589,
      "CITEREFRowland": 8590,
      "1649": 8591,
      "wildlife": 8592,
      "From": 8593,
      "गिनी": 8594,
      "2010116": 8595,
      "antra": 8596,
      "▁com": 8597,
      "▁Devi": 8598,
      "▁अब": 8599,
      "atory": 8600,
      "Tisha": 8601,
      "aken": 8602,
      "terior": 8603,
      "organisation": 8604,
      "▁अष्टा": 8605,
      "Austro": 8606,
      "मित्व": 8607,
      "364": 8608,
      "030": 8609,
      "▁विभाजन": 8610,
      "अल्पा": 8611,
      "index1": 8612,
      "ठार": 8613,
      "नई": 8614,
      "achru": 8615,
      "tool": 8616,
      "toolf": 8617,
      "toolforge": 8618,
      "▁Urban": 8619,
      "Project": 8620,
      "▁sex": 8621,
      "▁మాత్ర": 8622,
      "▁Music": 8623,
      "वाली": 8624,
      "నది": 8625,
      "▁लाञ्छ": 8626,
      "హర్యా": 8627,
      "హర్యానా": 8628,
      "▁Cor": 8629,
      "556": 8630,
      "5562": 8631,
      "कण्": 8632,
      "कण्ठ": 8633,
      "Mathura": 8634,
      "chus": 8635,
      "▁Army": 8636,
      "▁1500": 8637,
      "▁ఒకటి": 8638,
      "▁Concise": 8639,
      "सेण्": 8640,
      "सेण्ट": 8641,
      "सेण्टथिय": 8642,
      "सेण्टथियोस": 8643,
      "सेण्टथियोसफिक": 8644,
      "सेण्टथियोसफिकल": 8645,
      "టాక్": 8646,
      "रेखा": 8647,
      "Gateway": 8648,
      "Whe": 8649,
      "UK": 8650,
      "▁Olympics": 8651,
      "गुट": 8652,
      "దినాలు": 8653,
      "▁1993": 8654,
      "anthem": 8655,
      "ushan": 8656,
      "weo": 8657,
      "sports": 8658,
      "▁సంఘ": 8659,
      "▁mon": 8660,
      "▁Chi": 8661,
      "नागरी": 8662,
      "▁నగరాల": 8663,
      "▁written": 8664,
      "▁शास्त्र": 8665,
      "Mau": 8666,
      "Mauriti": 8667,
      "Mauritius": 8668,
      "ర్చు": 8669,
      "ీసు": 8670,
      "Maith": 8671,
      "Maithili": 8672,
      "Christmas": 8673,
      "▁eth": 8674,
      "William": 8675,
      "425": 8676,
      "▁Financial": 8677,
      "ेशन्स": 8678,
      "▁Sim": 8679,
      "Azer": 8680,
      "Azerb": 8681,
      "Azerbai": 8682,
      "Azerbaijan": 8683,
      "agwat": 8684,
      "Duff": 8685,
      "▁turn": 8686,
      "गणराज्यम्": 8687,
      "ittee": 8688,
      "▁विश": 8689,
      "▁विशाल": 8690,
      "vadas": 8691,
      "▁Christ": 8692,
      "264": 8693,
      "▁Engineering": 8694,
      "रब्ध": 8695,
      "Phy": 8696,
      "Phyg": 8697,
      "Phygital": 8698,
      "▁बनाने": 8699,
      "▁పట్టణాల": 8700,
      "amble": 8701,
      "▁sign": 8702,
      "▁मिला": 8703,
      "aritime": 8704,
      "Flora": 8705,
      "parameters": 8706,
      "sha": 8707,
      "Nat": 8708,
      "दुर्ग": 8709,
      "Four": 8710,
      "CITEREFSharma": 8711,
      "efficient": 8712,
      "शुः": 8713,
      "▁nat": 8714,
      "▁बिड": 8715,
      "Crested": 8716,
      "hem": 8717,
      "▁అయి": 8718,
      "न्यायाधीशः": 8719,
      "Syria": 8720,
      "▁sculpture": 8721,
      "200709": 8722,
      "उड़ीसा": 8723,
      "UTC": 8724,
      "యె": 8725,
      "PCA": 8726,
      "▁छात्र": 8727,
      "piens": 8728,
      "▁linguistic": 8729,
      "Tungabhadra": 8730,
      "hri": 8731,
      "Mc": 8732,
      "एसएन": 8733,
      "▁కాంగ్రెసు": 8734,
      "Missile": 8735,
      "▁transmitt": 8736,
      "▁transmitted": 8737,
      "ste": 8738,
      "▁१६": 8739,
      "256": 8740,
      "290": 8741,
      "▁संघर्ष": 8742,
      "Neuborne": 8743,
      "UNHD": 8744,
      "UNHDR": 8745,
      "▁consist": 8746,
      "६०": 8747,
      "▁79": 8748,
      "ampions": 8749,
      "Nanda": 8750,
      "▁indigenous": 8751,
      "lingual": 8752,
      "ours": 8753,
      "▁Sri": 8754,
      "२७": 8755,
      "लुगु": 8756,
      "Census2011": 8757,
      "Census2011religion": 8758,
      "वर्त": 8759,
      "dm": 8760,
      "dmoz": 8761,
      "▁pollution": 8762,
      "Armen": 8763,
      "Armenia": 8764,
      "వై": 8765,
      "▁ढ": 8766,
      "▁చిత్ర": 8767,
      "Mathematics": 8768,
      "तमी": 8769,
      "▁Justice": 8770,
      "eddom": 8771,
      "eddomii": 8772,
      "▁lay": 8773,
      "▁fun": 8774,
      "▁Arabia": 8775,
      "count": 8776,
      "▁पार्थ": 8777,
      "milk": 8778,
      "agement": 8779,
      "-:": 8780,
      "▁Madhya": 8781,
      "ष्पम्": 8782,
      "▁ब्यूरो": 8783,
      "ज़ी": 8784,
      "विकिपी": 8785,
      "विकिपीडिया": 8786,
      "विकिपीडियाः": 8787,
      "विकिपीडियाःL": 8788,
      "विकिपीडियाःLink": 8789,
      "ह्नम्": 8790,
      "సినిమా": 8791,
      "యక": 8792,
      "aika": 8793,
      "anatyam": 8794,
      "सिस": 8795,
      "बहरी": 8796,
      "बहरीन": 8797,
      "मेन": 8798,
      "▁lim": 8799,
      "Arabian": 8800,
      "Sabha": 8801,
      "లోయ": 8802,
      "न्यू": 8803,
      "वर्तन": 8804,
      "Palghat": 8805,
      "DDW": 8806,
      "मैक": 8807,
      "FOOTNOTEStein1998119": 8808,
      "ाध्या": 8809,
      "ाध्याय": 8810,
      "▁ఉంట": 8811,
      "▁Thar": 8812,
      "hindire": 8813,
      "hindirelease": 8814,
      "476": 8815,
      "FOOTNOTEMichell": 8816,
      "▁wars": 8817,
      "िस्ट": 8818,
      "Chang": 8819,
      "parity": 8820,
      "ich": 8821,
      "373": 8822,
      "iscovery": 8823,
      "▁వారసత్వ": 8824,
      "tempe": 8825,
      "tainment": 8826,
      "चं": 8827,
      "▁इस्लाम": 8828,
      "uri": 8829,
      "▁sister": 8830,
      "upa": 8831,
      "प्रौद्योगिक": 8832,
      "Directorate": 8833,
      "▁అయిన": 8834,
      "Out": 8835,
      "amison": 8836,
      "Akroti": 8837,
      "Akrotiri": 8838,
      "घाट": 8839,
      "क्षि": 8840,
      "▁नील": 8841,
      "296": 8842,
      "vens": 8843,
      "venson": 8844,
      "aite": 8845,
      "Thames": 8846,
      "enk": 8847,
      "enkatar": 8848,
      "enkataraman": 8849,
      "ruit": 8850,
      "ంకే": 8851,
      "ంకేతిక": 8852,
      "Nagaland": 8853,
      "▁वीं": 8854,
      "▁Factbook": 8855,
      "Coinage": 8856,
      "OLA": 8857,
      "▁cooking": 8858,
      "कविः": 8859,
      "dogamy": 8860,
      "Wiley": 8861,
      "▁रोमा": 8862,
      "▁ski": 8863,
      "statements": 8864,
      "nations": 8865,
      "▁ప్రజా": 8866,
      "▁५०००": 8867,
      "▁५०००वर्ष": 8868,
      "▁५०००वर्षे": 8869,
      "▁५०००वर्षेभ्य": 8870,
      "▁५०००वर्षेभ्यः": 8871,
      "काइ": 8872,
      "वास": 8873,
      "360": 8874,
      "▁१४": 8875,
      "ఇండోనే": 8876,
      "viaf": 8877,
      "339": 8878,
      "చెన్న": 8879,
      "చెన్నై": 8880,
      "उज्": 8881,
      "उज्जैन": 8882,
      "arkar": 8883,
      "Help": 8884,
      "ensorship": 8885,
      "mana": 8886,
      "atel": 8887,
      "Greater": 8888,
      "मोर": 8889,
      "700": 8890,
      "वीर": 8891,
      "Kadavoor": 8892,
      "▁logo": 8893,
      "ంగో": 8894,
      "दशहरा": 8895,
      "▁Among": 8896,
      "Engineering": 8897,
      "आर्य": 8898,
      "िरः": 8899,
      "FOOTNOTEMolnar": 8900,
      "Qut": 8901,
      "Qutb": 8902,
      "Infos": 8903,
      "Infosys": 8904,
      "InfosysH": 8905,
      "InfosysHQ": 8906,
      "InfosysHQFront": 8907,
      "InfosysHQFrontView": 8908,
      "Di": 8909,
      "మరాఠ": 8910,
      "research": 8911,
      "FOOTNOTEसर्वदेशीयमुद्रानिधिः": 8912,
      "jana": 8913,
      "లడ": 8914,
      "▁Summer": 8915,
      "2008286": 8916,
      "विन्": 8917,
      "विन्ध्य": 8918,
      "249": 8919,
      "कालः": 8920,
      "▁Fisher": 8921,
      "పెద్ద": 8922,
      "धौ": 8923,
      "नवरा": 8924,
      "नवरात्र": 8925,
      "▁अमीरात": 8926,
      "Mauryan": 8927,
      "changes": 8928,
      "XL": 8929,
      "XLS": 8930,
      "ल्2": 8931,
      "apons": 8932,
      "दस्": 8933,
      "53203": 8934,
      "▁रि": 8935,
      "327": 8936,
      "▁टे": 8937,
      "लीप": 8938,
      "లం": 8939,
      "Scheduled": 8940,
      "335": 8941,
      "▁मदन": 8942,
      "▁२०२४": 8943,
      "स्तिक": 8944,
      "▁Springer": 8945,
      "ారస్వ": 8946,
      "ారస్వత": 8947,
      "▁समर्थ": 8948,
      "▁समर्थन": 8949,
      "Magen": 8950,
      "ijing": 8951,
      "folk": 8952,
      "ाचार्यः": 8953,
      "Palgrave": 8954,
      "వెను": 8955,
      "▁विस्तीर्ण": 8956,
      "446": 8957,
      "మలయాళ": 8958,
      "ियः": 8959,
      "▁गान": 8960,
      "GQ": 8961,
      "Cont": 8962,
      "constitutional": 8963,
      "Bureau": 8964,
      "दारी": 8965,
      "Assoc": 8966,
      "Associated": 8967,
      "▁1990": 8968,
      "కేర": 8969,
      "కేరళ": 8970,
      "▁आदि": 8971,
      "మెరి": 8972,
      "మెరికా": 8973,
      "పాండ": 8974,
      "పాండ్య": 8975,
      "भावः": 8976,
      "तिप": 8977,
      "विष": 8978,
      "नमस्": 8979,
      "ग्ल": 8980,
      "ग्लान": 8981,
      "पल्ली": 8982,
      "▁चल": 8983,
      "पर्य": 8984,
      "▁60": 8985,
      "थम्": 8986,
      "▁workforce": 8987,
      "▁अनन्य": 8988,
      "ोटे": 8989,
      "गारो": 8990,
      "गायन": 8991,
      "4051": 8992,
      "▁changes": 8993,
      "389": 8994,
      "ched": 8995,
      "జనపద": 8996,
      "జనపదాల": 8997,
      "▁स्थापना": 8998,
      "▁१९६": 8999,
      "582": 9000,
      "thew": 9001,
      "डोगर": 9002,
      "rew": 9003,
      "కథ": 9004,
      "▁Allchin": 9005,
      "इजराय": 9006,
      "इजरायल": 9007,
      "Archae": 9008,
      "▁Bihar": 9009,
      "Regions": 9010,
      "gana": 9011,
      "▁मण्डल": 9012,
      "होली": 9013,
      "hood": 9014,
      "▁अला": 9015,
      "▁अलावा": 9016,
      "rimary": 9017,
      "मात": 9018,
      "सांख्य": 9019,
      "सांख्यिकी": 9020,
      "▁मयूर": 9021,
      "माता": 9022,
      "Up": 9023,
      "Upper": 9024,
      "ying": 9025,
      "onar": 9026,
      "▁Regional": 9027,
      "Bahrain": 9028,
      "విజ": 9029,
      "నగర": 9030,
      "449": 9031,
      "Mex": 9032,
      "Mexico": 9033,
      "वादः": 9034,
      "▁border": 9035,
      "Far": 9036,
      "omotive": 9037,
      "alifor": 9038,
      "alifornia": 9039,
      "abaddi": 9040,
      "▁point": 9041,
      "EB": 9042,
      "EBch": 9043,
      "EBcheck": 9044,
      "EBchecked": 9045,
      "▁రాష్ట్రపతి": 9046,
      "Kha": 9047,
      "पत्य": 9048,
      "assam": 9049,
      "బో": 9050,
      "193": 9051,
      "linki": 9052,
      "linkid": 9053,
      "ऋग्व": 9054,
      "ऋग्वेद": 9055,
      "quest": 9056,
      "astri": 9057,
      "Nepali": 9058,
      "▁Australia": 9059,
      "Murmu": 9060,
      "Oneworld": 9061,
      "▁मानचित्र": 9062,
      "शाखा": 9063,
      "భిన్న": 9064,
      "मैदान": 9065,
      "र्तु": 9066,
      "च्चे": 9067,
      "▁सशस्त्र": 9068,
      "461": 9069,
      "▁disease": 9070,
      "▁अत्य": 9071,
      "సహాయ": 9072,
      "సహాయంః": 9073,
      "Gum": 9074,
      "Gumpa": 9075,
      "पुण्य": 9076,
      "Banking": 9077,
      "hl": 9078,
      "▁refer": 9079,
      "▁हवेली": 9080,
      "▁br": 9081,
      "ederation": 9082,
      "▁version": 9083,
      "EM": 9084,
      "▁div": 9085,
      "rateg": 9086,
      "rategic": 9087,
      "हम्": 9088,
      "lobe": 9089,
      "20833": 9090,
      "IPA": 9091,
      "95342": 9092,
      "త్రిపు": 9093,
      "త్రిపుర": 9094,
      "Location": 9095,
      "520": 9096,
      "edne": 9097,
      "ednekar": 9098,
      "अमरी": 9099,
      "अमरीका": 9100,
      "▁rivers": 9101,
      "▁दम": 9102,
      "B2": 9103,
      "कृत": 9104,
      "▁Bh": 9105,
      "▁आह": 9106,
      "▁आह्व": 9107,
      "▁आह्वान": 9108,
      "Homo": 9109,
      "▁There": 9110,
      "योजित": 9111,
      "स्कर": 9112,
      "SI": 9113,
      "tripura": 9114,
      "रामा": 9115,
      "रामाय": 9116,
      "रामायण": 9117,
      "निर्धन": 9118,
      "241": 9119,
      "सञ्चिकाःEmblem": 9120,
      "सहायता": 9121,
      "arav": 9122,
      "aravalli": 9123,
      "Ramnami": 9124,
      "cept": 9125,
      "▁Division": 9126,
      "▁పాకిస్తాన్": 9127,
      "268": 9128,
      "▁less": 9129,
      "साम्य": 9130,
      "▁किला": 9131,
      "631": 9132,
      "▁No": 9133,
      "▁et": 9134,
      "వరాల": 9135,
      "▁garment": 9136,
      "395": 9137,
      "▁शास": 9138,
      "1951": 9139,
      "वीरा": 9140,
      "▁ष": 9141,
      "జార్ఖండ్": 9142,
      "kian": 9143,
      "Dyson2018": 9144,
      "441": 9145,
      "हॉकी": 9146,
      "ైస్త": 9147,
      "serv": 9148,
      "भूता": 9149,
      "▁दृष्टि": 9150,
      "Turkmen": 9151,
      "Turkmenistan": 9152,
      "▁పండు": 9153,
      "apital": 9154,
      "హించ": 9155,
      "डालर": 9156,
      "CITEREFP": 9157,
      "लोर": 9158,
      "कथा": 9159,
      "ported": 9160,
      "divisions": 9161,
      "गया": 9162,
      "Rem": 9163,
      "Remitt": 9164,
      "▁ललित": 9165,
      "Ass": 9166,
      "FOOTNOTEClémentin": 9167,
      "ेट": 9168,
      "COVID": 9169,
      "▁साक्षर": 9170,
      "cid": 9171,
      "ाण्डी": 9172,
      "stat": 9173,
      "स्थापित": 9174,
      "kma": 9175,
      "kmaids": 9176,
      "JSTO": 9177,
      "JSTOR": 9178,
      "अजं": 9179,
      "वियतनाम": 9180,
      "▁సౌక": 9181,
      "▁సౌకర్య": 9182,
      "▁माना": 9183,
      "మేఘాల": 9184,
      "శు": 9185,
      "Ber": 9186,
      "डीओ": 9187,
      "Mallalli": 9188,
      "▁tril": 9189,
      "▁trillion": 9190,
      "Brahmag": 9191,
      "Brahmagupta": 9192,
      "చో": 9193,
      "చోళ": 9194,
      "▁करते": 9195,
      "▁important": 9196,
      "धाकृष्ण": 9197,
      "dead": 9198,
      "▁Zealand": 9199,
      "rub": 9200,
      "▁अन्ति": 9201,
      "▁अन्तिम": 9202,
      "▁Rights": 9203,
      "డమ్": 9204,
      "shall": 9205,
      "క్స్": 9206,
      "▁Kathak": 9207,
      "धोला": 9208,
      "Mukh": 9209,
      "Mukher": 9210,
      "Mukherj": 9211,
      "Mukherjee": 9212,
      "5183": 9213,
      "▁సరిహద్దు": 9214,
      "85168": 9215,
      "जर": 9216,
      "▁विभिन्न": 9217,
      "मुखा": 9218,
      "Close": 9219,
      "▁Education": 9220,
      "▁institution": 9221,
      "cirr": 9222,
      "cirrh": 9223,
      "cirrhatus": 9224,
      "4593": 9225,
      "45932": 9226,
      "ప్రపంచము": 9227,
      "▁११": 9228,
      "▁१९४": 9229,
      "समयः": 9230,
      "▁era": 9231,
      "आधिकारिक": 9232,
      "कैम्": 9233,
      "कैम्ब्रि": 9234,
      "कैम्ब्रिज": 9235,
      "Kannada": 9236,
      "Bay": 9237,
      "ख्र": 9238,
      "ख्रि": 9239,
      "grawal": 9240,
      "esis": 9241,
      "Ital": 9242,
      "Italy": 9243,
      "▁TLD": 9244,
      "మొగ": 9245,
      "జిల్": 9246,
      "शै": 9247,
      "జీరియా": 9248,
      "FOOTNOTEAliAitchison": 9249,
      "▁violence": 9250,
      "▁could": 9251,
      "▁118": 9252,
      "tionary": 9253,
      "▁Have": 9254,
      "368": 9255,
      "phan": 9256,
      "मानस": 9257,
      "orgia": 9258,
      "▁abs": 9259,
      "httpsbooks": 9260,
      "httpsbooksgoogle": 9261,
      "httpsbooksgooglecom": 9262,
      "httpsbooksgooglecombooks": 9263,
      "pgPA": 9264,
      "WP": 9265,
      "वर्णः": 9266,
      "Havelock": 9267,
      "ख्यात": 9268,
      "न्तर": 9269,
      "▁వంట": 9270,
      "lerner": 9271,
      "▁दश": 9272,
      "arwal": 9273,
      "▁script": 9274,
      "వర్గంఃArticles": 9275,
      "▁behind": 9276,
      "ौतम": 9277,
      "SAGE": 9278,
      "जेंस": 9279,
      "पाने": 9280,
      "पानेर": 9281,
      "Lower": 9282,
      "▁मुक्त": 9283,
      "Sangla": 9284,
      "936": 9285,
      "401": 9286,
      "▁गङ्गा": 9287,
      "१९११": 9288,
      "१९११तमे": 9289,
      "inion": 9290,
      "जनपद": 9291,
      "▁डोल्फ": 9292,
      "▁రైల్వే": 9293,
      "Shiva": 9294,
      "▁प्रया": 9295,
      "▁प्रयास": 9296,
      "▁contributes": 9297,
      "▁సూచ": 9298,
      "▁cook": 9299,
      "▁Barbara": 9300,
      "mj": 9301,
      "isni": 9302,
      "▁हिस्": 9303,
      "▁ग्रन्": 9304,
      "▁व्यक्ति": 9305,
      "509": 9306,
      "▁limi": 9307,
      "▁limited": 9308,
      "vector": 9309,
      "▁Ambedkar": 9310,
      "346": 9311,
      "रक्षित": 9312,
      "Attacus": 9313,
      "1936": 9314,
      "ప్పటిక": 9315,
      "ankan": 9316,
      "▁जलो": 9317,
      "▁जलोढ": 9318,
      "▁examp": 9319,
      "वाड़े": 9320,
      "విద్య": 9321,
      "तद्": 9322,
      "Fishing": 9323,
      "भागीर": 9324,
      "भागीरथी": 9325,
      "ting": 9326,
      "नत्व": 9327,
      "ీర్ణం": 9328,
      "▁द्वितीय": 9329,
      "ानगर": 9330,
      "▁पर्व": 9331,
      "इस": 9332,
      "▁దినోత్సవం": 9333,
      "uf": 9334,
      "Cos": 9335,
      "डाय": 9336,
      "पीप": 9337,
      "पीपीपी": 9338,
      "▁ఖ": 9339,
      "Gujarati": 9340,
      "क्ट": 9341,
      "▁civil": 9342,
      "शय": 9343,
      "षभ": 9344,
      "▁रे": 9345,
      "रावली": 9346,
      "▁जिन्हे": 9347,
      "Bel": 9348,
      "5196": 9349,
      "Sanchi2": 9350,
      "मय": 9351,
      "mittances": 9352,
      "▁बर": 9353,
      "orti": 9354,
      "ortium": 9355,
      "▁प्रभाव": 9356,
      "Germany": 9357,
      "asses": 9358,
      "▁నడి": 9359,
      "atin": 9360,
      "376": 9361,
      "▁धन": 9362,
      "Kangra": 9363,
      "8122": 9364,
      "Gondwana": 9365,
      "wC": 9366,
      "సంక": 9367,
      "although": 9368,
      "▁external": 9369,
      "▁hereditary": 9370,
      "Jim": 9371,
      "Cropped": 9372,
      "ori": 9373,
      "▁Sharma": 9374,
      "▁Alan": 9375,
      "tp": 9376,
      "366": 9377,
      "▁तीन": 9378,
      "▁सहाय": 9379,
      "▁सहायक": 9380,
      "ends": 9381,
      "▁Flood": 9382,
      "ictor": 9383,
      "FOOTNOTEOrganisation": 9384,
      "istrib": 9385,
      "qy": 9386,
      "Tajiki": 9387,
      "Tajikistan": 9388,
      "▁Protection": 9389,
      "Uz": 9390,
      "Uzbe": 9391,
      "Uzbeki": 9392,
      "Uzbekistan": 9393,
      "निः": 9394,
      "Ud": 9395,
      "Udai": 9396,
      "Udaipur": 9397,
      "middle": 9398,
      "17feb": 9399,
      "17feb14": 9400,
      "उदयपुर": 9401,
      "▁Roorkee": 9402,
      "▁विषय": 9403,
      "▁Standard": 9404,
      "पावा": 9405,
      "म्यां": 9406,
      "म्यांमार": 9407,
      "Qatar": 9408,
      "violent": 9409,
      "story": 9410,
      "iry": 9411,
      "iryani": 9412,
      "णिका": 9413,
      "यहू": 9414,
      "यहूदी": 9415,
      "मान्": 9416,
      "तस्": 9417,
      "▁reforms": 9418,
      "▁टा": 9419,
      "▁Industry": 9420,
      "२१": 9421,
      "వేలీ": 9422,
      "gress": 9423,
      "▁Kumar": 9424,
      "प्रथम": 9425,
      "తెల": 9426,
      "తెలంగా": 9427,
      "తెలంగాణ": 9428,
      "▁జన": 9429,
      "Ac": 9430,
      "Post": 9431,
      "రె": 9432,
      "▁moist": 9433,
      "Assamese": 9434,
      "▁भाजपा": 9435,
      "Protection": 9436,
      "▁Spe": 9437,
      "▁because": 9438,
      "▁note": 9439,
      "तमः": 9440,
      "प्रजा": 9441,
      "Dhyan": 9442,
      "Ti": 9443,
      "▁shaw": 9444,
      "▁shawl": 9445,
      "Kazakh": 9446,
      "Kazakhstan": 9447,
      "imha": 9448,
      "हाई": 9449,
      "ेऽपि": 9450,
      "▁constitu": 9451,
      "▁Identi": 9452,
      "geb": 9453,
      "gebra": 9454,
      "ingent": 9455,
      "recent": 9456,
      "▁Finance": 9457,
      "Satpura": 9458,
      "Salim": 9459,
      "టర్": 9460,
      "▁पी": 9461,
      "verage": 9462,
      "amed": 9463,
      "▁अध्य": 9464,
      "Chinnathurai": 9465,
      "MDDS": 9466,
      "Indiana": 9467,
      "▁Books": 9468,
      "బ్రిటిషు": 9469,
      "▁extin": 9470,
      "అశో": 9471,
      "అశోక": 9472,
      "Balakrishnan": 9473,
      "▁Can": 9474,
      "బార్": 9475,
      "అండ": 9476,
      "ఆగష్టు": 9477,
      "▁300": 9478,
      "पीएम": 9479,
      "Harmand": 9480,
      "Harmandir": 9481,
      "फ़्": 9482,
      "▁उन्ह": 9483,
      "▁Cont": 9484,
      "కోవ": 9485,
      "existence": 9486,
      "tside": 9487,
      "Chandramouli": 9488,
      "laciers": 9489,
      "▁तन्": 9490,
      "ंदिरा": 9491,
      "20034": 9492,
      "मंग": 9493,
      "मंगोल": 9494,
      "▁parks": 9495,
      "▁por": 9496,
      "सूचक": 9497,
      "అస్సాం": 9498,
      "तमेन": 9499,
      "నాథ": 9500,
      "▁remain": 9501,
      "Kuwait": 9502,
      "issions": 9503,
      "గుప్": 9504,
      "గుప్త": 9505,
      "▁ऐक": 9506,
      "संहि": 9507,
      "संहिता": 9508,
      "racott": 9509,
      "racotta": 9510,
      "5059": 9511,
      "मेण्": 9512,
      "Barb": 9513,
      "Sindoor": 9514,
      "▁సామా": 9515,
      "hal": 9516,
      "orm": 9517,
      "▁fact": 9518,
      "Achaemen": 9519,
      "Achaemenid": 9520,
      "▁Group": 9521,
      "यन्": 9522,
      "भृत": 9523,
      "377": 9524,
      "Major": 9525,
      "ప్రిల్": 9526,
      "▁3166": 9527,
      "ణే": 9528,
      "▁ఉత్తర": 9529,
      "▁Puran": 9530,
      "▁तृतीय": 9531,
      "Sol": 9532,
      "lling": 9533,
      "न्यायालय": 9534,
      "अहमदा": 9535,
      "अहमदाबाद": 9536,
      "रक्षक": 9537,
      "ṇa": 9538,
      "head": 9539,
      "भुव": 9540,
      "भुवने": 9541,
      "भुवनेश्वर": 9542,
      "CollinghamCollingham": 9543,
      "वस्त्र": 9544,
      "అరే": 9545,
      "అరేబి": 9546,
      "అరేబియా": 9547,
      "जालम्": 9548,
      "utin": 9549,
      "शृ": 9550,
      "शृङ्ग": 9551,
      "▁bro": 9552,
      "stana": 9553,
      "्रीक": 9554,
      "Com": 9555,
      "nised": 9556,
      "pilgrim": 9557,
      "Nilgiris": 9558,
      "▁playing": 9559,
      "▁प्रशासन": 9560,
      "Santali": 9561,
      "▁रक्त": 9562,
      "stud": 9563,
      "urden": 9564,
      "शास्त्रम्": 9565,
      "govern": 9566,
      "Northern": 9567,
      "టై": 9568,
      "ओस": 9569,
      "్యాయ": 9570,
      "▁articles": 9571,
      "Dependent": 9572,
      "▁మొదల": 9573,
      "▁देखा": 9574,
      "చ్": 9575,
      "Madrasah": 9576,
      "▁Sultanate": 9577,
      "isd": 9578,
      "isdiction": 9579,
      "ery": 9580,
      "काः": 9581,
      "Coral": 9582,
      "▁मुर": 9583,
      "फे": 9584,
      "Performance": 9585,
      "लिंग": 9586,
      "mediately": 9587,
      "▁Des": 9588,
      "Telugu": 9589,
      "Pear": 9590,
      "Pearson": 9591,
      "207": 9592,
      "స్వాతంత్ర్య": 9593,
      "367": 9594,
      "▁until": 9595,
      "233": 9596,
      "मृत": 9597,
      "atiya": 9598,
      "▁created": 9599,
      "Brih": 9600,
      "Brihad": 9601,
      "Brihadis": 9602,
      "Brihadisvara": 9603,
      "ాన్ని": 9604,
      "త్తీస్": 9605,
      "960110": 9606,
      "पुदु": 9607,
      "Sarna": 9608,
      "▁१९७": 9609,
      "ambia": 9610,
      "నం": 9611,
      "इप्र": 9612,
      "इप्रस": 9613,
      "ठन": 9614,
      "Southwest": 9615,
      "▁गी": 9616,
      "▁गीता": 9617,
      "▁geographical": 9618,
      "dd": 9619,
      "YS": 9620,
      "▁अम": 9621,
      "भोपाल": 9622,
      "gad": 9623,
      "కోల్": 9624,
      "▁राम": 9625,
      "usli": 9626,
      "uslims": 9627,
      "Arunachal": 9628,
      "Colonial": 9629,
      "▁car": 9630,
      "NGD": 9631,
      "NGDPD": 9632,
      "ंटर": 9633,
      "▁dishes": 9634,
      "फि": 9635,
      "▁influenced": 9636,
      "▁परीक्षण": 9637,
      "LG": 9638,
      "▁॥": 9639,
      "stre": 9640,
      "stream": 9641,
      "BT": 9642,
      "▁mathematical": 9643,
      "कंचन": 9644,
      "▁కే": 9645,
      "ConinghamY": 9646,
      "ConinghamYoung": 9647,
      "ConinghamYoung2015": 9648,
      "enew": 9649,
      "क़त": 9650,
      "\")..": 9651,
      "▁रागः": 9652,
      "Sahib": 9653,
      "नं": 9654,
      "▁Ancient": 9655,
      "2016122": 9656,
      "Hassan": 9657,
      "laration": 9658,
      "బర్": 9659,
      "अंट": 9660,
      "अंटार्क": 9661,
      "अंटार्कटिक": 9662,
      "Kaver": 9663,
      "Kaveri": 9664,
      "tarc": 9665,
      "tarctic": 9666,
      "▁lies": 9667,
      "▁రూ": 9668,
      "879": 9669,
      "879357": 9670,
      "009": 9671,
      "▁Political": 9672,
      "मिलन": 9673,
      "Mongolia": 9674,
      "Ky": 9675,
      "Kyrg": 9676,
      "Kyrgy": 9677,
      "Kyrgyz": 9678,
      "Kyrgyzstan": 9679,
      "▁संयुक्त": 9680,
      "beration": 9681,
      "4985": 9682,
      "498576": 9683,
      "Ro": 9684,
      "Atlas": 9685,
      "▁Diu": 9686,
      "भव": 9687,
      "िनः": 9688,
      "सञ्चिकाःIndia": 9689,
      "463": 9690,
      "▁ఐ": 9691,
      "చద": 9692,
      "చదర": 9693,
      "▁Universal": 9694,
      "▁Assam": 9695,
      "बलि": 9696,
      "▁Companion": 9697,
      "▁gas": 9698,
      "चीनी": 9699,
      "ख़": 9700,
      "▁Kerala": 9701,
      "FOOTNOTELibrary": 9702,
      "▁हर": 9703,
      "▁जाना": 9704,
      "▁संस्था": 9705,
      "hekel": 9706,
      "hekelia": 9707,
      "isaka": 9708,
      "▁reserves": 9709,
      "▁ఇండియా": 9710,
      "युत": 9711,
      "वैद्य": 9712,
      "वैद्यनाथ": 9713,
      "बंग": 9714,
      ").[[": 9715,
      "frican": 9716,
      "య్యూ": 9717,
      "clus": 9718,
      "సిక్కి": 9719,
      "సిక్కిం": 9720,
      "जीवन": 9721,
      "ayak": 9722,
      "mathematics": 9723,
      "▁१७": 9724,
      "సంస్కృత": 9725,
      "2542": 9726,
      "appa": 9727,
      "ఖో": 9728,
      "పల్ల": 9729,
      "pots": 9730,
      "पाषाण": 9731,
      "ivaper": 9732,
      "ivaperuman": 9733,
      "▁originally": 9734,
      "Smith": 9735,
      "Shravanabelagola": 9736,
      "aning": 9737,
      "जं": 9738,
      "जंघ": 9739,
      "जंघा": 9740,
      "स्र": 9741,
[...]
